#version: 0.2
Ġ ì
ì Ŀ
Ġ t
Ġ ë
Ġ a
h e
i n
í ķ
Ġ ê
o n
Ġt he
r e
ë ĭ
ì Ĺ
Ġ s
a t
e r
Ġ o
Ġ c
Ġ í
e n
ëĭ ¤
ë Ĭ
Ġ p
ìĿ ´
ëĬ Ķ
i s
e d
o r
i t
Ġ w
ê ³
a n
ìĹ Ĳ
in g
Ġa n
Ġ in
Ġ f
ì ł
Ġo f
ì Ħ
a l
Ġ b
i on
ìĿ ĺ
íķ ĺ
e s
Ġ m
ìĿ Ħ
ê °
Ġì ŀ
ë ¡
Ġ d
i c
Ġt o
r o
Ġì ł
Ġan d
a r
ì ŀ
ë ¥
íķ ľ
ì §
ë¡ ľ
¸ °
a s
Ġì Ŀ
en t
c t
l e
o u
ì ľ
ì ļ
ì ĭ
Ī ëĭ¤
ë¥ ¼
Ġ re
Ġë °
Ī ĺ
ê³ ł
ê° Ģ
Ġê °
ë ı
Ġ e
Ġt h
ìĿ Ģ
ê ¸°
ì§ Ģ
Ġ h
Ĥ ¬
ìĦ ľ
Ġ is
ë ¦
Ġê ²
at ion
ë Ĳ
o m
ì ķ
Ġ l
s t
v e
ë ĵ
ê ²
Ġb e
ĥ ģ
ì ĸ
ì Ĭ
Ġì Īĺ
i l
íķ ´
ìľ ¼
ëı Ħ
Į Ģ
i d
ë ¶
c e
Ġ n
Ġ 1
ê µ
Ġì ĭ
Ġì ķ
e t
ë ł
ë¦ ¬
ĠìĿ ´
l y
ë Ĥ
Ġì Ĺ
Ġf or
u r
ìľ¼ ë¡ľ
ìĸ ´
Ġ g
i m
u t
ë ©
Ġc on
u s
a y
ë ³
o l
T he
u n
Ġì §
ìĭ ľ
Ġp ro
Ġì Ħ
ìĿ ¸
ìŀ Ĳ
Ġ on
ë §
ê³ ¼
c h
Ġê ³
Ġë ³
Ġì ľ
i g
Ġs t
Ġìł ľ
Ġth at
ìĦ ±
Ġìŀ Ī
í ĸ
ìł ķ
ìĹĲ ìĦľ
ìł ģ
ë °
ë¶ Ģ
Ġë ĭ
ë ¬
Ġë §
Ġ 2
í Ļ
íķĺ ëĬĶ
i r
ìĬ ¤
o t
m ent
ì Ľ
ì ¹
Ġë ¶
u l
ì ²
Ġë Ĥ
Ġì Ĥ¬
ì Ĥ¬
ë Ŀ
o w
Ġìŀ Īëĭ¤
a m
ëĭ Īëĭ¤
Ġê µ
Ġë ĮĢ
Ġa s
ì ĺ
£ ¼
Ġc om
ëĵ ¤
ìļ ©
ì Ĩ
it h
ì ĥģ
· ¸
Ġì ĺ
v er
í ĺ
íķ ł
ëĿ ¼
Ġd e
ì Ļ
Ġw ith
Ġ y
Ġ it
o d
Ġê ¸°
Ġê° Ģ
t er
o s
´ Ģ
g e
ë Ł
e ct
¡ °
ìļ Ķ
a d
ë© ´
Ġê² ĥ
ìŀ ¥
o re
i f
ë ²
ëĲ ĺ
ìł ľ
Ġe x
ëĲ ľ
Ġa re
Ġw h
Ġìł Ħ
Ġs u
e l
ëĤ ĺ
Ġì ĥģ
ê² Į
ë ª
¹ Ħ
ì¹ ĺ
ìĹ ¬
ë ŀ
at e
Ġ A
Ġí Ļ
Ġ v
Ġë ª
í Ħ
Ġ íķ
Ġë ı
Ġ C
í Ĭ
p p
Ġì§ Ģ
ĥ Ŀ
¤ ĳ
e m
ìĻ Ģ
Ġ S
Ġo r
es s
re s
Ġb y
ì Īĺ
i ve
it y
Ġs e
he r
0 0
Ġìľ Ħ
a b
a in
t h
Ġy ou
u d
íĦ °
Ġcom p
íĻ Ķ
ìĽ Ĳ
Ġ r
Ġ I
il l
Ġìĭ ľ
íķľ ëĭ¤
Ġa l
Ġa t
Ġ (
íĬ ¸
Ġì ļ
Ġí ı
ìĿ ¼
Ġí ĺ
êµ ¬
Ġë ĵ
íķĺ ê³ł
ë ĮĢ
d u
i al
Ġìł ķ
er s
is t
Ġë³ ´
es t
e re
u re
Ġw as
ļ Į
i v
ìł Ħ
ìķ Ħ
or t
u m
¯ ¸
ë³ ´
' s
q u
ë į
i es
ê ¸
o c
ëı Ļ
on g
ro m
ì² ´
ar t
ìĬ µ
Ġ he
Ġì Ĩ
a ct
Ġì ĸ
Ġë ¬
a c
Ĥ °
êµ Ń
ê³ Ħ
o p
Ġê² ½
Ĩ µ
n t
ë £
ì ¶
ë ħ
Ġ 3
Ġh a
í ĥ
ìĨ Į
Ġê ´Ģ
Ġ us
ig h
Ġin c
Ġì ¤ĳ
Ġs h
Ġë° ı
Ġcon t
ëĵ ľ
Ġì £¼
Ġ K
Ġc an
an t
Ġt r
Ġf rom
± °
Ġêµ ¬
at ed
ic e
Ġê ·¸
ì °
a ge
Ġre s
Ġëĭ ¤
Ġc h
Ġ un
ìļ °
íķĺ ìĹ¬
a p
Ġìľ ł
ĠìĹ °
ë§ Į
d ing
Ġë¶ Ģ
ĠìĿ ¸
ìĹ ħ
ê³ µ
i z
Ġì ¶
ìĭ ł
ì £¼
Ġ le
Ġë° ©
Ġm ay
í Ķ
ëª ħ
Ġ íķĺ
or m
ìĬµ ëĭĪëĭ¤
ìĿ´ ëĭ¤
Ġë Ķ
Ġn e
ì ¡°
Ġê³ µ
Ġìŀ Ĳ
Ġë° ľ
ê ·¸
Ġì °
l d
k e
Ġd is
ĠìĿ ĺ
íĸ ī
Ġp l
i p
íķ ©
Ġë į
ic h
Ġ P
i b
ëŁ ¬
Ġí Į
it ion
ë ¹Ħ
ëł ¥
ê° Ħ
Ġí Ķ
Ġì ¡°
ì Ĥ°
ë¬ ¸
s e
Ġn ot
Ġìķ Ħ
p er
Ġ M
as e
Ġwh ich
id e
Ġëĵ ±
c c
Ġ im
Ġì ²
ìĦ ¸
Ġth is
ic al
Ġ B
f orm
Ġw he
as t
Ġë ²
en d
Ġa d
í Į
I n
íķ ¨
ê ·
Ġëª ¨
ĠìĿ ¼
ul t
ë² ķ
an d
Ġha ve
ĠëĤ ´
Ġ "
ë¬ ¼
ĠìŀĪ ëĬĶ
ë© °
an s
Ġh as
Ġíı ¬
le ct
ìŀ ¬
al l
Ġw ill
í ļĮ
ëĭ ¨
e ar
ì§ Ħ
ë¶ Ħ
Ġm e
Ġë ¹Ħ
ĠëĤ ĺ
Ġin t
â Ģ
an ce
Ġìŀ ¥
Ġê° ľ
ìĭ Ŀ
Ġs p
ĳ ľ
ê ´Ģ
ìŀ ħ
ĠìĨ Į
an g
ìľ Ħ
Ġ íķľ
f f
igh t
u p
Ġë Ĳ
ĺ Ĳ
ìķ ¼
Ġí Ĩµ
g h
Ġê³ ł
ou s
Ġp art
Ġ G
í ı
íĸ Īëĭ¤
ëħ Ħ
ìľ ł
c on
i re
Ġì Ĭ
Ġa b
Ġp er
Ġ 4
¦ Ŀ
p l
ë Ħ
ë¡ Ŀ
Ġ 5
Ġ D
Ľ Ħ
a g
t her
ëĭ Ī
du ct
Ġë¶ Ħ
ģ ¬
ê ¹
l ud
Ġa pp
ë ¯¸
a re
Ġp re
ir st
ë£ Į
ab le
ëĬ ¥
ig n
Ġw e
Ġìķ Ĭ
ìĹ Ń
± ´
a ce
ìĦ ł
ëł ¤
d er
A A
Ġê² °
í Ĵ
u st
ì ĥĿ
Ġìĭ ¤
in e
ìłģ ìľ¼ë¡ľ
u e
Ġìĥģ ê¸°
ķ Į
I t
ë¬ ´
ì¶ ľ
íĺ ¸
Ġ íķ´
Ġì Ľ
Ġëı Ħ
o g
Ġf irst
Ġ F
Ġg o
ĠëĶ °
ê ±°
Ġëĭ ¨
ê° ľ
Ġëı Ļ
Ġinc lud
ĠK ore
Ġìĭ ł
Ġ N
ìķ Ī
Ġ2 0
Ġpro v
Ġíı¬ íķ¨
Ġê ·
Ġìĺ ģ
íķ Ļ
ëĭ ¹
en s
Ġì Ļ
ìĭ ¤
ì ¸
Ġí ĸ
í ħ
ĠìĤ¬ ìļ©
ê¸ Ī
Ġì ĥĿ
Ġ H
Ġw or
Ġì ¹
ar y
ê² ½
Ġìł ģ
íĴ Ī
Ġí Ĭ
s o
ent s
Ġê ¸
Ġë ķĮ
im e
ëĤ ´
at er
Ġc o
íĺ ķ
Ġë ĺĲ
ĠìĦ ł
ou nt
e c
ar d
ìĺ Ģ
Ġ T
v ice
ĠëĮĢ íķľ
Ġ J
ëł Ī
í ŀ
ou ld
ou t
Ġc l
íķĺ ê¸°
Ġs o
ve l
ë¥ ¸
ê° ģ
Ġì ¢
p t
Ġìĸ ´
ê¹ Į
ëį °
ou r
Ġ en
k ing
Ġo ut
Ġë ¯¸
ì Ī
ë° ©
ë³ ¸
a ch
Ġthe re
b er
ì ¡
at ing
r y
Ġm et
ìĹ °
ĠìĹ ¬
ion s
c ess
Ġon e
Ġp res
ìĨ į
ĠìĦ ľ
ou n
Ġm an
ĠìĹ Ĩ
ëĲĺ ëĬĶ
Ġ E
Ġa cc
ĳ Ĳ
ìłģ ìĿ¸
el l
ation s
êµ Ĳ
Ġal so
Ġim p
µ ľ
íŀ Ī
v ent
Ġë° Ķ
Ġë° °
Ġs a
ë¥ ´
Ġs y
Ġí ĥ
ì§ Ī
T h
ĠìĬ ¤
ëŀ ĺ
Ġ R
Ġp r
Ġb ut
u gh
Ġê° Ĳ
Ġ ro
ìļ ´
í Ĺ
1 0
íĸ ¥
ĠíĻ ķ
om e
Ġë§ Ī
Ġe m
Ġë ħ
Ġë Ĩ
íĥ Ģ
Ġìĺ Ī
ëĲľ ëĭ¤
l ow
i e
Ġìł Ģ
am e
í ģ¬
Ġt e
Ġìĺ ¤
ìĿ Į
Ġ j
r u
¯ ¼
ìĹ Īëĭ¤
ë° ĺ
¤ Ģ
Ġêµ Ń
er m
Ġre l
ì ħ
ìĸ ĳ
íķĺ ê²Į
ĠìĦ ¸
Ġí ļĮ
Ġex p
´ ĳ
Ġ '
ì° ¨
ëŁ ī
ê² °
Ġ1 0
Ġt ime
as s
Ġê ±°
Ġw ere
Ġë¬ ¸
Ġ L
ìĹĲ ëĬĶ
Ġre g
Ġa r
Ġm o
a us
Ġê° Ļ
Ġì ´
ì ¤ĳ
Ġa ct
Ġsu ch
ë¶Ģ íĦ°
Ġfor m
ĠìĦ ±
Ġwh o
if f
ro ugh
í Ĥ
ìĺ ģ
Ġê²½ ìļ°
Ġíĺ ķ
Ġsu b
Ġtr ans
Ġìłľ ê³µ
Ġë ©
ìł Ģ
ëĵ¤ ìĿ´
en ce
Ġ 6
Ġìķ Ī
ĠìĦ ¤
ëĲ ł
ĠìĽ Ĳ
ĠíĬ ¹
ë Ķ
Ġ U
Ġm ore
Ġìļ °
Ġa g
ìĺ ¤
¶ Į
2 0
Ġl i
ìŀ ĳ
Ġ k
ìĦ Ŀ
½ Ķ
í İ
as ed
Ġíķ Ħ
Ġêµ Ĳ
f ter
ìĺĢ ëĭ¤
o k
ĠìľĦ íķ´
j ect
l ic
Ġre c
ëł ¨
Ġìŀ ¬
Ġëį °
Ġ The
Ġì§ Ħ
Ġp o
u al
ëª ¨
con d
íĶ Ħ
ë§ Ī
Ġë³ Ģ
í Ĩµ
Ġë° ĺ
Ġbe en
Ġth an
Ġìŀ ħ
Ġin ter
Ġìļ Ķ
if ic
ìĭ ¬
ìł Ĳ
st em
i ed
ë° ľ
Ġde vice
Ġg ro
w e
Ġë§ Į
Ġì¶ Ķ
u b
Ġse cond
i le
Ġy ear
Ġbe t
ct ion
Ġs c
Ġ íķľëĭ¤
l l
Ġth rough
Ġì µľ
ìĪ ł
Ġbe c
Ġt a
Ġpro duct
Ġo ther
form ation
Ġd et
Ġê³ Ħ
Ġwhe n
íĹ ĺ
re e
Ġd o
Ġìķ Į
at ive
Ġsu pp
íĥ ľ
Ġm a
ê¸ ī
Ġëį Ķ
ê ±´
Ġa m
ëıĦ ë¡Ŀ
Ġsy stem
Ġì° ¨
Ġìŀ¥ ì¹ĺ
Ġë¬ ´
Ġd iff
Ġp os
ìĹ Ī
Ġí ĳľ
ĠíĶ Ħ
ìŀ Ħ
ac k
ĠëĺĲ ëĬĶ
i ous
Ġs ur
ìĹĲ ê²Į
Ġcom m
Ġst ud
Ġe lect
ation al
í ĳľ
h od
ĠC h
in t
or s
en er
ĠKore a
e p
Ġre p
Ġcon s
v ing
ar k
ì ´
or ding
un d
Ġs er
ì§ ģ
Ġin formation
Ġpro cess
i a
on e
c ed
ë ¯¼
at es
ĠìľĦ íķľ
ì ¤Ģ
y e
v en
ĠA AA
ëĤ ľ
ë ¸
ìĿ´ ëĿ¼
ëĲĺ ìĸ´
ĠìŀĪ ìĬµëĭĪëĭ¤
Ġê°Ģ ëĬ¥
Ġmet hod
ì§Ģ ë§Į
ur al
we en
Ġê²ĥ ìľ¼ë¡ľ
íĻ ĺ
Ġsa id
ĠëĲ ĺ
Ġì ¦Ŀ
Ġë§ ¤
Ġ 7
aus e
Ġyou r
Ġcomp an
Ġë Ħ
Ġbet ween
Ġí ĽĦ
Ī ¬
ì ¢
Ġë¶ Ī
í ĭ
Ġd at
r ic
Ġê° ķ
ë£ ¨
ìķ ½
res s
Ġê° ģ
Th is
Ġal l
ĠíĻ ĺ
ìĿ´ íĦ°
Ġ qu
B B
or y
Ġë§ İ
ì ¦Ŀ
Ġë°© ë²ķ
os e
ë¥ ĺ
í ĽĦ
íı ¬
Ġp at
ļ ¨
Ġe ff
Ġab out
Ġs ign
Ġ W
Ġíĺ Ħ
ë§ ¤
Â ·
ê² ©
Ġìŀ ĳ
ì² Ń
ìŀħ ëĭĪëĭ¤
ë¦ ½
Ġo b
Ġcont ro
Ġë³ ¸
Ġ âĢ
ĠëĶ° ëĿ¼
ìĽ Ķ
Ġí İ
Ġê³ ¼
Ġì »
ë³ Ħ
Ġa fter
Ġdat a
it ies
ĠìĹ° êµ¬
ow er
Ġun it
ê ¶Į
Ġcon f
Ĩ ł
ĠI n
í Ŀ
íĸ Ī
Ġìłķ ë³´
Ġë§ Ĳ
Ġm em
Ġprov id
w o
Ġë° Ľ
ìķ ĺ
Ġíķ Ļ
Ġof f
a il
Ġì ¸
íĮ Ĳ
Ġ if
Ġli ke
ver y
Ġp e
ĠíĶ ¼
ê¹Į ì§Ģ
u c
r i
Ġm od
Ġê²ĥ ìĿ´ëĭ¤
ìĨ ¡
Ġ íķł
il ity
ëŀ Į
Ġíķ ¨
a w
Ġëħ ¸
ĠíĨµ íķ´
Ġc ol
Ġg ener
íĺ Ħ
ĠíĮ Į
ĠíĻ ľ
d ition
Ġl o
ad e
íķ© ëĭĪëĭ¤
ĠëĨ Ĵ
Ġwhe re
Ġ 8
Ġê² Ģ
an c
ĠíĻ Ķ
ĥ ī
it t
Ġì Ĥ
ĠëĶ Ķ
ĠìŀĪ ìĸ´
Ġo ver
Ġf in
Ġíķĺ ëĤĺ
Ġat t
Ġo per
he d
) ,
Ġper form
Ġin s
Ġëĭ ¹
ĠíķĦ ìļĶ
Ġl oc
ì ¦
Ġ1 9
he n
Ġê° Ħ
ìĺ Ī
Ġinc re
ë©´ ìĦľ
ect ion
ìľ ¡
ëĵ¤ ìĿĢ
Ġh igh
Ġë¬ ¼
Ġíı ī
ĠíĮ Ĳ
íĤ ¤
Ġì ±
an ge
oun d
re at
W e
Ġre ce
ĠìĻ ¸
Ġv ar
re n
Ġe ach
id ent
íķĺ ìĺĢëĭ¤
Ġ20 1
iz ed
vent ion
Ģ ìĿ´
Ġin d
Ġ O
Ġde c
Ġthe y
ëĵ¤ ìĿĺ
ur ing
ul ar
en c
Ġ up
Ġd es
Ġì Ĥ°
ect ed
p on
r is
ut ion
Ġwor k
Ġint o
un g
Ġa c
Ġd ire
íķĺ ëĭ¤
í ĥĿ
Ġpart ic
Ġthe ir
o od
Ġc or
ì¢ ħ
ë° Ķ
ê² ł
Ġun der
it e
Ġas s
ê »
ì¸ µ
ëį ĺ
n ing
Ġf e
ĠëĮĢ íķ´
ì ±
Ġì§ ģ
Ġin v
Ġì¶ ľ
íķ Ń
' t
erm in
op le
Ġë³ µ
ver n
Ġre f
Ġv al
Ġê ±´
íĶ Į
ë² Ħ
ëĶ Ķ
t ain
ĠìĿ´ ìĥģ
Ġë°ľ ëªħ
íķĺ ì§Ģ
Ġp ol
in ce
re d
is h
Ġêµ¬ ìĦ±
Ġí Ŀ
Ġd r
Ġíĸ ī
Ġëį° ìĿ´íĦ°
ìĹĲìĦľ ëĬĶ
ìĦ ¤
Ġne w
ê° Ĳ
Ġìł ĳ
Ġt wo
ì ¼
i ent
le ment
a k
Ġm ed
ëĵ ł
Ġê¸ Ī
ter n
Ġn o
vel op
Ġus ed
r ib
Ġit s
ë ĳĲ
Ġpres ent
ol og
p ut
Ġê´Ģ ëł¨
r on
ìĬ¤ íħ
ì² ĺ
ìľ ¨
Ġê²ĥ ìĿĦ
Ġì² ĺ
Ġ 9
Ġch ar
Ġë ĳĲ
Ġres ult
ê ´ĳ
Ġëĭ¤ ë¥¸
ë¦ °
Ġìĸ ĳ
Ġp h
Ġíķ ©
al y
al ly
ol d
n ow
ìĻ ¸
ay er
ëĭ ¬
Ġpe ople
ê» ĺ
ĠëķĮ ë¬¸
Ġbec ause
Ġë ¹
· ¨
ëĦ ¤
ê· ¼
ëłĪ ìĿ´
ìĦ± ìĿĦ
Ġì¸ ¡
Ġo ur
ê· ¹
Ġ Y
Ġon ly
Ġìł Ĳ
Ġ íķĺëĬĶ
ĠìĿ´ ìļ©
íĮ Į
Ġì ½Ķ
Ġf l
ìĿ ĳ
ĠìĹ ´
ëĲĺ ê³ł
Ġsp ec
Ġìļ ´
ĠS e
f ace
ìľ¼ ë©°
Ġdis c
a e
Ġc ase
Ġdiff ere
3 0
00 0
ĠëĤĺ íĥĢ
Ġin st
a v
ì² ľ
Ġê²ĥ ìĿ´
ver s
ê° ķ
ëĵ¤ ìĿĦ
ater ial
ĠìĿĺ íķ´
Ġn um
A s
g an
l es
e e
Ġd ay
ìł Ī
ì¶ ķ
Ġm aterial
Ġde velop
Ġí ļ¨
Ġus e
Ġb l
ë¸ Į
Ġí Ī¬
ĠíĶĦ ë¡ľ
Ġì¹ ĺ
ë² Ī
Ġì ĥ
Ġê· ľ
Ġí ģ
Ġì° ¸
Ġê²° ê³¼
ìŀĲ ìĿĺ
os ed
Ġëĵ ¤
is s
v ed
Ġíĺķ ìĦ±
ì° ©
Ġsh ow
ru ct
ib le
vern ment
in k
ìļ ¸
Ġc ur
r act
Ġc ar
Ġë© Ķ
1 9
Ġëª ħ
x t
Ġr ight
ìŀĲ ê°Ģ
oc k
Ġìļ ©
Ġeff ect
ë¡ ł
Ġê°Ģ ì§Ģ
ê¸° ë¥¼
Ġ1 2
Ġë°ľ ìĥĿ
ĠKore an
Ġ ed
Ġì¢ ĭ
Ġin f
ere d
Ġë Ĭ
Ġm on
ë³´ ëĭ¤
íĶ ¼
ìħ ĺ
ë¦¬ ëĬĶ
Ġcontro l
Ġg r
ĠìĹ Ń
íĿ ¬
Ġm y
Ġ end
Ġëª ©
ìĬ¤íħ ľ
Ġs m
ĠB BB
. "
Ġus ing
y p
g et
ir m
Ġì¢ ħ
Ġin vention
Ġ1 1
Ġp ers
ëł ¹
ë³ µ
t e
Ġne ed
ic s
ĠìĤ¬ ìĿ´
Ġê°Ļ ìĿĢ
ro p
Ġc ount
it al
Ġthe m
g r
Ġm ain
Ġ est
ì¡ ±
Ġb us
The re
Ġk now
in d
Ġê° ĸ
Ġsupp ort
Ġnum ber
st r
Ġë¬¸ ìłľ
Ġinclud ing
Ġì§ ĳ
í Ĩł
Ġre qu
ìĿ´ ìĬ¤
ou gh
Ġc ap
Ġl ayer
Ġì´ Ī
Ġ2 00
Ġw ould
Ġm ark
ent er
Ġì Ī
ìĦ± ìĿ´
as es
o ol
o b
in ess
Ġgro up
Ġo p
Ġíķľ êµŃ
âĢ Ļ
ìł ĳ
Ġê ´ĳ
ë³ ĳ
Ġsh ould
I f
ë¦ Ħ
u res
ĠëĤ ¨
ĠìĿ Į
Ġìĭ Ŀ
Ġacc ording
ic es
Ġan aly
ëį Ķ
Ġcon n
iz ation
an k
íĭ °
Ġb u
Ġë² ķ
Ġd ue
Ġh ad
Ġbe ing
Ġp ort
Ġle ast
Ġh is
F F
am p
Ġìłľ íĴĪ
ìĽ Į
ì¸ ¡
Ġha ving
Ġëĭ ¬
Ġcompan y
Ġ1 00
ë§ Ĳ
om m
Ġdis pl
Ġinv est
¤ Ħ
ĠìľĦ ì¹ĺ
Ġsur face
i x
Ġìĭ¤ ìĭľ
Ġí ģ¬
od y
ì± ħ
Ġìķ ½
iz e
t ing
Ġd ist
ì´ Ī
Ķ ëĭ¤
f ore
Ġ3 0
Ġprov ide
Ġb o
b le
Ġìĭľ ìĬ¤íħľ
ìĹ ´
Ġëĵ ľ
Ġì² ´
it ed
Ġê ¹
ëĵ Ŀ
is e
Ġre m
Ġgo vernment
ĠìķĦ ëĭĪ
Ġë ¸
Ġí Ĺ
Ġìłľ ìĸ´
Ġus er
ĠìĹ Ĳ
ic le
Ġb r
Ġë¶Ħ ìĦĿ
ch ool
enc y
at ure
ìĹ ¼
Ġf act
Ġp ur
ĠìĤ¬ ëŀĮ
ĠíĮ ¨
Ġinclud es
Ġ 0
ë³ Ģ
Ġdispl ay
5 0
ìķ ¡
ë¦¬ ê³ł
Ġì§Ģ ìĹŃ
iv ing
Ġa ut
Ġìŀ Ħ
Ġprovid ed
Ġc r
Ġs et
ëª ©
Ġare a
Ġd i
Ġê²° ìłķ
ëĦ Ī
ch n
f t
l i
Ġcomp ris
ub lic
ie w
ë ĸ
Ġp ower
ë ¨
ê° Ŀ
ë° °
con om
ìĪĺ ìĿĺ
o ve
Ġë ¨
ìĭľ íĤ¤
ëŁ °
ļ į
ment s
Ġf il
el f
Ġde p
Ġb ased
Ġpers on
Ġex t
Ġex per
ì ½Ķ
t ed
Ġst r
íĻ ©
Ġ V
re nt
Ġs ame
Ġs ol
Ġan y
ìĺ ¨
Ġcomm un
Ġmark et
Ġìł Ī
Ġê´Ģ íķľ
u ch
ic k
ĠëĲ ľ
Ġad dition
Ġs ome
ëŁ¬ íķľ
oc i
ë§ Ŀ
Ġw ater
Ġë ł
Ġìĭ ¬
Ġor der
p ect
Ġë ¦
ĠS t
Ġb ody
il d
ĠíĻķ ìĿ¸
er g
ì Ķ
Ġe v
Ġin du
ì§ ķ
Ġëĭ¤ ìĸĳ
Ġme as
ìĸ´ ìļĶ
Ġbus iness
al ity
ì »
Ġì§ Ī
Ġìĭľ ê°Ħ
Ġíķ¨ ê»ĺ
Ġm ade
Ġìĺ ¨
ì§Ģ ë¥¼
ure d
íİ ¸
Ġvar ious
or d
Ġëĭ¨ ê³Ħ
ì§ ĳ
Ġì ·¨
ì§Ģ ëĬĶ
Ġê² Į
ol low
in es
are d
ë¡ Ģ
Ġì± Ħ
ë¹Ħ ìĬ¤
Ġcon c
ë¡ľ ë¶ĢíĦ°
Ġim age
ëĭ¤ ê³ł
ì ĥī
t s
Ġgo od
Ġì¶ ©
ye ong
Ġ Ċ
h ip
Ġg u
1 2
ĠíĶ Į
Ġe ven
ìĹĲ ëıĦ
Ġsign al
ìĿ´ ëĤĺ
i ents
as on
ëĭ¤ ëĬĶ
ìŀĲ ëĬĶ
Ġde f
ê² ĥ
Ġed uc
Ġpos s
ëĵ ±
ical ly
ê±° ëĤĺ
Ġl ight
Ġpo int
Ġte chn
he s
ce pt
ìĸ´ ëıĦ
êµ °
il y
ot h
Ġv is
Ġê°Ģ ìŀ¥
n ce
ì¡ ´
is m
íħ Į
Ġê· ¼
Ġìĥ Ī
Ġstud y
ĠâĢ ľ
) .
âĢ Ŀ
íĻ ľ
o y
ir c
ĠìĨ Ĳ
ëĭ ´
Ġres pon
ëŁ ¼
Ġc he
ëĿ ½
Ġse lect
Ġf un
Ġl ong
i um
íķĺ ë©´
Ġë ¡
Ġëª »
p ar
ill ion
íķĺ ë©°
ìĿ´ëĿ¼ ê³ł
Ġë¶Ģ ë¶Ħ
ìĦ¸ ìļĶ
Ġl ar
Ġdiffere nt
ìł ¸
Ġwh ile
Ġta x
ìĿ´ ëĬĶ
Ġe conom
Ġìĺģ ìĹŃ
in ist
Ġíĺ ¸
Ġìĺģ íĸ¥
ë ĺĲ
Ġw ell
Ġhe ad
i ence
ë¦ ¼
į ¨
ëĤ ł
A n
Ġval ue
ain ing
ĠìĦł íĥĿ
ì £
Ġor gan
ble m
n er
Ġs ide
ìĬ¤ íĬ¸
os ition
al th
ëħ ¸
it s
i o
ëŀ Ģ
Ġrep ort
Ġs chool
Ġimp ro
Ġíķ Ń
in a
ë¥ ł
Ġê´Ģ ê³Ħ
ab l
ĠìĹ° ê²°
Ġë¦ ¬
Ġdire ct
Ġl aw
a ir
ì° °
ĠU n
y l
ĠëĶ° ë¥¸
Ġst ate
Ġf ollow
Ġìļ° ë¦¬
ë© Ķ
i or
Ġpro blem
Ġ1 5
or k
Ġop en
act er
ìĦľ ëĬĶ
ë§ ģ
Ġm at
Ġcon duct
ë§ ī
Ġp ublic
Ġw on
Ġìĥģ íĥľ
w ay
Ġle vel
e f
ì¦ Ī
Ġìĸ´ ëĸ
Ġag ain
ĠëĮĢ ìĥģ
ì¹ ´
ĠëķĮë¬¸ ìĹĲ
i an
iv id
Ġt yp
ĠêµĲ ìľ¡
Ġar t
Ġê ±
4 0
Ġë² Ī
Ġì¹ ´
le ase
et y
Ġì§Ģ ëĤľ
Ġì¦Ŀ ê°Ģ
ë ´
Ġê²ĥ ìĿĢ
Ġem b
r ation
Ġw ant
Ġì§Ħ íĸī
í ģ
Ġê¸° ìĪł
Ġì² Ń
Ġìĭł íĺ¸
age ment
ë¦¬ ë¥¼
ëĤ ¨
W hen
ëĲ Ĳ
ëĲĺ ìĹĪëĭ¤
Ġê¸° ìĹħ
T o
Ġíİ ¸
s s
1 1
Ġpos ition
Ġìĺ ¬
ĠìĤ ´
Ġíĥ Ģ
ì į¨
ur n
ìķĺ ëĭ¤
ìķ ķ
Ġt em
Ġëĭ¤ìĸĳ íķľ
íķ´ ìķ¼
ĠìĨ į
Ġpl an
Ġë° Ŀ
or th
Ġë§ ŀ
Ġinclud e
Ġë Ī
Ġìłľ ì¡°
du c
Ġcur rent
Ġìłģ ìĸ´ëıĦ
iv ed
Ġt reat
Ġë§İ ìĿĢ
Y ou
Ġyear s
Ġíĸ ¥
Ġc irc
Ġ ve
ëł¥ ìĿĦ
Ġíĺ ĳ
Ġl ast
f ul
Ġc re
ro und
Ġform ed
Ġact iv
Ġst ruct
H ow
Ġcon st
s u
Ġë ģ
Ġs ens
Ġse c
ĠìĿ´ ë¯¸
Ġëł Ī
Ġg l
n e
r a
Ġs im
re ad
ar m
os p
w ard
ì¡ Į
olog y
ê² ¬
Ġcompan ies
if e
Ġth ree
AA A
u ation
ª ½
ëı ħ
cc ording
Ġd uring
ere st
o st
ìłķ ìĿĦ
' m
½ ĺ
Ġpro t
ĠìĥĿ ê°ģ
ĠìĦľ ë¹ĦìĬ¤
Ġìŀ ĺ
Ġì» ¤
Ġêµ¬ ì¡°
e ver
ic t
Ġg et
ìĿ´ ê³ł
íĬ ¹
g u
ut e
f er
Ġí ħ
Ġman y
at or
íķĺ ëıĦë¡Ŀ
ëıĦ ë¥¼
Ġíļ¨ ê³¼
Ġr ate
p ort
ic ation
ĠâĢ ĺ
Ġí Ĵ
ĠìĤ¬ íļĮ
ive ly
Ġë Ŀ
Ġpl ay
íİ ĺ
ê¸° ìĹĲ
Ġimp ort
ìĤ¬ ë¥¼
n ess
Ġë°© íĸ¥
ĠìĪĺ íĸī
i od
ou se
Ġm in
Ġma ke
ìĸ µ
Ġcons id
i el
Ġmon th
Ġmo st
ir on
Ġëĵ¤ ìĸ´
Ġ ent
s is
ìķ ħ
d s
Ġíı¬íķ¨ íķĺëĬĶ
ëĦ Ĳ
Ġs he
r ap
ot her
Ġdes ign
í ļį
Ġ1 3
Ġwith out
Ġì²ĺ ë¦¬
Ġloc al
Ġchar acter
Ġf ac
is ion
Ġê²½ ìłľ
Ġint erest
ĠìĻ Ħ
Ġproduct s
Ġch ange
Ġtrans m
iss ion
A ccording
ow n
Ġam ount
Ġì§Ģ ìĽĲ
ë¶Ģ ë¥¼
Ġh and
ĠìĹ ħ
ìĬ ¹
Ġp ay
Ġë³Ģ íĻĶ
Ġl ow
Ġre t
Ġres ear
ëĬĶ ëį°
ĠìĥĿ ìĦ±
ific ation
Ġíı¬íķ¨ íķľëĭ¤
Ġ very
Ġëħ ¼
ëĭ ĺ
ul ation
if ied
ĠP ro
Ġì´ Ŀ
Ġcl ass
Ġapp lic
Ġrel ated
f act
Ġpl ural
v ices
Ġcont in
Ġconf irm
Ġoper ation
ìĥģ ê¸°
Ġê°ģ ê°ģ
at us
in c
anc ial
Ģ ë¡ľ
ĠëĺĲ íķľ
íĮ ħ
ëŀ ĳ
ì¶ Ķ
Ġeduc ation
t y
Ġp ass
ĠìĤ¬ ìĹħ
Ġìłģ ìļ©
ab ility
Ġme ans
Ġe lement
ìĿ µ
t al
ë¶ ģ
Ġar r
Ġe qu
Ġthe se
Ġpat ients
Ġs al
Ġch ang
Ġì¹ĺ ë£Į
Ġcomp le
Ġëª¨ ëĳĲ
Ġst art
Ġdire ction
iv es
Ġob ject
ag es
Ġ1 6
Ġper iod
Ġin put
Ġj ust
Ġan n
Ġpartic ip
p or
ìľ µ
ion al
Ġì¤ĳ ìļĶ
Ġì º
ëł ĩ
ĠìĿ´ ë£¨
Ġëª¨ ëĵł
ìĥģ ìĿĦ
Ġe ar
du ced
ëĿ¼ ê³ł
Ġplural ity
Ġmem ber
Ġë°ľëªħ ìĿĢ
Ġ ke
ĠêµŃ ê°Ģ
, "
m er
į ¼
ĠA r
Ġì ¡
ìľ¼ë¡ľ ìį¨
Ġdis p
w n
Ġv ol
W h
Ġíĳľ ìĭľ
Ġinter n
Ġìłķë³´ ë¥¼
Ġest abl
Ġ5 0
Ġì ¤Ħ
Ġpres s
Ġme et
ìŀĲ ë¥¼
oc ial
Ġc ould
ic ult
Ġo cc
Ġport ion
Ġëĭ ´
ë° ķ
ire d
Ġc ult
ëıĦ ê°Ģ
Ġdet ermin
Ġíģ °
ê²ł ìĬµëĭĪëĭ¤
Ġìĥģ íĻ©
Ġser vice
Ġth ink
Ġìĭ ¶
Ġre st
Ġìĭľ ìŀĳ
ĠìķĬ ëĬĶ
ic ial
ë¦ ´
Ġhe l
ê¸° ê°Ģ
ĠìŀĪ ìĿĦ
ë¡ľ ìĦľ
Ġ1 8
Ġê°ĸ ëĬĶ
Ġch ild
ìĿ´ íĬ¸
r ies
Ġa ir
Ġle ad
od im
Ġê¸° ëĬ¥
ap an
Ġre v
ìĤ¬ ìĿĺ
Ġ1 4
p h
íı ī
Ġë¡ ľ
Ġman agement
ì ³
Ł ģ
ĠëĲ ł
Ġtreat ment
ê· ľ
íĻ ķ
v iron
ĠA ct
re en
Ġsh all
ĠìĦ¤ ëªħ
ë¡ľ ìļ´
ë¬¼ ìĿĦ
Ġê± ¸
Ġd id
Ġbe fore
c k
Ġle g
Ġëı ħ
Ġë³ ¼
er ation
Ġwhe ther
ent ion
Ġwith in
ë ¹
ant s
ëŀ ¨
Ġelect ro
ê· ł
ì ª½
Ġf ore
Ġë² Ķ
Ġpo ly
Ġë¯¸ êµŃ
Ġê¸° ì¤Ģ
Ġb ack
Ġpro ject
Ġëĭ¤ ìĿĮ
ou l
ag n
Ġta ke
ì µľ
ĠíĬ ¸
Ġíıī ê°Ģ
w ork
Ġh ow
Ġs ince
Ġemb odim
Ġc all
ì¸ ł
Ġìķ ķ
ĠëĿ ¼
Ġb as
Ġë¶ ģ
us s
ing s
Ġpol ic
Ġre al
Ġte am
Ġë© ´
Ġn on
Ġw ay
Ġë°Ŀ íĺ
ter s
in al
Ġt est
it ive
Ġëĵ± ìĿĦ
Ġê´Ģ ë¦¬
ëŀ ľ
Ġcont act
ual ly
Ġhel p
en ding
Ġì° ¾
Ġne cess
ĠìŀĪ ê³ł
Ġsm all
Ġf ound
viron ment
Ġì¶ ķ
Ġì ¤Ģ
og n
Ġd on
Ġad d
Ġst ore
Ġwh at
Ġperform ance
b ers
Ġdiff icult
Ġë ¯¼
Ġ íķĺê³ł
Ġìłķ ë¶Ģ
Ġst ep
ë ĥ
Ġë°° ì¹ĺ
ĠK im
ë¶ Ī
Ġlar ge
Ġp ar
Ġincre ase
© ëĭĪëĭ¤
ust om
Ġe as
ë¸ Ķ
Ġpro per
Ġíķ´ ëĭ¹
Ġì¤ĳ êµŃ
Ġposs ible
Ġìķ ŀ
Ġìĸ ¸
Ġë³ ĳ
Ġs it
Ġcon dition
Ġc ell
Ġgro w
Ġf ood
Ġcont ent
ĠN orth
ĠF FF
Ġpre d
Ġdevelop ment
Ġl ower
at her
Ġë° ķ
Ġpl ace
ĠëĨĴ ìĿĢ
ìŀ¥ ìĿĦ
Ġë§Į ëĵ¤
e k
Ġëı Į
in ation
ĠìĿ´ ëıĻ
ĠìĪ ľ
Ġìłľê³µ íķľëĭ¤
ìŀ¥ ìĿĢ
Ġdo es
Ġê³µ ê¸ī
Ġpro f
in ed
Ġpro m
ëĮĢ ë¡ľ
ĠëĤ´ ìļ©
ĠìŀĪ ìľ¼ë©°
Ġhe alth
ì Łģ
Ġí Ĩł
Ġad v
Ġmod el
ĠìłĢ ìŀ¥
Ġstruct ure
ou th
Ġco st
d e
Ġê°ľ ë°ľ
ĠìĿ´ìĥģ ìĿĺ
í Ī¬
Ġle ar
ent ly
Ġex pl
Ġs ocial
Ġìŀħ ëł¥
c rib
ìĤ¬ ê°Ģ
is hed
1 00
Ġm ult
le ar
a ve
ë¨ ¸
ë Ĩ
Ġsub ject
ë° ±
d o
st ry
Ġí Ħ
Ġh y
ron ic
amp le
ĠìĦ¤ ì¹ĺ
Ġf am
Ġc our
o int
ĠìĦ¸ ê³Ħ
al s
ĠìĿĺ ë¯¸
gr am
Ġanaly sis
ë Ĥ¬
ĠìłĦ ìŀĲ
o v
i vers
Ġê ¶Į
l ed
ë ģ
ìĿ´ ìĹĲ
ê¸° ëıĦ
ë° Ľ
ìĸ ¸
ĠëĨ į
Ġhe ld
d ay
Ġìĺģíĸ¥ ìĿĦ
ĠJ apan
Ġpartic ular
o on
Ġì¡° ìĦ±
Ġvar i
ĠëĲľ ëĭ¤
Ġwor ld
at ic
ĠìĿ´ íĽĦ
H e
Ġstud ents
Ġrep res
ĠëĤ ®
ĠìĪĺ ìĭł
Ġs ay
ĠìķĦëĭĪ ëĿ¼
Ġc al
Ġë Ĵ
Ġc ustom
ëĭĪ ê¹Į
Ġo pt
Ġn ow
Ġë³´ ê³ł
ĠìŀĪ ëıĦë¡Ŀ
ĠìĦ ¼
ëĤĺ ëĬĶ
Ġfun ction
Ġresear ch
Ġì¡ ´
l ied
ĠíķĺëĤĺ ìĿĺ
Ġde m
Ġn et
al e
ĠìķĮ ëł¤
Ġh ig
Ġcount ries
Ġresult s
ê·¸ ëŀ¨
Ġíķ© ëĭĪëĭ¤
Ġ her
ĠëıĻ ìķĪ
Ġt ermin
Ġl ife
ĠìĿ´ë£¨ ìĸ´
Ġf low
Ġan t
ur ther
h y
íķĺ ë©´ìĦľ
ìŀ¥ ìĿ´
ĠìĪĺ ëıĦ
du ce
Ġto tal
ĠSe oul
Ġtem per
Ġêµ¬ ë¹Ħ
Ġbu il
ì§ ¸
Ġì¶Ķ ê°Ģ
Ġl im
Ġh um
Ġsign ific
Ġnecess ary
Ġfil m
h ing
j u
ì Ĥ
Ġe very
Ġspec ial
l ess
ê¸° ëĬĶ
Ġa ff
How ever
Ġrel ations
Ġíģ ´
Ġëĵ± ìĿĺ
Ġint ro
í ļ¨
ëĲĺ ì§Ģ
Ġìľł ì§Ģ
Ġíĥ ľ
Ġen vironment
it ing
ë¦¬ ê°Ģ
Ġpro gram
en g
ìĤ¬ ëĬĶ
ë¶Ģ ìĹĲ
ĠCh ina
Ġv iew
Ġfin ancial
Ġí ŀ
Ġê· Ģ
Ġì¸¡ ìłķ
Ġb ase
Ġrec ogn
ĠëĦ ¤
Ġê¹ Ģ
Ġs l
Ġë² ł
Ġíĳľ ë©´
he on
Ġ ident
iel d
Ġìļ´ ìĺģ
Ġf r
' ll
ĠìĤ¬ìļ© ìŀĲ
er ing
if y
res pon
op e
ate ly
Ġpr ice
ĠìŀĪìĸ´ ìĦľ
Ġ4 0
ìĺ ¬
Ġê°Ĳ ìĨĮ
Ġb ro
Ġre ason
ĠëĮĢ ìĿĳ
Ġcont ain
ĠíĻĺ ê²½
Ġë³µ ìĪĺìĿĺ
ĠíĻľ ìļ©
Ġm us
Ġve h
Ġoff icial
Ġa round
Ġ1 7
ĠìĹĨ ëĬĶ
c es
Ġtr a
Ġconf ig
ì ĩ
O n
Ġc are
Ġë°Ŀíĺ Ķëĭ¤
ĠíĻľ ëıĻ
osp ital
im es
Ġê°Ļ ìĿ´
ĠíĺĦ ìŀ¬
Ġcomp osition
ĠëĶ° ë¥´
ial ly
Ġl ot
ìĿ´ëĿ¼ ëĬĶ
A l
Ġì° ½
ìĭĿ ìĿĦ
Ġeconom ic
o f
r al
ëŁ ½
Ġse e
Ġconfirm ed
Ġcol lect
ì¹ ¨
Ġimport ant
ìķ ł
Ġíĸ Īëĭ¤
Ġcor respon
Ġë¸ Ķ
ĠN ational
Ġout put
Ġj ud
Ġr is
Ġë¸ Į
ĠíĦ °
Ġo pp
Ġal low
Ġthe n
ĠíĮĲ ëĭ¨
il ities
Ġì°¸ ìĹ¬
Ġreg ion
ĠìĥĿ ìĤ°
ĠG yeong
em s
Ġab ove
Ġst or
Ġê°ĢëĬ¥ íķľ
Ġcommun ication
Ġm uch
ê¸ ¸
Ġne xt
Ġë§İ ìĿ´
íĺ ĳ
Ġbe l
íĶĮ ëłĪìĿ´
Ġc aus
ë ¯
ìĭľ ê°Ħ
pp er
Ġíı¬íķ¨ íķł
Ġob tain
íĻĶ ë¥¼
Ġad m
Ġindu stry
Ġc ent
ì²´ ë¥¼
g est
ëĿ¼ ëĬĶ
ìłĢ íĿ¬
ëħ Ĳ
ĠíĬ¹ ì§ķ
Ġs k
Ġìķ ¡
ìĭľ ìķĦ
u le
Ġì ī
Ġst and
íĥ Ħ
ĠìĿ ĳ
Ġc ases
ve ment
Ġapplic ation
í į¼
ìłľ ë¥¼
Ġíħ Į
ëĲĲ ëĭ¤
ì³ Ĳ
ì²´ ìĿĺ
ist s
Ġcomp et
Ġb oth
Ġtemper ature
Ġì¤ĳ ìĭ¬
ë² Ķ
Ġì ½ĺ
Ġsignific ant
ĠìłĢ íĿ¬
Ġgener al
Ġocc ur
er t
Ġ2 5
Ġcomp on
Ġg as
ĠíĹ Ī
ĠìĿ¼ ë°ĺ
ĠëĶĶ ìĬ¤
ëĲĺ ìĹĪ
Ġë¨ ¹
y s
Ġl ess
Ġhe re
ì£¼ ìĿĺ
ĠìŀĲ ìĭł
ĠC omm
ìĿ´ ë¥¼
ĠíķĻ ìĥĿ
¨ ìĸ´
en se
Ġad j
Ġì§ģ ìłĳ
Ġdis e
ìĪ ľ
Ġë°ľëªħ ìĿĺ
Ġë ĸ
Ġë ´
e x
Ġì ¦
Ġpre v
Ġê³¼ ìłķ
í Ĥ¬
Ġrece ived
Ġtechn ology
Ġìłķ ëıĦ
Ġë² Ħ
ìĿ¸ ìĿ´
Ġmem bers
l ine
Ġd own
Ġw r
om p
Ġexp ected
ere nce
ìĶ ¨
´ ë¦¬
Ġcont ract
ĠìĹĨ ëĭ¤
re t
Ġse par
Ġ2 2
Ġê¸ ¸
iz ing
ĠìĪĺ ì¤Ģ
Ġelect ronic
ìĭľ ìĹĲ
ëħ Ģ
ib ility
iv en
Ġo wn
Ġ2 1
Ġrequ est
íĦ ´
Ġê³ł ê°Ŀ
í ĥģ
end ed
ĠìĤ° ìĹħ
Ġlo ok
Ġf our
Ġí ľ
ë¡ľ ëĤĺ
ìľ¼ ë©´
ìĿ´ ë©°
Ġë§¤ ìļ°
Ġì§Ģ ì§Ģ
Ġt ar
on s
Ġem pl
n am
ĠìŀĪëĭ¤ ëĬĶ
Ġcontro ll
as ing
Ġìĸ »
u fact
n el
ĠìĨ ¡
ĠìĿ¸ íĦ°
Ġmed ical
Ġto p
Ġë³´ íĺ¸
Ġtyp e
Ġres pect
g i
ĠìĥĪ ë¡ľìļ´
Ġe vent
Ġcom b
Ġrepres ent
ru ction
Ġíĥ Ħ
Ġagain st
ĠëĴ ¤
Ġcontin u
ê·¸ ëŁ¬
Ġl ine
Ġpre vent
ĠëĮĢ íĳľ
Ġa v
Ġro t
Ġcons um
ir d
Ġconn ected
¿ Ĳ
ff ic
Ġìĭ¤ìĭľ ìĺĪ
ĠìĬ ¹
ìľĦ ìĽĲ
Ġìłķ ì±ħ
ĠíĨµ ìĭł
o king
Ġhe at
en e
Ġman ufact
ĠìĦ¤ ìłķ
Ġsub str
Ġê²° íķ©
ìĹĲìĦľ ëıĦ
a ke
ĠìłĦ ë¬¸
Ġembodim ent
Ġincre ased
ëĬ ĺ
Ġass oci
ìĿ¸ ìĿĺ
ì¹ĺ ëĬĶ
Ġìķ ł
ĠëĶ°ë¥´ ë©´
Ġday s
Ġcompris es
ëĿ¼ ìĿ´
Ġev al
id ed
ìĿ´ ëŁ¬íķľ
Ġê¸° ì´Ī
ĠíĶĦë¡ľ ê·¸ëŀ¨
Ġd om
ist ics
ĠìĤ¬ ìĭ¤
in s
ĠìĿ´ ìĸ´
Ġexp ress
Ġst e
om en
Ġwe ek
Ġë¹Ħ êµĲ
ut ure
Ġind ivid
er v
Ġam ong
Ġíı Ĳ
Ġt erm
g er
ê°ľ ìĿĺ
erg y
Ġë ĳ
Ġíĺ ¼
Ġpolic y
Ġne g
our ce
ur ance
ĠíĻĺ ìŀĲ
Ġë¶Ģ ìŀ¬
ëį ¸
ĠìŀĪ ìĹĪëĭ¤
ĠìĿ¼ ë¶Ģ
om et
Ġprocess ing
ap e
ar atus
Ġì¶ľ ëł¥
od e
pt ion
1 4
ìĭľíĤ¤ ëĬĶ
Ġë§Ĳ íĸĪëĭ¤
Ġcal c
Ġh ouse
h or
anc es
Ġê¸° ë°ĺ
ar ch
I D
Ġìĭľ ìŀ¥
íħ Ĳ
em b
íķĺ ìĺĢ
Ġanaly z
Ġm ust
os s
ìħ Ķ
ĠìŀĪëĭ¤ ê³ł
Ġë§Ī ëł¨
re am
ëĵ¤ ìĹĲê²Į
ê¸° ìĿĺ
ĠëĪ Ħ
Ġapp aratus
1 3
h ib
Ġapp lied
ĠìļĶ ìĨĮ
ë°Ķ ìĿ´ìĬ¤
F or
c l
ìĦ ¼
ì¡Į ëĭ¤
1 5
ĠAr t
Ġcount ry
Ġê³µ ê°Ħ
Ġsa f
6 0
ë² ł
Ġcompris ing
Ġ2 4
ê¸° ìĹħ
ist ing
Ġf urther
Ġs w
Ģ ìĿĦ
Ġì¡´ ìŀ¬
ìĽĲ ìĿ´
ĠëĦ Ī
an e
Ġimp lement
Ġtermin al
er n
Ġd am
Ġsubstr ate
Ġê³ł ëł¤
ìľ¼ë¡ľ ë¶ĢíĦ°
ĠìĿ´ ìľł
Ġh ome
êµĲ ìľ¡
ì» ¤
íķ¨ ìľ¼ë¡ľìį¨
ĠìĹ¬ ëŁ¬
Ġto ur
íķ´ ìĦľ
ĠìĿ´ ë¥¼
Ġsupp ly
Ġíĺķ íĥľ
ip le
Ġtar get
ĠìķĬ ìĿĢ
íķĺ ì§Ģë§Į
Ġprom ot
į ëĭĪëĭ¤
ĠìķĬ ê³ł
ĠìķĦ ìĿ´
ĠëĤ ł
Ġê¸ ī
Ġë¬¸ íĻĶ
I G
ìĥģ ìĿĺ
u it
at h
Ġì± ħ
Ġnet work
Ġinvest ig
Ġê³ ³
crib ed
Ġc enter
b o
Ġf uture
Ġf re
ìłĢ ëĬĶ
ë² Į
ìĪĺ ë¥¼
duc ing
ìķĦ ìļĶ
Ġann oun
k s
Ġe l
ì° ½
Ġsp ace
Ġindivid ual
ì§Ģ ê³ł
ĠëıĻ ìŀĳ
are nt
Ġspec ific
er c
ìĹĲìĦľ ìĿĺ
ìłľ ê°Ģ
j or
Ġche ck
ì¹ĺ ë¥¼
Ġrelations hip
ĠëĶĶ ë°ĶìĿ´ìĬ¤
Ġdist rib
ìĿĮ ìĿĦ
ì´ ī
ìĬ¤ ë¥¼
ĠJ e
ì ·¨
ī ´
Ġm illion
Ġê·ľ ìłķ
ĠìļĶ êµ¬
ĠìķĪ ìłĦ
íĬ¸ ë¥¼
Ġro om
Ġchild ren
h old
Ġëĭ¤ ìĭľ
Ġë°© ìĭĿ
Ġveh icle
ab ly
Ġe t
Ġh ol
ĠêµŃ ëĤ´
Ġex am
Ġpress ure
ĠC O
ë£ ¹
ëł¥ ìĿ´
Ġunder st
ur ity
u g
ë£Į ë¥¼
ĠíļĮ ìłĦ
is ter
Ġê´Ģ ìĭ¬
Ġë³´ ìĹ¬
ĠëĶĶìĬ¤ íĶĮëłĪìĿ´
Ġfollow ing
ëĤ¬ ëĭ¤
Ġê¸° íĮĲ
A t
Ġíĸ Ī
ëĤĺ ìļĶ
ron t
le t
g ed
Ġê³ł ìłķ
Ġde l
ĠíĪ¬ ìŀĲ
Ġp op
Ġm ount
itt ed
Ġth ose
ĠíķĦìļĶ íķľ
ìĽĲ ìĿĺ
ĠìĿ¸ ìĭĿ
Ġn ational
ì¹ Ļ
Ġr ad
Ġen g
ate g
r ing
ìŀ Ī
ëĵ Ī
Ġhig her
Ġëĵ± ìĿ´
he re
Ġê²Ģ ì¶ľ
Ġê³Ħ íļį
Ġf ield
Ġh ous
ëłĩ ê²Į
an ding
ë Ī
Ġbl ock
Ġhy d
ric t
Ġmeet ing
ëĶ ©
ë¶Ģ ëĬĶ
s c
ê· Ģ
Ġhum an
Ġreport ed
Ġê¸° ê°Ħ
ê² ¨
2 00
ìĽĲ ìĿĦ
ĠìĦľ ìļ¸
ver age
m e
qu e
Ġac qu
ì£ ł
Ġíı Ń
ì§Ħ ëĭ¤
es e
Ġsit uation
Ġex ec
ĠìłĦ ê¸°
Ġf ree
Ġm ot
Ġfore ign
Ġth ird
ĠìĿ´ ëŁ¬íķľ
ro w
ìĩ Ħ
ìłĲ ìĿĦ
ì²ĺ ëŁ¼
Ġë° Ģ
ĠëĦ ĺ
Ġinf l
Ġê¸° ë¡Ŀ
ì± Ħ
Ġì¡° ìĤ¬
Ġfl u
c er
ren g
íĮ ¨
ê² Ģ
íķĻ êµĲ
Ġme an
ĠíĿ ¡
Ġê°ľ ìĦł
Ġan other
Ġì» ´
h a
Ġë°ľ ìłĦ
ĠC on
ë¯ Ģë¡ľ
Ġactiv ities
ë¶Ģ ë¶Ħ
Ġcirc uit
Ġexper ience
Ġg reat
ëł ¸
ĠPro v
Ġex ample
Ġì¹ ľ
Ġpl ate
Ġì§Ģ ë°©
l and
Ġim m
Ġë°ĺ ìĿĳ
ëŀ µ
Ġê°Ĳ ìĹ¼
ëĬ Ĳ
ĠìĿ´ íķ´
v es
ĠìĿ¼ ë³¸
Ġex ce
Ġfe el
Ġproduct ion
Ġdisc uss
1 8
Ġh ospital
ĠìŀĪ ìĹĪ
ĠêµŃ ìłľ
Ġí Ĥ
Ġinst it
Ġê° Ĵ
p le
Ġstor age
n ot
Ġselect ed
Ġma jor
ĠìłĦ ì²´
íĬ¹ íŀĪ
ĠìľĦ íĹĺ
Ġsc reen
Ġìłľ ìĭľ
Ġf ul
ver t
ĠìłĦ ê·¹
Ġìĸ´ ëł¤
Ġê²½ íĹĺ
Ġtrans fer
iv al
Ġ2 3
ëĵ¤ ê³¼
Ġsp e
Ġen ergy
Ġì ħ
Ġre ad
ac hed
íĸĪ ìĬµëĭĪëĭ¤
Ġrespon se
Ġê°Ģ ê²©
Ġìĸ ¼
Ġcorrespon ding
Ġì ĵ
ì¼ ľ
Ġì» ¨
Ġíİ ĺ
Ġëį°ìĿ´íĦ° ë¥¼
Ġì ¼
ab or
Ġë° ±
Ġal ong
n g
Ġth ough
ìĹ Ķ
ì ĥ
Ġìŀĳ ìĹħ
st it
Ġst reng
Ġì§Ģ ìĨį
2 2
ìłľ ë¡ľ
Ġë³´ ëĤ´
il it
Ġs ing
ĠìĤ¬ ê±´
Ġre le
ìĪĺ ê°Ģ
â Ī
Ġsens or
ìļ° ë¦¬
Ġrece ive
Ġì¢ĭ ìĿĢ
ìĿ¸ ìĿĦ
Ġapp ro
ëı ¼
Ġê±´ ê°ķ
Ġh ard
ul ated
em ic
ê° Ĵ
ëªħ ìĿ´
ĠìĨĮ ë¹Ħ
Ġperform ed
Ġì½Ķ ë¡ľëĤĺ
ĠìĺĪ ìłķ
Ġs ize
Ġprovid es
Ġelectro de
ë¶Ģ ìĿĺ
Ġacc ount
Ġpo st
ĠH e
ìľĦ ë¥¼
Ġstand ard
Ġmet al
Ġê·¸ ë¦¬ê³ł
it or
Y es
ìľ¼ë¡ľ ìĦľ
Ġë¹ ł
et s
Ġcomp ut
ĠíĬ¹ ìłķ
íļĮ ìĿĺ
ĠìĿĺ íķľ
end s
ro ss
Ġì¹ ¨
Ġh ist
íķľ êµŃ
Ġëª¨ ëį¸
ĠíķĻ ìĬµ
m m
Ġë°©ë²ķ ìĿĦ
ë´ ī
Ġë³ Ħ
Ġintern ational
Ġpre p
ìļ´ ëį°
ì¹ ľ
Ġres id
Ġprev ious
ì§Ģ ìĹĲ
Ġdisc l
Ġêµ °
ìĭ Ń
ĠìŀĲ ëıĻ
íı Ń
ĠëĬ ĺ
1 6
Ġph ot
Ġ enter
Ġc at
Ġind ic
Ġê°Ģì§Ģ ê³ł
íĤ ¨
Ġìłľê³µ íķĺëĬĶ
ĵ ¨
re l
Ġref lect
k es
ëĵľ ë¥¼
ar s
Ġìķ Ķ
ëĵ¤ ìĹĲ
Ġv ide
Ġê¸Ī ìĨį
Ġqu est
ĠíĮĲ ë§¤
ĠíĤ ¤
Ġma king
ë¦½ ëĭĪëĭ¤
Ġ u
ìķ Į
ì§Ģ ê°Ģ
íħĲ ì¸ł
7 0
act ion
ìľ¼ ëĤĺ
is ed
Ġê³µ ìłķ
Ġì°¨ ëŁī
ivers ity
Ġìµľ ëĮĢ
ĠëĤ´ ì§Ģ
t en
ëĭ Į
Ġtr ad
Ġì¤Ģ ë¹Ħ
ain ed
itt ee
s ide
A fter
Ġsh ort
ìķ Ķ
ĠArt icle
w on
ĠìļĶ ì²Ń
ëıĦ ìĿĺ
Ġpat tern
ĠUn ited
Wh at
Ġgrow th
u k
Ġgo ing
S ince
itt ing
ĠìĦ¼ ìĦľ
Ġê¸Ī ìľµ
ĠA ss
Ġf ront
Ġto get
Ġmo b
Ġbuil ding
Ġtoget her
i er
Ġloc ated
Ġg ame
ëĭ µ
Ġco op
Ġëª¨ ëĵĪ
Ġpur ch
Â °
art ment
ê·¸ ëŀĺ
Ġqu ality
Ġinst all
u es
ë¬¼ ìĿĺ
Ġv ir
pp ing
ĠìĤ¬ìĿ´ ìĹĲ
Ġê°Ĳ ìĤ¬
Th at
Ġë¹Ħ ìļ©
Ġíķ¨ ìľł
duct ion
Ġins urance
Ġs elf
Ġmem ory
Ġwhere in
Ġê¸° ëĮĢ
inist ry
Ġì£¼ ë¬¸
ĠìĦľ ë¡ľ
Ġadm inist
ĠìĪĺ ìļ©
Ġst ill
Ġf ix
Ġr a
ĠL ee
ĠëıĻ ìĿ¼
Ġë ĥī
Ġli qu
Ġíı ´ë¦¬
ì¼ ĢìĿ´
Ġto uch
Ġcr it
b on
Ġlear ning
ĠëĬ Ĳ
ĠìĿ´ ë²Ī
Ġl ist
Ġp lease
Ġet c
Ġt re
Ġë§ ī
ìĥģ ìĿ´
ĠS outh
Ġpur p
ĠìĹŃ íķł
âĪ ¼
Ġwe ight
olog ical
í ĵ¨
c ent
ìĿ´ ìĸ´
Ġare as
Ġapp ly
Ġíķ´ ê²°
ut ed
íĨµ ëł¹
» ê²Į
ĠíļĮ ë¡ľ
Ġeff ic
Ġb en
p ec
ort s
Ġb at
Ġinclud ed
Ġc ut
Ġaut hor
Ġestabl ish
Ġp ast
ĠìĪĺ ëĭ¨
Ġí Ľ
ĠìĤ ¼
ê¸° ê´Ģ
Ġê°Ģ ìļ´ëį°
Ġpro p
Ġopen ing
Ġbe h
Ġìº Ĳ
Ġadj ust
íķĺ ìĭľ
ĠëķĮë¬¸ ìĿ´ëĭ¤
Ġser vices
ìļ ±
ut es
Ġf und
ĠìĿ´ìļ© íķĺìĹ¬
ìĹ° êµ¬
ĠëĲĺ ëĬĶ
ìĿ´ ê°Ģ
Ġê³ ¨
at ural
ch ing
e gr
Ġs at
Ġì¸¡ ë©´
Ġr un
Ġëĭ¹ ìĭł
a x
ens ion
Ġ er
Ġu pper
ĠìľĦ íķĺìĹ¬
Ġê²ĥ ìŀħëĭĪëĭ¤
ë° Ģ
ìĽĲ ìĿĢ
e w
Ġëģ Ŀ
' re
est ic
Ġmod ule
Ġë°© ë¬¸
ib er
ìĿ´ ëĵľ
Ġto o
th ough
ì ½
oc us
ë¶Ģ ê°Ģ
Ġis su
íķ ĳ
ì¹ Ń
Ġìĸ´ëĸ ¤
res ident
ĠA n
Ġf ace
Ġab le
. .
V ID
ì£ Ħ
ìĭ ±
Ġinc ome
Ġcharacter istics
ëŁ¬ ìĬ¤
íĥ Ī
ch ie
ìĽĮ íģ¬
Ġ6 0
Ġm id
ì§Ģ ìĿĺ
Ġt imes
Ġstud ies
ã Ģ
ang ed
Ġh ot
Ġ19 9
Ġrel ative
ĠìĻ¸ ë¶Ģ
Ġconfig ured
Ġj ob
Ġíŀ ĺ
Ġìŀ ł
ë² ½
ĠìĬ ¬
ëĿ¼ ìĿ¸
íķĺ ê±°ëĤĺ
Ġê°ľ ìĿ¸
ĠìłĦ ëĭ¬
a im
Ġpr act
Ġcan not
Ġs ource
ar ding
Ġmed ia
Ġcom e
Ġê· ¹
Ġìµľ ê·¼
Ġinvest ment
ë¨ ¼
Ġb est
Ġris k
Ġconn ect
ê·¸ ëĬĶ
ap er
ĠM inistry
Ġì§Ģ ê¸Ī
ĠëĮĢ íķĺìĹ¬
ĠìĿĺ ë£Į
w ang
ar ing
ĠìĬ¤ íĬ¸
Ġtra vel
ëĺĲ íķľ
ch an
d ong
ëĭ Ľ
ĠG o
ìŀĦ ìĿĦ
emb ly
Ġw a
ìķ Ļ
Ġst ock
ac es
íģ ´
pp ed
ĠíķĻ êµĲ
g en
Ġbec ome
¬ ìľł
Ġmethod s
Ġre ally
Ġab s
b y
Ġa chie
Ġdec re
ĠëıĦ ìĭľ
ĠíĻľ ìĦ±
Ġì£¼ ìļĶ
Ġacc ess
The y
Ġì¸ µ
ĠëĤĺíĥĢ ëĤ´
Ġvis it
Ġassoci ated
im ate
ob al
Ġì² ľ
Ġfr ame
Ġë¶Ħ ìķ¼
Ġì´ ī
ĠëĤĺíĥĢ ëĤ¬ëĭ¤
ê¸° ë¡ľ
ab les
Ġh im
Ġë°Ķ ëŀ
et ic
Ġex ch
Ġë³Ģ ê²½
Ġs us
Ġìĥģ íĴĪ
Ġf ocus
Ġw in
ëĲ ©ëĭĪëĭ¤
c o
ëł Į
Ġcomp ound
ac y
ìłķ ë³´
al k
ĠìłĦ ìĨ¡
Ġs ent
id es
Ġfre qu
B ut
i ation
Ġwor king
Ġke y
ĠëĮĢ íĨµëł¹
ëĲĺ ë©°
it ud
ì² ł
íģ ¼
Ġê´Ģ ê´ĳ
w are
ìĿ¸ ëĭ¤
ëıĦ ë¡ľ
ĠìĿ¸ ìłķ
ĠíĶĦ ëłĪ
Ġìłľ íķľ
ĠíĶĦë¡ľ ìĦ¸
Ġê° Ī
Ġpr iv
Ġíıī ê·ł
Ġconduct ed
Ġë²Ī ì§¸
íķĺ ëł¤
Ġle t
ìĦ± ê³¼
o ice
Ġres in
Ġde li
ast ic
ar ant
íı Ĳ
Ġmeas ure
Ġsy m
Ġn ame
ac her
ĠëıĦ ìĽ
ê²ĥ ìĿĢ
Ġìī ½
Ġcomp ared
Ġê±° ëŀĺ
ĠT r
ĠíĻķ ëĮĢ
ê¹ Ģ
Ġret urn
ot t
ain t
ì¼ Ģ
e an
ë¦¬ ìĹĲ
Ġì¤ĳìļĶ íķľ
ìĿĺ ë¥¼
Ġdet ail
Ġcor por
ĠìĿ Ģ
Ġì¡° ì§ģ
il ar
Ġ -
Ġindu str
Ġëĭ¨ ë§Ĳ
Ġfam ily
íĺ Ī
Ġdiffere nce
Ġë°Ķëŀ įëĭĪëĭ¤
ĠS h
Ġle ft
Ġright s
at ory
ìĨ Ĳ
Ġte xt
Ġìĸ´ëĸ »ê²Į
Ġas k
ìļ° ë¦¬ëĬĶ
Ġliqu id
Ġsh are
íķ Ħ
one y
Ġa ud
ĠA s
Ġc ou
Ġp ack
Ġannoun ced
Ġê³Ħ ìķ½
f or
ĠìĹĨ ìĿ´
Ġíĸ¥ ìĥģ
Ġcompon ent
íĬ¸ ìĽĮíģ¬
ĠT h
ch ar
BB B
% ,
ì²´ ê°Ģ
ĠíļĮ ìĤ¬
ĠíĻĶ íķ©
Ġìŀ ¡
ĠU S
ĠP ark
Ġc er
Ġrece iving
Ġmain tain
ve y
Ġse en
Ġrel ates
ê³ ¡
Ġì² «
i ol
Ġs ection
Ġíķ µ
Ġrec ord
Ġpr inc
Ġo x
ĠìĹĲ ëĦĪ
Ġdom estic
Ġl and
Ġm ach
ìĿ´ ë²Ī
d en
ain s
Ġvide o
t o
ìħ ¨
ê°Ģ ëĬ¥
Ġbu y
an y
ì¶ ©
Ġíľ ´
Ġoff ice
tern al
S o
Ġc ity
Ġn atural
ĠCO VID
Ġê´Ģëł¨ ëĲľ
ĠìŀĪìĸ´ ìļĶ
rap h
Ġh al
Ġstr ong
Ġb illion
ed i
Ġíļ¨ ìľ¨
ëıĦ ìĹĲ
Ġë¶ģ íķľ
ìĬ¤ íģ¬
ê³ ¨
Ġìłľ ê±°
ru g
Ġhous ing
P lease
Ġsal es
on d
Ġ ut
Ġleg al
Ġì² ł
ul ating
Ġcall ed
Ġìĭľ íĸī
Ġa verage
í ľ
ê³Ħ ë¥¼
Ġìĥģ ëĮĢ
Ġë°©ë²ķ ìĿĢ
Ġê°ľ ìĭľ
Ġsu g
Ġint egr
Ġact ive
íķĻ ìłģ
ëĿ¼ ëıĦ
Ġr ange
ìĦľ ë¥¼
Ġo ld
Ġë¬¼ ì§Ī
ë³ ¼
Ġmaterial s
ë ķĮ
ĠGyeong gi
Ġman ag
Ġelect ric
Ġëĳ ĺ
Ġ z
Ġun t
Ġcl aim
Ġëª© ìłģ
Ġmob ile
Ġp ut
Ġë©Ķ ëª¨
um p
ìĿ´ ì§Ģ
Ġ X
í ĮĢ
ĠG u
ill age
Ġben ef
2 1
Ġarr anged
Ġw ire
ĩ ´
Ġêµ¬ ëıĻ
ĠM in
ĠIn tern
Ġb ig
ĠD e
Ġpol it
o x
am s
Ġëª ĩ
ĠìĹ ¼
g ing
Ġr at
Ġsp read
Ġapp ear
ent ial
Ġ3 1
read y
o le
om s
Ġw ar
ye on
Ġen c
ĠëĤ´ ë¶Ģ
Ġcondition s
ĠëĪ Ī
ê·¸ ë¦¬ê³ł
C h
Ġê³Ħ ìĨį
ĠìĹ¬ íĸī
Ġpat ient
c heon
Ġë§Įëĵ¤ ìĸ´
Ġsh ape
j e
ĠìĤ¬ ë¡Ģ
Ġag ree
Ġê·¸ ë£¹
Ġë°© ì§Ģ
Ġíĺ Ī
us e
ĠìĦ± ìŀ¥
Ġìŀ¬ ë£Į
Ġmeas ures
Ġal ready
Ġë²Ķ ìľĦ
íķĺìĹ¬ ìķ¼
Ġc le
Ġdise ase
Ġchang es
Ġbo ok
ines e
ĠíķĦìļĶ íķĺëĭ¤
Ġha pp
ê³ ³
ëĶĶ ìĺ¤
ĠProv ince
Ġsim ilar
x im
Ġex c
íĻĶ ëĲľ
ê¹Į ìļĶ
Ġte acher
ĠìķĪ ìłķ
Ġì»´ íĵ¨
ëĺĲ ëĬĶ
Ġêµ¬ ë§¤
Ġconst ruction
Ġd ivid
Ġê¸° ì¡´
Ġg ive
Ġ2 6
Ġìĺģ ìĥģ
Ġì¡° ê±´
Ġë°Ľ ìķĦ
íķĺê³ł ìŀĲ
ëĶ °
ê°Ģ ëĬĶ
Ġëª© íĳľ
Ġp an
Ġb ank
Ġestabl ished
Ġor ig
ëĦ¤ ìļĶ
ĠëıĻ ìĭľìĹĲ
ĠëĦĪ ë¬´
Ġhyd ro
t age
Ġpurp ose
ê³¼ ìĿĺ
ĠP l
Ġtr aining
Ġê³µ ìĹ°
Ġdetermin ed
Ġê³µ ëıĻ
ĠíĬ¹ íŀĪ
Ġdisp osed
êµŃ ìĿĺ
ĠíĴ Ī
Ġfac ilities
Ġì½ĺ íħĲì¸ł
Ġdem and
an nel
Ġfin d
ëĵľ ëĬĶ
Ġde vices
Ġex ternal
An d
Ġê¸° ë³¸
a z
ĠëĬ ¥
ĠíĮ¨ íĦ´
Ġconsid ered
ë ĳ
ĠìĿ´ë¯¸ ì§Ģ
ĠëįĶ ìļ±
Ġh our
Ġv ac
Ġì¶Ķ ì§Ħ
Ġchar ge
Ġìĭ¤ íĸī
ëĤ ¸
ìĤ¬ ìĹħ
Ġunt il
ut ions
ìĦ± ìĹĲ
Ġ2 8
ĠSt ates
ĠíĶ¼ íķ´
Ġìľł ëĭĽ
Ġgl obal
Ġf ive
Ġpart s
Ġdet ect
Ġìĵ °
Ġac id
ĠëĦ¤ íĬ¸ìĽĮíģ¬
Ġw omen
s ue
Ġh ope
ĠìĿ´ ìłĦ
Ġcult ure
Ġreg ul
ĠíĦ° ì¹ĺ
Ġwh y
Ġbel ie
ĠìĿ¸ íķ´
Ġem erg
Ġë°ľ íĳľ
Ġê²°ê³¼ ë¥¼
s h
íı °
o or
Ġìłķ ìĿĺ
Ġìĸ µ
Ġì¡° ìłķ
Ġb re
Ġ2 7
ëªħ ìĿĺ
Ġpos itive
Ġc lear
ì£¼ ìĭľ
Ġm ass
ê°Ģ ìļĶ
Ġch annel
Ġinfl u
Ġcol or
Ġìķ ¼
Ġm ic
us ion
Ġor d
Ġne ar
ĠC ity
Ġph ys
art y
ê¸Ī ìĿĦ
ist ic
Ġco ver
ĠìĤ¬ íķŃ
Ġcomm on
d le
ĠìķĬ ìķĺ
íĶĦ ë¡ľ
Ġincre asing
Ġrec omm
Ġmanufact uring
o o
Ġìŀ¥ì¹ĺ ëĬĶ
Ġproper ty
ëıĦ ëĬĶ
Ġë² Į
ol l
ìłĦ íŀĪ
í Ĩ
iv ity
ê° Ī
Ġëª °
Ġde g
ë©´ ìĹĲ
ĠëĤ´ ìĹĲ
Ġear ly
íİ ´
ìłķ ìĿĺ
Ġc ard
íķĺ ìĦ¸ìļĶ
p r
Ġv iol
Ġì¡°ìĦ± ë¬¼
s an
am et
ìĤ¬ íļĮ
ëŁī ìĿĦ
Ġcont aining
Ġproblem s
ĠD ae
Ġì¢ Ģ
ë ¢
Ġdr iving
Ġobtain ed
Ġc oun
o id
Ġì Ķ
Ġw all
Ġm ar
ë¦¬ ìķĦ
ëı Į
ë¢ °
r ied
Ġíģ¬ ê²Į
Ġë§ Ľ
Ġgroup s
Ġsec urity
Ġ1 10
Ġê·ľ ëª¨
Ġfact ors
ĠìĤ´ íİ´
Ġsing le
Ġí ĭ
ol ution
ĠëĤ ľ
ep end
ĠìŀĲ ìľł
ĠëĲĺ ìĸ´
Ġì ĥī
Ġpay ment
ĠëĮĢìĥģ ìľ¼ë¡ľ
Ġrequ ired
ìĬ¤ íĦ°
Ġwe b
ol it
Ġ3 00
Ġë³´ íĹĺ
Ġvol tage
Ġsat is
Ġê²½ ê¸°
Ġ1 20
Ġpart y
Ġn orm
Ġser ver
ë¬¸ íĻĶ
Ġterm s
Ġex isting
ì´ Ŀ
ìĭľ íĤ¬
Ġì£¼ ìŀ¥
Ġ ill
Ġres ist
Ġrespon s
il i
le g
. ,
g ment
Ġaddition al
Ġê°ķ íĻĶ
Ġcap able
ì¼ĢìĿ´ ìħĺ
Ġf all
ë¡ ¯
Ġìłľ ìŀĳ
Ġì° ©
Ġìłĳ ì´ī
Ġë°Ķ ëŀĮ
Ġdevelop ed
Ġimpro ve
el s
om es
íĦ ¸
Ġcaus ed
as h
Ġë¸Ķ ë¡Ŀ
Ġk ind
b ased
Ġst age
2 5
Ġs il
ìĨĮ ë¥¼
Ġê°Ģì§Ģ ëĬĶ
ìķĪ ìĿĦ
se c
Ġì¢ĭ ìķĦ
Ġm agn
Ġm oney
ë§Ī íĬ¸
Ġp arent
Ġë³´ ìĿ¸ëĭ¤
Ġì²ĺ ìĿĮ
ffic ient
ìĹĪ ìĬµëĭĪëĭ¤
ĠC enter
ĠëıĦ ìŀħ
ìĦ± ìĿĺ
ĠíĬ¹ ë³Ħ
ĠP resident
Ġsu per
ìĿ¼ ìĿĦ
Ġê²½ ìŁģ
Ġshow ed
ul a
1 10
O ur
ìĭľ ì¼ľ
ĠìķĮ ê³ł
ìŀĲ ìĿ¸
Al though
n ed
Ġìķ ħ
Ġtrans port
Ġ ur
Ġins ide
ì§ ľ
ct ions
ë² ¤
ĠCh inese
ìłĦ ìŀĲ
Ġj oint
t ion
a id
Ġcon cept
Ġíĳľ íĺĦ
Ġë³´ ëĭ¤
Ġmed ium
in ing
ìĽĲ ìĹĲ
cc ess
ĠìĤ¬ìļ© íķĺìĹ¬
ĠíĿ Ĳ
Ġpat h
ĠíķĦìļĶ ê°Ģ
Ġê² ©
Ġìłķ ì¹ĺ
Ġatt ention
Ġshow n
Ġconn ection
c hed
Ġpriv ate
Ġme chan
Ġê²½ìļ° ìĹĲëĬĶ
Ġo il
as k
Ġb i
c ast
ĠìĺĪ ì¸¡
Ġinter p
ì¦ ĺ
Ġbro ad
Ġsus p
Ġmus ic
ê¸ ´
Ġc ause
Ġ7 0
Ġb ur
Ġadd ed
ìĦ± ìĿĢ
Ġprof ess
am es
Ġê°ķ ì¡°
t he
os is
Ġrev iew
êµ¬ ë¥¼
Ġknow n
ĠìĿ´ íķĺ
Ġê°Ģ ìĬ¤
Ġa ge
Ġs oci
Ġìŀĳ ëıĻ
o ye
Ġdirect ly
ê·¸ëŁ¬ ëĤĺ
Ġë°Ķ ìĿ´
ip ment
Ġs ect
Ġs ell
ê ´
Ġw ind
ĠB us
Ġì¼ ĢìĿ´
erm ine
Ġa p
Ġìłķ íĻķ
ìĥ Ī
ìĪĺ ëĬĶ
Ġconc ent
ĠìĹ¬ ê¸°
ĠìĹ Ķ
os ing
ĠíĹ ¤
Ġë°ľ ê²¬
Ġì¶Ķ ìłķ
Ġdet ermine
as ter
ì º
Ġpre par
Ġf ail
Ġë°Ķ ë¡ľ
Ġëħ¼ ìĿĺ
Ġsaf ety
our ces
ĠëĮĢ ë¶Ģë¶Ħ
ì§Ģ ëĤľ
ĠìĦľ ë²Ħ
Ġde b
on es
ĠìĹ° ëĿ½
oc u
Ġse ason
Ġcustom ers
ìŀ ¡
ort un
ĠíĴ į
ĠìŀĲ ìĹ°
Ġgr ad
ëıĦ ì²´
Ġchang ed
ìŀ¥ ìĿĺ
irm an
Ġ es
ì ½ĺ
ìĹ ĩ
Ġëĵ± ìĹĲ
way s
ĠE u
Ġloc ation
Ġë¬¸ìłľ ê°Ģ
Ġrat io
ĠìĿ¼ ìłķ
Ġbas ic
íĶĦ íĬ¸
ĠíĻ į
ĠD ef
Ġd ig
íħ Ķ
eng th
en ing
ĠìĺĪ ìĥģ
Ġdes cribed
ìŀ¥ ìĹĲìĦľ
íĴĪ ìĿĦ
ress ion
Ġwor ds
ìĦ¼ íĦ°
Ġper cent
Ġê²Ģ ìĤ¬
íĶĮ ë¦¬
Ġs ound
Ġto day
Ġout side
ĠìĦ± ë¶Ħ
y c
Ġg re
Ġí ļį
Ġíĥ Ī
Ġeconom y
Ġì¡° ìłĪ
Ġav ail
Ġë¶Ģ ëĭ´
Ġê¸° ê´Ģ
Ġexp and
ìĭľ íĤ¨
ìĤ ´
ĠìłľíĴĪ ìĿĦ
Ġcult ural
Ġìµľ ê³ł
Ġis sue
ĠìłĦ ìķķ
8 0
ìłĲ ìĿ´
Ġthere of
E ven
ĠìĹ° ìŀ¥
l ing
ìĹ Ĩ
Ġin it
Ġb ar
ëĶĶ ìĸ´
Ġë¶Ħ ë¦¬
Ġê° Ŀ
Ġb ott
Ġprot ect
Ġìłĳ ìĨį
Ġse ver
Ġcl ose
Ġeas y
ìľĦìĽĲ íļĮ
Ġtr y
ter y
Ġco ol
Ġempl oye
Ġoper ating
Ġac cept
Ġ ide
ëł µ
Ġcar bon
ëĤĺ ëĿ¼
ĠìķĦ ëĭĮ
Ġsug gest
êµ ´
Ġsub st
ĠìĹħ ë¬´
Ġro le
e g
Ġë¨ ¸
ĠUn iversity
Ġaut om
Ġsu ccess
Ġcol l
Ġë©Ķëª¨ ë¦¬
j oy
os ure
Ġd ocu
Ġresid ents
ìĺĪ ìļĶ
Ġexce ll
1 7
Ġsh a
ĠêµŃ ë¯¼
Ġmo vement
Ġcle an
in king
n d
a ur
ĠN ew
íĸĪëĭ¤ ê³ł
Ġìĸ´ ëĬĲ
Ġdam age
ëĦ ·
le x
ĠìĤ¬ìĿ´ ìĿĺ
Ġlim it
r d
id ence
Ġgener ated
Ġê·¸ ê²ĥ
ì§Ģ ìĹŃ
Ġprovid ing
Ġdi agn
Ġíĺ¼ íķ©
Ġprocess or
ëĵľ ë¦½ëĭĪëĭ¤
Ġëª¨ ìĬµ
Ġìļ´ ëıĻ
Ġout er
Ġë°©íĸ¥ ìľ¼ë¡ľ
Ġm ess
ê°Ģ ì§Ģ
end ant
ëĭ¤ ë©´
Ġpoly mer
ĠìĤ¬ ê³ł
ac ed
ĠìĨĮ ê°ľ
Ġìµľ ìĨĮ
Ġconc ern
Ġíķĺ ìĺĢëĭ¤
Ġstr ateg
k en
Ġë¹Ħ íķ´
Ġhal f
Ġl a
a f
ĠJapan ese
ìł Ŀ
Ġìļ° ìĪĺ
m on
Ġë¹Ħ ìľ¨
Ġob s
Ġhist ory
Ġp ain
i ver
íĹ Ī
Ġê°ĢëĬ¥ ìĦ±ìĿ´
ĠìłĦ ìĹĲ
Ġbe g
Ġì¦ Ĳ
íĥ ķ
Ġs omet
¿Ĳ ë§Į
Ġì§Ģ ìłģ
Ġm en
Ġìłķ ìĥģ
Ġsw it
ilit ary
Ġc am
Ġshow s
Ġdec ided
ĠëĮĢíķ´ ìĦľ
ĠìķĬ ìķĺëĭ¤
Ġê ¼
ĠìŀĪ ìľ¼
Ġorgan iz
Ġsay ing
Ġìĥģ íĺ¸
ê´Ģ ë¦¬
o ot
ëĭ¹ ìĭł
Ġí ĮĢ
ĠíĻ Ī
Ġíķ´ ìĻ¸
Ġperson al
Ġre duced
Ġê² ¬
Ġeas ily
íĺ ģ
Ġpro ced
ĠíĻķ ë³´
Ġê°ľ ëħĲ
íĶĮë¦¬ ì¼ĢìĿ´ìħĺ
a ff
p ro
' ve
Ġen joy
ë¦ Ń
ĠëĤ® ìĿĢ
ìłľ ëĬĶ
Ġë Ł
r m
i que
Ġ8 0
ëªħ ìĿĦ
Ġcour t
ition al
Ġs end
ìĿĢ íĸī
ĠìĦ ¬ìľł
ë°© íĸ¥
Ġdec ision
Ġcap ital
Ġmean ing
Ġcour se
Ġ Z
ì£¼ ëĬĶ
ëŁī ìĿ´
ĠìŀĲ ê¸°
Ġreg arding
ìĤ° ìĿĦ
ë¶Ģ ìĻĢ
ëĲĺ ë©´
ag ing
ĠìĪĺ ì§Ģ
ëĿ¼ ìĦľ
ë² ¨
Ġìĥģ ëĭ¹
Ġeval uation
Ġbet ter
íĸĪ ëįĺ
Ġì¶© ë¶Ħ
iv il
2 4
c her
¶ ģ
Ġform ing
Ġì² ¨
D o
Ġdis char
Ġit ems
Ġbas is
íĺĦ ìŀ¬
Ġtransm ission
Ġa way
ĠíĻķ ì§Ħ
Ġmonth s
Ġ2 9
ìŀĲ ìĻĢ
Ġso ft
ĠY e
C C
Ġì¢ Į
Ġcor re
Ġshe et
Ġl og
Ġìŀ¥ì¹ĺ ë¥¼
Ġexcell ent
Ġì£¼ ë¯¼
Ġìŀĳ ìļ©
ì° ¬
Ġìľł ìĿĺ
uc lear
Ġext ract
m an
Ġc red
ic les
Ġì±Ħ ëĦĲ
ĠìĹŃíķł ìĿĦ
Ġëª ¸
ĠìĤ¬ ë§Ŀ
Ġspe ed
b r
Ġê³µ ê°ľ
Ġsk in
Ġt urn
Ġa x
Ġmo ve
is ing
Ġcer tain
Ġref er
Ġest im
Ġìłģ ê·¹
ur y
ĠìĭĿ ë³Ħ
Ġìĥģ ìĬ¹
ĠìĹ°êµ¬ ëĬĶ
Ġìĭłíĺ¸ ë¥¼
Ġful l
Ġsu it
ĠìķĬ ìĿĦ
Ġìĸµ ìłľ
W ith
Ġre duce
Ġìĭľ ìĦ¤
Ġì£¼ ë³Ģ
ê´Ģ ê³Ħ
ëĨ į
Ġconst it
ĠEu rop
Ġcommun ity
ĠíĶĦëłĪ ìŀĦ
ìĤ¬ ìĹĲ
Ġê°Ģ ì¡±
Ġì§Ħ ëĭ¨
Ġê¸°ì´Ī íķĺìĹ¬
it iz
Ġag ent
1 20
li ke
Ġro ad
itt le
Ġcou pl
ìĿ´ ìĹĪëĭ¤
ie f
Ġsub s
Ġgro und
Ġbo ard
Ġìĭ¤ìĭľìĺĪ ìĹĲ
Ġê¸ ´
Ġíĸī ìľĦ
ĠìłĦ íĻĺ
Ġind epend
Ġrequ ire
a king
Ġ Î
íķ´ ìļĶ
¾ ¸
Ġatt ached
ore d
ëĭ Ŀ
ur s
olit an
ult ural
Ġcap ac
Ġp ot
Ġsol ution
Ġl abor
ĠìłĦ ëł¥
Ġìľł ê¸°
Ġs ite
Ġp aper
Ġimp act
Ġreg ist
Ġê°Ģ ì§Ħ
ë¥´ ê²Į
r ip
at ors
Ġthe rm
Ġì¦ ī
Ġut il
Ġgener ation
Ġë¨ ¼
Ġì £
Ġë ŀ
ëŀľ ëĵľ
ìĹ¬ ê¸°
ë¡ Ń
Ġke ep
ìĤ¬ ìļ©
ĠìĥĿ íĻľ
o ver
Ġse ems
Ġref erence
rop olitan
air s
m ber
Ġreg ard
Ġop in
Ġneg ative
íĬ¸ ìĿĺ
ìĸ´ ëĤĺ
ëĪ Ħ
ìłľ ìĿĺ
ĠíĮĮ ìķħ
Ġìłĳ ê·¼
Ġë§Į ì¡±
Ġì´ ¬
ì²´ ìĹĲ
n ov
Ġcell s
Ġëĸ ¨ìĸ´
Ġc ross
Ġë Ń
Ġequ ipment
ìĻ Ħ
ĠìĦ¸ íı¬
ĠíĿ ¬
Ġpol ice
ëŀ «
on duct
or ld
Ġr ather
ê·¸ ëŁ°
ëĥ Ĳ
Ġë°° ì¶ľ
Ġform er
Ġeng ine
r or
The se
ëĵľ ë¦¬
ĠH y
Ġdistrib ution
Ġst atus
Ġm or
Ġapp e
Ġpoint s
Ġíļį ëĵĿ
Ġst at
2 3
Ġl oss
Ġval ues
Ġf ri
et ermin
ct or
ìĿ¸ ì§Ģ
Ġ íķĺìĹ¬
Ġêµ¬ ì²´
Ġe at
Ġcoop eration
Ġp ip
ê¶Į ìĿĦ
Ġto ol
Ġon ce
Ġtr ade
Ġë¯¸ ì¹ĺëĬĶ
ìĥģ ìĹĲ
v al
Ġì Į
ul es
Ġdr aw
rop ri
Ġmin im
ìĿ´ ìĻĢ
ìĻ Ķëĭ¤
Ġìłķ ë§Ĳ
th ing
Ġopt ical
íĴ į
emic onduct
Ġë ľ
Ġavail able
ĠìķĦ ëŀĺ
Ġsever al
ĠìĹĲëĦĪ ì§Ģ
ĠìĤ¬ìļ© íķł
ì¹ĺ ê°Ģ
Ġfix ed
a irman
ê¸ Ģ
íļĮ ë¥¼
Ġsoci ety
Ġso on
enc es
in ary
Ġmach ine
íĭ ¸
Ġê°Ħ ìĿĺ
ish ing
Ġin ner
Ġl ater
Ġì§Ģ ìłķ
Ġwork ers
ë¡ ¤
Ġlo oking
Ġfin al
Ġê°ģê°ģ ìĿĺ
Ġì¤ĳ ìķĻ
Ġê°Ĳ ì§Ģ
Ġfe ed
he m
Ġsm art
ĠëĨ ĵ
ë¬¼ ìĿ´
Ġíķ´ ìĦĿ
Ġ5 00
ê°ľ ìĽĶ
ìĪĺ ë¡Ŀ
ì ¤Ħ
íķľëĭ¤ ëĬĶ
ĠìŀĲìĭł ìĿĺ
Ġë°Ľ ìĿĢ
ì§Ģ íĦ¸
t hen
Ġintern al
c il
Ġcomple te
l ig
Ġëĭ¨ê³Ħ ë¥¼
Ġmod e
r ical
Ġíĸī ëıĻ
Ġto ward
Ġìĸ´ ëłµ
ĠìĺĪ ë°©
ur ation
Ġíı¬íķ¨ íķĺê³ł
ĠìĤ¬ ì§Ħ
Ġë°©ë²ķ ìĹĲ
There fore
ì¦ ī
Ġimpro ved
Ġagree ment
Ġh old
Ġë°ĺ ìĺģ
Ġì¶Ķ ì¶ľ
FF F
ìµľ ê·¼
Ġì°¾ ìķĦ
a ut
Ġc ore
Ġre pl
Ġìľł ìĤ¬
Ġëħ¸ ëıĻ
ĠìłĦ ë§Ŀ
Ġfor ce
Ġempl oy
r it
Ġpre fer
Ġs emiconduct
ìĦł ìĿĦ
Ġcam er
Ġl ittle
Ġhour s
Ġíĸī ìłķ
Ġnew s
Ġunderst and
Ġbeh av
Ġìľł íĺķ
ĠìŀĪ ì§Ģë§Į
Ġvir t
Ġpolit ical
íĭ ±
ë§ Īëĭ¤
ous ly
íĤ ¹
Ġl ink
Ġê°ľ ìĿĺ
Ġìłģ íķ©
Ġìĭł ì²Ń
Ġìłľ ìĻ¸
íķĻ ìĥĿ
Ġeval u
ĠM et
ê°Ħ ìĿĺ
ĠìĦ± ê³µ
ĠìĤ¬íļĮ ìłģ
Ġê¸°ëĬ¥ ìĿĦ
h ol
ĠìķĦ ì§ģ
Ġinvestig ation
ìĭľ ëĬĶ
Ġcont ents
R W
Ġpan el
ë ĩ
Ġcon ver
ĠìłĦ ëŀµ
Ġm ilitary
ĠE U
ĠíĶ¼ ê³ł
Ġal ways
Ġf arm
Ġìĥģ ìĹĲ
ĠìĽ Ģ
ë¥´ ëĬĶ
Ġìļ° ëł¤
ĠìĹŃ ìĭľ
Ġrec ently
Ġì§ĳ ì¤ĳ
Ġt able
Ġrest aur
Ġta king
Ġfact or
ìħĶ ìĦľ
i res
r ative
Ġse arch
Ġìľł ë¦¬
Ġexp ens
ĠìĿ¸ íķľ
Ġê²Ģ íĨł
ĸ ìĹĲ
Ġf ill
ìŀĲ ìĹĲ
Ġtr ust
oun g
ë³´ íĹĺ
Ġtyp es
Ġb or
ter m
Ġ ver
ĠëĲ Ĳ
ĠìĿĮ ìĭĿ
Ġì»´íĵ¨ íĦ°
ìĿ¸ ìĿĢ
Ġë´ ī
Ġìłľ ìķĪ
Ġm ix
um e
ëĭ ¥
Ġgl ass
íİĺ ìĿ´ìĬ¤
al ed
ê¸° ìĪł
Ġcontroll er
v ant
Ġê°Ĳ ëıħ
Ġë¬´ ìĹĩ
iz es
Ġìĸ¼ ë§Ī
ìĬ¤ ìĿĺ
ĠA g
ë ī´
ĠìŀĪ ê²Į
ag ed
ë©Ķ ëĿ¼
ify ing
Ġcan cer
ëħ ķ
C O
ìĻĢ ìĿĺ
Ġstore d
ĠìľĦ ìĽĲ
Ġex hib
Ġth ick
íķĺëĬĶ ëį°
ĠìĦ¤ ê³Ħ
i ency
ĠìĿ´ ë¦Ħ
Ġíı¬íķ¨ íķľ
ìĿ´ íģ¬
Ġf ire
Ġprot ection
Ġon line
t ies
ĠìĹ Ħ
ĠS er
ìŀĲ ëĵ¤ìĿ´
Ġpurch ase
b e
c y
Ġê³¼ìłķ ìĹĲìĦľ
Ġìŀ¥ ìķł
a pp
Ġíĺ ¹
ĠD ong
Ġphys ical
ëĭ Ĳ
Ġexch ange
Ġeffect s
Ġë¶Ģ ì¡±
Ġbe low
aint iff
Ġcre ate
Ġê°ĢëĬ¥ íķĺê²Į
Ġdeli very
Ġqu ant
Ġre ve
Ġì§Ģ ê¸ī
Ġeffect ive
Ġì¤ĳìĭ¬ ìľ¼ë¡ľ
ĠìľĦíķ´ ìĦľëĬĶ
Ġc ame
íķľëĭ¤ ê³ł
g es
Ġëħ¸ ëł¥
ê·¸ëŀĺ ìĦľ
Th ank
Ġìŀ¥ ì°©
Ġcomput er
Ġìĺ¨ ëıĦ
Ġorgan ic
elf are
Ġw at
ìŀĲ ìĹĲê²Į
Ġë¬´ ìĦł
Ġìĺ¬ íķ´
Ġqu ick
Ġcompet ition
Ġelement s
Ġê³µ ìľł
Ġrecogn ized
Ġg iven
Ġpop ular
Ġíļ¨ê³¼ ë¥¼
Ġcomple x
Ġstreng then
Ġê³Ħ ìĤ°
ìĿ¼ ìĹĲ
Ġexp ect
Ġcent ral
C T
etermin ed
ĠìŀĲ ë£Į
Ġë¬¸ìłľ ë¥¼
Ġbl ood
u el
Ġë§Ī ìĿĦ
Ġto ok
ĠìĽĢ ì§ģ
A m
Ġíķĺ ê¸°
Ġmid dle
Ġê±° ìĿĺ
ê²ł ëĭ¤
a i
Ġê·¼ ê±°
ĠF IG
Ġ201 8
ĠK RW
ĠíĨµ íķ©
Ġê²Į ìŀĦ
Ġt ren
est ival
Ġì¢ħ ë¥ĺ
ĠìĦł ìĪĺ
Ġë ī´
Ġë³Ģ íĻĺ
Ġrelative ly
Ġp ow
ìĭľ ìĦ¤
ĠìĿĺ ê²¬
Ġë©Ķ ìĭľ
Ġover se
íĺ ¼
Ġro ll
Ġent ire
ìŀĲ ë¡ľ
Ġë²ķ ë¥ł
ëĶ° ëĿ¼ìĦľ
Ġd ate
ì¹ ł
Ġê· ł
Ġde ath
Ġdet ection
os ite
Ġmult iple
Ġl iving
ìĽĲ ìĹĲìĦľ
Ġfe w
ë¦¬ ìĿĺ
ìŀ¥ ìĹĲ
Ġìĭł ë¢°
rel ated
n ers
Ġs ix
ĠìĿ´ ëŁ°
un e
ĠíĨµ íķľ
erv ation
Ġc ry
Ġgu ide
re me
Ġëı ¼
Ġanalyz ed
Ġë³´ ë©´
íĿ ¥
ĠìĨ¡ ìĭł
ĠìĤ ¶
Ġfrequ ency
Ġl it
ĠComm ittee
ĠìĪĺ ìĹħ
Ġì£¼ ìĭľ
Ġêµ¬ íĺĦ
ĠìĿĳ ëĭµ
Ġìħ Ģ
ĠW orld
Ġjud gment
Ġmo v
Ġd rug
ĠíĮ¨ ëĦĲ
Ġë°ĶëŀĮ ì§ģ
ĠC our
Ġê·¸ ëŀĺ
ĠíĻķ ìĤ°
ĠìĹ° ê´Ģ
Ġpres ident
Ġcon ven
ĠìĻ¸ êµŃ
l o
Ġpred etermined
Ġë¹Ħ ë¡¯
Ġlim ited
ĠP arty
ĠëĲ ©ëĭĪëĭ¤
Ġë¶Ħ ë¥ĺ
ĠíĶĮ ëłĪìĿ´
' ,
ëĭ¤ ë¥¸
ë°Ķ ìĿ´
íı ¼
ĠìĿ´ ìĹĲ
U n
ĠìĨĮ ëĵĿ
in ance
Ġthough t
Ġíĺĳ ëł¥
Ġ201 5
Ġlike ly
Ġìłģ ìłĪ
ĠìŀĪ ê¸°
ĠS u
ĠS ec
ĠëĤĺ ìĺ¤
Ġparent s
Ġsemiconduct or
Ġv illage
ang u
ĠìĽ Ķ
Ġst ation
Ġbat tery
ì² Ļ
Ġan g
ĠìĦł ìłķ
os es
ĠìłĪ ì°¨
¿ ł
ĠMin ister
Ġquest ion
j in
oc r
Ġíĺ ģ
ê°Ĳ ìĿĦ
ĠìĬ¤ ë§ĪíĬ¸
ĠíĻĶ íķĻ
íĺ Ģ
Ġch am
Ġd er
Ġpr int
ì ģ
ë³´ ê³ł
ìĤ° ìĹħ
Ġrepresent ative
ĠìĿĮ ìķħ
Ġ9 0
ĠBus an
Ġìŀ Ķ
ĠìĿ´ ìķ¼
ĠìķĬëĬĶ ëĭ¤
S t
Ġposs ibility
Ġl ive
ĠH an
Ġt ub
Ġì¶© ìłĦ
Ġrespect ively
w h
re g
ì²´ ëĬĶ
ce ment
Ġê°Ļ ëĭ¤
F IG
he ong
Ġë§Į íģ¼
Ġfil ter
Ġì§ĢëĤľ íķ´
Ġì°¸ ìĦĿ
led ge
Ġsym pt
Ġê¸° ìŀ¬
Ġopp ortun
ĠíĬ¹ì§ķ ìľ¼ë¡ľ
Ġpr ior
p ris
in ated
ĠíĹĪ ìļ©
Ġë¹ Ī
ph as
itud e
êµ¬ ìĿĺ
us h
ìĬ¤ ëĬĶ
Ġpl at
íķĺ ìĿĺ
ir ing
ĠCh o
ĠG ang
ìĤ¬ ìĻĢ
Ġexper i
Ġf ar
Ġpr ices
Ġar m
ìĽ ¨ìĸ´
Ġj o
Ġ1 30
ĠëıĻìĿ¼ íķľ
Ġt ast
P ro
ach ing
an ced
ĠìĹ¬ ìĦ±
Ġdist ance
I s
ĠìĪĺ ì¶ľ
ĠA l
ĠìŀĪëĬĶ ëį°
ap s
ĠCour t
ëį ķ
at ures
Ġc ris
ìŀ¥ ì¹ĺ
ëģ ¼
Ġoverse as
Ġactiv ity
ĠE x
f ort
ĠìĿ´ ëĤł
Ġcurrent ly
Ġdig ital
Ġëĭ¹ ìĭľ
av or
Ġcl in
ëıĻ ìķĪ
Ġcost s
ce ed
Ġêµ¬ ë¶Ħ
Ġcont rib
Ġë°© ìĨ¡
em ber
ìĦ¸ ë¥¼
ver se
Ġìķł íĶĮë¦¬ì¼ĢìĿ´ìħĺ
Ġv ia
Ġatt ract
ì§Ģ ê¸Ī
ì§Ģ ë§ī
Ġê¸° ê³Ħ
Ġì§ĳ ëĭ¨
Ġhouse hold
ĠëĮĢ ë¹Ħ
mer ic
ĠëıĦìĽ ĢìĿ´
Ġc itiz
Ġflu id
al ing
ìĬ¤ ê°Ģ
h o
Ġaff ect
Ġus ers
ĠìĦľë¹ĦìĬ¤ ë¥¼
Ġparticip ate
c om
Ġgu id
Ġcomp ens
Ġem phas
Ġpro g
ĠìĶ ¨
en ed
ëįĶ ëĿ¼ëıĦ
ëł ¬
Ġprep ared
ê°Ģ ë¥¼
ĠM ay
Ġinf ection
ĠìĤ¬ìļ© ìŀĲìĿĺ
Ġë¯¸ ë¦¬
er y
êµŃ ìĿĢ
oc al
ë¡ľ ëĬĶ
Ġl ay
li er
Ġë £
ĠìłĦ íĨµ
3 2
ê ±
Ġp ul
ent al
i et
y ung
Ġ201 6
Ġê·¸ ìĿĺ
ĠìķĬ ìķĦ
Ġsignificant ly
Ġth ings
Ġë°ĺ ëıĦì²´
Ġcontain s
ìķ ŀ
Ġapp ropri
Ġw ear
Ġê²ĥ ìĿ´ëĿ¼ê³ł
ĠëĨĴ ìķĦ
Ġindustr ial
Ġbott om
in der
Ġsub m
Ġ201 9
Ġêµ¬ ì¶ķ
Ġind ex
Ġpro duced
Ġneed s
E D
ĠG erm
Ġact ual
ë©´ ìĿĦ
Ġcontin ue
Ġinter face
Ġadv ant
ì ¤
Ġpre c
Ġp en
ëħĦ ìĹĲ
Ġincre ases
Ġexpl ained
amet er
ëĬĶ ëĭ¤
Ġëıħ ë¦½
Ġintro duced
Ġlo ad
Ġw ide
Ġpred ict
Ġbroad cast
K ore
Ġp aid
ĠìĦ Ŀ
Ġê°Ģ ìł¸
ĠëĤ ©
Ġtrad itional
" ,
ĠëĲĺ ìĹĪëĭ¤
Ġadd ress
ĠI s
Ġpr im
Ġêµ¬ìĦ± ëĲľ
Ġbehav ior
Ġste el
Ġemploye es
ë²ķ ìĿĦ
erc ial
ĠR es
Ġìłľê³µ ëĲľëĭ¤
s y
ce l
Ġê¹ Ĭ
r im
ĠìĬ¤ ìľĦ
Ġ1 50
Ġr ap
Ġì±ħ ìŀĦ
Ġìī½ ê²Į
e xt
ê¸° ìĻĢ
ëĤ ©
Ġìĭ¶ ìĬµëĭĪëĭ¤
Ġdise ases
êµ¬ ê°Ģ
Ġma kes
Ġnorm al
ĠìĿ´ ëĬĶ
n a
ĠíĺĦ ìĭ¤
ĠìĪĺ ìĪł
ĠC o
Ġìŀ¥ ê¸°
Ġtr ial
Ġë¶Ģ ì°©
ĠE n
Ġact ion
Ġorgan ization
ê¸Ī ìľµ
Ġìłľ ê¸°
The n
Ġìłľ ê°Ģ
ĠìĪĺ ì§ĳ
ĠíĻĶíķ© ë¬¼
g o
Ġv oice
Ġìĭ¤ ìłľ
ĠíķĦ íĦ°
Ġdivid ed
Ġregul ations
Ġsystem s
ĠìĪĺ ìļĶ
Ġcorpor ate
ĠìĻ Ģ
Ġsol id
Ġsu mm
Ġprinc iple
ĠíĺķìĦ± ëĲľ
Ġplay ers
ìĸ´ ë¥¼
b all
Ġinstall ed
ĠëĤĺíĥĢëĤ´ ëĬĶ
íķ¨ ìĿĦ
ĠìĹ´ ë¦°
ìķ¡ ìĿĦ
Ġresist ance
ĠëŁ ¬
Ġsomet hing
Ġì ½
Ġëĭ µ
ĠO ff
ĠëĮĢìĿĳ íķĺëĬĶ
ë¦¬ ìłģ
Ġê°ĸ ê³ł
Ġìĭľê°Ħ ìĿ´
ëıĻ ìĤ°
Ġê°ĢëĬ¥ íķĺëĭ¤
Ġìŀĳ ìĿĢ
Ġdep ending
Ġì´¬ ìĺģ
Ġìľ ¡
Ġì¡° ìŀĳ
ĠëıĦ ìłĦ
ĠëĶĶ ì§ĢíĦ¸
Ġl ength
Ġëĵ± ë¡Ŀ
Ġìĭľ ë¯¼
ê°Ģ ê°Ģ
ìľ¼ë¡ľ ëĬĶ
Ġì°¨ ì§Ģ
Ġcustom er
ĠìĦ± ê³¼
Ġneed ed
s elf
Ġad ding
Ġd est
Ġê²½ìļ° ìĹĲ
Ġì§Ī íĻĺ
ot e
ĠëıĮ ìķĦ
ë¬´ ë¥¼
Ġ Q
Ġfl oor
Ġinstit utions
Ġ201 7
íļĮ ê°Ģ
ĠìŀĲëıĻ ì°¨
ĠI t
Ġë³´ ìľł
t ic
íĿ ¡
Ġê²½ ìĺģ
ìłģ ìĿ´
ìļ ķ
Ġhol ding
ĠìķĪ ëĤ´
Ġl angu
íĸĪ ê³ł
Ġb ud
s el
Ġf iber
Ġê°Ģ ìłķ
Ġcham ber
íĶ ½
Ġissu es
Ġmechan ism
ĠíĻ ©
ĠëĦ £
Ġacc ur
ì¦Ŀ ìĿĦ
Ġrele ased
Ġdel ay
ĠëĤ´ ìĿĺ
Ġgu arant
ëĮĢ ë¥¼
ëħķ íķĺìĦ¸ìļĶ
Ġcre ated
Ġíĥ Ĳ
t ime
ì° ¸
Ġëĵ± ìľ¼ë¡ľ
3 1
Ġrap id
Ġf ine
ĠìĿ´ ìĿµ
íĻĺ ê²½
ĠìĹ° ìĨį
ëĲĺìĸ´ ìķ¼
Ġbuil t
ê²Į ìļĶ
Ġinv ol
Ġì·¨ ëĵĿ
Ġofficial s
Ġp ict
Ġass embly
Ġcris is
Ġst ress
ĠìĿĺ ìĤ¬
ìĪ Ļ
ail y
Ġ ess
Ġact ively
Ġdeg ree
Ġëĸ ł
ill s
Ġrec ent
Ġadv ance
Ġyou ng
Ġë°Ľ ê³ł
Ġcamer a
F irst
ĠìĬ¤ íģ¬
ĠDef endant
em pt
Ġmic ro
ĠìĦ± íĺķ
ĠìĿ¸íĦ° íİĺìĿ´ìĬ¤
íĬ¸ ëĬĶ
Ġwire less
r ance
íĻĶ ê°Ģ
ìĬ¤ ë¡ľ
ê²½ ìłľ
Ġh ole
w an
Ġre duction
ĠìłĪ ìĹ°
Ġì¹´ ë©ĶëĿ¼
ìĸ´ ìĦľ
c ome
Ġstart ed
Ġìľł ëŁ½
Ġma xim
Ġsur vey
A ll
Ġt ell
ĠJ ung
Ġbec ame
he st
ĠìļĶ ìĿ¸
Ġgener ate
ĠìĤ¬ìļ© íķĺëĬĶ
ve re
Ġad hes
íĬ¸ ìĹĲ
Ġíķĺ ì§Ģ
Ġmess age
Ġpl ans
or b
ĠìĤ ½
y ear
ec ause
Ġì£¼ ë¡ľ
ĠìŀĪëĬĶ ì§Ģ
Ġì°¨ ìĿ´ê°Ģ
Ġla un
ìĽ Ģ
Ġë°° ìĨ¡
Ġê±° ìĺĪìļĶ
ĠìĻ ľ
Ġë°©ë²ķ ìĿ´
ĠìĤ¬ ìłĦ
Ġê²Ģ ìĥī
if t
Ġìĺ¤ íĽĦ
ìĿ¸ ëį°
ĠìĽ ¹
ì ī
Ġof ten
Ġmot or
r am
ëĮĢ ìĹĲ
Ġìĺ¤ ëĬĺ
Ġpresent ed
Ġimplement ed
ĠíĴĪ ì§Ī
ĳ ¸
ĠìłĢ ëĬĶ
ìĤ ¼
N A
Ġw id
Ġì¡° íķ©
Ġëĭ¨ ìľĦ
M y
Ġê°ľ ìµľ
Ġin nov
Ġem ail
N o
Ġ ult
Ġconsid er
Ġë°Ľ ìĿĦ
Ġcompon ents
Ġits elf
ìĿ´ìĹĲ ìļĶ
Ġê²ĥ ìĹĲ
Ġsim ple
Ġsympt oms
an ch
ust r
Ģë¡ľ ë²Į
Ġëĭ´ ëĭ¹
Ġìĸ´ ë¦°
íķĺê¸° ë¡ľ
Ġex erc
ĠíĨµ íķĺìĹ¬
ri er
Ġsaf e
Ġstreng th
Ġê²ĥ ëıĦ
ìĬµ ëĭĪê¹Į
ë¯¸ êµŃ
Ġmeas ured
Ġgre ater
Ġf ast
Ġcan d
ĠB ank
ìĬ ¬
íķľ íİ¸
Ġre act
Ġco ating
Ġcred it
Ġê²½ ë¡ľ
ĠR e
Ġplat form
ĠìĤ° íĻĶ
Ġknow ledge
Ġconsum ption
Ġë¨¼ ìłĢ
ĠíķĦ ë¦Ħ
Ġd iv
ĠT V
ê²© ìĿĦ
Ġpro ducing
Ġhe ating
Ġen h
ëį° ìĿ´íĦ°
Ġìĺ¨ ëĿ¼ìĿ¸
iven ess
ë¦¬ ì§Ģ
es ter
Ġg reen
Ġëħ ¹
Ġìļ° ìĦł
Ġdirect or
ĠHe alth
Ġeffic iency
ĠíĮ Ķ
Ġab ility
Ġmin utes
Ġì°¸ ê°Ģ
Ġt al
Ġb it
Ġê°Ģ ìĹ´
Ġ3 2
ëĮĢ ìĿĺ
ìŀĲ ëĵ¤ìĿĢ
ĠìĤ¬ ë¬´
Ġcom es
Ġê°ľ ë³Ħ
vers ion
ĠA meric
ì» ¨
ĠëĤ´ìļ© ìĿĦ
1 30
Ġimm edi
Ġbud get
ĠìłľíĴĪ ìĿĢ
ìĭľíĤ¤ ê³ł
Ġl at
Ġsu re
ag ue
ìłķ ìĿ´
ìķĪ ëħķíķĺìĦ¸ìļĶ
Ġìłľê³µ íķł
Ġëªħ ëł¹
ì§Ģ ì§Ģ
Ġas pect
Ġë¹ ¨
ens ity
Ġbo x
pl es
s w
Ġìļ° ë¦¬ëĬĶ
Ġadminist rative
Ġìµľ ì¢ħ
Ġrecogn ition
Ġf uel
Ġe p
Ġë² ½
s i
ëĭ¤ ìĿĮ
ĠëĤĺ ìĺ¨
Ġf lex
ìŀĪ ëĬĶ
m in
ê°ľ ë°ľ
Ġproject s
Ġëĭ¤ìĿĮ ê³¼
Ġìĭ¤ ì§Ī
Ġorig inal
' d
ë§ ¥
Ġthe ory
íĺ ¹
ëĿ¼ ìĬ¤
ĠëĮĢ íķĻ
Ġëª¨ ëĵľ
Ġë³µ íķ©
Ġsuit able
Ġcitiz ens
Ġn uclear
Ġc op
íĨµ ìĭł
ê° Ļ
ĠìĬ¤ íĥĢ
į ìłķ
ĠìĽ Į
ìĬ¤íħ Į
ĠëłĪ ìĿ´
s ite
ë ¤Ħ
Ġph ase
Ġëĭ¬ ë¦¬
Ġìŀĳ ìĦ±
ìĿ´ ê¸°
og rap
ro up
Ġpl ant
ĠìĨĮ ìŀ¬
ĠìĿĢ íĸī
Ġb al
Ġn ature
Ġê´Ģ ì°°
r ast
Ġreg ular
ĠëĳĲ ê³ł
Ġvari able
Ġbeg in
ëŀ« íı¼
ë¶Ģ ëª¨
íķ Ģ
Ġta ken
ìĹĨ ìĿ´
ìľĦ ìĹĲ
Ġfund s
Ġmon itor
ĠíĻľìĦ± íĻĶ
ì²´ ë¡ľ
Ġlo ve
Ġpip e
Ġsect or
Ġw ent
ëł ´
Ġ3 5
Ġê ´
or por
Ġv ict
Ġres ources
íĬ¸ ê°Ģ
Ġíķľëĭ¤ ëĬĶ
Ġë¶Ģ ìłķ
Ġmo ving
Ġdef ined
íĭ Ģ
Ġdisplay ed
B ecause
í Ľ
Ġcl imate
ĠíĨµ ê³¼
Ġdetermin ing
íĺķ ìĿĦ
ë ľ
Ġdid n
Ġunit s
Ġwork s
Ġh ost
ë¦¬ ìĬ¤
Ġë¯¸ ëŀĺ
Ġì¤ĳ ê°Ħ
Ġant i
ul ate
Ġsh o
Ġê³µ ê¸°
ëıĦ ìĻĢ
Ġë§Ĳ ìĶ
Ġs old
Ġc e
Ġmain ly
Ġset ting
ìĭľ ìŀ¥
Ġintro duce
Ġëħ¸ ì¶ľ
ution al
Ġì²Ń ìĨĮ
et h
ĠT e
ĠìĭľìĬ¤íħľ ìĿĢ
on om
ĠíļĮ ìĿĺ
Ġìłĳ ì°©
Am ong
ëĲĺ ëıĦë¡Ŀ
ë© į
ag raph
e ad
Ġìĭ¤ íĹĺ
is on
3 00
ëĮĢ íķľ
Ġb all
ë¹Ħ ë¥¼
Ġperform ing
ĠìĪĺ ìĿµ
ë¯¸ íĦ°
d es
Ġs ense
Ġbr and
Ġquest ions
Ġìłľ ì¶ľ
Ġauthor ities
ê´Ģ ìĿĢ
Ġeduc ational
ĠE ng
Ġê¸° íĽĦ
ìĽĲ ìľ¼ë¡ľ
ĠìĨĮ ìľł
ìĥģ ìľ¼ë¡ľ
ê³Ħ ìķ½
ì¼ ĵ
Ġì¤ĳ ìĹĲ
Ġë°©ìĭĿ ìľ¼ë¡ľ
Ġd ou
Ġê²½ ì°°
ĠíĻĺ ìŀĲìĿĺ
Ġìĺģ íĻĶ
Ġcommun ic
ëĭ¨ ê³Ħ
Ġche m
ì£¼ ìĦ¸ìļĶ
ĠíĽĦ ë³´
Ġë° ¸
ĠC oun
Ġcomm and
Ġs ample
Ġíķ´ ìķ¼
ìĿ´ íĶĦ
Ġëĥī ê°ģ
ìĦľ ìļ¸
ë³Ħ ë¡ľ
Ġrem o
O ne
Ġcirc um
Ġíķµ ìĭ¬
at ives
Ġê°Ģ ê³µ
Ġins p
Ġ ens
ìĺ¤ ëĬĺ
Ġan im
Ġê¸° ìĸµ
Ġtransm it
Ġsh ip
Ġpolic ies
is ions
Ġad vert
ĠìĹ¬ ë¶Ģ
Ġë³´ ìŀ¥
Ġdep os
Ġìĭľê°Ħ ìĿĦ
Ġvirt ual
ĠìŀĪ ìĿĮìĿĦ
ĠAss oci
Ġl ed
ì¦ Į
Ġíĸī ìĤ¬
Ġenvironment al
Ġorganiz ations
ë¹ Ī
Ġpro port
yp e
Ġíĺ¹ ìĿĢ
Ġembodim ents
Ġmeasure ment
ëĩ ¨
Ġg ot
Ġê³µ ê³µ
Ġselect ion
ĠìĺĪ ìĪł
E O
AAA ëĬĶ
Ġëł Į
ĠìĿ´ ë²¤
ĺ íĶĮ
ĠA d
ì¢ Į
ĠíĿĲ ë¦Ħ
ĠìĺĪ ìķ½
E x
Ġë Ľ
Ġbre ak
f ect
Ġs le
Ġtour ism
Ġthe rap
Ġre ducing
Ġgo al
ĠR uss
B y
ĠìĪ Ļ
ĠA I
Ġexpress ed
ĠìĽĲ ê³ł
Ġlangu age
Ġë³´ ê±´
ìľ¨ ìĿ´
Ġì ĩ
Ġë³´ ì¡°
íĻľ ëıĻ
Ġê¸ įìłķ
Ġë© Ģ
ìłĦ ìĿĦ
ific ial
ëł¸ ëĭ¤
ĠëĤ´ ìĹĲìĦľ
ĠìĤ¬ëŀĮ ìĿ´
ìĸ ¼
Ġíĺģ ìĭł
Ġd aily
Ġst ream
ì²ĺ ë¦¬
Ġì²´ ê²°
Ġíļ¨ê³¼ ê°Ģ
ĠIntern et
ë¦ ¿
Ġdiscl osed
ĠJ u
Ġë°Ľ ìķĺ
ĠìĿĮ ìĦ±
ĠìĿ¸íĦ° ëĦ·
Ġfor ward
Ġr ice
ĠìłĦë¬¸ ê°Ģ
Ġre d
ĠG wang
Ġcomple ted
ĠíĻķ ìŀ¥
% .
Ġd oll
Ġcand id
ëĬĶ ì§Ģ
ìĨĮ ëĵĿ
Ġinflu ence
Ġwas te
Ġë¶Ģ ìĤ°
Ġë§Ī ìĿĮ
Ġreg ions
Ġsu m
Ġd ry
ëĵ¤ ëıĦ
Ġvari ables
Ġprofess ional
Ġre ality
ê´Ģ ìĿ´
Ġother s
ĠMet ropolitan
ap h
ĠìĿ´ ëłĩê²Į
Ġm ol
ĠC omp
êµŃ ìĿ´
Ġbec omes
Ġst ay
Ġìľł ëıĦ
Ġíķĺ ë©´
ĠìĹ¬ ë¶Ģë¥¼
pec ially
m yeon
Ġar gu
Ġemerg ency
ĠíĬ¹ ìĦ±
ìĬ ¨
ie ce
ëĵľ ìĿĺ
íĹ Į
ĠìĺĪ ë¥¼
Ġëª© ìłģìľ¼ë¡ľ
bo ok
a ment
Ġf at
ê±° ëŀĺ
Ġc ivil
Ġê´ĳ ê³ł
Ġë§ŀ ì¶
a ugh
m a
Ġcar ried
Ġíķĺ ìļ°
e um
ĠM an
ĠìķĬ ëĭ¤
Ġê¸ Ģ
Ġsc he
ê·ľ ëª¨
or gan
ëĲĺ ë©´ìĦľ
ers on
Ġë¶Ģ ìĹ¬
ĠìĦ¤ëªħ íĸĪëĭ¤
ĠPl aintiff
g round
ans ion
Ġph one
er ved
Ġì¤ĳ íķ©
ìłĲ ìĹĲìĦľ
Ī ëł¨
Ġëı Ī
is l
Ġdep artment
ìĿ´ ìħĺ
Ġê´Ģê³Ħ ë¥¼
im ens
Ġì´Ī ê¸°
Ġrespon d
Ġíķĺ ë£¨
Ġen ough
ĠìĽĲ ì¹Ļ
ĠëĮĢíķ´ ìĦľëĬĶ
Ġch o
Ġë°ľìĥĿ íķĺëĬĶ
ë´ ĩ
Ġconcent ration
duc ation
Ġa im
íĬ ¼
Ġê¸° ëĭ¤
ĠM ount
O h
Ġt ur
Ġpred ic
g un
Ġse qu
ĠìľĦíķ´ ìĦľ
ìħ Ģ
en ced
r up
Ġcontain er
ĠëĲĺ ê³ł
Ġsu ff
Ġê²½ ê¸°ëıĦ
Ġê·¸ ëŁ°
Ġest ate
ë¥ĺ ë¥¼
Ġì¶Ķ ì²ľ
Ġan sw
Ġëĵľ ëŁ¬
Ġm om
ëĲĺ ê¸°
ell ig
Ġbe gan
ig ure
C D
Ġf ile
Ġbe aut
ìĭľ ìĺ¤
ëĮĢ ê°Ģ
Ġìĭł ê²½
Ġapply ing
ams ung
Ġcorre ct
Ġë§ ģ
Ġed ge
Ġy et
ĠìłĦ íĻĶ
ĠíĬ¹ ìĦ±ìĿĦ
ĠìłĦ íķ´
íĸĪ ìĿĦ
Ġ201 4
ĠOff ice
ĠíĻķìĿ¸ íķł
ĠíĶĮ ëŀ«íı¼
ëĬ Ħ
ìŀ ĸ
Ġad ap
ë° ĸìĹĲ
Ġìŀĳ íĴĪ
Ġsepar ate
Ġsatis fact
Ġsil ic
u ge
Ġexec ut
Ġover all
c hes
ìĿ´ ëŁ°
ĠìŀĪ ëĤĺìļĶ
ìĦ¸ ìĦľ
uc k
Ġ vert
Ġê°Ļ ìķĦìļĶ
Ġproper ties
Ġteacher s
ì´ Į
ìĹ Ħ
Ġë°ľ ê´ĳ
Ġpro sec
ëŁī ìĿĺ
ĠìĭľìĬ¤íħľ ìĿĦ
ĠíĮ ¬
Ġsc ore
Ġê¸¸ ìĿ´
Ġí ĩ´
Ġì£¼ ëª©
ap ed
ĠAssoci ation
ìŀĲ ëĵ¤ìĿĺ
Ġit em
Ġ4 00
ĠU N
d r
Ġw ave
Ġact ually
Ġ ir
Ġb on
Ġê°Ģ ì¹ĺ
Ġpartic les
ëĭ¬ ëŁ¬
Ġìķķ ëł¥
ĠíĹ Į
Ġopen ed
he ad
Ġvol ume
Ġse a
Ġquick ly
ĠìłĦ íĸĪëĭ¤
ë°Ķ ìĿ¼
ìĸ´ ì§Ħ
ìĿ¼ ë¶ĢíĦ°
ip her
Ġro b
2 6
ĠP r
Ġappropri ate
Ġ $
ab ric
ë¥ł ìĿ´
ìłĢíĿ¬ ëĬĶ
Ġsha ft
êµ¬ íķĺê³ł
Ġev ents
Ġì§Ģ ëĤĺ
t on
Ġê°Ģ ìŀħ
Ġìĸ¸ ìłľ
Ġf em
ëł ī
Ġë ¯
il leg
Ġshow ing
Ġav oid
Ġë¶Ģ íĥģ
Ġcar ry
Ġstart ing
ê¸° ê°Ħ
Ġfac ility
o h
v iew
Ġì²´ íĹĺ
Ġmat ch
ĠGo vernment
ĠìĪĺ ê°Ģ
ĠëĽ °
ë¬¸ ìĿĦ
ĠìĦ± ëĬ¥
Ġimpro vement
ì½ ľ
Ġd ri
c rip
ĠìĿĺ íķĺìĹ¬
ê± ¸
j i
o ly
Ġì½Ķ íĮħ
Ġin ject
Ġg ate
ìĶ ©
Ġconduct ive
Ġallow s
ĠìĹ¬ ìłĦíŀĪ
Ġë°Ķ íĥķ
· °
Ġìĺ¤ ëĬĶ
Ġexp ansion
ìĻ Ķ
n ces
ĠìłĦ êµŃ
Ġr ates
ord ance
Ġìķķ ì¶ķ
H ere
ëĭ¤ ë§Į
Ġse x
ĠM arch
Ġìļ© ìĿ´
Ġìĭľ íĹĺ
Ġë³¸ ì²´
ĠìłĲ ìĿĦ
Ġfun ctions
ìĭľíĤ¤ ê¸°
Ġexpens es
ĠëĬĲ ëĤ
i xt
Ġ illeg
ae k
Ġcomm ercial
ëĭ¤ ê°Ģ
Ġe ld
ìłģ ìĿ´ê³ł
ìłľ íĴĪ
Ġtr ip
Ġì¡° ê¸Ī
Ġde ep
Ġìŀ¥ì¹ĺ ìĿĺ
Ġíİ ¼
Ġill ustr
b ack
Ġse at
Ġë°© ìĤ¬
Ġpur su
ĠìĤ½ ìŀħ
ar ily
Ġc yl
Ġê·ľ ìłľ
ĠìĿ¼ ìĿ´
Ġë°ĺ ë³µ
5 00
ĠëĦ ĵ
stit ute
9 0
íķ µ
Ġê ½
ĠS chool
ac king
Ġem ot
Ġdr ive
Ġl ate
Ġprof it
ìłķ ì±ħ
ĠìĿ¸ ê°Ħ
Ġint ention
Ġì± Ķ
y le
ëł¤ ê³ł
íŀ Į
Ġmat ter
ëħĦ ë¶ĢíĦ°
Ġê°Ģ ê¹Į
in ancial
Ġëĭ¤ ìĪĺìĿĺ
Ġc ert
ìĤ° íĻĶ
í ĩ´
ìķĦ ëĭĪ
Ġmed ic
Ġschool s
Ġpre m
ĠíĽĦ ìĹĲ
Ġlar gest
Ġconf lic
Ġvis ited
3 4
id ge
ĠìĤ´íİ´ ë³´
ot s
ĠëĮĢ ì¶ľ
ĠìĿ¸ ì¦Ŀ
ĠìĹĨ ìĹĪëĭ¤
Ġrestaur ant
al le
Ġre action
C an
ë ®
Ġgood s
y m
Ġart icle
b or
ìĿ¼ ê¹Įì§Ģ
ric ultural
Ġval ve
Ġê°ĲìĤ¬ íķ©ëĭĪëĭ¤
íľ ĺ
ìĸ´ ëĤľ
um n
ë§Į ìĿĦ
Ġd ut
Ġex ist
ĠíĶĦë¡ľ ìłĿ
Ġthick ness
T A
Ġim ages
Ġacc ident
° ëĭ¤
ìĦ¸ ê³Ħ
ĠìķĮ ìķĦ
ĠìĤ¬ëŀĮ ëĵ¤ìĿ´
Ġhydro gen
ì¸µ ìĿĦ
ë°© ë²ķ
ĠìĿ´ ë¤Ħ
Ġmanag er
Ġm ind
ĠìłĦ ìĭľ
Ġhig hest
r ig
ĠìĪĺ ìŀħ
ĠìĹĨ ìĬµëĭĪëĭ¤
íķĺëĭ¤ ê³ł
ĠìĹ°êµ¬ ìĹĲìĦľëĬĶ
Ġíķ© ìĿĺ
¨ ìĿ´
ìĬ¤ íĥĢ
Ġre nt
ìĦ¸ íı¬
ĠE ducation
ëŀ Ļ
ĠIn du
Ġneg ot
ìĭŃ ìĭľìĺ¤
ĠAss embly
¼ m
in ate
ìĭ ¸
Ġexc lud
ìŀ¬ ë¥¼
ĠIn d
Ġcr im
ro l
Ġpow der
Ġì£¼ ìĭĿ
Ġìĸ¸ ê¸ī
.. .
íľ ´
Ġm old
Ġask ed
ĠìŀĲ ë¦¬
Ġser ies
Ġm other
Ġne ver
Ġoper ated
Ġcollect ion
Ġpract ice
ĠCh ung
Ġcap t
Ġn ight
Ġproced ure
Ġìĭľ íĬ¸
Ġadminist ration
Ġdeb t
Ġc amp
ê´Ģ ìĿĦ
ĠìĿ´ìļ© íķľ
or ies
Ġëĭ¨ ìĪľ
Ġê¸°ì¤Ģ ìľ¼ë¡ľ
ĠìĮ į
Ġê°ľ ìłķ
ĠìłĢ íķŃ
Ġ ing
am m
Ġì§Ī ë³ĳ
Ġprog ress
Ġcom fort
êµŃ ëĤ´
Ġìĥ ĺíĶĮ
Ġbenef its
p ir
Ġadvant age
Ġex cept
Ġì£¼ íĥĿ
ìĤ° ìĿĺ
Ġleg isl
Ġë³´ ëıĦ
Ġë¹Ħ ì¤ĳ
Ġê³ł ìļ©
ĠìłĲ ìĹĲìĦľ
Ġì·¨ ìĨĮ
ub l
ĠíĬ¸ ëŀľ
Ġpop ulation
Ġrecomm end
ìĿ´ íķĺ
Ġf abric
Ġacc ordance
ëĤ´ ê°Ģ
F rom
Ġc ode
Ġun f
ĠëĳĲ ê»ĺ
le c
Ġp ix
Ġintegr ated
ìĭľíĤ¨ ëĭ¤
Ġmor ning
is c
Ġreve aled
ë¡Ń ê²Į
Ġêµ¬ ë©į
vern or
ìĥĿ íĻľ
ì¤ĳ êµŃ
Ġob lig
Ġc ere
ì³ ¤
ĠëĿ¼ ìĿ¸
Ġra ised
ĠìĿ¸ ìĩĦ
Ġ19 8
Ġì²Ń êµ¬
ĠMount ain
S ome
Ġin form
ëĮĢ íĳľ
Ġfollow s
Ġform ula
Ġparticip ation
Ġìľ ¤
ĠJ ae
Ġbur den
Ġg en
Ġag ency
Ġper ipher
Ġë°° ìļ°
Ġê·¼ ë¡ľ
i ate
Ġìŀ¥ ìĨĮ
ĠìĤ° ì¶ľ
Ġíķĺìļ° ì§ķ
ĠëĶĶ ìŀĲìĿ¸
Ġíĺ¸ íħĶ
ëĨ ĵ
Ġê ¶ģ
Ġdet ected
Ġìĺģ ìĹħ
Ġìļ°ë¦¬ ëĤĺëĿ¼
ë° į
ĠìĻ Ķ
Ġíĭ °
Ġax is
Ġê°Ģ ìĥģ
Ġwho le
Ġì»¤ ë²Ħ
Ġë¬´ ìĹŃ
ĠëĤĺíĥĢ ëĤĺ
Ġlead ing
Ġag o
Ġìŀ¥ì¹ĺ ìĹĲ
ĠN o
Ġimmedi ately
r ay
Ġp un
Ġfour th
Ġeffic ient
Ġìŀ¬ ìĥĿ
ĠìĺĪìłķ ìĿ´ëĭ¤
Ġeff orts
Ġcrit ic
ĠìĿ ½
ëĿ¼ ì§Ī
Ġhe art
Ġm iss
Ġìĭľ ê°ģ
Ġê°ľ êµ¬
at ically
ë³´ëĭ¤ ëĬĶ
Ġst op
Ġì§Ģ ëıĦ
ĠìĬ¤ íħĮ
ĠíĿ¡ ìĪĺ
ë ¿Ĳë§Į
êµ¬ ì²Ń
Ġê²½ìļ° ê°Ģ
ĠìŀĦ ìĥģ
Ġprep are
Ġtast e
ĠCoun cil
Ġp hen
Ġm ention
ĠIntern ational
L et
er al
ĠëıĦ ìĻĢ
Ġprogram s
Ġë¬¼ ë¡ł
Ġfe ature
ĠíĶĦ ë¦¬
Ġcons ult
ger y
ers hip
Ġ3 3
ë¶Ħ ìĿĦ
Ġë³Ģ ìĪĺ
Ġart ificial
ĠëŃ Ĳ
Ġw el
Ġl if
ĠìĿ´ ë¡ł
ëĲ ¨
ab ilities
ĠëĤ´ ê°Ģ
Ġë°ĺ ëĮĢ
ĠComm ission
Ġíĳľ ì¤Ģ
Ġê³¼ íķĻ
Ġë°ľìĥĿ íķľ
ìĿ´ ìĹĪ
pl oy
Ġë£ ¨
) ;
Ġcomp ar
Ġìļ°ìĪĺ íķľ
re hen
Ġr aw
ëŀĳ ìĬ¤
ĠíĥĦ ìĨĮ
íķĺ ê²łìĬµëĭĪëĭ¤
Ġì§ ķ
Ġst ated
ĠìĦľ ë¸Į
Ġpro b
el t
Ġstud ent
Ġsm o
Ġìĥģ ê´Ģ
ĠìĿ´ ìłľ
Ġal k
Ġë³´ ìķĪ
Ġë¶Ģ ëıĻìĤ°
Ġass ist
Ġê¸°ìĹħ ìĿĺ
ëĥ ¥
ĠF e
Ġl ack
ìĺ ¥
Ġcomb ination
Ġê³¼ ìłķìĿĦ
Ġm ight
Ġdetail s
b ol
Ġìłķ ìĭł
ì¢ ĭ
Ġê±´ ì¡°
ĠSer vice
Ġd one
ro ad
ëĵ ¯
ĠëĤĺ ëĿ¼
Ġh it
ur ities
Ġdocu ment
ë¬¼ ìĹĲ
Ġê±´ ìĦ¤
Ġper m
ur rent
Ġint ellig
Ġgener ating
Ġlevel s
Ġun ique
enc ies
Ġê´Ģê³Ħ ìŀĲëĬĶ
Ġachie ve
Ġt w
ìĽ ĥ
Ġhigh ly
Ġoccur red
ĠíĨµ ê³Ħ
Ġd ance
íķĺ ìĭł
Ġto m
Ġdo ing
Ġcomm ittee
O S
ĠìŀĲ ë³¸
Ġê¸ Ģë¡ľë²Į
Ġtren d
M ean
ĠíĴ Ģ
Ġrefer red
Ġinterest ed
Ġha ir
ĠëĤĺ ëĬĶ
Ġë¶Ħ ìĤ°
Ġìĸ´ ëĶĶ
Ġst aff
end er
Ġê²ĥ ê³¼
ĠëĤĺíĥĢ ëĤ¸
N S
Ġt ank
Ġë ¿Ĳ
Ġal tern
Ġìĭł ê·ľ
he nt
ip l
ëĭĪ íĦ°
ê·¸ ëŁ¼
Ġre ar
ë¨¸ ëĭĪ
Ġì¡° ë¦½
ĠëŁ¬ ìĭľìķĦ
D A
Ġf ib
ëŀ Ĳ
Ġë°° íĦ°
ĠìĽĲ íķĺëĬĶ
ĠíķŃ ê³µ
Ġíķ¨ìľł íķĺëĬĶ
Ġë¶ Ļ
Ġdo or
Ġph arm
Ġexce ed
Ġinit ial
er ly
ë¦¬ ì¹´
Ġdischar ge
Ġemploy ment
y n
Ġs ong
ĠìŀĦ ìĿĺ
Ġêµ¬ì¡° ë¥¼
Ġmult i
ê° ĳ
Ġê°ģ ì¢ħ
Ġcalc ulated
ê·¸ëŁ° ëį°
Ġê² ª
ĠL e
ĠEurop ean
ìĽ ł
Ġë¶Ģ íĴĪ
ĠD o
pect ive
Ġexpress ion
Ġt alk
Ġê³ ¡
ĠíĮĮ ëĿ¼
Ġin j
Ġm ut
Ġë¶Ī êµ¬íķĺê³ł
Ġw elfare
ar ters
Ġë²ł ìĿ´ìĬ¤
Ġëľ »
Ġìĥģ ë¶Ģ
Ġrep e
Ġcontroll ing
Ġclin ical
Ġì£¼ íĮĮ
Ġsupport ing
Ġíķ´ëĭ¹ íķĺëĬĶ
Ġ3 4
Ġê´Ģìĭ¬ ìĿ´
Ġcl osed
Ġë°Ľ ëĬĶ
Ġpro te
Ġë§ĲìĶ Ģ
s he
ìĸ´ ëĸ
ĠìĿ¸ ê³µ
Ġestablish ment
Ġstrateg y
ë¡ľ ìĿĺ
du le
Ġwe ak
Ġ20 10
Ġfe atures
S e
ëłĪ ìĬ¤
ê¶Į ìĿĺ
Ġunderst anding
ìĬ Ī
ĠìķĬ ìĬµëĭĪëĭ¤
Ġê°ĸëĬĶ ëĭ¤
ĠìĿ´ ë©Ķ
ìĭ¤ ìĿĦ
Ġíĥ ĢìĿ´
ĠìĿĺ ë¬´
ëħĦ ëĮĢ
Ġrele vant
l ies
Ġp ubl
aly st
m ost
Ġh arm
Ġsatisfact ion
ĠëĮĢ ìĭł
Ġde al
ë¶Ħ ìĦĿ
y o
Ġí į¼
Ġë³ĢíĻĶ ë¥¼
Ġstep s
ĠíĶĦë¡ľìĦ¸ ìĦľ
ëªħ íķľ
ì§Ģ ìĽĲ
Ġíı¬íķ¨ ëĲľ
Ġbe am
Ġl ens
Ġcoun ter
ìĥģ ìĿĢ
f erence
Ġh or
Ġê·¸ ë¦¼
Ġta kes
ĠíĺķìĦ± íķĺëĬĶ
Ġcoop er
r ary
v est
Ġìĸ´ëł¤ ìļ´
Ġd en
ìĿ¼ ìĿ´
Ġexper ts
Ġdesign ated
Ġmagn etic
y ang
Ġ <
ĠìłĦ ë°ĺ
Ġal one
Ġdevelop ing
Ġs em
Ġregist ration
ľ ë¸Į
ê³¼ ìłķ
ĠM ed
Ġang le
Ġê°Ļ ìĬµëĭĪëĭ¤
Ġplan ning
Ġì²´ ê³Ħ
Ġaut hent
ĠC l
Ġëĭ¤ ìĿ´
Ġë°Ķ ëĭ¥
Ġì§ģ ìĽĲ
Ġ2 000
ìķĦ ê°Ģ
Ġprim ary
â ī
ĠìŀĪ ì§Ģ
ĠìĿ¸ ìłĳ
Ġêµ¬ìĦ± ëĲľëĭ¤
Ġopportun ity
um in
ĠìĹ° ë£Į
Ġë°¸ ë¸Į
Ġcrim inal
ë§ ¹
Ġsubject s
Ġë°Ķíĥķ ìľ¼ë¡ľ
ult ure
Ġë³Ģ ëıĻ
Ġdesign ed
Ġtransm itted
Ġë¡ ¤
Ġíķľëĭ¤ ê³ł
Ġì°¨ ëĭ¨
Ġìļ°ë¦¬ ê°Ģ
Ġconsid ering
ĠP C
Ġr ise
Ġêµ¬ë¹Ħ íķľëĭ¤
Ġser ious
ĠìĪĺíĸī íķł
Ġëĳĺ ëŁ¬
pr il
m osp
Ġbr ing
Ġexhib ition
Ġf ing
ĠìĪĺ ëĬĶ
Ġíŀ Ī
ĠAs ian
ê²° ê³¼
Ġcons ist
Ġsec ure
Ġpromot e
Ġpro ceed
Ġreg ional
Ġíľ´ ëĮĢ
u x
av y
Ġìĥģíĥľ ë¥¼
Ġin e
ĠíķŃ ìĥģ
iel ds
Ġn ation
Ġê°Ģ ìĿ´ëĵľ
Ġsubst ant
Ġlay ers
ê² ¼
ìĸ´ ìķ¼
ë¬¼ ì§Ī
ĠíĿ Ķ
Ġaut onom
Ġíĺķíĥľ ë¡ľ
wh ile
O f
og raph
íĨ ¤
Ġtem por
Ġr ul
Ġë°ľëªħ ìĹĲ
Ġì£ ½
3 5
is ition
ìľ ¤
ë¶Ħ ìĿĺ
Ġë¶Ģë¶Ħ ìĿĦ
Ġelect rical
Ġexper im
Ġexp ort
Ġcool ing
ĠìĿ´ ê²ĥ
Ġvari ety
ĩ Į
Ġbl ack
Ġvac c
Ġcompens ation
Ġ ãĢ
Ġapp oint
b an
Ġê¸° ìĹ¬
ĠìŀĲ ìĦ¸
ĠìĭĿ íĴĪ
Ġbusiness es
ĠS i
ener al
Ġê´Ģìĭ¬ ìĿĦ
Ġweb site
Ġcry st
Ġë¯ ¿
ëĵľ ë¦´
ì° ®
yc le
ë°± ì§Ī
Ġsche dule
Ġp ad
ì§Ģ ë¡ľ
ĠêµĲ íĨµ
Ġsecond ary
Ġëĭ¬ ìĦ±
ë¥´ ê³ł
ê·¸ ëłĩ
Ġëĭ¬ ëŁ¬
Ġmount ed
as er
ìĦľ ë¹ĦìĬ¤
íķ¨ ìĹĲ
ëĵ± íķĻêµĲ
ĠìĿ´ ëĵ¤
ĠìĤ¬ ëŀĳ
ĠIn stitute
se qu
Ġes pecially
ì¹ ¼
ìŀ¥ ê³¼
lect ric
Ġtransport ation
Ġì¤ĳ ëĭ¨
Ġìĸ¼ë§Ī ëĤĺ
Ġpro duce
Ġì§Ģ ìĭĿ
Ġìľł ìļ©
Ġstandard s
u ary
Ġwind ow
ê³Ħ íļį
ĠìĥģëĮĢ ìłģìľ¼ë¡ľ
ĠíĻĶ ìĥģ
ang er
ëŁ¬ ìļ´
ĠA pril
Ġìĭ¬ ê°ģ
ë§ İ
ë¹Ħ ìļ©
Ġë§Į ëĵł
Ġcol d
Ġconnect ing
êµ¬ ì¡°
Ġë°° ìĹ´
Ġê±° ë¦¬
Ġcoupl ed
ĠG roup
Ġsignal s
Ġëį ®
Ġìłľê³µ íķ©ëĭĪëĭ¤
Ġoper ate
ĠìĻĦ ë£Į
ĠíĶ¼ ë¶Ģ
Ġëĭ¹ ìĤ¬
i pped
Ġë ĩĮ
ĠìĪĺ ìĨĮ
Ġì¹ľ êµ¬
Ġat mosp
rehen s
ay s
Ġconfig uration
k now
Ġt ask
Ġb and
ê´ ´
Ġinsp ection
ìłĦ ìĹĲ
Ġë§Į ëĤĺ
Ġac ad
Ġd ie
Ġíĥ ĳ
Ġìŀ¬ ìłķ
ĠìľĦ ìĹĲ
ĠìķĦ ëĭĪëĭ¤
ê²½ ê¸°
Ġev idence
om er
ìłģ ìĿĦ
Ġass ess
Ġc y
Ġê° ĳ
Ġëª¨ ëĭĪíĦ°
Ġ1 40
ĠìĤ¬ìļ© ìŀĲê°Ģ
Ġdec l
Ġgovernment s
ĠìĨĲ íķ´
Ġëıħ ìĿ¼
í Ģ
om an
Ġë§ ¡
íļĮ ìĤ¬
Ġë¹Ħ ëĶĶìĺ¤
ê²ł ìĸ´ìļĶ
ĠëłĪ ë²¨
for cement
Ġeld erly
I I
Ġins ulating
Ġm m
as ks
ĠìĨĮ íĶĦíĬ¸
Ġì¤ĳ ìĹĲìĦľ
Ġëª¨ ë°ĶìĿ¼
ëĵľ ê°Ģ
Ġadhes ive
h ouse
Ġre form
Ġì¢ħ íķ©
Ġtrans action
ĠìķĪ ìĹĲ
o ok
Ġg ap
ĠS amsung
Ġmount ain
Ġexerc ise
Ġse vere
Ġpoint ed
Ġê°Ģ ì§Ī
Ġë³´ ìĺĢëĭ¤
ĠìĿĺë¯¸ íķľëĭ¤
Ġcrit er
Ġestim ated
Ġsubs id
Ġ4 5
Ġresear cher
re w
Ġmod ern
ĠìĤ¬ìļ© ëĲĺëĬĶ
ê²½ ì°°
Ġing red
ĠS c
Ġê´Ģëł¨ ìĿ´
Ġproport ion
Ġìłľ ëıĦ
Ġtrans p
Ġdiscl osure
Ġox ide
ĠíļĮ ë³µ
ĠíĻľëıĻ ìĿĦ
Ġth in
ìĻ ķ
ĠìĬ µ
ce mber
Ġus es
Ġë¹Ħ íĮĲ
ĠìĻ Ķëĭ¤
Ġro und
Ġess ential
I S
Ġìłķë¶Ģ ê°Ģ
Ġtub e
a h
itt en
Ġmaxim um
Ġê±° ìķ¼
Ġdef ect
o ber
ul um
Ġê´Ģëł¨ íķĺìĹ¬
Ġimpro ving
Ġêµ¬ë¹Ħ íķĺê³ł
ĠJu ly
l ight
P S
ë¦¬ ìĸ´
ê°ĢëĬ¥ íķľ
ĠìĦ¤ ë¦½
ĠíĮĲ ê²°
Ġstore s
Ġpot ential
Ġcr ime
ë© ĺ
Ġcomp l
Ġprinc ip
he ther
Ġìĥģ ìĿ´
Ġê°ľ ë°©
E S
Ġman ner
t ype
Ġs an
ĠJ une
ìŀĳ ìļ©
Ġuse ful
Ġb ag
ìĭľ ë©´
Ġìĸ ĺ
ot hes
íķŃ ìĹĲ
Ġì ª½
ê³ł ë¥¼
tain ing
ixt ure
Ġb an
Ġ3 6
ĠJ an
íĪ¬ ìŀĲ
Ġindustr ies
Ġc ateg
íĬ¸ ë¡¤
Ġì°¸ ì¡°
Ġident ified
Ġëª¨ ìĸĳ
ĠH ong
Ġconsum ers
Ġë§Ī ìĬ¤íģ¬
ĠìĹ°êµ¬ ìĹĲìĦľ
av es
ĺ ë¦¬
Ġsur gery
Ġst ip
ĠìĪĺ ìłķ
ĠC ent
Ġsp ring
ĠìĨĮ ìłķìĿĺ
omm od
ĠìĹĶ ì§Ħ
Ġcapac ity
Ġequ al
b uk
p e
ìĿ´ ê²ĥìĿĢ
ace ut
ruct ure
ê¸° êµ¬
D P
w ide
ac ent
Ġì¡° ìĦł
ĠëıĦ ì°©
r ad
ëª »
Ġìľł íļ¨
Ġëª¨ íĦ°
Ġë¯¸ ìĦ¸
Ġlaw s
Ġacqu isition
Ġw ood
ĠB e
Ġcontinu ed
Ġdecre ase
ĠDe cember
ëĤ ¼
Ġëģ ¼
Ġrot ation
Mean while
Ġl ines
Ġìłľìĸ´ ë¶Ģ
ĠëıĦ ë¡ľ
Ġìļ´ ìłĦ
2 8
Ġf oot
Ġcomp osed
ĠF inancial
ĠëĶ°ëĿ¼ ìĦľ
Ġcan ce
Ġì¹ ¼
p ite
it is
Ġíķĺ ë©°
ìĽ ĢìĿĦ
ìłľ ìĹĲ
Ġpass ed
k m
Ġpart ies
Ġ201 2
Ġì§Ī ë¬¸
Ġtre ated
Ġê¸°ìĪł ìĿĦ
ĠëĦĺ ìĸ´
Ġt it
ê³Ħ ê°Ģ
ë²ķ ìĿĺ
Ġlit er
it ation
ig ation
ëª¨ ëĵł
ë§Ī ìĿĦ
s ang
Ġì¤ĳ ëŁī
Ġê°ĢëĬ¥ íķ©ëĭĪëĭ¤
Ġëªħ ìĿĺ
ìĭľ ìĬ¤íħľ
ĠìĹĨ ìĸ´
Ġë²Ķ ì£Ħ
Ġìķŀ ìľ¼ë¡ľ
Ġswit ch
Ġê¸° íĥĢ
Ġexec ution
ìłľ ìĸ´
íĻĶ ìĹĲ
Ġëĭ¨ ìĿ¼
Ġ201 3
ĠO r
ĠíĺĦ ì§Ģ
Ġë°ĶìĿ´ ëŁ¬ìĬ¤
ë¦¬ ê·¸
Ġprepar ing
Ġcut ting
Ġs low
ar ter
ëĤĺ ë¬´
ë¶ Ļ
ol es
ëĿ¼ ìļ°
Ġì¤ĳ ìĿ¸
Ġthere by
Ġì²¨ ê°Ģ
ìĿ´ ë¸Ķ
Ġìľ µ
Ġhe ard
Ġë¶Ħ ìľĦ
ĠìĹ°êµ¬ ê°Ģ
Wh ile
a ving
ĠS K
ê¸Ī ìĿ´
íķĺëĭ¤ ëĬĶ
Ġê²°ê³¼ ëĬĶ
Ġw arm
íĸĪëĭ¤ ëĬĶ
ĠìĻ ķ
Th rough
Ġchem ical
ģ ëĭĪëĭ¤
Ġre in
ìĿ¼ ë³¸
Ġê´ĳ íķĻ
Ġatt empt
Ġpl aced
W hether
Ġë°Ķ ê
ĠM oon
Ġê²Ģ ì¦Ŀ
A N
l ish
Ġup d
Ġë¸Į ëŀľëĵľ
C on
ĠíĻ Ģ
Ġê²½ìłľ ìłģ
ë¶ģ íķľ
ãĢ į
ìĿ´ ë¯¸
ĠìĪĺ ì§ģ
ë¦¬ ìĻĢ
Ġacc ommod
Ġë§Ī ìĿ´íģ¬
ĠìłķëıĦ ë¡ľ
p at
Ġs or
Ġb ir
Ġê³¼ ê±°
Ġì´ī ë§¤
ìĦľ ìĹĲ
Ġr ing
Ġer ror
k ay
Ġìļ ¸
ĠìĨ Ķ
Ġìľł ìŀħ
Ġìĺ¤ ìĹ¼
O K
Ġìłģ ì¸µ
ê°Ģ ìĿĺ
ĠìĿ´ ìĨ¡
ĠK B
ĠìľĦ ë°ĺ
íĸĪ ì§Ģë§Į
Ġsec ret
Ġsatis f
ë°ĶìĿ´ ëŁ¬ìĬ¤
º ¼
Ġf irm
ĠìľĦì¹ĺ ìĹĲ
Al so
un ding
Ġìĺ¬ ëĿ¼
íĺ ľ
Ġcol le
Ġí ļ
Ġopt im
ìłķ ë¶Ģ
Ġíķ´ ìļĶ
ĠH ospital
Ġëª» íķľ
p ly
íķĺ ìĭ¤
ĠëĨ Ģ
ê±´ ìĿĦ
ric ulum
ĠìĪ ¨
Ġsens ing
Ġp air
ìĿ¸ ê³¼
Ġìĺ¤ ìłĦ
ĠìĥģíĻ© ìĹĲìĦľ
Ġinf ect
ĠP re
ĠìĨĮ ìĨ¡
Ġ [
od ing
ĠíķľêµŃ ìĿĺ
Ġsol ve
Ġconcern s
ĠP ar
Ġdis s
Ġopin ion
ĠD ep
Ġvict im
mon y
ĠëĤ Ļ
Ġì¤ĳ ìĨĮ
ì¤Ģ ëĭ¤
Ġì¶ľ ìĭľ
le v
Ġth ing
ľ ì°®
Ġ20 20
ĠSh in
ëıĦ ìĭľ
Ġì£¼ ëĬĶ
Ġìķŀ ìĦľ
íĸī ìľĦ
ĠìķĦ ë¬´
ìĦ¸ ìĬ¤
Ġíĳľë©´ ìĹĲ
Ġweek s
Ġg ames
ĠëĤ´ ëł¤
Ġbelie ve
Ġdri ver
ëħĦ ê°Ħ
ĠY ong
ĠíķŃ ëª©
id ing
ë§Į íģ¼
Ġë°ĺ ìĤ¬
ak er
Ġno vel
ĠSe pt
Ġvol un
ëĭĪ ìĬ¤
Ġin hib
ĠJ in
Ġf air
Ġë¯¸ ë§Į
Ġëģ Į
qu arters
Ġë§ ¥
if ier
Ġë°© ìķĪ
ìĦ Ń
Ġwor d
Ġinter m
ĠìľĦì¹ĺ ë¥¼
Ġrel i
ĠìĹ°êµ¬ ìĿĺ
Ġdecre ased
Ġdoll ars
Ġf o
Ġth inking
Ġë¶Ħ íı¬
Ġê¸Ī ì§Ģ
h an
ren ce
Ġchang ing
ë²ķ ìĹĲ
Ġass ets
Ġhot el
íķĺëł¤ ê³ł
ìĿ¼ ë¡ľ
Ġclass es
Ġvir us
ĠJ ong
ë§İ ìĿĢ
ëŁ Ń
Ġìĭ¤ íĺĦ
ĠíĻĶ ë©´
Ġì§ĢìĹŃ ìĿĺ
ful ly
t le
ĠìĿ´ ëģ
ĠA ir
ìĺ¤ ëĬĶ
Ġdisc ount
ha ust
z z
ì§Ģ ë°©
ĠìłĦ ë¥ĺ
Ġíķĺ ë¶Ģ
Ġmat ters
Ġìº ¡
Ġwid th
Ġoff er
Ġac ross
Ġê¸°ë°ĺ ìľ¼ë¡ľ
o very
ĠêµĲ íĻĺ
Ġb ad
ëĵľ ìĹĲ
ĠëĲĲ ëĭ¤
d ed
Ġp ump
Ġconst ant
Ġsal e
Ġgrow ing
Ġt er
Ġsoft ware
Ġminim um
s et
Ġa ware
Ġs qu
ë³ĳ ìĽĲ
Ġb ed
os al
ìĭĿ ìĿ´
Ġë§Ī ì§Ģë§ī
anc ing
ĠìĿ´ë¯¸ ì§Ģë¥¼
con t
Ġìµľ ì´Ī
Ġ200 8
re c
ìľ¨ ìĿĦ
Ġocc up
hold ers
Ġs ou
ĠìĿ¸ ëıĦ
Ġì» ¬
Ġë¶ĦìĦĿ ìĿĦ
Ġcollect ed
Ġìī ¬
Ġn urs
ìĿ¸ íĬ¸
ĠëĬ¥ ëł¥
ë¬¼ ìĿĢ
Ġf avor
Ġres ol
ĠIn cheon
Ġìĸ¸ ë¡ł
Ġindepend ent
sy ch
Ġf ields
íķĻ ìĬµ
Ġëĭ¨ ë°±ì§Ī
ê°Ĳ ìĿ´
Ġmeas uring
Ġdef in
us ed
Ġ4 2
Ġprepar ation
ë¹ ł
Ġadj acent
According ly
Ġì£¼ ìĦ¸ìļĶ
ill ed
Ġpl aces
ĠíĺķìĦ± ëĲł
Ġmot ion
Ġrecomm ended
ĠìłģìłĪ íķľ
ĠJan uary
ìº Ĳ
S he
ëĮĢ ìĥģ
Ġë°Ľ ìķĺëĭ¤
ĠO ct
ĠëłĮ ì¦Ī
ëĵ¤ ë¡ľ
Ġus ually
Ġê±° ì³Ĳ
ĠíķĻ ë¶Ģëª¨
ĠíĿ ¥
Ġcur riculum
ĠíĽ Īëł¨
ĠEng lish
Ġd ust
ĠìĿ´ìľł ë¡ľ
į ìĬ¤íĬ¸
Ġs ides
R S
Ġex haust
act ions
ìħĺ ìĿĦ
ì§Ģ ëıĦ
ì¡° ìĤ¬
ĠL G
Ġìľł ë°ľ
Ġë¬¸ ìĿĺ
Ġinst ruct
Ġbel ong
ĠJe ju
c m
er ve
Ġex cess
Ġë¹ Ķ
Ġget ting
ut ing
Ġë°Ķ ìĻĢ
Ġway s
ĠíħĮ ìĬ¤íĬ¸
ĠìĹŃ ìĤ¬
Ġoccur s
Ġë´ Ĳ
Ġinterp ret
Ġim pl
Ġpo or
Ġëĵľ ë¦¬
Ġe th
ëĭ¨ ì²´
Ġgr aph
Ġë³ĳ ìĽĲ
Ġë³´ìĹ¬ ì£¼
Ġsc ope
Ġëªħ íĻķ
Ġdiv ision
ĠSept ember
Ġlo an
ëª °
Ġë¯¼ ê°Ħ
ĠDae gu
ê¶Į ìĿ´
Ġatt end
Ġê ¾¸
Ġl ives
ì¶ ĺ
ĠR ep
Ġë³µ ìĪĺ
ĠY ang
it her
Ġsu fficient
Ġpl astic
Ġê°Ĵ ìĿĦ
Ġtr illion
ĠE lect
Ġìłķë³´ ìĹĲ
Ġilleg al
Ġë² Ĺ
ĠìĿ´ íĸī
ëĭ¨ ìĿ´
Ġo w
Ġl aser
Ġpre vention
Ġcl ub
Ġíĸ¥ íĽĦ
Ġcontinu ous
ol ic
Ġst ory
Ġoff ic
Ġlong er
Ġcon vey
ĠC EO
íı¬ ì¸ł
Ġë¶Ģ ê³¼
ê´Ģ ìĿĺ
Ġpres cribed
Ġë³Ģ íĺķ
Ġpol l
ìĿ´ ë¡ľ
Ġd ed
ê·¸ ë£¹
Ġëª¨ íĺķ
inc ial
imens ional
r an
id ents
ì°¨ ë¥¼
Ġelect ion
ĠíĺĦ ëĮĢ
Ġì½ ľ
Ġrest rict
b it
s ized
y u
ear ch
Ġì¶Ķê°Ģ ë¡ľ
Ġwr iting
Ġë ¥
Ġmention ed
ìĪĺ ìĹĲ
Ġn ode
êµ¬ ëĬĶ
Ġê·¸ ëħĢ
Ġfri ends
ĠIs land
Ġpict ure
Ġìłķ ëĭ¹
Ġle ave
íĺ¸ íĻĶ
Ġìĺģ êµŃ
ĠìĤ¬ìļ© ëĲł
Ġlo st
Ġdiffere nces
co hol
b u
Ġd y
ìĿ¼ ë°ĺ
ĠìŀĲ ì²´
Ġthan k
Ġarr ange
ìĹ¬ê¸° ìĦľ
íĸĪ ìĸ´ìļĶ
Ġflex ible
ë§ ŀ
Ġë¯¼ ì£¼
o ff
ĠìłĦ ìĽĲ
Ġcomp rehens
ĠìĨĮ ìŀĲ
Ġvert ical
Ġë§ Ŀ
ì§Ģ ìĬ¤íĦ°
Ġg e
Ġíĥľ ìĸĳ
Ġmom ent
I C
Ġb ond
íĬ¹ ë³Ħ
Ġp it
Ġê²½ íĸ¥
yl ene
Ġìłķë¶Ģ ìĿĺ
ell o
ĠAs ia
Ġfri end
íĦ° ë¥¼
Ġrespons ibility
Ġì§Ģ ë¶Ī
Ġdoes n
ph one
y stem
ë¶Ħ ìĿ´
Ġmo ved
Ġê²Į ìĿ´íĬ¸
4 5
Ġs am
ìļ´ ëıĻ
ĠíĻĺ ìŀĲê°Ģ
Ġrem aining
Ġfem ale
Ġre lease
olog ies
ra z
Ġf estival
Ġr ub
Ġmonitor ing
ìŀĲ ì¹ĺ
Ġê·¸ ëĮĢë¡ľ
Ġag ricultural
Ġê·¸ ëŁ¬
je ong
Ġwh ite
Ġê¹ ¨
± íģ¬
Ġìĭľ ëıĦ
Ġch airman
Ġdou ble
ê²ł ëĭ¤ëĬĶ
Ġíķĺ ëĿ½
ĠíĻķ ìłķ
Ġ201 1
ĠëĤ¨ ìķĦ
Ġprop osed
ìĨĮ ìĿĺ
Ġt end
ĠìķĦ íĮĮ
" .
v is
Ġinter view
Ġdi ameter
Ġsp orts
Ġdr ink
Ġê°Ģì§Ģ ë©°
op h
ĠìĤ¬ìĭ¤ ìĿĦ
Ġì±Ķ ë²Ħ
Ġr ail
Ġìľł ëıĻ
Ġê³µ ìĭĿ
Ġdocu ments
Ġìĩ ¼
Ġsc hed
Ġlo ans
ì» ¬
Ġì¹ĺë£Į ë¥¼
Ġm ap
ĠìĹ¬ê¸° ìĦľ
Ġacc um
ìĹĪ ëįĺ
om ing
Ġìĸ´ë¦° ìĿ´
Ġë¡ľ ë´ĩ
Ġìľł ìĹĶ
Ġì´Ī ê³¼
ì§ Ĳ
ìĦ¸ ê°Ģ
Ġcat alyst
Ġatmosp here
i ans
Ġê±° ì£¼
ĠêµĲ ìĪĺ
ëĥ Īëĭ¤
ê³Ħ ìĿĺ
íķĺê¸° ëıĦ
ĠíļĮ ìĽĲ
es tern
Ġëĵ± ìŀ¥
Ġtra ffic
Ġê ¿
íĻĶ ìĿĺ
ëĲĺìĹĪ ìĬµëĭĪëĭ¤
ĠíĮĮëĿ¼ ë¯¸íĦ°
ìŀĲ ë¦¬
Ġì´ī ì§Ħ
ĠëĮĢ ì²´
ĠíĶ ½
Ġìµľ ìłģ
in ally
Ġmanufact ure
Ġe ye
Ġn an
ìĬ¤ ìĹĲ
ĠìĨĮ ìĨį
íĭ ´
Ġe y
Ġn ut
ĠìĿ¸ ì§Ģ
ĠT able
Ġform ation
w a
Ġsur v
Ġdr am
Ġenter pris
Ġintellig ence
ĠOct ober
Ġcharacter ized
Ġë°°ì¹ĺ ëĲľ
Ġlear n
l im
Ġst able
Ġìĥģíĥľ ìĹĲìĦľ
ëĵľë¦¬ ê²łìĬµëĭĪëĭ¤
a ult
Ġì§Ģ ìĹ°
ìĨĮ ê°Ģ
ĠìĺģìĹŃ ìĿĦ
ĠTh is
Ġíĺ Ĳ
Ġë¯¸ ëĶĶìĸ´
ë´ Ĳ
R ec
Ġ &
ĠëıĦ ì¶ľ
Ġìĭł ê³ł
Ġdistrib uted
ê³¼ ëĬĶ
Ġìŀ¥ ë¹Ħ
Ġë§Ĳ íķľëĭ¤
ĠS ang
Ġopin ions
ocr atic
íĺ¸ ë¥¼
ack s
Ġtherm al
ê³ ¤
ìĭľ ê°Ģ
ĠC heong
ĠìĻ ĢìĿ´
Ġrapid ly
ĠëłĪìĿ´ ìłĢ
Ġìľł íĨµ
Ġwr itten
p erson
Ġê³ §
Ġv ent
íĴĪ ìĿĢ
Ġì¦Ŀ ê±°
velop ment
ĠCon t
ĠP h
Ġprevent ing
f aces
Ĭ ìĿĢ
ĠìĹ° ê³Ħ
íķĻ ëħĦ
ìĶ¨ ê°Ģ
ìī ¬
ì¡° ìĿĺ
Ġìĺ¤ ëŀĺ
ì¸µ ìĿĺ
Ġ200 9
ĠìĨĮíĶĦíĬ¸ ìĽ¨ìĸ´
ìĬ ·
ìĤ¬ ìĭ¤
Ġhe ight
Ġreason s
ìŀ Īëĭ¤
íķ´ ì£¼
Ġord ered
Ġ4 1
Ġcomplete ly
Ġf ish
ess ion
Ġê·¸ ëłĩ
ĠíĶĦë¡ľê·¸ëŀ¨ ìĿĦ
Ġm ixture
ĠI D
íļĮ ëĬĶ
ê±° ë¦¬
Ġany thing
re st
Ġtr ied
Ġë¶Ħ íķł
Ġfam ous
if ul
Ġsy nt
Ġrepl ace
2 7
Ġde v
Ġìľł ìłĦ
Ġê³µ ê²©
Ġv ib
ìĪĺ ë¡ľ
Ġë¹¨ ë¦¬
B ased
Ġê°Ħ ëĭ¨
Ġëį ķ
Ġwor th
Ġref ers
Ġconsum er
ë ·°
ìłĲ ìĹĲ
Ġbegin ning
Ġsor ry
in ding
E ach
Ġb ound
Ġë³´ ëĬĶ
Ġal most
Ġsupport ed
íļĮ ìĹĲ
Ġê± ±
Ġphen omen
Ġpromot ion
Ġì¶©ë¶Ħ íŀĪ
Ġp sych
Ġplay ed
f ere
ë³µ ì§Ģ
ict ion
ĠK ing
Ġobs erved
Ġsum mer
Ġë¶Ģ ëª¨
ĠìķĦ ìĭľìķĦ
ĠíĮĮ ìĿ¼
Ġfin ding
m p
ĠìŀĲ ìĽĲ
ê¸° ì¤Ģ
ĠìĦł íĺ¸
Ġpharm aceut
Ġcaus es
Kore an
ove red
Ġsal t
ĠëıĻìŀĳ ìĿĦ
Ġphot o
Ġ2 10
íĬ¸ ë¡ľ
Ġê°ķ ëł¥
ë£¨ ë¯¸
Ġrece ives
ne w
Ġs un
ìĸ´ ê°Ģ
Ġtr ue
ëĭ¨ ìĿĺ
Ġfing er
3 3
K im
ose on
Ġ18 0
4 2
m ore
Ġê³µ íĨµ
Ġpl ayer
Ġëª¨ìĬµ ìĿĦ
Ġmix ed
lo ad
Ġê² ¨
ìĻ ľ
Ġdi ag
Ġê±¸ ì³Ĳ
Ġpredic ted
ĠíĪ¬ ìŀħ
Ġplan e
Ġbank s
i ated
am ed
Ġfollow ed
ĠìĤ¬ìĹħ ìĿĦ
1 50
ĠëıĮ ì¶ľ
ĠGerm any
Ġë ķ
Ġext ending
A S
id ity
Ġë³´ ê´Ģ
Ġfail ure
Ġcere mony
1 40
C H
Ġb ill
Ġêµ ´
Ġimplement ation
ograp hy
Ġsur ro
ĠìĿ¼ë°ĺ ìłģìľ¼ë¡ľ
H ello
b and
Ġìĭł ì¢ħ
ëĤ´ ìĹĲ
Ġsa w
Ġto ld
Ġn ar
ëªħ ìľ¼ë¡ľ
ec es
Ġíķľ ë²Ī
Ġparticip ated
Ġì ¤
Ġcomp ress
ëĭ¨ ìĹĲ
Ġins er
Ġcharacter istic
Ġqu arant
íĸĪ ìľ¼ë©°
Ġparticip ants
ĠJe ong
t r
Ġë³´ ìĿ´ëĬĶ
Ġì¡° ìĦ¸
ĠìķĦ ëıĻ
Ġqu al
ĠRuss ia
Ġìłľ ëĮĢë¡ľ
ĠëĤĺ ë¨¸
Į íĶĦ
Ġs we
en ior
ĠêµĲ ê³¼
ëĿ¼ìĬ¤ íĭ±
Ġt im
Ġdis app
ì°¨ ìĽĲ
Ġgener ally
h ood
Ġst ability
Ġconsid eration
ë²ł ìĿ´ìĬ¤
ìĹħ ì²´
duc es
ĠìĿ¼ ì¹ĺ
ĠN am
Ġë¯¸ ìĪł
Ġhand s
' .
ĠíĻķ ìĭ¤
Ġì§ĳ íĸī
Ġë©´ ìĹŃ
Ġsk ills
ìĹħ ìĿĦ
Ġwant ed
Ġë§Į ìĹĲ
sh aped
Ġt en
ĠìķĬ ëıĦë¡Ŀ
ë²ķ ìĿ´
Ġaud io
ëĭ¨ ìĿĦ
up reme
Ġatt rib
Ġinnov ation
ìĿ´ ëĦĪ
ru it
3 6
ĠíĨµíķ´ ìĦľ
ë¥ł ìĿĦ
Ġhapp y
íİĺ ìĿ´
ĠìĻĦ ìłĦíŀĪ
Ġdiscuss ion
Ġê¼ Ń
ëŁī ìĿĢ
ug ust
Ġinterp re
le y
Ġres olution
ìĶ ¬
ë°Ľ ìĿĢ
iet nam
alle l
Ġst ates
res h
ĠìĺģìĹŃ ìĹĲ
Ġexpand ed
S h
m et
ëıĦ ìĿ´ëĭ¤
ĠíĨµ ìłľ
Ġíķ´ ìĦľ
Ġprov ision
ĠìĦłíĥĿ ëĲľ
Ġfore st
Ġexam ination
Ġsmo oth
Ġm ask
Ġdetail ed
Ġb ul
Ġëĭ¨ ì²´
ĠìĬ¤ ìĬ¤ë¡ľ
íĤ ·
Ġê±´ ì¶ķ
Ġinst ead
Ġcare er
ìĬ¤ ëŁ½
Ġê²ĥ ìĿ´ëĿ¼ëĬĶ
ĠI T
ĠCh airman
Ġcontroll ed
Ġë¶Ģ ë¬¸
Ġì¡° ì¹ĺ
Ġcontro vers
ìĬ¤ ì½Ķ
Ġper cept
Ġë§¤ ì¶ľ
Ġpract ical
íķĺëł¤ ëĬĶ
Ġrequire ments
ê°Ģ ìĬ¤
ìĦľ ìĿĺ
Ġì§Ħ ëıĻ
Ġsc ience
Ġdi ab
B e
Ġìłģíķ© íķľ
Ġë ¿Ĳë§Į
Ġp i
Ġsc ale
A R
ĠJ ang
Ġfl at
Ġì±Ħ ê¶Į
ĠìĿ´ë£¨ìĸ´ ì§Ħ
Ġopp osite
ì¹ĺ ê³ł
Ġear lier
ë¹ Ļ
il ies
Ġclass ified
Ġauthor ity
ĠS ong
Ġêµ¬ ìŀħ
Ġê·¸ ëłĩê²Į
ĠP e
Ġveh icles
ìŀĲ ê¸°
Ġìłľ ìķ½
ìĿ¼ ë¶Ģ
Ġë¶Ī ìķĪ
ĠS p
Ġfe e
ĠëĤĺíĥĢ ëĤľ
Ġabs orb
m ing
r ant
ĠìĹĨ ìĿĦ
Ġë¶Ī ë²ķ
ri end
ë¬¼ ë¡ł
Ġopt ion
Ġë ļ
íĻĶ íķĺëĬĶ
Ġch ip
Ġbr anch
Ġê°ķì¡° íĸĪëĭ¤
Ġperipher al
D uring
Ġad op
ĠìĹ°êµ¬ ë¥¼
ĠS upreme
Ġìļ°ë¦¬ ìĿĺ
Ġinterm edi
n al
íĬ¸ ëĤ¨
qu ality
Ġrec ording
ĠìĿ¼ ìĿĦ
âĢ ĺ
Ġcor rel
ëĭĺ ê»ĺ
ìĦł ìĿ´
og en
Ġë°° ê²½
Ġìłķë³´ ëĬĶ
Ġant ib
ê³ł ê°Ŀ
Ġinc ident
Ġdiagn osis
íĻ Ģ
rast ructure
Ġl am
ĠëĮĢ ê¸°
Ġconst ruct
ìĹĲ ìļĶ
ĠìĤ¬ íĥľ
ë¬¼ ë¡ľ
ĠíĺĦ ìŀ¥
ì¸¡ ìĹĲ
Ġìĭ¶ ìĿĢ
ĠìŀĲ ë£Įë¥¼
ast y
ĠìĽĲ ìĿ¸
ren cy
Ġcomposition s
ìĿ´ ì§Ģë§Į
íļĮ ìĹĲìĦľ
Ġíĸī ë³µ
Ġë°© ì¶ľ
ê´ Ħ
4 00
Ġh all
Ġal cohol
Ġë¹Ħ ìĬ·
Ġêµ¬ìĦ± ëĲĺëĬĶ
ĠìĪĺ ë°ĸìĹĲ
Ġwh ose
ë²ķ ìĿĢ
ĠíĪ¬ ìĹ¬
Ġth us
ìłĦ ë¬¸
Ġhe avy
ĠìŀĲ ëħĢ
Ġhand le
Ġindividual s
Ġrad io
ê³ł ê°Ģ
ul ates
Ġissu ed
Ġevalu ated
Ġbal ance
Ġì ¿ł
ĠìŀĲ ì£¼
Ġìĸ´ëĸ ł
Ġclean ing
Ġì²ŃìĨĮ ëħĦ
íķĺ ëįĺ
ĠëķĮ ëĬĶ
A M
i qu
íķĺ ëĤĺ
Ġìķ ±
Ġì§Ħ ì¶ľ
ove mber
Ġì»¨ íĬ¸ë¡¤
Ġsle ep
Ġë³´ëıĦ íĸĪëĭ¤
Ġìłķ ë¦¬
ìĹĪ ê³ł
ish ment
Ġëĭ¹ìĭł ìĿĺ
Ġ x
ough t
ìĸµ ìĽĲ
Ġnegot i
íķ´ ëıĦ
ëĵľ ìĭľ
Ġsurro unding
ì§Ģ ìĻĢ
Ġ6 5
Ġcar rier
C ons
ĠìĦł ê±°
ìļ´ ëĵľ
Ġ19 7
ĠìĥģíĻ© ìĿĦ
Ġ i
ê³¼ íķĻ
ë³´ ëĬĶ
ë§Į ìĿ´
Ġê°Ļ ìķĦ
Ġë§Į ëĵľëĬĶ
Ġproper ly
Ġanalyz e
ë¦¬ ì½ĺ
ìĸ´ ë¡ľ
Ġcon version
êµŃ ê°Ģ
Ġì¤Ħ ìĸ´
Ġpar allel
Ġemphas ized
M ost
ĠA ugust
Ġperform ances
Ġimport ance
ĠìĿ´ë£¨ìĸ´ ì§ĢëĬĶ
un ction
ì¤ĳ ìĹĲ
Ġcandid ate
D C
if orm
Ġman age
ìª½ ìľ¼ë¡ľ
Ġful ly
Ġwe ather
Ġhealth y
Ġìĸ¼ êµ´
Ġë°ľ ëĭ¬
Ġrem ov
êµ¬ ìĹĲ
Ġsupp lied
Ġìĸ» ìĿĦ
urrent ly
Ġow ner
ens ive
Ġì§Ħ ì§ľ
Ġìłķë³´ ê°Ģ
ĠíĪ¬ ëªħ
Ġc ities
ìĿ´ íĽĦ
ë³´ ê±´
ìħ Ī
ĠíķĦ ìĪĺ
Ġpass age
Ġcomb ined
Ġens ure
Ġex act
ë¶Ī ìĸ´
Ġê·Ģ íķĺìĿĺ
Ġread ing
oc king
ê°ľ ë¥¼
ĠJ oseon
ĠE ast
2 10
ì ¿
Ġm al
ìłķ ìĹĲ
Ġìĭł ìļ©
Ġìŀ¬ íĮĲ
Ġevery thing
Ġë¹ł ë¥´ê²Į
Ġide a
ul f
iz on
Ġë² ¤
Ġê²° ìłľ
Ġref rig
Ġstock s
Ġconcent r
re et
ì§Ģ ë©´ìĦľ
Ġinvest ors
ĠìĻ¸êµŃ ìĿ¸
ëŁ ´
Ġun iversity
ĠëĤĺ ëħ¸
Ġbeaut iful
Ġê°Ģ ì§Ħëĭ¤
Ġdis m
ĠíĿ¬ ë§Ŀ
Ġíķ ¸
ë³´ íĺ¸
Ġper fect
rop h
Ġlead er
f l
íķĺìĺĢ ê³ł
Ġcompound s
Ġmo lec
Ġì¸¡ë©´ ìĹĲìĦľ
Ġappear ance
on str
Ġê²°ê³¼ ê°Ģ
Ġend ed
Ġê²½ íĻĶ
Ġform s
ĠSe ong
str ial
Ġel astic
as c
Ġì§Ģ íĳľ
se ong
ĠN ovember
Ġì§ĢìĨį ìłģìľ¼ë¡ľ
ĠCho i
Ġadvert ise
ĠëĤĺ ëĪĦ
Ġë°©ë²ķ ìľ¼ë¡ľ
ĠìĹ°ê²° ëĲľ
Ġapplic ations
Ġident ification
Ġz one
íķľ íħĮ
ĠìĿ´ìľł ëĬĶ
Ġansw er
Ġsupp ress
Ġpers pective
Ġprot r
Ġelement ary
Ġhist or
Ġì°© ìļ©
ìłķ íķľ
ĠëĮĢ íĺķ
ì¡° ìĹĲ
ĠìķĦ ì£¼
ë¬¼ ê´Ģ
Ġê³¼ ìĦ¸
Ġë¹ Į
Ġë°ľìĥĿ íķł
Ġsched ul
A T
Ġl in
ìĨ Ķ
ìľĦ ê°Ģ
ĠëĲĺ ë©´
ĠìĿ´ìķ¼ ê¸°
Ġh yp
ĠL ED
ne y
ë¯ ¹
ive red
ĠìĺĪ ìĤ°
ron ics
Ġobject s
M S
Ġíķ© ìĦ±
Ġìº ł
use um
Ġprote in
Ġtherap y
Ġpix el
ĠY oung
sc ale
íķĺ ìŀĲ
Ġfam ilies
ê°Ĵ ìĿĦ
ĠíĻį ë³´
ith m
Ġëĭ¤ ë¥´
ĠB l
ìķĪ ìłĦ
Ġdep end
Ġintro duction
Ġtour ists
Ġê´Ģê´ĳ ê°Ŀ
Ġìŀħ ìŀ¥
Ġë§İ ìķĦ
ìħ ľ
ĠV illage
Ġconven ient
Ġdel ivered
¨ ìĶ¬
ĠëĮĢ ì¤ĳ
Ġse em
ĠìĿ¼ ìľ¼
rough t
Ġëĭ¹ ëĩ¨
Ġport ions
Ġê·¼ ë¬´
Ġp age
Ġne igh
ire ct
Ġê°Ħ íĺ¸
Ġìłĳ íķ©
Ġback ground
ĠëıĦìĽ ĢìĿĦ
raz il
Ġì ı
d om
Ġì§Ģ ìĭľ
Ġë¹ Ľ
Ġìłķë¶Ģ ëĬĶ
ì ¿ł
Ġr ain
Ġíĺ ľ
Ġíİ¸ ë¦¬
Ġrecord ed
Ġst o
Ġres ource
Ġmat hem
Ġcre ating
ê² Ĳ
Ġëį §
ou d
ìĬ¤ íĨł
íĺĦ ì§Ģ
Ġsuggest ed
ê ¼
ìħ ĭ
at s
Ġí ĥĿ
ìĿ´ ëŀĢ
ìĸ´ ë§ģ
Ġjud ged
ìĿ´ ìŀĲ
ir l
êµŃ ìłľ
Ġsy n
Ġguarant ee
ìŀ¥ ìķł
Ġfunction al
ĠìĬ¤íģ¬ ë¦°
A re
ëª ĩ
Ġbu ild
Ġì§ĢëĤľ ëĭ¬
Ġadv anced
crip tion
ĠìĿ µ
Ġres ident
ĠìĹ° ëł¹
ĠëĤĺ ìĦľ
Ġoper ations
ĠìĻ¸ êµĲ
Ġêµ¬ìĦ± ëĲĺìĸ´
Ġt ick
ar ies
ê·¸ ê²ĥìĿĢ
Ġexp osed
p oint
ur ch
Ġco ord
ì¢ħ ìĿĺ
Ġcomput ing
ĠíĽ ¨ìĶ¬
ĠìĤ¬ìĿ´ ìĹĲìĦľ
Ġëĵľ ë¦´
Ġíĺķíĥľ ìĿĺ
Ġdeli ver
ĠãĢ Į
Ġíķ Ģ
B C
l or
in ter
ĠM useum
ĠëıĻ ë¬¼
Ġì°¨ ìĿ´ë¥¼
Ġchar ging
Ġparticular ly
Ġsubstant ially
d imensional
ì§Ī íĻĺ
A r
ly ing
ĠB r
ìłĲ ìĿĢ
Ġë§İ ëĭ¤
Ġconf erence
% )
Ġëª¨ ë¥´
Ġco il
Ġì¢ħ ë£Į
Ġlaw su
ìĶ¨ ëĬĶ
Ġbeh ind
ign ed
Ġaff ected
Ġre ached
ĠìĪĺ ë¦½
Ġbir th
ĠìĪĺ íķĻ
Ġcont ext
ĠìľłìĤ¬ íķľ
Ġì¢ħë¥ĺ ìĿĺ
d own
f riend
Ġ3 8
ĠF ore
Ġey es
íıī ê°Ģ
Ġcriter ia
ĠìľĦì¹ĺ íķľ
Ġstate ment
Ġcon vention
Ġv ot
Ġì° į
ĠìķĦ ë¦Ħ
Ġì¶Ķ ìłģ
Ġover l
Ġdem onstr
Ġgo es
Ġìĥģíĥľ ë¡ľ
Ġì£ Ħ
Ġìŀħ ìŀĲ
Ġcl ient
ĠEurop e
Ġli ver
Ġachie ved
ĠìŀĪ ìľ¼ë©´
ê ¶ģ
ĠìĦł íĸī
ĠíĻĶ ìŀ¥
Ġrub ber
m inist
ro om
Ġcomp osite
Wh y
if ically
ĠIn s
Ġp et
ina fter
Ġcho ose
Ġch oice
ĠJ i
ìĺĪ ë¥¼
Ġcor on
Ġê¸°ì¡´ ìĿĺ
Ġauthent ication
Ġëª¨ëĭĪíĦ° ë§ģ
b re
Ġre ach
Ġìĭľ ì¦Į
ëĦ ¥
bo ard
f ess
â Ĺ
Ġsym bol
a ft
ê±° ëĵł
Ġprov ince
ir us
ê´Ģ ê´ĳ
ĠV ietnam
ĠìĦ Ń
Ġê°Ģ ëĬĶ
ist or
ìĦł ìĿĺ
Ġco e
Ġsc ene
st ream
Ġn it
Ġìĥģ ëĭ´
Ġìŀ¬ ìĤ°
Ġëĳ Ķ
ìľĦ ìĿĺ
Ġsupp lement
Ġdisp osition
Ġmodel s
c ar
le vel
od ies
ĠD ist
ìķ¡ ìĿ´
Ġdetect ing
Ġquant ity
íĽ Ī
Ġtransp arent
Ġse ven
Ġê³ł ë¬´
sel ves
N ow
Ġm ort
Ġìŀĺ ëª»
ĠëĤĺ ëĪ
ìĿ´ ëĤł
ĠëĬ ¦
Ġmaintain ed
w ord
ĠìŀĪ ëįĺ
Ġrem ote
Ġrequest ed
E U
Ġf ell
il es
ac hes
Ġ3 7
Ġw oman
Ġin qu
Ġd rop
íŀĪ ëł¤
Ġacqu ired
c ing
Ġv ess
Ġì£¼ íĸī
ê¸Ī ìĿĺ
conom ic
y gen
y oung
at a
Ġm el
ĠìĿ´ ìĺ¨
Ġun ivers
ëĭ¨ ìĿĢ
ĠY ork
Ġreflect ed
Ġtry ing
er ior
ê¸° ì¡´
ìļ° ìĦł
ë¹Ħ ê°Ģ
Ġme at
ĠìĤ¬íķŃ ìĿĦ
Ġrob ot
ĠíķĺëĬĶ ëį°
je on
ĠíĬ¹ë³Ħ íķľ
ĠAmeric an
Ġê´ ľì°®
ĠFe b
Ġth res
op s
ĠìĬ¤ íĶĦ
Ġì¡°ìĦ± ë¬¼ìĿĦ
ëĭ¹ìĭł ìĿĢ
ì£¼ íĥĿ
Ġreg ulation
Ġperson nel
ĠìĿĺ ì¡´
Ġëħ Ħ
Ġassoci ation
Ġappro ach
ìĸ´ëĸ ¤
íĻ į
ĠG e
y ong
Ġìŀ ī
ro s
ĠìŀĲ ìĤ°
Ġìĺģ ìĥģìĿĦ
ĠìĹĨ ëĭ¤ëĬĶ
ì°¨ ê°Ģ
Ġdisp ers
ì°¬ ê°Ģì§Ģ
ìĿĺ ë£Į
Ġprocess es
pec ial
sec ut
ĠìłķíĻķ íķľ
Ġê·¸ ëĬĶ
Ġcontinu ously
Ġer a
Ġë³µ ìŀ¡
Ġdetermin ation
Ġdiscuss ed
Ġë¹ł ë¥¸
Ġ2 20
Ġad ult
ĠëķĮ ê¹Įì§Ģ
Ġìŀ¥ì¹ĺ ê°Ģ
Ġallow ed
Ġremo ved
Ġe ither
ĠìĿĺ ìĭ¬
ĠëĲĺ ì§Ģ
Ġë°©íĸ¥ ìĿĦ
ĠíıĲ ìĩĦ
íķ´ ì§Ħ
Ġì§ §
Ġor ient
Ġd ied
ëĲĺ ê±°ëĤĺ
ëĦ Į
Ġpres ence
íİ ľ
Ġsur faces
Ġpre ced
Ġprov isions
ìłĲ ìľ¼ë¡ľ
Ġpack age
Ġsh aring
ë¬´ ìĽĲ
anc y
Ġinterest s
Ġident ify
ĠíĥĦ ìĦ±
Ġpubl ished
it age
Ġh ar
ĠìĿ¸ ì²ľ
ĠT ae
ĠìĹĨ ëĭ¤ê³ł
Ġanalyz ing
Ġclear ly
Ġprosec ution
Ġdat ab
Ġê°ĸ ì¶Ķ
R eg
Ġë° ¤
Ġìĭł ì²´
Ġìĥ ¤
ĠëĪĦ êµ¬
ĠF estival
Ġtrans actions
Ġann ual
Ġaff airs
Ġguid el
ìĿ´ ìķ¼
ê°Ģ ê²©
ĠìĿ´ ìĻ¸
Ġìĥģ ìĿĺ
ĠíĬ¹ ìĪĺ
Ġjob s
ĠD em
Ġent ered
od es
ĠìĨĮ ìĬ¤
ru ary
Ġtrans form
Ġappe ared
ĠB ud
Ġê°ĢëĬ¥ ìĦ±ìĿĦ
Ġcol umn
ĠìĬ¬ ëĿ¼ìĿ´
Ġê² ģëĭĪëĭ¤
ë©´ ìĿĺ
ëĵľ ë¡ľ
4 1
ìĤ¬ ë¡ľ
ì§Ħ ìĿ´
Ġdes ired
íĶĮ ë£¨
Ġ200 7
Ġcircum st
Ġrec overy
Ġnew ly
Ġìļ© ê¸°
Ġtechn ologies
Ġrepres ents
D M
ic ip
Ġinc l
10 2
ëĭĺ ìĿ´
ĠìķĮëł¤ ì¡Įëĭ¤
Ġrun ning
ĠYe ong
Ġt iss
Ġìĭł ìĨį
Ġset t
Ġë°°íĦ° ë¦¬
Ġìĺ ¥
Ġr ule
Ġíķĺ ì§Ģë§Į
Ġíı¬ ìŀ¥
ĠF ed
Ġk id
Ġëħ¸ ëŀĺ
ì¼Ģ íĮħ
ê°Ļ ìĿĢ
Ġposition ed
Ġillustr ating
B S
re ed
ë¡ľ ë¥¼
ĠìĤ¼ ìĦ±
Ġshare holders
Ġrefrig er
i ke
Ġa head
Ġf urn
Ġê·ľ ì¹Ļ
Ġhospital s
Ġì§Ģ ë°°
Ġì¡° ëªħ
Ġë¶Ħ ë§Ĳ
Ġsol ar
íģ¬ ë¥¼
Ch ina
Ġì£¼íĮĮ ìĪĺ
ì²´ ìĿ¸
ëħĦ ê¹Įì§Ģ
ëĭĪ ìķĦ
Ġë¶Ī íİ¸
ìĭľ ì¼
Ġëĭ Ī
ĠëĤĺ ìĻĶëĭ¤
Ġloc k
ĠHy un
ì¡ ¸
Ġgrad ually
Ġconflic t
Ġe c
ìĤ¬ ìĹĲìĦľ
ĠíĻĺ ìŀĲëĬĶ
Ġpe ace
Ġê²°ê³¼ ìĹĲ
Ġdut y
ëĭ¤ ìĸĳ
ìĦ ¬ìľł
Ġend s
Ġëĭ¬ ëĿ¼
ì ĵ
ìłĦ ìĿ´
Ġìłģ ìĿ´
Ġconven ience
Ġì½Ķ ìĸ´
Ġì¶© ì¡±
Ġinstit ution
Ġëĵ± ê³¼
Ġatt itude
ì½Ķ ëĶ©
Ġë§ĪìĿ´íģ¬ ë¡ľ
H O
on al
Ġì¡° ë¡Ģ
Ġve get
Ġí ĳ¸
Ġëĵ £
Ġch all
ĠìŀĲ ìľ¨
Ġn orth
ëĮĢ íķĻ
ĠCh ang
Ġê±´ ë¬¼
Ġappe al
Ġcolle ge
ìłķ ìĿĢ
Ġê¸° ê¸°
ĠM ar
ult ane
ê²½ ê¸°ëıĦ
ĠìĦ¸ ë¶Ģ
wo o
ĠFeb ruary
Ġf resh
Ġac cel
Ġwin ter
Ġf ather
ĠíļĮ ìĤ¬ìĿĺ
Ġindic ating
Ġê¸° ëħĲ
ĠìĺĪ ìĹĲ
Ġk n
Ġìĸĳ ìĦ±
âĹ ĭ
ë¦¬ ì¦ĺ
Ġìĭľ ìĤ¬
íĭ° ë¸Į
Ġpar agraph
Ġhor izon
re es
or ation
ĠT ax
Ġexp anding
Ġëªħ ìĿ´
Ġrad iation
ì½ ©
Ġult r
ĠS ung
Ġyou th
ë¡ľë¶ĢíĦ° ìĿĺ
et es
Ġë°© ìķĪìĿĦ
abl ed
Ġpi eces
Ġcom ing
ĠìĻĦ íĻĶ
Ġtre ating
Ġprefer ably
r ically
id ay
ìłľ ìĻĢ
Ġìłģ ìĿĳ
Ġexper t
Ġë¹Ħìļ© ìĿĦ
ëĳ ¥
Ġ10 1
ĠíħĮ ìĿ´ë¸Ķ
ĠëĤ´ ë¶ĢìĹĲ
ĠëĬĲ ëģ¼
yn asty
Ġìĺģ ìĸĳ
10 1
ê²ł ëĭ¤ê³ł
Ġelectro des
Ġmount ing
i k
ìĺģ ìĥģ
Ġp ark
ĠT our
ĠJe on
Ġl ic
Ġë³´ ìĥģ
ri x
Ġlar ger
Ġì¡´ìŀ¬ íķĺëĬĶ
Ġê°ľìĭľ ëĲľëĭ¤
Ġp ick
am ic
Ġr ules
oc ation
Ġì°¨ ë³Ħ
Ġê·¸ê²ĥ ìĿĦ
ĠAg ency
r ust
Ġfl ight
Ġadjust ment
ĠìĽĢì§ģ ìŀĦ
in o
Ġex cl
Ġìļ ķ
ìĹĪ ìĸ´ìļĶ
ĠìķĮëł¤ ìł¸
Ġup on
ĠTr ade
Ġcorrel ation
Ġthres hold
D ue
Ġs on
Ġë¹Ħ íĸī
Ġresult ing
port s
Ġprof its
Ġwat ch
P A
Ġr are
ëł¥ ìĿĺ
Ġcons ists
Ġmarket ing
ĠìĿ¸ ê°Ģ
ĠDe velopment
ĠìĬ¤ë§ĪíĬ¸ íı°
Ġder ived
ìķŀ ìĦľ
i ary
w here
Ġun iform
Ġdis put
Ġem itting
C urrently
j ong
ìĿ¼ ìĿĺ
ìĨĮ ìĹĲ
Ġco ok
ê·¸ ëĵ¤ìĿĢ
Ġë³¸ ê²©
ĠìłľíĴĪ ìĿĺ
Ġdist rict
Ġlong itud
2 9
Ġp iece
ĠìĥĿ ì¡´
Ġallow ing
ìĿ´ ëłĩê²Į
ìĿ¸ íĦ°
Ġox ygen
ĠR iver
Ġbu ff
Ġê²°ìłķ íķĺëĬĶ
Ġth reat
ĠëķĮ ìĹĲëĬĶ
ĠíĶĮ ëĿ¼ìĬ¤íĭ±
ë¨¼ íĬ¸
Ġê°Ī ëĵ±
Ġë Į
Ġf ract
Ġco ff
Ġro ute
Ġìķ¡ ìĦ¸ìĬ¤
Ġrad i
Ġur ban
orpor ation
ĠëıĻ ìĿĺ
Ġë©Ķ ëī´
Ġtechn ical
Ġvis ual
Ġë¹Ħë¡¯ íķľ
Ġh on
Ġres ervation
ĠíĶĦ ëŀĳìĬ¤
Ġreport s
Ġrespect ive
ëĭ¤ ìĭľ
is es
Ġíĺľ íĥĿ
it ure
Ġë°ĺ ëĵľìĭľ
ì½Ķ ë¡ľëĤĺ
Ġëĵ¤ìĸ´ ê°Ģ
ĠíıĲ ê¸°
Ġfocus ed
ì¦ Ĳ
Ġê¶Į íķľ
Ġg ave
ì²´ ìĻĢ
Ġphot os
Ġcomprehens ive
ìĤ¬ íķŃ
iv ation
so o
Ġinf ected
íĻľ ìĦ±
Ġë¯¸êµŃ ìĿĺ
ĠÎ ¼m
Ġê¶ģ ê¸Ī
p o
Ġf ans
ìł ł
ìĤ¬ ìĿ´íĬ¸
íķľëĭ¤ ë©´
Ġë¶Ħ ëªħ
Ġìĭ¤ ë¦¬ì½ĺ
Ġass um
Ġsit es
Ġap art
Ġì¤ĳìĨĮ ê¸°ìĹħ
Ġë ĥ
íĶ Ī
ĠM on
Ġìĺ¤ ë¥¸
ĠìĭľìĬ¤íħľ ìĿĺ
Ġsim ultane
Ġ16 0
Ġsepar ated
Ġìµľê³ł ìĿĺ
Ġtest s
Ġdifficult ies
ìĺ¬ íķ´
Ġhousehold s
Ġingred ients
ĠìĿ´ìļ© íķł
ĠëĿ¼ ìĿ´
er o
Ġre con
Ġêµ¬ ê°Ħ
Ġroom s
ĠíĹ¤ ëĵľ
ĠëĤĺíĥĢëĤ¸ ëĭ¤
y ond
ìĭľ ìĿĺ
ĠìĿĺ íķĺë©´
av ity
Ġmov ie
íĻĶ ìĻĢ
ë§Į ìĽĲ
ĠêµĲ ìĤ¬
ĠëĨĴ ëĭ¤
Ġë¶Ģíĥģ ëĵľë¦½ëĭĪëĭ¤
Ġmedic ine
ë£¨ë¯¸ ëĬĦ
M ore
Ġ1 000
et ary
Ġ2 50
ìķĦ ìĿ´
ëªħ ìĿĢ
ĠH ouse
Ġeffect ively
Ġrepe ated
ë Ģ
Ġìłľ ì£¼
ì¡° íķ©
Ġëħ¼ ë¬¸
Ġenh ance
Ġdiag ram
a o
ac ing
Ġrequ ires
ħ ëĭĪëĭ¤
ìĭľ ê³ł
ĠS un
Ġì¤ĳ ìĿĺ
ĠìŀĦ ëĮĢ
Ġregist ered
Ġëį§ ë¶Ļ
ìĿ¸ ê°ĢìļĶ
ĠìĹĨ ê³ł
ĠìĬ¤ íĨł
ĠGwang ju
ìĿ´ ìłľ
Ġsell ing
ight ly
Ġdatab ase
Ġs outh
ìķĦ ìķ¼
Ġrecogn ize
ĠíĻĶíķĻ ìĭĿ
C omp
ëĵ¤ ìĹĲìĦľ
ìĭł ìĿĦ
Ġprocess ed
Ġìļ´ ìĨ¡
Ġsan ctions
ìļ° ë¦¬ê°Ģ
ĠìłĢìŀ¥ ëĲľ
ĠLe ague
Ġintermedi ate
Ġal umin
ìĺĪ ìĪł
Ġëį°ìĿ´íĦ° ìĿĺ
Ġíħ įìĬ¤íĬ¸
Ġê³Ħíļį ìĿ´ëĭ¤
Ġdy nam
on y
re te
Ġì£¼ ìŀħ
Ġsc an
ë¨¼ ìłĢ
Ġt ip
Ġqu ite
Ġíŀĺ ëĵ¤
ĠìĥģìĿ´ íķľ
Ġë¬´ ë£Į
Ġëª» íķĺê³ł
ĠíĹĮ ë²ķ
Ġacad emic
Ġmathem at
ĠK T
Ġêµ¬ ìĹŃ
ĠìĿ¸ ê·¼
Ġdef ense
Ġarr ay
Ġìłģê·¹ ìłģìľ¼ë¡ľ
ĠAd minist
Ġë¹Ħ íĬ¸
Ġpol ar
Ġinterpret ation
u ations
ĠH all
ëŀĺ ìĿĺ
Ġëĵľ ë¦½ëĭĪëĭ¤
ĠëĤĺìĺ¨ ëĭ¤
or ption
Ġl ib
Ġê²° êµŃ
ĠR F
Ġmo ist
ĠìĥĿê°ģ íķ©ëĭĪëĭ¤
Ġprevious ly
Ġë°ľ íĸī
Ġë²ķ ìłģ
Ġpattern s
. âĢĿ
Ġê¸° ìļ¸
Ġtrans l
ì¦Ŀ ìĿ´
Ġno ise
ë¦¬ ë¡ľ
ol f
Ġim aging
Ġë¹Ħ ì¦Ī
Ġrel ation
ĠìĿĺë¯¸ ë¥¼
ĠìłĢíĿ¬ ê°Ģ
Ġlook s
Ġm is
Ġe ight
ëį° ìĿ´íĬ¸
Ġs ir
Ġë³´ ìĿ´ê³ł
ĠK ang
ĠW ar
Ġparticip ating
n oon
íķ¨ ê³¼
Ġcent ers
ë¥´ ê¸°
Ġìŀħ ìĽĲ
Ġce le
ĠìĤ¬ ìľł
ĠìĦł ë³´
ward s
Ġprint ing
ĠSt ation
ĠìĨį ìĹĲìĦľ
Ġw ife
ĠA f
Ġë² ¨
Ġext reme
Rec ently
Ġe ating
Ġg old
Ġì§Ī ëŁī
ĠìĿĺê²¬ ìĿĦ
ĠDist rict
o e
Ġí Ĩ
íĺķ ìĿĺ
ĠëĮĢ ì±ħ
Ġê¸° íļĮë¥¼
ad ium
Ġëĭ¨ ë¶Ģ
ë¡ł ìĿĦ
Ġbenef it
rd inance
Ġquarant ine
Ġschedul ed
Ġt ree
ro ll
Ġhe ar
ê³µ ê°Ħ
ang ing
Ġafter noon
ĠíĮ¨ íĤ¤
Ġìķ¡ ì²´
Ġìĭ¤ì§Ī ìłģìľ¼ë¡ľ
ì¹ĺ ì§Ģ
Ġcl oth
Ġëĭ¹ìĭł ìĿ´
ĠMan agement
Ġëĭ¤ ë£¨
ten ance
ĠëĤĺë¨¸ ì§Ģ
Ġw al
ìĥģ ê³¼
ëĿ¼ ë§Ī
ative ly
Ġturn ed
Ġë©Ģ íĭ°
Ġf ol
Ġê´Ģ íĨµ
ĠìłĪ ëĭ¨
s es
v it
Ġatt ended
Ġì¤ĳêµŃ ìĿĺ
Ġexperi ences
Ġf it
Ġcaus ing
Ġrul ing
is her
ìłģ ìĿ´ëĭ¤
ĠìłĦ ë©´
ĠìŀĲ ê·¹
Ġteam s
ĠGo vernor
ipl om
3 8
Ġë°Ķ ëĿ¼
Ġmus c
ĠìŀĲìĭł ìĿ´
Ġbook s
ìĨĮ ìĨ¡
Ġì£¼ ê´Ģ
Ġsepar ately
Ġdraw ing
Ġs enior
Ġw age
Ġë° ĸ
ĠìĪĺ ìĤ¬
ë¶Ħ ìĹĲ
n orm
ĠìłĦ íĺĢ
ĠíĬ ľë¸Į
ì£ ½
ĠìĥĿìĦ± íķł
Ġwr ong
ĠìĨĮë¹Ħ ìŀĲ
Ġnegoti ations
í ĳ¸
iz er
ĠëıĻ ê¸°
Ġro ck
ĠSec urity
Ġprem ium
A d
ĠI P
ê·¸ ëħĢ
Ġê²Ģ ìĤ¬ë¥¼
Ġt ro
at t
ĠìĿ´ íĥĪ
Ġal g
ĠB razil
ê±´ ê°ķ
Ġì°½ ì¶ľ
ĠëĮĢíĨµëł¹ ìĿ´
ĠRes earch
Ġsex ual
Ġt um
Ġìĭľ ì²Ń
oc ol
ìĭĿ ìĿĺ
Ġ6 00
ak es
it ors
ìĿ¸ ìĹĲ
ĠìĤ¬ìļ© íķľ
Ġë¬´ ê¸°
ìķ½ ìĿĦ
Ġrepresent ed
Ġstat ist
ëŀ ĢìĿ´
ëħ ģ
ì» ´
Ġfound ation
Ġë´ ¤
Ġproced ures
Ġf ed
ĠìĪĺíĸī íķĺëĬĶ
Ġë¹ĦêµĲ ìłģ
Ġdam ages
Ġìŀł ìŀ¬
ĠìľłìĿĺ íķľ
ĠëĬĲëĤ Į
êµ¬ì²Ń ìŀ¥ìĿĢ
ìĿ´ ë©´
Ġë¶Ħ ë°°
Ġêµ¬ì²´ ìłģìĿ¸
Ġp le
Ġìĺ ®
ĠìĿ¼ ë¶Ģë¥¼
Ġë¶Ħ íķ´
ê²° ìłķ
Ġtransm itting
ĠëĴ ·
Ġmus eum
Ġexam ine
ë Ń
ëĭ¤ ìļ´
Ġautom atically
ìĹ ĺ
ĠìĿ´ ìĻĢ
ë¶Ģ ìŀ¬
Ġcalc ulation
Ġìĸ´ëłµ ëĭ¤
Ġcons isting
ĠìĦ ¬
ch ol
ĠìĽĲ ìŀĲ
ìķ¡ ìĿĺ
ĠìĥĿìĦ± ëĲľ
Ġappro val
Ġra ise
2 20
Ġë°Ķ ëĢ
Ġsim ply
Ġcryst al
t es
ë¥ ¨
ang es
Ġëį°ìĿ´íĦ° ë²łìĿ´ìĬ¤
ĠìĹĲ ìĸ´
Ġrecord s
ĠìĤ¶ ìĿĺ
Ġsumm it
ìĿ´ ì¦Ī
ìĭĿ ìľ¼ë¡ľ
Ġë³ĢíĻĶ ê°Ģ
ëĿ¼ìĿ´ ìĸ¸
Ġdism iss
Ġf er
Ġis ol
Ġcomb ust
ìŀ¥ ìľ¼ë¡ľ
ĠM r
ĠF r
Ġë§Ī ì°¬ê°Ģì§Ģ
Ġìĺ¤ ëĶĶìĺ¤
Ġfe es
Ġê²°ìłķ íķł
ĠUn ion
Ġ19 6
Ġcontinu es
Ġcoff ee
w ater
Ġíľ ĺ
Ġë°Ģ ë´ī
Ġtransfer red
íħ ľ
Ġìłľê³µ íķĺê³ł
ìĪł íķľ
Ġsmall er
Ġexpl ain
ĠCent ral
Ġout let
ìĭľ íĤ
ĠíĶ¼ ëĵľ
ĠíķĺëĤĺ ë¥¼
Ġbon ds
ĠìľĦ íĺĳ
Ġtr ack
íĮĲ ìĿĦ
Ġì§ĢìĽĲ ìĿĦ
Ġê¸įìłķ ìłģìĿ¸
Ġg ar
ìĿ¼ íķľ
ì£¼ ê°Ģ
Ġco ach
Ġsc ient
iss ions
ì» µ
Ġë¶Ģë¶Ħ ìĹĲ
A C
y r
or ing
ë¬´ ë¦¬
Ġpartic le
Ġmarket s
Ġappear s
M any
Ġg iving
Ġê´Ģ íķĺìĹ¬
Ġì¹´ ëĵľ
Ġinject ion
im b
ĠA S
Ġì¹ ©
ĠìĹ¬ ë¦Ħ
Ġvis iting
Ġsho pping
ëĭ¤ìĸĳ íķľ
M E
Ġ4 8
Ġê²½ìļ° ëĬĶ
Ġë¶Ī ê³¼
Ġê²½íĹĺ ìĿĦ
Ġì£¼ ëıĦ
ëł¥ ìĹĲ
Ġìłģ ìĿĢ
íķĺê²Į ëĬĶ
Ġcre ation
Ġwa it
Ġìĸ´ëĸł íķľ
ab il
Ġsp ir
Ġser ve
Ġë¬¼ íĴĪ
ĠO rdinance
Ġcyl inder
ìĪĺ ìĻĢ
Ġmat rix
Ġtour ist
ĠìŀĪëĭ¤ ë©´
Ġì² Ļ
or row
Ġde ad
Ġ5 5
ĠìłĢ íķĺ
Ġmem br
ĠëĤ¨ ë¶ģ
Ġinvol ved
Ġê±± ìłķ
Ġlawsu it
Ġrem ains
Ġëĭ¹ëĩ¨ ë³ĳ
ĠìĦ ¹
Ġsh ared
Ġapp rec
Ġcircumst ances
i pping
Ġíı¬íķ¨ ëĲĺìĸ´
Ġqu arter
ĠìĥģíĻ© ìĹĲ
ëĳ ĺ
P G
P I
om b
Ġbe yond
ul s
ĠìłĦ ëıĦ
Ġì£¼ ìĿĺ
Ġle ct
Ġinstall ation
ĠíĬ¸ëŀľ ì§ĢìĬ¤íĦ°
Ġs n
ĠìĿ¸ êµ¬
Ġë§¤ ëħĦ
Ġtechn ique
íĬ¸ ëĦĪ
íļ¨ ê³¼
Ġíķ´ ìłľ
Ġíı¬íķ¨ íķĺë©°
Ġë°Ľ ì§Ģ
ìª½ ìĹĲ
ĠëĬĺ ìĸ´
ë¡ľ ê·¸
ĠìŀĪ ìľ¼ëĤĺ
ĠëĮĢ ê·ľëª¨
Ġìĺ ·
Ġsp ect
Ġì§ģ ìĹħ
Ġë§ŀ ëĬĶ
Ġstruct ural
Ġear th
hy un
it es
Ġam pl
l er
ĠíĺķìĦ± ëĲľëĭ¤
Ġorgan ized
ë ¿Ĳ
Ġenc our
Ġfail ed
ĠíĶĮëłĪìĿ´ íĬ¸
Ġsequ ence
Ġinser ted
Ġê²ĥ ì²ĺëŁ¼
ĠB rit
ëĤ´ ëĬĶ
Ġatt ach
Ġap artment
he tic
Ġw t
Ġn m
Ġê²ĥ ìĿ¸
Ġëĭ¤ ì¤ĳ
Ġì°¨ ë¡Ģ
Ġìļ© ìľµ
Ġmain tenance
ĠìĦ¤ìłķ ëĲľ
ĠìŀĳìĹħ ìĿĦ
Ġinterpre ted
Ġpercept ion
Ġb rought
Ġd iplom
Ġì£¼ ìħĶìĦľ
ĠSe ung
Ġìłķì¹ĺ ìłģ
Ġswit ching
ĠGerm an
Ġìļ©ìĿ´ íķĺê²Į
F C
ë¦¬ ê¸°
ì¹ĺ ë£Į
Ġ5 2
Ġíķ´ ëıĦ
Ġì¤ĳìļĶ íķĺëĭ¤
he ast
ìĥģ íĥľ
Ġê¸° êµ¬
act ive
Ġ10 2
Ġrep ro
Ġë¶Ī ê°Ģ
Ġwa iting
dr aw
Ġê¿ Ī
Ġt asks
st ruction
ĠëĮĢ êµ¬
Ġcomp lic
ĠI CT
ĠBud d
T S
ì§Ģ ê²Į
ìķĦ ìĭľìķĦ
Ġnot ice
Ġê³ł ìľł
Ġ199 0
) -
íļĮ ë¡ľ
ĠF or
Ġsign ed
Ġfix ing
Ġdiab etes
Ġìŀ ĥ
ìĸ´ ìĿĺ
ë§Į ìķ½
ìĦ¸ ìĿĺ
ì§Ħ ìĿĦ
ëĭĪ ì¦ĺ
Ġìĭ¤ íĮ¨
Ġthem selves
Ġë°°ì¹ĺ ëĲł
ĠCon stit
Ġpharmaceut ical
Ġ %
Ġc ast
Ġgr ade
ĠìĿĮ ìĭĿìĿĦ
Ġdrug s
ĠDep artment
Ġphenomen on
al og
Ġë³´ ì¡´
Ġbut ton
ìŀĸ ìķĦìļĶ
u ct
Ġm ale
ĠD ec
Ġìĭ¤ ìłľë¡ľ
ĠE m
ĠìŀĪìĸ´ ìķ¼
Ġins ert
Ġart icles
Ġexpl an
Ġlongitud inal
Ġp or
Ġ7 5
Ġê°ķ íķľ
Ġì§ĢìĹŃ ìĹĲ
Ġë²Ħ íĬ¼
Ġdeg rees
íı ´ë¦¬
Ġinter ior
Ġadap t
Ġarrange ment
ì£¼ ë¯¼
Ġì§ģ ë¬´
ĠìĬ¤íĬ¸ ë¦¼
Ġdepos it
ìĭĿ ìĹĲ
P C
y ing
ê ½
il ing
Ġsu d
ater al
Ġag g
Ġìŀħ ë²ķ
Ġall oy
Ġíķł ëĭ¹
av irus
Ġequ ipped
Ġs and
ê¸° ëĬ¥
Ġê¸° íļį
Ġê°Ģ ì¹ĺë¥¼
Ġëı ķ
Ġvisit ors
íĶĦë¡ľ ìĦ¸ìĦľ
Ġenterpris es
Ġs ending
ìŀĲ ëıĻ
Ġë³¸ ëĭ¤
Ġì°¸ ê³ł
Ġì°¾ ëĬĶ
ë§Į ìĿĺ
Ġimp oss
Ġdetermin es
ĠGyeong sang
Ġsud den
Ġtrans ition
Ġaccount ing
Ġneigh bor
Ġc ycle
Ġìŀ ĩ
Ġë² ¡
Ġbec oming
Ġfl o
íħĮ ëĤĺ
ìĦľ ê°Ģ
ë§ ¨
Ġëĭ¤ ìĨĮ
Ġë³ĢíĻĶ ìĹĲ
Ġëį§ë¶Ļ ìĺĢëĭ¤
Ġ iron
ê°Ģ ëĿ½
Ġ4 4
Ġposition s
r ist
ìĬ Ĳ
ĠìĿ´ ëĵ¤ìĿĺ
us ive
Ġê·¸ ëĵ¤ìĿĺ
Ġag reed
Ġíĺ¸ íĿ¡
ëħ¸ ëıĻ
Ġíİ¸ ìķĪ
ĠìŀĪìĿĦ ê¹ĮìļĶ
Ġì½Ķë¡ľëĤĺ ë°ĶìĿ´ëŁ¬ìĬ¤
Ġsilic on
Ġpursu ant
Ġëĵ ¯
Ġíİ ľ
ĠíĺķìĦ± ëĲĺìĸ´
Ġì±Ħ íĥĿ
Ġì»´íĵ¨ íĮħ
Ġn ort
ëª ¬
ĠíĮ ½
Ġìĺ¤ ë¸Į
Ġìŀ¬ ë£Įë¥¼
íķĺìĺĢ ìľ¼ë©°
ĠOr gan
ìĬ¤ ìĻĢ
Ġtr ain
Ġch ain
ĠT em
Ġì¶ľ ë°ľ
ĠìĹħ ëį°ìĿ´íĬ¸
ic ations
ĠI C
Ġëħ¸ ëĵľ
Ġplay ing
Ġfeel ing
amet ers
Ġst im
Ġperson s
Ġalumin um
ì² ©
ìĹ° íķ©
ĠíĬ¹ íĹĪ
ark et
Ġext ended
Ġì¶© ê²©
Ġant en
Ġreturn ed
Ġregard less
Ġlaun ched
i j
Ġw ish
êµŃ ìĹĲ
ĠëĶĶ ìŀĲ
Ġëĭ¹ íķ´
Ġsuccess ful
ë¡ľìĦľ ìĿĺ
ĠìĦ¼ íĦ°
A b
Ġ ion
Ġm er
as ion
Ġìľł ì²´
ĠëĤĺ ìĻĢ
ĠìłĢ ëł´
ìĿ´ëĿ¼ ë©°
ĠìĤ´ ìķĦ
Ġevery one
Ġgreat ly
ĠìłľíĴĪ ìĹĲ
Pro v
ĠIndu strial
Ġìĭ¬ê°ģ íķľ
Ġìĭ¤ ì²ľ
I P
c he
ìĽĲ ê³¼
ĠìĿ´ìļ© íķ´
Ġíģ¬ ê¸°
Ġhy per
Ġê³µê°Ħ ìĿĦ
Ġenter ing
g ent
ê³ł ëĬĶ
âĢ ľ
Ġë¬¸ìłľ ëĬĶ
Ġë²ķ ìĿ¸
ĠìĻĦ ìłĦ
Ġì¹¨ íķ´
ĠìĿ´ë²¤ íĬ¸
ĠElect ronics
Cons id
Ġre cess
Ġm ist
ol ute
ì¡° ì§ģ
Ġelect rically
Ġë¶Ģë¶Ħ ìĿĢ
Ġfocus ing
Ġpart ners
Ġatt ack
Ġë°Ŀíĺ Ģ
Ġì¼ĢìĿ´ ë¸Ķ
Ġf elt
Ġê·¸ ìĹĲ
Ġpl ants
ì§Ī ìĿĦ
Ġte aching
ëĭĺ ìĿĺ
Ġra ising
Ġgener ator
ë® ¤
Ġine vit
ve red
Ġìĭ ¸
ĠìķĮ íĤ¬
Ġêµ¬ë¹Ħ íķľ
ĠìĬ¤ìľĦ ì¹ĺ
ĠìĨĮ íĨµ
ĠìĪ ł
Ġë²ł íĬ¸ëĤ¨
Ġcoun sel
Ġl ab
íĻĶ íķł
Ġsh ar
Ġthrough out
Ġinst ru
Ġfund ament
Ġexperi enced
Ġìł ĬìĿĢ
Ġe ver
Ġìľł ëªħ
íķŃ ê³µ
íķĺìĭľ ë©´
Ġmen u
Ġfeed back
l ocal
Ġê°Ģ ëıĻ
ĠìĦł ë°ľ
Ġíİ ĮíĶĦ
ë¦° ëĭ¤
ĠíĥĢ ëĭ¹
Ġelectro ly
ëĲĺìĹĪ ê³ł
Ġprotect ive
ìĦ¸ ê¸°
Ġrec ip
Ġë§¤ ê°ľ
Ġê´Ģëł¨ íķ´
Ġspec ified
ĠìĥģíĻ© ìĿ´
Ġtre es
Ġê°Ģ ì¤ĳ
ìĹ¬ íĸī
ap or
ê²½ ìĿĦ
ĠR o
Ġar rest
íĸĪ ëĬĶëį°
Ġbroadcast ing
Ġconvention al
I A
h oon
ìĥģ íĴĪ
ĠA t
Ġíķľ ìłķ
Ġ5 1
ĠëįĶ ë¶Īìĸ´
Ġê¸°ìĹħ ìĿ´
Ġëģ Ĭ
Ġwr ite
Ġëª¨ëį¸ ìĿĦ
ploy ment
Ġcontrovers y
Ġì§Ħ ìŀħ
ìħĪ ë¸Ķ
4 4
Ġd ensity
Ġìľł ì¹ĺ
ëĳĲ ê³ł
ìĬ¤íħĮ ë¥´
Ġìĭľ ëĮĢ
ĠY ou
ĠìĿ´ìļ© íķĺëĬĶ
Ġpl as
Ġam b
ĠìĭľìĬ¤íħľ ìĹĲ
Ġent rance
ìĤ Ń
ìģ ĺ
ĠC P
ĠìĬ Ī
ox ide
ĠS a
Ġë§Ī ì¼ĢíĮħ
Ġbr ain
ĠìĥĪ ë¡ľ
ĠìĨĲ ìĭ¤
Ġbelie ved
ĠëĮĢë¶Ģë¶Ħ ìĿĺ
c are
ĠR eg
ë´ ¤
Ġrespons ible
ĠìĦŃ ì·¨
Ġsu st
Ġíĺĳ ìĿĺ
ox y
Ġì¶©ë¶Ħ íķľ
ê±°ëĵł ìļĶ
Ġse al
ĠìłĦ ìŁģ
ìĨĮ ëĬĶ
ĠíĻľ ë°ľ
ĠF rance
ĠN a
Ġrev ised
Ġcent ury
e ed
ì£¼ ë¥¼
Ġact ions
Ġgro ove
chn ology
Ġfre ed
pr int
Ġpredict ion
Ġp us
ing u
Ġd ream
Ġpro hib
Ġì¢ħ ìĸĳ
Ġì·¨ ìķ½
Ġel im
Ġguidel ines
Ġde lic
Ġê²½ìļ° ìĹĲëıĦ
ĠìĽĲ ê²©
Ġreason able
Ġimposs ible
ìĿ´ ìĿµ
Ġì§Ģ ì¶ľ
Ġab road
ëł¤ ë©´
ĠëĨį ìĹħ
ĠìĥĿ íĥľ
ĠSt ate
Ġc ash
con taining
Ġê¸°ë°ĺ íķĺìĹ¬
f ree
Ġf ishing
Ġhous es
ìķĮ ê²łìĬµëĭĪëĭ¤
âī ¤
Ġw alk
Ġelectric ity
ĠìĿ¼ ìĸ´
ë¥ĺ ìĿĺ
ĠíĮĲ ìłķ
Ġëĵľ ëĿ¼ìĿ´
ĠC S
Ġì¹ĺ íĻĺ
Ġstr ip
Ġìĭ¤ìĭľìĺĪ ìĹĲìĦľ
Ġcorre ction
Ġjo ined
Kore a
T E
Ġst yle
Ġ3 9
Ġëĵ± ìĿĢ
Ġab norm
ĠêµŃ ë¦½
ĠìĻĦ ìĦ±
Ġident ity
ins ula
ĠS NS
Ġì° ¬
ë²ķ ìĥģ
Ġìĸ´ ëłĪìĿ´
Ġê±° ë¶Ģ
Ġì½Ķ ëĵľ
Ġdep th
Ġstr a
Ġsha res
íķĺ ìħ¨
ĠìŀĲ ê¸Ī
ĠW on
Ġëªħ ìĭľ
ĠêµŃê°Ģ ìĿĺ
Ġê½ ĥ
Ġn ice
ĠA ff
Ġwas hing
ëĵł ì§Ģ
Ġì°¾ ê³ł
ĠìĪĺìĭł ëĲľ
in ations
ĠìĿ´ ìĿĺ
ĠìĿ´ ê³³
Ġìĭ¤ìĭľ ê°Ħ
ĠìĥĿìĦ± íķĺëĬĶ
Ġë°ĶìĿ´ ìĺ¤
Ġse ek
ĠD ynasty
Ġíķł ìĿ¸
enc ing
Ġëĭ¨ë§Ĳ ê¸°
Ġê²© ë¦¬
Ġë©Ķìĭľ ì§Ģë¥¼
Ġì¡° ì¹ĺë¥¼
ĠìĿ¼ ìĥģ
ub le
ener ation
Ġëª© ë¡Ŀ
ìķ¡ ìĿĢ
Ġsec ured
ĠíķĻìĥĿ ëĵ¤ìĿ´
Ġf an
ìĦ ¯
Ġìĺ µ
all ed
ëĭ¹ ìĿ´
ĠìĦł ìĥĿ
Ġìĺ¤ íĶĦ
ĠìłĲ ìĿ´
ĠìĪľ íĻĺ
Ġlimit ations
ĠìŀĦìĿĺ ìĿĺ
os an
G yeong
Ġì§Ģ ëĬ¥
ĠD is
ĠìķĮ ë£¨ë¯¸ëĬĦ
ĠëĨĴ ìĿ´
Ġìķ½ ìĨį
Ġë¶Ģë¶Ħ ìĿ´
Ġìłľì¡° íķĺëĬĶ
Ġêµ¬ë¹Ħ íķĺëĬĶ
Ġb low
ìĽ ĢìĿ´
ĠC orporation
Ġìłķ ì§Ģ
êµŃ ë¯¼
Ġsub stit
ìłķ ìĥģ
Ġwith draw
êµĲ íĨµ
Ġpain ting
5 2
W here
il k
Ġì§Ģ êµ¬
um an
ìĭł íĺ¸
Ġ4 3
ĠìķĬ ìľ¼ë©´
ren ch
Ġsome one
ĠTr ans
or ithm
íĻĶ íķĻ
Ġle ak
Ġcorpor ation
Ġold er
ë§Į ìľ¼ë¡ľ
ĠëĤ´ìļ© ìĿ´
ĠìĪĺì¤Ģ ìĿĺ
L G
Ġs ources
Ġê¸° ì§Ģ
Ġíĥ ±íģ¬
Ġíķĺ ê²łìĬµëĭĪëĭ¤
up s
Ġë¬¼ ìĿĦ
Ġlog ic
Ġsam ples
Ġë¶Ģ ëĵľ
ust ral
ê±° ìļ´
Ġcol ors
íķŃ ìĿĺ
Ġcar s
ĠìĹħ ì²´
Ġnear by
Ġìĥģëĭ¹ íŀĪ
Ġlin ear
ĠP en
and om
Ġs ession
ì§Ģ ë©´
ĠìĿ¸ ìĤ¬
ĠKore ans
Ġ200 5
ra ft
do or
Ġíİ¼ ì³Ĳ
her n
Ġr ank
Ġcert ific
Ġtom orrow
T O
Ġc able
Ġìĭľ ê¸°
ĠìĺģìĹŃ ìĿĺ
Ġst one
ìĽĶ ë¶ĢíĦ°
Ġìĸĺ ê¸°
ë© ¸
ìĿ¸ ëĵ¤ìĿ´
Ġse aling
ëĭ¹ ìĭľ
Ġë°ĺ ë©´
ĠìĨĲ ìĥģ
Ġent ry
que ous
Ġabs olute
Ġanim al
augh ter
ĠìĿ´ ì¤ĳ
Ġwhe el
Ġco ast
Ġco vered
ĠAAA ìĿĺ
Ġwork ed
Ġê´Ģëł¨ íķľ
Ġrem ain
Ġconc l
i i
Ġp in
Ġìĺ Ĩ
Ġë³´ ì¦Ŀ
Ġë³´ ìĻĦ
ìĹŃ ìĿĦ
ĠH igh
Ġte a
ĠíļĮ ìĤ¬ëĬĶ
Ġopp osition
Consid ering
Ġd og
ìĽ ¨
ĠP D
Ġpar king
íķĺìĭľ ëĬĶ
Ġaspect s
Ġtiss ue
Ġa id
Ġat om
ĠìŀĲ ì¹ĺ
Ġviol ence
Ġìĸ´ ìħĪë¸Ķ
íĮĲ ê²°
Ġìļ© ìłĳ
Ġcorrespon d
Ġhol der
Ġì»¨íĬ¸ë¡¤ ëŁ¬
ë Į
Ġd ial
ìĬ¤ ëŁ¬ìļ´
Ġr an
ìĽĶ ìĹĲ
Ġíİ¸ ìĿĺ
Ġêµ° ìĤ¬
Ġnurs ing
ĠAff airs
h ab
ĠìĬ¤ íı¬ì¸ł
Ġìĺ¤ íŀĪëł¤
Ġoper ator
Ġì²Ń ëħĦ
Ġsepar ation
Ġê°Ģê¹Į ìļ´
ĠTem ple
b al
Ġê²½ ê³Ħ
Ġselect ing
Ġtext book
Ġcoupl ing
Ġaltern ative
ĠìĿ´ëģ Į
ìĭľ ë¥¼
Ġê´Ģ ì¸¡
Ġco oking
ìĿĮ íĮĮ
ĠW hen
ë¥ł ìĿĢ
Ġpass eng
Ġcontain ed
Ġê¸´ ê¸ī
ĠS o
ëĮĢ ëĬĶ
ĠìĺĪ ë¹Ħ
Ġíĺķ ìĥģ
Ġadjust ed
4 8
Ġê²½ ìĤ¬
ĠìĹ° ìĤ°
Ġê²° íĺ¼
ĠëıĦ ëĭ¬
Ġthem e
Ġconduct ing
Ġstra ight
z e
Ġê°ľ íĺģ
ex p
Ġmaintain ing
ĠAf ric
ĠíĶ¼ëĵľ ë°±
l ink
ĠC ivil
Ġê³ł ë¯¼
ĠìķĪ íħĮëĤĺ
Ġìļ° ìĬ¹
Ġtax es
ĠíĻĶíķ© ë¬¼ìĿĦ
Ġcoe fficient
T able
ĠíļĮ ìĪĺ
Ġcontrol s
ë¡ľ ëĵľ
ĠëĤĺ ê°Ģ
âĢ ĭ
Ġem ission
Ġpe ak
Ġpass ing
ĠíĸĪ ìĬµëĭĪëĭ¤
Ġê´Ģ ìłĲìĹĲìĦľ
íİ Ģ
Ġíķ© ë³ĳ
ĠìĹ´ ë¦¬ëĬĶ
Ġscreen ing
Ġin k
ìłģìľ¼ë¡ľ ëĬĶ
Ġar ch
Ġel se
ì³¤ ëĭ¤
Ġalg orithm
E CD
u ction
ìļ° ëĬĶ
Ġë¬¸ìłľ ìĹĲ
ĠíĥĢ ìŀħ
ĠìłĢíĿ¬ ëĬĶ
augh t
ĠëıĪ ìĿĦ
al ty
Ġun ion
Ġë§¤ ì²´
ĠìŀĪìĹĪ ëįĺ
Ġlink ed
ì»¨ ëĮĢ
ìĿ¸ ê³µ
ul ations
ìĭł ì²Ń
ĠìķĦ ì¹¨
ĠíĿ ĳ
ëŁ¼ íĶĦ
Ġìĭ¶ ìĸ´ìļĶ
ì ¯
ëį ´
Ġìľł ìĹ°
Ġíİ Ģ
ĠìłĪ ëĮĢ
Ġì±Ħ ë¬´
Ġclass ification
Ġtrad ing
ìĿ¸ ìĹĲê²Į
ĠP ublic
Ġstor ing
E T
Ġm aster
Ġal though
Ġíı ´
Ġíģ¬ ëĭ¤
Ġdep art
Ġëª» íķĺëĬĶ
D es
Y our
ìĤ¬ ëŀĮ
Ġfac ing
Ġexclud ed
ĠìłĦ ì§Ģ
est s
Ġëį°ìĿ´íĦ° ìĹĲ
êµ° ìĿĺ
here inafter
ìķĪ ìĿ´
Ġact s
ĠâĢ ĭ
ìķĺ ìĬµëĭĪëĭ¤
tain ment
ë¦° ëįĶ
Ġëª© ìĨĮ
Ġìĭľê°Ħ ìĹĲ
ar i
Ġwh oles
ì£¼ ë¡ľ
Ġcompar ison
Ġê´Ģê³Ħ ê°Ģ
Ġë¹Ħìľ¨ ìĿ´
ĠIns urance
Ġfreed om
ìłĦ ìĿĺ
ê·¸ ë¦¼
ĠëıĻ ë°ĺ
Ġìļ°ëł¤ ê°Ģ
ìĿ´ ëĵ¤
Ġì£¼ ê³ł
Ġch ick
íĳľ ë¥¼
Ġrece ption
ĠìĤ¬ëŀĮ ìĿĢ
ĠìĿ¼ë°ĺ ìłģìĿ¸
Ġprop osal
Ġnar row
M ay
x y
ĠìĿ¸ íķĺìĹ¬
ëłĪ ìĿ¸
ë°ĺ ë©´
ĠìĮ ĵ
ĠâĢĭ âĢĭ
íķ´ ë³´
Ġê·¸ ë¦¬
ë¬¸ ìĿ´
ìŀ¬ ìĿĺ
Ġk it
ë§Ī ì§Ģë§ī
ĠìļĶ ê±´
ë¥ĺ ê°Ģ
Ġë§Ĳ ìĿĦ
ĠíĮĮ íĬ¸ëĦĪ
Ġass et
ëĵ¯ ìĿ´
Ġcoron avirus
ë¶Ģ ìĹĲìĦľ
Ġê·¸ ëĥ¥
ĠëĤĺ ìĦł
Ġperform s
Ġì´Ī ëŀĺ
ol ice
Ġë°ľ íĺĦ
ĠëĤ´ ëħĦ
ĠG eneral
Ġpar ameters
ìļ°ë¦¬ ëĤĺëĿ¼
Ġë¬¼ì§Ī ìĿĦ
g g
Ġë³µ ì§Ģ
Ġaud ience
Ġsubm it
ë¥ Ļ
Ġh uge
ĠìĿ´ ë¥¸
ê²Į ìŀĦ
ìķĪ ìĹĲ
ĠìĿ´ìĥģ ìĿ´
Ġì¡ ¸
Ġê¶Į ë¦¬
ê°Ģ ìĹĲ
Ġ2 30
ĠD C
Ġbl ue
Ġhead quarters
ĠíĬ¸ ë¦¬
Ġìĸ¸ ìĸ´
íĭ¸ ëłĮ
J apan
om a
ìĹ¬ ëŁ¬
Ġìľł ì¶ľ
ê¸Ī ìĿĢ
ĠìĨį ëıĦ
Ġtoward s
ĠPr ime
a u
ĠëĤĺ ë¬´
Ġíıī ë©´
Ġê·¹ ë³µ
ìŀ ī
Ġv ul
Ġê³µ ì¤ĳ
Ġgo als
cl osed
Ġê³łëł¤ íķĺìĹ¬
Ġë³´ìĹ¬ ì¤Ģëĭ¤
Ġì£¼ìĭľ ê¸°
iqu es
ĠíĮĮ ìĿ´íĶĦ
ĠìłľìĻ¸ íķľ
Ġvib ration
S S
ìľ¼ ë©´ìĦľ
Ġg ender
Ġcon d
ìĦ± ëıĦ
Ġaddition ally
Ġpar ameter
Ġhol es
ë£ °
Ġsol vent
Ġì½ĺíħĲì¸ł ë¥¼
ëĵ Ń
Ġë°© ìĭĿìĿĦ
Ġë°© ì¹¨
ĠAAA ëĬĶ
Ġíİ Ħ
e es
ëł¥ ìĿĢ
Ġíķľ ìª½
Ġìĭł ìŀ¥
ĠìĬ¤ ì¼Ģ
ĠíĺĲ ìĿĺ
ent ially
Ġg ift
Ġwor ry
ĠìłĢ ëħģ
ĠThe re
Ġdes pite
Ġno zz
ĠìĻĦ ë²½
Ġíļ ¡
ire ctor
Ġì¶ľ ìĭł
ë³Ģ íĻĶ
I T
Ġto w
ê² Ł
ĠëĮĢ ë²ķ
Ġì§Ģ íķĺ
ĠB aek
ĠSe o
Ġrein for
ìĨĮ ë¹Ħ
ëł¥ ê³¼
Ġì¼ Ģ
Ġdelay ed
Ġresearcher s
3 7
s ection
Ġon es
Ġch ance
ìĦ¸ ëĮĢ
Ġê°ľ ìŀħ
Ġsa ving
Ġstruct ures
Ġown ership
Ġord ers
Ġcombust ion
Ġmembr ane
Ġplas ma
ķ ìĭľ
as ure
ĠC T
ĠìĨĮ ìłķ
Ġcl othes
Ġacc idents
Ġëį°ìĿ´íĦ° ëĬĶ
Ġgr and
ĠëĬ¥ ëł¥ìĿĦ
ro gen
um b
Ġ200 6
Ġflow s
ĠìĿ´ ìĤ¬
Ġst ri
ĠC an
ill ing
Ġne ural
Ġë°° ìĦł
ĠW elfare
Ġtest ed
il ed
ì½Ķ ìĺ¬
Ġë¸Į ëĿ¼ì§Ī
ëĿ¼ìļ° ëĵľ
Ġsqu are
i ers
ĠìĤ¬ ëĬĶ
Ġdis aster
íķĺê¸° ìĹĲ
Ġar bit
ĠW e
Ġíļ¨ìľ¨ ìłģìľ¼ë¡ľ
Ġì²ĺìĿĮ ìľ¼ë¡ľ
fess or
Ġíķĺ ìĿ´
íĶĦ ëĿ¼
Ġcarry ing
k g
Ġsp ot
pl ace
íĺķ ìľ¼ë¡ľ
Ġì»¤ íĶ¼
Ġê°Ģê²© ìĿ´
Ġdest ination
Ġë§ŀì¶ °
Ġì»¬ ëŁ¬
4 6
Ġst abil
ad es
ĠìĥĿ ì²´
Ġco pper
ìĭ¬ ìĿĦ
Ġext ent
ëģ Ħ
ĠíĿ¡ ì°©
Ġtur b
Ġen act
Ġhelp s
Ġìĺ¤ë¸Į ìłĿ
ìĿ´ ê²Į
ĠìĪĺ ìĥģ
Ġë°ľëªħ íĴĪìĿĢ
Ġconc lud
Ġê¸°ëĬ¥ ìĿ´
Ġcalc ulating
ĠìĦ± ê²©
Ġlegisl ation
Ġin let
íĬ¸ ë¦¬
Un like
ì¤ ĺ
rup t
Ġalk yl
m y
Ġch ronic
Ġag encies
Ġë¶Ī ê°ĢëĬ¥
Ġbuilding s
ĠëĮĢíĨµëł¹ ìĿĢ
Ġkind s
ĠíĴį ë¶Ģ
F A
Ġis land
Ġus age
Ġdr ain
ëĲĺìĹĪ ìľ¼ë©°
ĠìķĮê³ł ë¦¬ì¦ĺ
Ġì§Ģìłģ íĸĪëĭ¤
I M
os c
ëŀ ©
ìĿ¼ ìĿĢ
Ġref und
Ġbl ade
Ġremo ving
¾ Į
at ch
Ġre ject
ìŀ¬ ê°Ģ
Ġì¦Ŀ ëªħ
Ġëļ ľ
Ġre ven
Ġg ear
Ġì¶Ķ êµ¬
Ġê²°ìłķ ëĲľ
Ġìłķì±ħ ìĿĦ
ĠìĥģíĴĪ ìĿĦ
Ġmov able
Ġhorizon tal
ĠAdminist ration
U s
Ġcl os
Ġêµ¬ìĦ± íķĺëĬĶ
Ġmol ding
P D
ul l
ĠìĨĮ ìļĶ
ĠìĬ¤ íĶ¼
ub e
ë²Ī ì§¸
Ġport able
Ġext end
Ġcomfort able
ĠíĶ½ ìħĢ
w ise
Ġc os
Ġfor ces
ë§ Ľ
ë©´ ìĿ´
ĠC ulture
ther n
Ġë©Ķ ìĿ¸
ĠìĬ¹ ìĿ¸
ili ary
Ġê¼ ½
ĠìĹ°ê´Ģ ëĲľ
R es
Ġd anger
Ġì°¨ ìĿ´
Ġins u
Ġbr ief
Ġê·ľìłķ íķĺê³ł
f low
íĥ ĳ
ĠìĿ¸ ê¶Į
Ġë© ¤
ĠìłĲ ìĿĢ
Ġeffect iveness
Ġargu ed
¿ Į
ĠC up
ĠD a
Ġë°° ìłľ
Ġtax ation
Ġë¨¹ ìĿĦ
Ġhistor ical
ĠìĹ ĺë¦¬
ĠëıĦ íı¬
Ġact u
ĠêµĲ ì²´
Ġsc rew
Ġìļ´ ìļ©
ĠêµĲìľ¡ ìĿĦ
ĠSc ience
ch ain
Ġst ack
Ġhere in
ê° Ķëĭ¤
ìĥģ ìĹĲìĦľ
Ġì§Ģ ì¼ľ
Ġnot hing
Ġíķľ ê³Ħ
íĶĦ ë¦¬ì¹´
Ġplay s
Ġíıīê°Ģ ë¥¼
Ġì°½ ìĿĺ
Ġguid ance
Ġemot ional
ëı Ī
Ġëħ¸ ìĿ¸
ĠìŀĦ ê³Ħ
Ġoccur rence
Ġchannel s
Ġon to
Ġex em
oc y
Ġíı¬íķ¨ íķĺìĹ¬
ĠW h
Ġêµ¬ìĦ± ìļĶ
Ġve ctor
Ġimm un
Ġh ur
ĠìĿ´ ê±°
íļĮ ëĭ´
Ġtrans istor
Ġì²ĺ ë¦¬ë¥¼
ĠìĤ¬ëŀĮ ëĵ¤ìĿĢ
Ġacqu ire
ĠìĿ´ìłĦ ìĹĲ
ic ated
et r
Ġse ed
ĠH a
ak ers
Ġpresent ation
ĠìļĶìĨĮ ë¥¼
oly mer
Ġautonom ous
Ġê²¨ ìļ¸
5 1
st anding
Ġìĭ¤ ëĤ´
Ġcl oud
Ġconc rete
Ġìĸĳ ìĿĺ
ĠíĶĮ ëŀľ
af ety
ĠíĿ¥ ë¯¸
ìĵ °
Ġanten na
he red
íĦ° ìĿĺ
Ġê³µ ìłķìĿĦ
ëłĪìĿ´ ìħĺ
ĠìĤ¬ìĭ¤ ìĥģ
Ġc aught
ìĬ ĺ
ĠìĪĺ íıī
us band
Ġdec line
ì¸µ ìĿ´
ĠSt ream
Ġëĭµ ë³Ģ
ëľ ¨
Ġp H
ì¤ĳ ìķĻ
Ġsupport s
Ġëī´ ìļķ
ĠìĦł ë°ķ
ĠíķĺëĤĺ ë¡ľ
ĠìłľíĴĪ ìĿ´
Ġì¦Ŀê°Ģ íķĺê³ł
ë°©íĸ¥ ìľ¼ë¡ľ
Ġlaun ch
Ġin ning
Ġë§ º
Ġìĥģ ìĦ¸
ì¡° ë¥¼
ìľĦ ëĬĶ
Ġro d
Ġpromot ing
Ġlist ed
Ġmeaning ful
ìĭľíĤ ´
Ġë¬ »
Ġìŀ¬ ë¯¸
D is
Ġm ental
ì£¼ ìĹĲ
Ġë¯¸ ì¹ł
ì§Ī ìĿĺ
Ġdet erior
Ġgener ates
Ġíİĺ ìĿ´
R I
Ġë¶Ģ ê°Ģ
ë°ľ ìłĦ
Ġgr ant
ĠìĪľ ê°Ħ
Ġì¤ĳíķ© ì²´
Ġefficient ly
ĠOrgan ization
ĠìłĦ íĮĮ
ĠA ustral
ĠìĻ¸ ì¸¡
Ġì²ĺ ë²Į
Ġrot ating
Ġcance ll
u um
Ġë¯¸ ì¹ľ
Ġelect ron
Ġë§ŀì¶ ¤
Ar t
u ff
Ġg irl
Ġêµ¬ìĦ± ëĲł
Ġ11 2
ĠìĤ¬ëŀĮ ìĿĺ
Ġì¶© ëıĮ
ìłķë³´ ë¥¼
Ġëª©ìłģ ìĿĢ
ĠìĿ¼ìłķ íķľ
ëľ »
p ress
Ġë¹ ¼
ìļ¸ ëŁ¬
S K
ê º¼
or n
ìĭ ¼
íĬ¸ ë¦Ń
ĠìŀĲ ê°Ģ
ĠìłĲ ìĿ´ëĭ¤
Ġcur rency
Ġgu ard
Ġplan ned
ĠìĮį ìĿĺ
± ħ
Ġun like
ĠìķĪ ë³´
ĠU l
ìľ¨ ìĿĢ
Ġì¢ħ ìĤ¬
Ġdi vers
ì¶Ķ ìĸ´
Ġwide ly
Ġoblig ation
ìľł ëŁ½
Ġê°Ĳ ìłķ
ìļ´ ìĺģ
Ġì§ĢìĹŃ ìĹĲìĦľ
Ġdirect ors
ĠìĺĪìĥģ ëĲľëĭ¤
Ġfib ers
Ġê°ķëł¥ íķľ
ë¦ ī
Ġpro s
ĠìŀĪ ìĬµëĭĪê¹Į
op er
Ġpre t
Ġê°Ħ ê²©
ĠíĮĲ ëıħ
Ġsl ightly
Ġcent ered
Ġíĭ Ģ
Ġsusp ension
Ġes c
Ġclose ly
Ġnews p
Ġder iv
Ġexcess ive
Ġvess el
Ġan c
ct ors
un ch
Ġíĺķ ìĤ¬
ì¦Ŀ ê¶Į
ĠìŀĪìľ¼ ë¯Ģë¡ľ
Ġfill ed
G ood
L ee
or ter
Ġr andom
ĠëĶ ¸
ìĤ° ìĿ´
Ġro w
Ġreg ister
Ġtim ing
íķĺ ë¯Ģë¡ľ
ê¸° ê¸°
ì¸µ ìĿĢ
Ġhum ans
ìŀĸ ìķĦ
ĠìłĦ ê°ľ
Ġcre ative
Ġíļ¨ê³¼ ìłģìľ¼ë¡ľ
ìĩ ¼
ĠíķĻìĥĿ ëĵ¤ìĿĺ
ĠMed ical
Ġtempor ary
T V
ìĿ´ ëķĮ
Ġexp osure
Ġìŀħ ìŀ¥ìĿĦ
íģ´ ë¡ľ
ĠTr ump
ëŁī ìĹĲ
ë§ī ìĿĦ
íĥĦ ìĨĮ
Ġprofess or
Ġrestaur ants
ì¯ ¤
Ġ ice
Ġb ab
Ġsupp lies
Ġinf rastructure
Ġrem ove
ĠDem ocratic
Ġsimultane ously
Ġì§Ģ ì¹¨
Ġ4 6
Ġfin ally
Ġsay s
Ġì²¨ ë¶Ģ
Ġbe aring
Ġì£¼ ê¸°
ë¬¸ ìĹĲ
ĠìĥĿ ë¬¼
Ġìłľê³µ íķĺê¸°
Ġìŀ¬ ë¬´
Ġëħ¸ ì¦Ĳ
ĠíĿ ĺ
urther more
Ġestablish ing
Ġë¡¤ ëŁ¬
Ġd ur
ĠíķĺëĤĺ ëĬĶ
ĠìĿĮ ë£Į
cer tain
Ġunf air
Ġê¾¸ ì¤Ģ
Ġìłķ ë°Ģ
Ġnot ification
íĮ Ķ
ëį° ìļĶ
Ġì±ħ ìŀĦìĿĦ
Ġanim als
ìłľìĸ´ ë¶Ģ
Ġì¤ĳ ìĿ´ëĭ¤
Ġëį ľ
ĠìĹ¬ ìŀĲ
Ġìłķë³´ ìĿĺ
Ġset s
Ġinfl amm
Ġì¦ī ìĭľ
ly mp
êµ¬ ìĦ±
ĠìĦ¤ì¹ĺ ëĲľ
ĠíĥĲ ìĥī
Ġcyl ind
ìĹĲ ëĦĪ
Ġb id
ë°© ìĿĦ
ĠíĪ¬ ê³¼
Ġprob ability
íĺĦì§Ģ ìĭľê°Ħ
ì§Ģ ê¸°
Ġê°Ģ êµ¬
Ġnum er
Ġcoll abor
Prov ided
J ust
s a
he e
he l
Ġc m
Ġsc en
fere nt
und ai
Ġclaim s
p ass
Ġv ary
Ġpat ent
Ġìĥģëĭ¹ íķľ
Ġh usband
Ġê°ķ ìłľ
Ġë¬¼ ë¦¬
Ġìłľìĸ´ íķĺëĬĶ
ê½ ĥ
Ġexp orts
ĠëĨĴ ê²Į
Ġê°Ħ ìĹĲ
An other
ĠìĦłíĥĿ íķł
Ġê²½íĹĺ ìĿ´
ĠS pecial
Ġì£¼ ì£¼
Ġint ended
ĠìµľëĮĢ íķľ
Ġvac ation
Ġf ight
ĠìĪĺ ëĤ©
Ġpart ially
ê¹Įì§Ģ ìĿĺ
ri age
Ġcould n
Ġ17 0
Ġë°ĺìĿĳ ìĿĦ
5 6
ì§ ĵ
pp ort
op l
Ġíķĺ ìľĦ
Ġmet ropolitan
Ġë¹ ħ
Ġnum bers
Ġfac ilit
Ġë¯¼ ê°Ĳ
p arty
Ġìłľ ìłķ
ĠëĮĢ íĻĶ
ìľĦ ë¡ľ
ren e
Ġadjust ing
Ġindepend ently
asc ular
E C
Ġc art
Ġc reat
Ġë¬ ĺ
Ġprov incial
Ġeff ort
ĠëĤ¨ ìĦ±
Ġpun ishment
c omm
ì§ Ŀ
ot ion
ì² «
ì¶ ¤
Ġë§Ī ë¬´ë¦¬
íĶĦ ëłĪ
Ġë¹Ħì¦Ī ëĭĪìĬ¤
Ã Ĺ
ore s
em y
op ic
Ġam end
ê°Ĳ ìĤ¬
ìĻ¸ ìĦł
hol der
am in
Ġres erv
ë¯¼ ì£¼
ì²ĺ ë¥¼
ĠìĭĿ ë¬¼
Ġdist ingu
ĠëĮĢìĥģ ìĿ´
íķĺìĺĢ ìĬµëĭĪëĭ¤
Ġë°± ìĭł
Ġvac uum
Ġì¢ĭìķĦ íķĺëĬĶ
C S
p iece
Ġs ulf
Ġg ather
Ġê°Ģ ë¡ľ
ĠC ultural
Ġê´Ģ ëŀĮ
Ġìµľ ìłĢ
Ġchar ges
Ġfact ory
Ġviol ation
Ġmix ing
re p
act ers
ĠìĽ ¨ìĿ´
Ġinst ruction
íĻķ ìĭ¤
Ġíŀĺ ìĿĦ
Ġsusp ected
ograph ic
ê°Ģ ì¡±
ĠìĿ´íķĺ ìĿĺ
Ġinsu fficient
M P
ëħ ¼
Ġsh ock
ĠìĿĺ íĺ¹
ëł¤ ëĬĶ
ĠO lymp
Ġdisc overed
Ġrem ark
know n
Ġh op
ĠK ong
ĠF orm
ë°© ìĹĲ
Ġì§Ħ ë£Į
ĠíĶĦ ë¦°
Ġear n
Ġfood s
ĠìľĦíĹĺ ìĿ´
Ġíı´ë¦¬ ìĹĲ
Ġcele br
A P
k er
Ġìķ ī
Ġcl ock
vel ength
Ġìŀ¬ ë°°
ë°Ľ ìĿĦ
ê·¸ëŁ¬ ë©´
ĠCont rol
ëĿ¼ ë©´
Ġsu c
rom e
ë¦¼ íĶ½
ĠìĤ¬ì§Ħ ìĿĦ
1 60
ìĦ °ëĭ¤
Ġl ip
Ġad s
Ġthere fore
Ġexp end
ĠìĽĲ ë£Į
ĠìłĲ ì°¨
Ġì»¤ ëĦ¥
Ġë²ł ìĿ´
ĠìķĦìĿ´ íħľ
Ġë¹Ħë¡¯ íķ´
Ġa ward
Ġb ath
Ġê°Ģ ìķķ
ĠìĦ± ë¦½
Ġdec or
ĠíĬ¸ ëłĪìĿ´
Ġread y
Ġrent al
Ġn amed
Ġhe m
Ġacc omp
Ġfil ed
Ġê·Ģ íķĺ
ë²Ķ ìľĦ
ĠìĪĺì¤Ģ ìĿĦ
Ġmanag ed
Ġautom atic
0 1
ìŀ ł
ìĤ¬ ê³ł
Ġë³´ ìĪĺ
Ġì¢ĭ ìĬµëĭĪëĭ¤
Ġd im
Ġchar acters
Ġëĵ¤ ë©´
ë°Ľ ê³ł
friend ly
Ġb ought
ar n
ëł Ģ
Ġser ved
ĠIn vest
ì»¤ ëĭĪì¦ĺ
Ġê³Ħíļį ìĿĦ
Ġmechan ical
ì§ĢëĤľ íķ´
Ġfo am
¶ ¤
ĠA m
Ġìĭľ ìĹĲ
ìĭ¤ ìłľë¡ľ
20 19
ĠCh rist
ĠìĤ¬ìļ©ìŀĲ ìĹĲê²Į
Ġb one
Ġm ir
ĠI I
êµ¬ ì²´
ĠU E
Ġtechn iques
ĠíķĦìļĶíķĺëĭ¤ ê³ł
Ġì¦Ĳ ê¸¸
Ġsubm itted
U S
êµĲ íĻĺ
Ġë°Ķ ëĭ¤
Ġover come
Ġsubst ance
ëĭ¹ìĭł ìĿ´
Ġextract ed
Ġsmart phone
Ġh ab
ìĭľ íĹĺ
ĠìłĦ ìļ©
Ġíķĺ ëĵľ
ĠíĶĮ ëĿ¼
g y
v olution
z a
Ġp ig
Ġìłľê³µ ëĲĺëĬĶ
ĠìĤ Ń
Ġê³Ħìķ½ ìĿĦ
Ġê·ľëª¨ ìĿĺ
Ġë°©ìĤ¬ ìĦł
Ġbuff er
ìĦ± ìŀ¥
ĠìĦ¸ íĬ¸
Ġê²Ģ ì°°
ĠíķĦìļĶ ë¡ľ
Ġëį°ìĿ´íĦ° ê°Ģ
Ġlight ing
ĠëĤ® ìķĦ
Ġexpens ive
Ġwear ing
it ative
Ġf if
ì¹ĺ ìĿĺ
Ġë³´ ìłķ
Ġê·¸ ëŁ¬íķľ
ĠíĺķìĦ± ëĲĺëĬĶ
ìħĶ ìķ¼
at ur
ĠìłľíĴĪ ìŀħëĭĪëĭ¤
ord ers
Ġfall ing
Ġì¼ĢìĿ´ ìĬ¤
Ġëľ ¨
Ġë°ĶëŀĮì§ģ íķĺëĭ¤
Ġë§ģ íģ¬
Ġtw ice
it ance
Ġsh ipping
Ġtr ig
ìĭ¤ ìĹĲ
ĠëĦĺ ëĬĶ
" )
7 5
ĠìĹ° ìĨĮ
Ġman ip
. '
Ġre vers
íķ´ ë¥¼
íķ´ ëĭ¹
ĠS am
ìĭĿ ìĿĢ
Ġìŀħ ì¦Ŀ
Ġph osp
Ġaud it
Ġord inary
Ġstrengthen ing
Ġlat est
Ġ ic
Ġv ill
ìłĦ ì²´
ĠìĤ¬ìĿ´ ì¦Ī
ë°Ľ ëĬĶ
ĠìķĮëł¤ ì§Ħ
Ġë³Ħ ëıĦìĿĺ
ìķĮ íĤ¬
Ġdiagn osed
r s
Ġcon secut
Ġsp at
Ġìłľìĸ´ íķł
Ġext ra
Ġì°½ ìĹħ
Ġcollect ing
Ġown ers
Ġêµ¬ì²´ ìłģìľ¼ë¡ľ
W ell
if ies
Ġë³´ íĨµ
ë°© ìĨ¡
Ġemploye e
D on
Ġs chol
ì§Ģ ìĹĲìĦľ
ĠìķĦìĿ´ ëĶĶìĸ´
ĠìĺĪìłķ ìŀħëĭĪëĭ¤
Ġë¶ģíķľ ìĿĺ
Ġprint ed
Ġexist ence
Ġp ension
Ġth or
ch i
Ġíķĺ ìĺĢ
Ġë¶Ħ ìŁģ
Ġcall ing
Ġinstit utional
ì£¼ìĭľ ë©´
ĠëĳĺëŁ¬ ìĭ¸
ìĬ¤ëŁ½ ê²Į
a ign
Ġhe aring
Ġar ts
Ġìĭ ±
Ġê°Ģ ìĨį
Ġê·¸ ê°Ģ
ë¶Ħ ìŀĲ
Ġint ensity
ëħĦ ìĿĺ
ìĺģ ìĹŃ
Ġë¹Ħìļ© ìĿ´
Ġsust ain
Ġì£¼ ì°¨
ê¹Įì§Ģ ëĬĶ
ĠìĻ¸ ìĹĲ
ĠìĤ° ìĨĮ
Ġmajor ity
Ġê°Ŀ ì²´
R e
ĠìĹ° ê°Ħ
Ġê°Ĳ ìĭľ
ĠìĻ¸ ìĹĲëıĦ
Ġì¢ĭ ëĭ¤
ĠìĦłíĥĿ ìłģìľ¼ë¡ľ
Ġfrequ ently
ëĭ ī
Ġen able
íİĺ ìĿ¸
íĺĳ ëł¥
Ġdisc rim
Ġmin ute
Ġìĭ¶ ìĸ´
Ġê¸ī ê²©
Ġwar rant
Ġaccel er
Ġm ilk
Ġìĥģ ëĮĢë¡ľ
Ġíķĺ ëĭ¤
ëĭ¹ íķľ
Ġins ulation
l ar
ê³µ ìĹ°
Ġë°ľ ë³ĳ
Ġíķľ íİ¸
ĠF ood
ìĿĮ ìĿ´
Ġdo ctor
Ġmod ified
Ġë¶ĦìĦĿ íķĺìĺĢëĭ¤
Ġwa velength
Ġì¡°ìĦ±ë¬¼ ìĿĢ
1 12
it er
Ġwe ap
ĠF TA
íŀ ĺ
ìłĢíĿ¬ ê°Ģ
Ġcompet it
ĠíĤ¤ ìĽĮ
Ġìŀł ê¸Ī
Ġcommunic ate
ë® ¬
Ġb reat
Ġcon vers
ĠìĿ¼ ëĭ¨
Ġê°ľ ìĿ¸ìĿĺ
Ġpromot ed
ĠìķĶ íĺ¸íĻĶ
Ġchick en
Ġe ast
ìľ¼ ë¯Ģë¡ľ
Ġsp l
ens itive
íģ¬ ë¦´
ĠíĮĲ ìłķìĿĦ
Ġwant s
Ġlead ers
Ġsent ence
Ġinfect ious
Ġrestrict ions
Ġinter action
ĠìĭĿ ëĭ¹
Ġcheck ed
Ġconnect or
Ġexpect ations
Ġoffic er
ĠBrit ish
Ġthe ater
Ġg est
Ġsur pris
Ġê²ĥìĿ´ ë©°
Ġì°¨ëŁī ìĿĺ
Ġexecut ive
E G
íķĺ ìĿ´
ĠK yung
ĠL and
ĠìļĶ ë¦¬
ĠO h
Ġdes crib
Ġì·¨ ìĹħ
ĠSec ret
ĠPen insula
N ot
Ġb acter
Ġêµ¬ ìĨį
ĠM e
íĴ Ģ
ìĭ¤ ìĹĲìĦľ
Ġk il
Ġëĭ¹ ìĹ°
Ġcap abilities
ĠìĹ°ê²° ëĲĺìĸ´
Ġì²ľ ìĹ°
Ġì¡°ê±´ ìĿĦ
Ġgrad u
Ġreli ability
A I
ìĤ¬ ìĿ´
ë¬¸ ìĿĺ
Ġê³ł ëł¹
íķĻ ê³¼
Ġë©Ķ ì»¤ëĭĪì¦ĺ
Ġtest ing
ĠìĪĺìĭł íķł
Ġaware ness
ìļĶ ìĿ¼
ìĹĲê²Į ëĬĶ
Ġval id
Ġcr imes
Ġext ension
ĠêµĲìľ¡ ê³¼ìłķ
Ġorganiz ational
im ent
Ġproduct ivity
ĠY oon
Ġmonth ly
Ġox id
Ġremov al
c heong
Ġf al
Ġgo vern
ĠL abor
Ġfin ance
Ġconc er
Ġaff ili
Ġprior ity
ĠìĦ±ê³¼ ë¥¼
Ġtit le
P resident
ìŀĲ ìĤ°
ê³Ħ ìĹĲ
Ġì¡° ê°ģ
Ġsp ray
ê´Ģ ê³Ħë¥¼
air person
Ġì°¾ ìĿĦ
Un der
Ġìĩ¼ íķĳ
Ġë° ĳ
Ġì§Ģ íĸ¥
ap ers
ë¹Ħ ëĬĶ
ëħĦ ìĿĦ
ĠD ise
ĠêµĲ ì°¨
Ġë©Ķ íĥĢ
ĠíĥĢ ê²Ł
Ġrun s
ëĳ Ķ
Ġdischar ged
ĠGang won
ĠìĬ¤íĶĦ ë§ģ
t ical
or i
íĸī ìĿĦ
ĠF rench
ĠH wang
Ġë© ĭ
ĠìłĲ ê²Ģ
ëª© ìĿĦ
Ġê¸°ì¤Ģ ìĿĦ
v ious
Ġg ain
Ġìľł ë¡ľ
ib eration
ê°ľ ìĿ¸
Ġrece iver
Ġíģ´ ëĿ¼ìĿ´ìĸ¸
Ġjud ge
Ġcrit ical
Ġwin ning
Ġa queous
ìĿ´ ìłĦ
Ġw iring
Ġv ice
ĠìĹ° ê¸°
con n
Ġíķ´ ìĨĮ
ĠJ ust
ĠëĲĺ ìĹĪ
ĠComm un
Ġhim self
Ġë§Īì°¬ê°Ģì§Ģ ë¡ľ
ĠìĿ´ ìĬĪ
ĠìĤ¬ ëĿ¼
ĠC or
ëªħ ìĹĲ
Ġë§Į ìĦ±
Ġdr inking
Ġsit uations
Ġë¨¹ ëĬĶ
Ġe gg
ĠíĨµ ìĿ¼
ĠëıĦ ë©´
ĠN on
Ġsens ors
k y
ìľ¼ ëĭĪ
ĠìĿ¸ ìĥģ
ĠìĿ¸ ìĪĺ
íĮ ©
ĠìĦ¼ ìĭ±
ê°Ļ ìĿ´
ê¹ ¨
Ġdifficult y
ëł¸ ìĬµëĭĪëĭ¤
ĠKB O
Ġw est
Ġêµ¬ ì²Ń
Ġfe ver
ëĦ¤ ìĿ´íĬ¸
Ġmanufact ured
íķĦ ìļĶ
Ġìķħ íĻĶ
Ġassess ment
5 5
ìĿ´ ìĺ¨
ĠL aw
Ġret ire
ĠíĬ¹ì§ķ ìĿĦ
Ġdam aged
ment ed
ĠíĨµ íĻĶ
ĠìĦ¸ ì²Ļ
ĠU K
Ġë¶Ģë¶Ħ ìłģìľ¼ë¡ľ
Ġexec uted
ĠìĤ´íİ´ë³´ ë©´
Ġcritic ism
Ġëĵľë¦¬ ê²łìĬµëĭĪëĭ¤
Ġb ow
íķ¨ ìĿ´
Ġpre lim
Ġíķ´ ìĸĳ
Ġë¬´ ìļ©
ë¯¼ êµŃ
Ġì½Ķ ìĿ¼
Ġë³´ìĹ¬ ì£¼ëĬĶ
Ġlet ter
Ġjo in
Ġvictim s
Ġin her
ê¸Ī ìĨį
Ġìĸĳ íĺ¸
Ġìľµ íķ©
N ext
¼ Ī
Ġc ru
Ġf a
Ġìĭ¤ ë¦°ëįĶ
10 4
Ġshe ll
Ġprincip les
r ain
ìĹĲ ë§Į
ĠìŀĲ ì²´ê°Ģ
ëħĦ ìĿ´
Ġì¢ĭ ìĿĦ
Ġë°°ì¹ĺ ëĲĺëĬĶ
Ġíİĺ ìĿ´ìĬ¤
Ġliter ature
Ġc avity
íķĺ ê²łëĭ¤
ë° ¥
ĠG eum
íİ Ļ
Ġtool s
Ġdelic ious
g n
Ġd aughter
ot te
ĠëĮĢ íĸ¥
ëħĦ ìĹĲëĬĶ
ĠTe chnology
ĠìŀĲ ê²©
Ġìĭ¤ ë¬´
ë´ Ħ
ĠìłĢìŀ¥ íķł
Ġbel t
Ġcateg ory
ë®¤ ëĭĪ
ĠìĿĺë¯¸ ê°Ģ
Ġobtain ing
ĠëĮĢíĳľ ìłģìĿ¸
ĠìĪĺëĭ¨ ìĿĦ
Ġnation wide
íĬ¹ë³Ħ ìĭľ
ĠìķĦíĮĮ íĬ¸
Ġch ief
Ġë¬¸ ìĦľ
Ġag ents
ê²ł ì§Ģë§Į
Ġobject ive
ĠëĤĺìĺ¤ ëĬĶ
Ġsurv ival
ìĸ´ ëĬĶ
ìľĦ íĹĺ
ign ment
Ġest imate
íĮ¨ ìĭľ
Ġaccur acy
Ġpict ures
Ġvolun te
E very
Ġë ½
Ġre new
ap ter
íĸī ìłķ
ĠìĽ ĥ
Ġë§¤ ìĿ¼
Ġcoun cil
Ġlit igation
Ġvul ner
D id
m aking
ĠS afety
ain ts
Ġne ck
Ġë¹Ħ ìĥģ
ëĲľëĭ¤ ê³ł
Ġê°Ħ ì£¼
Ġground s
ì¤ įëĭĪëĭ¤
3 9
b s
ëĿ¼ ë¯¹
Ġëĵ± ìĹĲìĦľ
ĠëĲĺ ìĹĪìĬµëĭĪëĭ¤
Ġì¦Ŀ íıŃ
íı¬ ëĦĮ
ĠëĤĺíĥĢ ëĤĺëĬĶ
ëģ Ķ
íķĺëł¤ ë©´
ĠëĮĢíķ´ìĦľ ëıĦ
Ġdefin ition
c king
j o
Ġf old
Ġe lev
ì² ¨
Ġde em
Ġ4 7
Ġ8 00
Ġìĭľìŀ¥ ìĹĲ
Ġutil izing
Ġìľłíĺķ ìĿĺ
Ġopportun ities
Ġcompetit iveness
Ġê·¸ ëıĻìķĪ
Ġso il
íĹ ¤
Ġíĳľ ë³¸
Ġbig gest
Ġë¹ĦìĬ· íķľ
L ast
Ġê¸° ìŀĲ
Ġne ut
ĠíķľêµŃ ìĹĲìĦľ
êµ° ìļĶ
ne g
Ġlead s
Ġë²Ķ ìľĦë¥¼
Ġunderst ood
ìĿ´ ê±°
Ġh om
ìĪĺ ìĭł
ë¬¼ ê³¼
Ġen ables
gr ad
Ġì´Ī ìĿĮíĮĮ
ivers ary
xim ately
Ġsubs crib
Ġgreen house
Ġexperim ent
Ġë° ´
ìĸ´ ì§ĢëĬĶ
ëŀ Ń
ëĮĢ ë¶Ģë¶Ħ
Ġê´Ģ ìłĪ
ìŀ¬ íĮĲ
ìĭ¤ ìĿ´
agn etic
ĠëĤ´ìļ© ìĿĢ
Ġcontract s
3 10
ic ular
Ġíı¬ íĬ¸
Ġco al
Ġë³Ģ íĺ¸
ĠìĭľìĬ¤íħľ ìĿ´
Ġê·¼ ì²ĺ
Ġwon der
Ġpass es
18 0
Ġë¹Ħì¤ĳ ìĿ´
ĠRep ublic
Ġnozz le
ìŀĲ ë£Į
el lect
Ġ3 10
Ġê´Ģ ê°Ŀ
Ġìľł ìłĦìŀĲ
ĠìĿĺ ìĽĲ
ëĤ´ ìļ©
ĠëĦ Ĳ
Ġins ul
Ġ200 3
Ġìĭłíĺ¸ ìĿĺ
ili ar
Ġaccept ed
Ġaccur ately
ĠìĿ´ìĿµ ìĿĦ
i ety
Ġì¶ ¤
Ġmoist ure
Ġme al
ĠF und
ĠìĹ°êµ¬ ìĹĲ
Ġspec ifically
Ġì¶ķ ìĨĮ
ĠìĿĳ ìļ©
Ġste am
ëĪ Ī
Ġadvertise ment
Ġì¡° ìĤ¬ë¥¼
íĤ¤ ëĬĶ
ë°Ķ ë¡ľ
ĠìĹ°ê²° ëĲł
ë ĥī
Ġf igure
ic it
Ġcont rast
ê·¸ ê²ĥ
Ġëĭ¨ ë©´
ĠëĤ¨ ìŀĲ
amp ions
Ġaccur ate
Ġpsych ological
P e
Ġë ¿Į
st ruct
Ġg ives
ë°ĺ ê¸°
Ġ7 00
Ġê°ĸ ì¶ĺ
Ġë°ķ ë¬¼ê´Ģ
Ġspecial ized
Ġappoint ed
Reg arding
g ence
ĠW estern
Ġë©´ ìłģ
Ġíĳľë©´ ìĿĦ
Ġpurp oses
Ġframe work
Ġconsecut ive
Ġd in
Ġë° ĸìĹĲ
ist ed
Ġíķĺ ê²Į
ĠíĻĺ ìŀĲë¥¼
Ġìĥģíĥľ ìĹĲ
ĠíĻĺê²½ ìĿĦ
Ġì£Ħ ìĨ¡
Ġwal king
ìķĦ ì§ģ
Ġinc on
ĠìĹĨ ìĸ´ìļĶ
Ġìŀ¬ íĻľ
ì¸µ ìĹĲ
2 30
Ġ ign
Ġc ab
Ġw ild
Ġm outh
od ed
ĠìłĦ íĽĦ
ĠíĻľìļ© íķľ
Ġìī½ ì§Ģ
Ġregard ed
Ġspir it
ar ian
ìłľ ëıĦ
ìłĦ ê¸°
ell ing
ĠíķĦìļĶ íķ©ëĭĪëĭ¤
ee ch
íģ Ĳ
ĠìŀĪìĹĪ ìĬµëĭĪëĭ¤
Ġë¶Ħìķ¼ ìĹĲìĦľ
ìģ ľ
Ġcylind rical
L o
ê°Ģ ìŀ¥
ĠìĪĺ ìĪĺ
Ġìľ Ī
Ġìļ© ë§¤
Ġmagn et
vis ory
Ġsuc ceed
Ġj our
ë°ľ ìĦ±
Ġcol on
am b
ĠA R
Ġr ating
ĠD NA
ĠìĿ´ìĥģ ìĿĦ
Ġcamp aign
Ġst reet
ìłĲ ìĿĺ
Ġac know
ĠJe oll
ëĮĢ ì¶ľ
ĠìĿĺ ëıĦ
Ġem issions
ĠìĨį ëıĦë¥¼
Ġìķŀ ëĳĲê³ł
ĠíĮ¨íĦ´ ìĿĦ
Ġê¹Ĭ ìĿ´
Ġëķ ħ
ag on
Ġìķ½ ê°Ħ
Ġdirect ions
ĠìºĲ ë¦Ń
Ġo kay
Ġr ich
Ġë¨¹ ê³ł
pro of
6 00
ê ¾¸
ĠC ol
ĠS w
Ġëĭ¤ ë¥´ê²Į
ĠëıĦ ë§¤
Ġout door
ell ow
Ġmo ves
Ġsub sequ
Ġchar ged
Ġëª» íĸĪëĭ¤
Ġmus ical
Ġë©Ķìĭľ ì§Ģ
ìĿ´ ê²ĥ
Ġis n
ĠK i
ì¡° ê±´
ĠëĤ´ ëĨĵ
Ġì°¨ ìĽĲìĹĲìĦľ
Ġpay ing
ai wan
Ġth read
ch ron
Ġê°Ģ ì¹ĺê°Ģ
ê°ľ ê°Ģ
ĠìĦ¤ ë¹Ħ
Ġ19 0
ĠV R
ĠìµľìĨĮ íĻĶ
Ġìŀī íģ¬
ut h
ĠëıĦ ëª¨
ìĪł ìĿĦ
ê¶Į ìĹĲ
uc le
Ġtransm its
Ġcer amic
ëŀĲ ëĭ¤
ot ic
Ġëĭ¤ ìļ´
Ġint ent
ëĨ Ģ
ëĬĲ ëĥĲ
Ġbar rier
Ġsett lement
Ġg olf
ĠëĮĢ íļĮ
ĠìķĦ ë§Ī
íĺ¸ ê°Ģ
Ġem pir
ëĲľëĭ¤ ëĬĶ
Ġli ability
Ġrec over
Ġinter vention
ëĬĶëį° ìļĶ
Ġaccount s
ĠëĤĺíĥĢëĤ´ ê³ł
Ġa ux
it ivity
Ġwill ing
ê´Ģ ìĹĲ
ìĥĿ ìĤ°
ìĭ¤ íĹĺ
ĠíĮĮ ê´´
Ġind irect
Ġdec ide
ê´ĳ ìĹŃ
Ġactiv ated
ĠíĮĲëĭ¨ íķł
Ġconcern ed
ê²¼ ëĭ¤
Ġfundament al
j ae
ĠA pp
Ġv en
lement ary
Ġbr ight
Ġsec urities
ĠëłĪ ìĿ´ìĸ´
Ġcontact ing
Ġë§Īëł¨ ëĲľ
¼ ìĨĲ
Ġìłķ ê¸°
Ġë³´ ëĭĪ
ear s
Ġì¸¡ ìĿĢ
íĮĢ ìĿĢ
Ġbor row
ĠìłĪì°¨ ë¥¼
organ ic
Ġprincip al
- (
L S
ìĿ´ ëĵ¤ìĿĢ
ì§Ģ ëĬ¥
íĸ¥ ìĿĦ
Ġfact s
Ġinj ury
Ġswe et
Ġan x
Ġë¬´ ê²Į
Ġsec uring
ĠAmeric a
bre ak
Ġê°Ģ ê²Į
Ġcons ent
Ġì·¨ ê¸ī
Ġvolun t
Ġint ake
ĠìŀĦ ìĭľ
Ġë§ŀ ìķĦ
ĠíĨł ì§Ģ
ĠíĨł ëĮĢë¡ľ
Ġdiscuss ions
ĠìĹĦ ì²Ń
ë³ ĢìĿ´
ĠìĽĲ ìĭ¬
Ġcomm ission
ì¢ħ ìĿĦ
ĠìĽ¹ ìĤ¬ìĿ´íĬ¸
Ġt or
ĠëĮĢ ë¦¬
Ġfin ished
Ġ200 4
ĠìĤ¬ëŀĮ ìĿĦ
ost ic
Ġê¶Į ê³ł
Ġsupply ing
ĠìĿ´ë¦Ħ ìĿĦ
Ġë°Ķê ¾¸
m ed
ìĪĺ ìĨĮ
êµ¬ ëĤĺ
Ġpre gn
Ġrev ision
Ġë²Ħ ìĬ¤
Ġexam ined
Ġpurch ased
Ġpurch asing
Ġëĳĺ ëłĪ
Ġë°ĶëĢ Į
ì¹ ¸
ìĤ¬ ë¬´
Ġ19 80
ĠìłĪ ë°ĺ
Ġê·Ģ ìĤ¬ìĿĺ
Ġìĭľìŀ¥ ìĿĺ
Ġìłģê·¹ ìłģìĿ¸
isc al
ë¶Ģ ìĤ°
ĠìķĦ ë²Ħ
ĠíĨµ ìĥģ
Ġë§Į íķľ
ĠíĺķìĦ± íķľëĭ¤
Ġíı´ë¦¬ ë¨¸
Ġëª©íĳľ ë¡ľ
Ġcover ing
Ġíĥĳ ìŀ¬
ìł ¤
Ġst ake
ĠìĹ° ë§Ī
ë¯¸ ëħ¸
ë°ĺ ìĿĳ
Ġëĵľ ëĿ¼ë§Ī
Ġíĺ¸ ìĿĺ
Ġke pt
ĠHe ad
Ġê·ľëª¨ ê°Ģ
ash ion
Ġaux iliary
c alled
Ġë¶Ħ ìŀĲ
Ġag ing
ĠêµĲ ë¥ĺ
Ġì¦Ŀ ìĥģìĿ´
Ġ9 9
ĠPro t
ê·Ģ íķĺìĿĺ
Ġê°ĲìĹ¼ ì¦Ŀ
Ġìĸ´ëł¤ ìĽĢìĿĦ
ĠìĦ±ëĬ¥ ìĿĦ
Ġcounsel ing
P re
Î ¼m
íŀĪ ëĬĶ
Ġdr iven
ĠìłĲ ìłĲ
Ġtop ic
Ġdynam ic
Ġcancell ation
Ġdeem ed
T C
Ġnot e
ĠD ay
L ED
Ġin vent
un k
Ġun certain
ĠìĦł ìĸ¸
Ġinst ant
ĠìĿĺíķ´ ìĦľ
Ġview ed
ìķŀ ìľ¼ë¡ľ
Ġconcl usion
Ġm ag
ìŀ Ķ
il t
ëĤ Ļ
Ġmet ers
Ġëħ¸ ëł¥ìĿĦ
Ġë§Ľ ìŀĪ
Ġsto pped
Gyeong gi
Ġwholes ale
Ġthor ough
Ġê´Ģ íķ´
Ġsh ot
Ġì£¼ ê±°
ĠìĤ¬ìļ© ëĲľëĭ¤
ëĤ´ ê³ł
Ġê°Ĳ ìķĪ
ĠEn vironment
Ġprelim inary
ë¦¬ ìĺ¤
ë¶Ħ ê¸°
Ġrem ember
Ġê¸°ìĪł ìĿ´
Ġintro ducing
ĠìŀĲëıĻ ìľ¼ë¡ľ
íĨ ¡
ìº Ķ
Ġcontrib ute
Ġlic ense
Ġê³ł ì²´
Ġíıī íĻĶ
Ġë¶ĦìĦĿ íķľ
Ġprefer red
Ġpoll ution
O kay
d is
Ġb io
ìĨĮ ë¡ľ
Ġë°ľ êµ´
íı ´
Ġ5 6
ĠíļĮ ê³Ħ
Ġê³¼ ëıĦ
ê°Ĳ ìĹ¼
Ġdisplay s
Ġì»´ íı¬ëĦĮ
Ġconver ted
Ġver ification
Ġfal se
ìĿ į
ìĿĦ ìĪĺë¡Ŀ
ĠìľĦ ê¸°
Ġê·¸ ëŁ¼
ìĭł ê°ĢìļĶ
ê´Ģ ê³¼
Ġper ce
ĠëĨĴ ìķĺëĭ¤
ê°Ĳ ëıħ
ë¨ ¹
Ġrev olution
ĠìŀĪìĸ´ìĦľ ìĿĺ
Ġwar ning
ë¦¬ ë¸Į
Ġë³´ ê¸°
Ġle aving
se ok
Ġj ur
20 18
ĠíĶ¼íķ´ ë¥¼
ĠGang nam
ellect ual
or ient
íĻ Ī
Ġê¸° ë¶Ģ
oc ated
ë£ ¬
ĠíķĺëĤĺ ìĹĲ
Ġìłĳ ìĪĺ
ĠíĮ¨ ëĵľ
Ġìĭłíĺ¸ ìĹĲ
ĠíĥĢ ê³ł
Ġann iversary
ĠíĮ½ ì°½
os ity
res ent
ĠëıĦ êµ¬
ìĺĢ ëįĺ
Ġdist in
ĠìĨį ìĹĲ
Ġì¶ķ êµ¬
Ġbro ther
ĠëĬĺ ìĸ´ëĤĺ
ĠìĦ±ë¶Ħ ìĿĦ
ĠíĻķì§Ħ ìŀĲê°Ģ
ĠMay or
i ors
Ġê² ¸
Ġê°Ģ ëĵĿ
ĠëĤĺ ìķĦê°Ģ
Ġíķľ ë°ĺ
Ġíı¬íķ¨ ëĲĺëĬĶ
Ġíıī íĸī
Ġì¶ľ ìĹ°
ĠëķĮë¬¸ ìŀħëĭĪëĭ¤
ĠíĮĲëĭ¨ ëĲľëĭ¤
Ġsens itive
Ġíĳľìĭľ ëĲĺëĬĶ
Ġinqu ir
I N
s ol
ìĦľ ë¡ľ
íķ´ ê°Ģ
ud e
ĠB o
Ġìĭ¬ ìĤ¬
Ġfinger print
Ġb odies
ir t
em or
Ġìłķ ì²´
Ġë°ľ íļ¨
ê·¸ ëıĻìķĪ
ĠìĿ¼ ìĸ´ëĤĺ
Ġper p
Ġë¶Ī ëŁ¬
íķŃ ìĿĦ
Ġmin or
Ġdom ain
Ġexam ples
Ġê¹Ĭ ìĿĢ
Ġconsist ent
O C
as ures
Ġëĵ± ê¸ī
ì§Ħ ìĿĢ
ë¯¸ ëĶĶìĸ´
Ġë¬¸ ìŀĲ
Ġenter tainment
Ġintegr ation
Ġfall s
ad a
ĠC D
ëį ¤
ëıĻ ìĿĦ
íĺķ ìĿ´
Ġë¬¼ ë¦¬ìłģ
Ġlead ership
ĠìłķëıĦ ìĿĺ
Ġblock s
ival ent
ĠëĦĵ ìĿĢ
íĶĦ ë¥¼
íĶ¼ ê³ł
Ġequ ity
ĠìĹĦ ë§Ī
Ġapprec iate
O nce
Ġl amp
Ġle aves
Ġ5 4
ĠìĦł ì§Ħ
Ġì¢ ģ
ĠíĺĦ ìĥģ
Ġdem ocr
Ġste ad
ĠëģĿ ëĤĺ
Ġabs ence
Ġaim s
5 4
R ef
ìĹ ½
íĦ° ëĬĶ
Ġhe ter
Ġ10 4
Ġelect rom
Ġë¦¬ ëįĶ
Ġìĥģíĥľ ê°Ģ
Ġconfirm ation
Ġris ing
Ġindic ator
ìĭľì¼ °ëĭ¤
9 9
u ce
ê°Ģ ë¡ľ
ëĿ¼ ìļ´
ìłľ íķľ
Ġëĭ¤ ê°Ģ
Ġë¶Ģ íķĺ
Ġê²°ìłķ ìĿĦ
Ġë²ł ìĸ´ë§ģ
ĠìĹħë¬´ ë¥¼
id den
oc cer
ĠíĽĦ ìĨį
Ġìĺ¨ ìĭ¤
Ġrest ric
l ia
ì ©
ĠìĥĿ ê¸´
Ġannoun cement
Ġì£¼ìŀ¥ íĸĪëĭ¤
Ġb inding
íĻĶ ëĬĶ
Ġíķĺ ë©´ìĦľ
ĠP rom
Ġte le
Ġìĺ¤ ëŀľ
ĠìĦ¸ íĥģ
Ġsm oking
ì±ħ ìŀĦ
Ġëĭ¨ê³Ħ ìĹĲìĦľ
Ġopt ions
ĠìĿ¼ë³¸ ìĿĺ
Ġì§ĢìĨį ìłģìĿ¸
Ġê°Ĳëıħ ìĿ´
Ġë¬´ìĹĩ ìĿĦ
Ġë§ µ
ĠS m
íĺķ íĥľ
ard s
ĠëĲĺ ëıĦë¡Ŀ
Ġë°ĶëŀĮì§ģ íķĺê²ĮëĬĶ
ĠFore ign
Ġst rict
ĠëĮĢ ë¡ľ
Ġcomp ression
Ġinc orpor
ĠëĤĺíĥĢ ëĤ¬
Ġíļ¨ê³¼ ìłģìĿ¸
Ġëħ¼ ëŀĢìĿ´
Ġhow ever
Ġfilm s
Ġblock chain
Ġsuff ering
M A
ĠìĹ° ê·¹
ĠP ort
Ġpart ial
Ġrep ly
ĠìĿ¸íĦ° ë·°
ĠëĪĪ ìĹĲ
Ġemerg ed
¥ Ĳ
Ġë ®
ĠëĮĢ ìĤ¬
Ġì±Ħ ìļ©
ĠìĿ´ë£¨ìĸ´ ì§Ģê³ł
p ower
or der
Ġn ood
ĠìĿ´ ê²©
Ġse gment
ight s
ê°ľ êµŃ
Ġìĺģ ìĸ´
ê²½ ìĺģ
Ġco ated
Ġë°Ķ ëĶĶ
Ġê¹ Į
Ġë¦¬ ìĬ¤íĬ¸
Ġê³³ ìĹĲ
Ġachie vement
ĠìłĦë§Ŀ ìĿ´ëĭ¤
Ġincon ven
G o
ìĿ´ ìļ©
ìĽ ¨ìĿ´
Ġhe ated
ìľł ë¥¼
íĮĲ ìĿĺ
ëłĪìĿ´ ëĵľ
Ġdi et
Ġlear ned
ĠìĪĺì¤Ģ ìĿ´
Ġroll er
Ġì¤Ħìĸ´ ëĵ¤
ĠìĤ¬ ë²ķ
ìĻĢ ëĬĶ
Ġëª¨ ìĥī
Ġê²°íķ© ëĲľ
Ġcorpor ations
Ġsomet imes
Ġì¢Į ìļ°
C l
I V
ì§Ģ ë©°
Ġê³ ¤
ĠìłĦ ëĤł
ĠìľĦ íĥģ
Ġê²½ ê³ł
ì£¼ ìħĶìĦľ
ì¡° ìłķ
Ġsp eech
ĠëĤł ì§ľ
Ġpercent age
ĠDise ase
N orth
it ect
iv ate
ì° į
ìŀ¬ ìĤ°
Ġpres et
Ġhol iday
Ġë°ĽìķĦ ëĵ¤
ĺ ĳ
Ġê° ±
Ġìłľ ìĿ¼
ĠìłĦ ëł¥ìĿĦ
ĠM arket
Ġëĭ¨ ì§Ģ
ĠìĽĲ íĻľ
ìĦ¤ ìĿĦ
li ance
Ġreport ing
ê¸°ìĹħ ìĿĺ
Ġpack aging
ì¢ĭ ìĿĢ
Ġunivers ities
orient ed
b l
ir able
ìĥģ íĻ©
Ġëĭ¤ ìĪĺ
ĠìĹ° ë°©
ìĿĮ ìĹĲëıĦ
Ġrece pt
Ġcou ple
Ġdut ies
Y e
ê·¸ ìĿĺ
and s
ëłĪ ìĿ´íĦ°
Ġj u
Ġinvestig ate
Ġevalu ate
Ġsynt hes
íķĺ ìļ°
Ġst ar
ĠP a
ĠëĤ´ ì¸¡
Ġê³ł ìĨį
ĠëĶ° ë¡ľ
ĠìłĦìĨ¡ íķł
Ġsuff ered
Ġabnorm al
ferent ial
S C
at o
ë©´ ê³¼
ĠìĿ¼ ìŀĲë¦¬
ìĭĿ íĴĪ
íģ¬ ë¦¬
Ġìµľ ìĭł
Ġconf idence
Ġoper ates
Ġìļ´ìĺģ íķĺëĬĶ
ĠíĶĦë¡ľìłĿ íĬ¸
Ġturb ine
Ġre organ
ter ior
ĠìĿ¸ ê°ĦìĿĺ
ĠìĦł ë³Ħ
ĠìĦ¸ ëĿ¼ë¯¹
ëłĪìĿ´ íĬ¸
Ġ11 1
ob ile
ĠìĿ´ìķ¼ ê¸°ë¥¼
ìĬ¤ íĨ¤
ëĲĺ ê²Į
ê³µ ëıĻ
íħ į
ëª¨ ëį¸
ìĿ´ëĿ¼ ë©´
ëĲĲ ëĭ¤ê³ł
Ġcomple tion
Ġíĳľìĭľ íķł
Ġë²Ħ íį¼
Ġf iscal
ut or
Ġcomp aring
ì²´ íĹĺ
ĠëĤ´ ìŀ¥
ê´Ģ ëł¨
ĠíĺķìĦ± íķĺê³ł
Ġìķ½ ë¬¼
Ġany one
Ġì»¤ ë®¤ëĭĪ
ĠìłķíĻķ íķĺê²Į
Ġë¶Ģì¡± íķľ
Ġë²Ĺ ìĸ´ëĤĺ
Ġm erg
ëıĦ ìļ°
Ġsh oot
ìĭ¤ ìłľ
ìĩ ł
Ġìĭľìŀ¥ ìĹĲìĦľ
ĠSu per
ĠìĿ¸ìłĳ íķľ
Ġreplace ment
neg ative
Ġin organic
Ġst er
Ġìłľ ìŀ¬
ìĨĮ ìĦ±
Ġpl ates
Ġë°°ì¹ĺ ëĲĺìĸ´
ī ìŀ¥
ĠM id
Ġper man
ĠíĺĦ íĻ©
Ġìĸĳ ìŀĲ
Ġcalc ulate
Ġnatural ly
ĠíĺĪ ìķ¡
Ġsusp ended
Ġsumm ar
ĠPre vention
ê·¸ ê°Ģ
ê²½ ìĿ´
ĠE un
ĠìĥģíĻ© ìĿ´ëĭ¤
ë¹ Ľ
ĠìłĦê¸° ìłģìľ¼ë¡ľ
Ġorig in
Ġcapt ured
Ġsatisf ied
ëĭ Ļ
ill a
ĠìĿ¼ ìĭľ
Ġcl ients
Ġprof ile
Ġë°ľíĳľ íķľ
ester day
er ce
ìłĦ ìĹĲìĦľ
ìĤ° ë¬¼
Ġëĭ¨ ëıħ
ĠëķĮ ë§Īëĭ¤
ĠE conomic
Ġform at
Ġ9 5
Ġspec ies
Ġê³µê¸ī íķĺëĬĶ
Ġide as
ëĲ¨ ìĹĲ
Ġmusc le
Ġ version
ì¹ĺ ìĹĲ
ĠìĤ¬ìļ© íķĺê³ł
Ġout break
Ġì¶Ķ ìĦ¸
Ġë¬´ ìĬ¨
Ġbus y
ëĥ Ī
ĠìĿ´ë£¨ìĸ´ ìł¸
ĠëĨĵ ê³ł
ĠRo ad
ĠëıĦë©´ ìĿ´ëĭ¤
is ters
Ġim ag
ĠíĿ ī
ĠY ear
Ġì¦Ŀê°Ģ íķĺëĬĶ
ra ud
Ġent rust
Ġíģ´ ëŀĺ
ĠìĹ°ìŀ¥ ëĲĺëĬĶ
ĠìĿĳëĭµ íķĺìĹ¬
Ġreact or
g ang
íķ´ ì§ĢëĬĶ
ëĤĺ ëĭ¤
Ġëĭ¨ ìŀĲ
íĥĢ ë¯¼
Ġê·ľ ìłķìĿĦ
ì§ĳ ëĭĪëĭ¤
Ġconduct or
Ġë¡ľ ëĵľ
Ġrelationship s
ê²Ģ ìĤ¬
Ġê³µìĹ° ìĿĦ
Ġupd ate
ĠìĦ¹ ìħĺ
Ġy esterday
ë²ķ ìĿ¸
Ġpart ner
ĠT aiwan
Ġcl osing
ound ation
Ġinst ance
ë²Ķ ì£Ħ
Ġreflect ing
Ġpolit ics
Ġwat ching
Ġê²½íĸ¥ ìĿ´
Ġnort hern
Pe ople
ĠG r
Ġent ity
Ġë¯¼ ì¡±
Ġdecre ases
Ġstrateg ies
g age
Ġpro l
ĠíĮ ©
Ġ8 5
ite ly
ĠìĹŃ ëŁī
Ġcompris e
Ġpress ing
Ġrev ital
Ġutil ized
Ġbeaut y
Ġmut ual
Ġsou p
) '
Ġv it
ĠS ports
ĠI m
ìĦł ê±°
Ġíķ´ ìĥģ
ĠìĤ¬ìļ© íķĺê¸°
Ġcl ust
ë£¨ ìħĺ
Ġinf ring
ĠëĤ¨ íİ¸
Ġinvestig ated
ĠHy undai
Ġautonom y
car bon
ë ļ
is ure
is hes
Ġto wn
ĠA P
Ġê·¸ ê²ĥìĿĢ
ê» ´
Ġì§ĳ ìĹĲ
Ġ200 2
ĠìĨĲ ê°ĢëĿ½
Ġphot ograp
Ġsil ver
Ġcandid ates
ĠëģĮ ìĸ´
Ġart ists
Ġmin ister
Ġì¹ĺë£Į ìĹĲ
Ġstat istics
T e
ã ĥ
Ġn ine
od ay
ĠìłĦ ë¶Ģ
ì²´ ìľ¡
ry l
ë°ľ ìĿĦ
ĠìĪ «
nd rome
ìĿ´ ì²ĺëŁ¼
ìĦ± ìľ¼ë¡ľ
Ġê°Ģ ë¥´
ĠS on
Ġì¡° ë¦¬
ĠH er
ĠíķĦìļĶ íķł
Ġì´Ī ìłĲìĿĦ
Ġì»¤ íĶĮ
ĠìłľìĻ¸ íķĺê³ł
Ġfif th
ëıĦ ì§Ģ
ìłĦ ëıĦ
ĠH CC
Ġì§Ħ ê³µ
ê±´ ìĿ´
Ġwork er
Ġ200 1
Ġfr ag
Ġinnov ative
Ġtum or
Ġë©¤ ë²Ħ
m ark
ë¥ ľ
Ġfor ced
ur ning
Ġind oor
Ġìļ´ ë°ĺ
Ġë¬¸ìłľ ë¡ľ
Ġris ks
Ġappro ved
Ġappro ximately
ãĥ »
Ġd uration
le ts
Ġëª¨ ìĹ¬
ne um
ĠíĬ¸ ëŁ¼íĶĦ
íĺ¹ ìĭľ
ìĭľíĤ´ ìľ¼ë¡ľìį¨
Ġt ens
Ġthe ore
Ġst ick
Ġex ists
ê¹ Ŀ
Ġì§Ħ ë¡ľ
ĠëĤ© ë¶Ģ
A D
Ħ ëĬĶ
ì±ħ ìĿĦ
Ġê·¼ ìłĳ
Ġrot ary
Ġspe aker
Ġì§Ģê¸Ī ê¹Įì§Ģ
Ġë§¥ ëĿ½
Ġfinding s
ê·¸ëħĢ ëĬĶ
Ġspat ial
g ical
Ġm ac
ĠìĿ Ħ
Ġl ung
Ġìłķ ê·ľ
ì¶ °
ĠìĨĮ ìĻ¸
ìĦł ìĹĲ
ê°ľ ë¡ľ
ĠìĥĿ ëªħ
ye o
ĠíĮĲ ë¡Ģ
ĠSe a
ĠìŀĦ ê¸Ī
ĠìĥĿê°ģ ìĿĦ
ĠìĪĺìĭł íķĺëĬĶ
ĠíĺĦìŀ¬ ìĿĺ
Ġë¸Į ëłĪìĿ´
Ġvide os
Ġëı¼ ìļĶ
ĠìĽĮ íģ¬
Ġcritic ized
Ġdram a
Ġfa ith
1 70
ĠìĹ° ì£¼
ĠF oundation
Ġmat ching
Ġarr ived
Ġëıħë¦½ ìłģìľ¼ë¡ľ
lia ment
C P
ì§Ģ ìĸ´
ĠL ocal
ëĶĶ ìĬ¤
ë¡ł ìĿ´
Ġìłľì¡° ìĹħ
Ġë¶Ħìķ¼ ìĹĲ
) (
ĠìłĦ ë°©
Ġyou n
Ġwor s
Ġìĸ´ ë¨¸ëĭĪ
ĠíĻķìĿ¸ íķ´
Ġche cking
ra ul
Ġfarm ing
m en
u ro
ë Ĵ
Ġst ages
em ia
ê³Ħ ëĬĶ
íĺ¸ íħĶ
Ġmet h
ĠíĻĶ ìĨĮ
Ġref uge
Ġworld wide
Ġë°Ķê ¿
h n
o om
Ġê º¼
ëĵ¤ ë¡ľë¶ĢíĦ°
Ġë³´ ê°ķ
Ġì§ĳ íķ©
ë¹ Į
Ġë¹ĦêµĲ íķĺìĹ¬
omet ric
ĠA ut
Ġì§Ģ ëĭĮ
ĠP al
ĠH ot
Ġsa ve
An y
Ġì§ĢìĽĲ íķĺëĬĶ
Ġì¸µ ìĿĦ
ĠìĤ¬ë¡Ģ ê°Ģ
go ing
Ġdie lectric
ĠProm otion
C R
ĠìĿ´ ë¥´
Ġê¸° íļĮê°Ģ
Ġêµ¬ ë³Ħ
Ġdis abilities
ìłĲ ê³¼
Ġstud ied
ĠW est
Ġfl ood
Ġget s
ĠëĶĶë°ĶìĿ´ìĬ¤ ëĬĶ
pec ific
ĠíĶĦë¡ľìĦ¸ ìĭ±
Ġì§§ ìĿĢ
9 5
M I
Ġre ct
ĠìĿ´ ëĤ´ìĹĲ
ĠS ing
íķĻ ìĿĦ
Ġcl amp
ress ive
ì²ĺ ë¶Ħ
Ġëŀ ĺ
Ġd ro
Ġìĥģ ì§ķ
ĠìĿ¸ ê¸°
ë³¸ ë¶Ģ
hod e
Ġëĭ´ ë³´
Ġrepresent ing
Ġbor n
Ġperm ission
Ġinfect ions
Be fore
Ġretire ment
Lo oking
Ġjur is
ê³µ ìłķ
ì¹´ ëĵľ
Ġreal ize
Ġtal king
Ġtur ning
Ġt un
Ġo m
ce ll
ìľł ìĿĺ
Ġbase ball
íĺĳ ìĿĺ
Ġstress ed
Ġê²½ë¡ľ ë¥¼
Ġsou thern
Ġë¥ ¼
ìĿ´ ê¸°ëıĦ
ìŀ ĺ
ìľ¼ë¡ľ ìĿĺ
Ġdis abled
ĠíķľêµŃ ìĹĲ
Ġê´Ģê³Ħ ìĹĲ
íıī ê·ł
Ġcapac itor
t op
Ġs occer
ë¦¬ íķĢ
ìĦ± ë¶Ħ
Ġëĭ «
íĬ ¬
ë¹Ħ ìķĦ
ĠìĺĪ ìĭľ
Ġrel ig
Ġì´Ī ëĮĢ
Ġconc ert
ĠíĻľìļ© íķĺìĹ¬
Ġspread ing
íĢ Ģ
Ġì§Ģ ë¶Ħ
ëıĻ ìĿĺ
ĠìĽ ¨
Ġê²½ìļ° ëıĦ
ë¯¼ ìĿ´
ìķ½ íĴĪ
Ġë°ľíĳľ íĸĪëĭ¤
ĠSecret ary
Ġd ark
ic ity
as ters
ê¸° ê³ł
Ġl ith
ìŀĲ ìĽĲ
ìŀĲ ëĵ¤ìĹĲê²Į
ch ang
ĠI ran
ìĭ¤ ìĭľ
Ġmet all
ìķ¡ ìĹĲ
ĠìĥĪ ë¡Ńê²Į
hy d
Ġëŀ ľ
Ġlegisl ative
ì Į
ĠF inance
ĠíĻľìļ© íķł
Ġê·ľìłķ ìĹĲ
Ġpul se
0 5
Ġc ogn
ĠëĮĢ ëŁī
Ġy arn
ëĮĢ ìĹĲìĦľ
Ġìŀ¥ ìĭĿ
Ġë¶Ī íĻķìĭ¤
Ġíķ© ê¸Ī
Ġë¶Ģìŀ¬ ë¥¼
ê°Ĵ ìĿ´
iber al
Ġdou b
ĠRuss ian
Ġvacc ine
Ġlect ure
Ł ìķĦ
Ġw et
ê¸° ìĹĲìĦľ
Ġ2 40
ĠI l
pl ant
Ġref ract
Ġì§Ģë°© ìŀĲì¹ĺ
V D
Ġs now
ĠG DP
ĠN et
Ġíķ© ë¦¬
Ġexplan ation
Ġ3 20
ìļ° ê³ł
Ġë¶Ģ ìŀĳìļ©
ì¡° ìłľ
íı¬ ë¥´
ĠíĶ¼ ë³µ
ĠO ECD
ê²ł ìĬµëĭĪê¹Į
ê¸¸ ìĿĦ
ìĥĪ ë¡ľìļ´
Ġì°¨ì§Ģ íķĺëĬĶ
Ġcooper ate
Ġinstruct ions
ĠTrans port
o T
Ġp ed
or ters
as p
Ġê°Ģ ìĦľ
Ġíķĺ ëįĶëĿ¼ëıĦ
ìĿ´ëĿ¼ ëıĦ
ì¸µ ê³¼
ê»ĺ ìĦľ
ì¡Į ìĬµëĭĪëĭ¤
Ġindic ators
ìĿ´ìĸ´ ìĦľ
Ġutil ization
ĠDec ree
ë¥ Ń
ĠìķĮ ì½Ķìĺ¬
ëĦ¤ ìĬ¤ì½Ķ
ĠìĬ¤íĬ¸ ëłĪ
ĠìĹ¼ ì¦Ŀ
ĠìĹĦ ê²©
en ge
ar ious
Ġr ural
ìłĦ ê·¹
Ġun c
ĠêµĲ ìĪĺëĬĶ
Ġkey word
Ġê°Ŀ ê´Ģ
Ġep id
ĠìĪĺ ë¥¼
Ġìĸ´ ëĵľ
Ġrel ief
ëĦ¤ ìĭľìķĦ
Ġbl ocking
Ġë§Įëĵ¤ ê³ł
Ġë´ Ħ
ëĩ Į
Ġê´ ´
Ġstip ulated
Ġìĥģ ìľĦ
ìĪĺ ëıĦ
ric ulture
ëįĶ ëĿ¼ê³ł
Ġmult ip
ĠíĿ¡ ìŀħ
ĠíĽ Į
rug g
Ġdry ing
Ġreven ue
, '
Ġìłķ ëł¬
ĠìķĮ ê²Į
ĠìĿĳ ê¸ī
Ġcompet itive
Ġì¡¸ ìĹħ
ë¦¬ íĭ°
ĠìĿ´ ìĭĿ
ad vant
íĻĶ ë¡ľ
íķĻ ìĿĺ
ĠìĦ¤ ë¬¸
Ġ7 2
Ġíĸī ìľĦë¥¼
Ġìĭ¬ ë¦¬
ì£¼ìĭľ ê¸°
Ġconsult ation
Ġbab y
s p
ìĹĲ ìĿ´íĦ°
ëĮĢ íķĻêµĲ
ĠëĶ ±
Ġê°Ħ íİ¸
Ġext ends
Ġìĸ» ëĬĶ
p m
Ġì į¨
ê¸° ì§Ģ
ĠìĤ¬ ê³¼
Ġsh op
ĠëıĦ ìĦľ
Ġê·¼ ë³¸
Ġë²Ī íĺ¸
Ġì¶ķ ìłľ
Ġsignific ance
Ġident ifying
ĠìľĦíĹĺ ìĿĦ
ìļ°ë¦¬ ìĿĺ
Ġwa fer
Ġíĸ¥ìĥģ ìĭľíĤ¬
Ġconstit utional
ìī ½
ĠìĽ¨ìĿ´ íį¼
raul ic
L D
ĠëĮĢ ì²ĺ
Ġê°Ģ ë³Ģ
Ġìĭľ ìłĪ
Ġì²´ ìľ¡
ĠìĹ°ê²° íķĺëĬĶ
Ġíľ ł
Ġê¸ī ì¦Ŀ
Ġê·¸ê²ĥ ìĿ´
Ġsecret ary
Ġadop ted
Ġconcentr ated
Ġdisput e
Ġíģ´ëĿ¼ìĿ´ìĸ¸ íĬ¸
Ġì Łģ
ic o
il ding
Ġcan cel
Ġcons c
Ġì¦Ŀ ê¶Į
íİĺ ìĿ´ì§Ģ
Ġret ail
íıī ëĵ±
ĠíĿ¡ ìĹ°
ĠTh at
Ġadap ted
Ġcooper ative
ìŀĲëıĻ ì°¨
Ġp il
ro te
ìĪĺ ìĦ±
ë¯¼ ìĿĺ
11 1
Ġíķ´ê²° íķĺê¸°
Ġmanag ing
Ġsyn chron
Ġattach ment
Ġnewsp aper
h wa
Ġab ol
ĠN ations
Ġê°ķ ëĤ¨
Ġsign s
ock et
Ġê²Į ìĭľ
Ġnetwork s
Ġê¸°íĮĲ ìĿĺ
Ġforeign ers
Ġbuy ing
ĠìĬ¤ìľĦ ì¹Ń
Ġcertific ate
īìŀ¥ íŀĪ
Ġê¸° ìģ
Ġr ib
ĠêµŃ ë¬´
Ġrel ax
ì²ľ ë§Į
Ġvol at
ĠëĶĶìĬ¤ íģ¬
Ġtravel ing
Ġloss es
hem ical
ĠSec urities
rim inal
Ġëĥ Ħ
Ġfed eral
st er
ĠëĮĢ ì¡°
ĠC N
Ġr ig
ì£¼ ìĿ¼
Ġê³µ ë¬´ìĽĲ
Ġìĭ¤ ì¦Ŀ
ĠíĻĺìŀĲ ìĹĲìĦľ
Ġstrateg ic
ĠIndu stry
ĠìķĦë¦Ħ ëĭ¤ìļ´
Ġê¾¸ì¤Ģ íŀĪ
ĠëĮĢ ë³Ģ
ìŀ¬ ìĿ¸
Ġint ends
ì§Ī ëŁī
Ġ6 2
íĨµ ìĿĦ
Ġë§İ ìķĺëĭ¤
ĠíĺĪ ê´Ģ
Ġìķ¼ ê¸°
ĠìłĦìķķ ìĿĦ
Ġassist ance
Ġstip ulates
ĠìĻĢìĿ´ ìĸ´
Des pite
e ut
ê³ł ìĿĺ
ĠìĿ´ ëĤ´
Ġun s
Ġret r
ph ones
ĠìĤ°ìĹħ ìĿĺ
Ġax ial
Ġestim ation
ìĿ¸íĦ° ëĦ·
Ġconcer ning
l aw
Ġìĥģ ìĹħ
Ġdis advant
Ġëª¨ ì§ĳ
ĠëĶ° ëľ»
ĠëıĻ ë£Į
Ġ6 1
Ġìļ° ìļ¸
ìĦĿ ìĿĦ
ack et
ĠCon f
Ġê³µìłķ ê³¼
Ġregul atory
Ġextract ion
Ġwel ding
ĠFed eration
ĠConstit ution
M D
Ġ king
Ġt ight
Ġm es
ëĿ¼ ìĿ´íĬ¸
Ġìĥģ ìĹĲìĦľ
Ġë³´ ìĿ´ì§Ģ
ë¯¸ íķľ
Ġê³Ħ ìĹ´
Ġrep air
Ġì²ĺ ë¶Ħ
Ġìĭľìŀĳ íĸĪëĭ¤
ĠBus iness
Ġir rad
Ġadult s
4 3
c hen
o ir
Ġë°ľ ìĹ´
Ġact ing
Ġlook ed
Ġê³łëł¤ íķł
Ġpost ed
ES CO
âĹĭ âĹĭ
ë§Īì§Ģë§ī ìľ¼ë¡ľ
st e
ëĮĢ íļĮ
ëıĻ ë¬¼
ĠìķĬ ê²Į
ĠY oo
Ġìĺ¨ ëıĦë¥¼
Ġíĺ¼ ìŀĲ
Ġíİĺ ìĿ´ì§Ģ
Ġcat hode
ê¸°ê´Ģ ìĿĺ
Ġwall s
Ġsuper ior
Ġdest ro
c omes
Ġl ived
ìĭľ ì¦Į
ĠI nt
íĮ ¬
ĠêµĲìľ¡ ìĿĺ
ĠìĹ¬íĸī ìĿĦ
ìĤ¬ìļ© ìŀĲ
Ġë²¡ íĦ°
l ines
Ġp ush
il ateral
Ġìĭľ íĢĢ
ìĨĮ ìĻĢ
Ġun able
ĠìĤ¬ìļ© ëĲľ
Ġë§¤ ì¹Ń
Ġê·¼ ìľ¡
Ġlow est
Ġcorrespon ds
íĨ ±
Ġaccum ulated
Ġì¡° ê¸°
ìŀ¬ ë£Į
ĠëıĦ ëįķ
ëģ Ĺ
Ġì¡´ìŀ¬ íķľëĭ¤
Ġìĵ ¸
Ġdiscl oses
Ġpresident ial
ploy ed
ìĿ¼ë°ĺ ìłģìľ¼ë¡ľ
F R
Ġst rugg
Ġíķľ ê³Ħê°Ģ
Ġsur round
ĠëĨĴ ê³ł
Ġì¸¡ ìĹĲ
Ġinterest ing
Ġê³łê°Ŀ ìĿ´
ĠëĪĦ ìłģ
ìľ¼ë¡ľìĦľ ìĿĺ
Ġclaim ed
Ġê°ľëħĲ ìĿĦ
Ġëĸ¨ìĸ´ ì§Ħ
ĠInd ia
Ġìľłìļ© íķľ
Ġmathemat ics
ìĨĮ ê·¹
Ġnot ed
Ġíı¬ ê´Ħ
ĠìĬ¤ íĭ°
ëł¨ ìĿĺ
ĠíĹ ¬
Ġìĭ¬ ìĿĺ
Ġhead s
Ġíİ¸ ì§ĳ
ĠíĨł ì¶ľ
ĠìĤ¬ìĭ¤ ìĿ´
ĠìĤ¬ê±´ ìĿĦ
Ġindic ated
ë¦¬ ì¦Ī
Ġdisplay ing
Ġtem ple
Ġìĭľìŀĳ íķľ
ĠìºĲ ë¦¬ìĸ´
Ġëª©ìłģ ìĿĦ
Ġì§Ģìłķ ëĲľ
Ġsong s
Ġs ac
Ġre duces
ĠìĿ¸ íĶĦëĿ¼
ìľł ìĤ°
Ġreg ression
Ġê±´ ê°ĢìļĶ
omm un
êµ° ìĿ´
ìĽł ëĭ¤
p art
Ġì ¿
Ġf raud
Ġh ollow
Ġrec ruit
íĻĺ ìŀĲ
Ġdec omp
Ġtyp ical
ĠìĦľë¹ĦìĬ¤ ìĹĲ
Ġrot or
Ġë¶Ħìķ¼ ìĿĺ
Ġëª©íĳľ ë¥¼
Ġsusp ic
Ġtick et
7 2
Ġë³´ ìĿ¸
ìķĦ ìĽĥ
Ġê³µ ë¶Ģ
Ġìĸĳ ëıĦ
ĠìĺģìĹŃ ìĹĲìĦľ
ĠìĹ°ê²° ëĲľëĭ¤
ĠìļĶì²Ń ìĿĦ
ili pp
Ġscient ific
F urthermore
Ġpl aintiff
Ġmet ab
ĠëĬ Ķ
Ġê°Ĵ ìĿ´
ĠComp any
Ġê·¸ëłĩ ì§Ģ
T oday
Ġa rom
ìĬ ´
ĠìĪĺ ì¹ĺ
ìłķ ë§Ĳ
ìĭĿ ê³¼
íĺ¸ ìĿĺ
ĠìķĪ ìĹĲìĦľ
Ġê³Ħ ì¸µ
Ġbr anc
ëĵ± ë¡Ŀ
Ġsim pl
Ġìħ Ī
Ġë³Ħ ëıĦë¡ľ
Ġdraw n
Ġìµľì´Ī ë¡ľ
A ct
Ġê°Ĳ ì¶ķ
Ġro se
Ġì§ģ íĽĦ
Ġë°°ì¹ĺ ëĲľëĭ¤
Ġì¤ĳìĭ¬ ìĿĺ
Ġì§Ģì§Ģ íķĺëĬĶ
ĠìķĪìłĦ íķľ
ĠíĻį ì½©
Ġìĥ¤ íĶĦíĬ¸
íķĺ ìĹĲ
ëį ±
ëĵľ ì»µ
Ġcl ar
ì§Ī ìĿ´
ok ed
ìĭ¬ ìĿ´
ĠIn formation
íĸĪ ê¸°
Ġoff ers
Ġins pect
Ġê°Ħ ìłĳ
Ġdef endant
Ġproject ion
Ġflu or
Ġbon ding
Ġrecommend ation
ê³¼ ê±°
Ġha ven
Ġì£¼ ìłľë¡ľ
Ġê°ľ ìĦ¤
ĠIn f
ĠìĬ¤íĬ¸ ë¦½
Ġë°©ì§Ģ íķł
Ġsle e
i ences
il s
Ġê²½ ê³¼
end ants
ĠìĤ¬ìļ© ìĿĦ
ĠìĤ° ìłķ
Ġë³µ ìĽĲ
Ġmy self
Ġext r
Ġëħ¼ ëŀĢ
Ġë§Įëĵ¤ ê¸°
Ġreview ed
ĠìĤ¶ ìĿĦ
ìŀĲ ëĵ¤ìĿĦ
ìĬ¤ íĭ°
ĠëĮĢ ìĹŃ
íĬ ľë¸Į
Ġë°ľ íı¬
ĠP olice
Ġìŀħ ëł¥ìĿĦ
Ġë§¤ ë§¤
ĠíĽĦ ë°ĺ
Ġhyd raulic
Ġaim ed
rup tion
E M
Ġê ¶¤
Ġë° ¥
Ġê² ¹
Ġl ose
Ġë°° ê¸°
ê¶Į ìĿĢ
ì¹´ ë¥´
Ġrot at
ĠHe ung
ĠJust ice
S i
Ġp ist
ë¬¸ ìĿĢ
ĠM al
Ġsp aces
ìķĪ ìĿĢ
Ġíĸ¥ íķ´
ĠìĥĿê°ģ ìĿ´
Ġair port
ĠëĬĲ ê»´
Ġfurn ace
in ity
ìŀĲ ë³¸
ard en
ëĶ ĺ
und red
ì¦Ī ë§Ī
Ġlab el
Ġinstru ment
Dis closed
b ong
Ġp al
el ine
ìłĦ ì§Ģ
Ġë¬¸ ìĿĦ
ĠìĿ´ìĥģ ìĿ¸
Ġëĭ¨ê³Ħ ìĻĢ
Ġflow ing
ì½ ¤
Ġmol ten
Ġaccommod ation
Ġexpend iture
Ġgest ure
E ar
F igure
l ayer
ĠìĦ¸ ê·¸
Ġì½Ķ ìĬ¤
Ġë°ķ ë§ī
mm et
Ġsubst ances
Ġadvert ising
j ang
v ol
Ġìłľ ìĬ¤
Ġì¤ĳ ìŀ¬
Ġì£¼ ë§Ĳ
Ġë¶Ģ ì±Ħ
ĠìĨĮ ìħľ
ĠíĺķìĦ± íķł
Ġìľłì§Ģ íķĺëĬĶ
ĠëĮĢìĿĳ ëĲĺëĬĶ
cl ass
Ġabs orption
Ġdeath s
ĠìĪĺìļĶ ê°Ģ
ìĦ ¬
ìĬ¤ íĦ´
ĠëĤ ¸
Ġas king
ĠC r
ìĿ¼ ê³¼
Ġëĭ¤ ëĭĪ
ì¤ĳ íķľ
ì¢ħ ìĿ´
ĠìĹ°ê²° ëĲĺëĬĶ
Ġacqu iring
Ġë¨¸ ë¬¼
hab ilit
I m
P a
Ġst ret
Ġê°Ģ ìĭľ
Ġì£¼ ìµľ
Ġun ification
ĠìķĬ ê¸°
ìĦł ìĪĺ
Ġê²ĥìľ¼ë¡ľ ìĦľ
ĠìłĲ ìľł
Ġìĭ¬ ìŀ¥
ij ing
7 1
P ark
Ġf ruit
íķ´ ì§Ī
ìĽĲ ëıĦ
Ġê·¸ ëĵ¤ìĿ´
Ġle isure
ëªħ ê³¼
ĠíĮ¨ íĤ·
Ġê·ł íĺķ
Ġemot ions
E R
· Į
at hered
ë¡ľ ìļ°
ë©´ ìĹĲìĦľ
ĠìłĦ ìĿ´
ë£ ¸
ìĭł ìĿ´
ìĦĿ ìĿ´
Ġìłķë³´ ìĻĢ
Ġdes irable
ìłĪ ì°¨
Ġbr idge
Ġìĸ´ëł¤ ìĽĮ
ë©ĺ íĬ¸
Ġë® ¤
Ġt ag
ke y
ĠD B
Ġë¶Ħ ìĤ¬
ĠV ice
êµ° ìĿĢ
Ġê± ·
Ġprot ected
ĠíĻľëıĻ ìĹĲ
i ating
on ic
Ġp neum
íķĺ ê²łëĭ¤ëĬĶ
ìĿ¸ ìľ¼ë¡ľ
Ġsh ut
Ġìĺ¤ ëª©
Ġìłľê³µ ëĲ©ëĭĪëĭ¤
ìķĺ ê³ł
Ġê¹ Ķ
ĠìĤ¬íķŃ ìĿ´
Ġpopular ity
ķìĭľ ì½Ķ
Ġschol ars
ro id
os ystem
ac he
Ġê³µ ìĭľ
íķĺê¸° ë¥¼
Ġpr ison
ĠíĶĦë¡ľ íĮĮ
Ġíĺĳ ìĥģ
Ġfree ly
Ġsug ar
íĢ ´
Ġarch itect
opl astic
Ġêµ¬ ë¦¬
ì¡° ê°Ģ
Ġimp osed
ĠíļĮ íĶ¼
we ight
Ġdi oxide
Ġeas ier
ĠìĿ´ë£¨ìĸ´ ì§Ī
ĠInvest ment
d ep
Ġìŀ Ĭ
Ġë¶ ķ
ë©´ ìĿĢ
Ġíı¬ ìĿ¸íĬ¸
Ġ6 4
Ġë²Ī ìĹŃ
Ġreal ized
Ġjud icial
Ġindic ates
Ġer r
Ġdivid ing
Ġdiagn ostic
wh at
com ing
Ġíķ¸ ëĵľ
ĠíĺľíĥĿ ìĿĦ
Ġp anc
Ġw ound
Ġsy ndrome
íĿ Ĳ
Ġíģ¬ ê¸°ë¥¼
ĠíĻķìĿ¸ íķĺê³ł
Ġë¶Ģë¶Ħ ìĿĺ
Ġìłģìļ© íķł
Ġë°ľìłĦ ìĿĦ
Ġê³¨ íĶĦ
ĠëĽ° ìĸ´ëĤľ
ĠChung cheong
J e
ìĬ¤ ë§ĪíĬ¸
Ġìłķ ëıĦë¥¼
Ġint ens
Ġê´ĳ ì£¼
Ġë°Ŀ íŀĪ
íķľêµŃ ìĿĺ
Ġëĥī ìŀ¥
Ġìŀ¬ë£Į ìĿĺ
Ġfarm ers
ĠíĻĢ ëįĶ
Ġconstruct ed
6 5
S P
Ġt u
et er
ë²ķ ê³¼
ìķĪ ìĿĺ
ĠT ok
Ġact or
ìĺģ ìĹħ
Ġìŀħ êµ¬
Ġë°ľìĥĿ íķľëĭ¤
ĠìĥĿê°ģ íķľëĭ¤
Ġì¶ķ ìłģ
ov es
Ġì°¸ìĹ¬ íķĺëĬĶ
ĠëģĿ ìĹĲ
Ġcapt ure
F T
r ight
Ġì ĮĢ
ê² ģ
il os
ìĿ¸ ëĵ¤ìĿĺ
ĠA C
Ġal b
ëĮĢ ìĻĢ
Ġdis h
Ġro of
Ġë§Ī ìĿĮìĿĦ
Ġfin ish
ĠìĻ¸ ì£¼
ë¦Ħ ìĿ´
Ġì§Ħíĸī ëĲľ
ëĭ¹ìĭł ìĿĺ
Ġíļ Ł
Ġìĺµ ìħĺ
Ġm g
ac le
ì¡° ìĦł
ĠìķĬ ìķĦìļĶ
ĠíļĮ ìĤ¬ê°Ģ
Ġì¹´ ìļ´
ĠìķĦìĿ´ ì½ĺ
Ġindepend ence
Ġëŀ ¨
Ġë³´ìľł íķĺê³ł
ĠPh ilipp
ìĬ¤íĨł ëŀĳ
Ġanx iety
Ġìłķ íķľ
Ġìľł ëªħíķľ
Ġ5 3
ĠH w
Ġpo ol
Ġwhen ever
ĠíĺĦ ê¸Ī
Ġcor ner
Ġengine ering
Ġexact ly
Ġcloth ing
O ther
in ating
on a
ëª ¸
Ġme ant
Ġìĸ´ ìļ¸
ìķĺ ëįĺ
Ġactiv ation
Ġì²ł ìłĢ
ìĤ¼ ìĦ±
Ġcond ens
Ġconvers ation
Ġm and
ë¡ ±
ìĥģ ê³µ
Ġìĸ ĩ
Ġê³ł ê¸ī
Ġ4 9
ĠëłĪ ìĬ¤íĨłëŀĳ
Ġhand ling
Ġíļ¨ìľ¨ ìłģìĿ¸
Ġhapp en
Ġìĵ° ëłĪ
Ġchall eng
Ġf ashion
ëĵ ¬
íķ´ ìĻ¸
Ġn av
ut y
ìķĦ ìĦľ
Ġch lor
ang ible
Ġê³ł ìĺ¨
ìĹĪ ëĬĶëį°
Ġê°ķ ëıĦ
Ġ19 70
Ġêµ¬ìĦ± ìĿĦ
Ġìļ© íķ´
Ġíģ¬ ë¡ľ
Ġgu ess
Ġfac es
Ġenc ry
íĶĦë¡ľ ê·¸ëŀ¨
crip t
ĠìĬ¤íĶ¼ ì»¤
ê³ ½
ë¶Ģ ë¡ľ
Ġor al
ëĭ¨ ê³¼
ĠíļĮ ìĿĺë¥¼
Ġìłľê³µ ëĲł
ê±´ ìĿĺ
ĠìĤ¬íļĮ ìĿĺ
Ġëıħ íĬ¹
ĠíĨł ë¡ł
Ġë³Ħ ë¡ľ
Ġtrad ition
Ġaffect s
ĠPar is
m ail
Ġf ost
ê¸° ë³¸
Ġê¸° ê°ģ
Ġë³´ ìĿ¼
Ġë¶Ģ íķ©
Ġë°ľ ìĸ¸
Ġë°ľ íľĺ
ff ect
Ġwor ried
ĠìĤ¬ëŀĮ ëĵ¤ìĿĺ
ĠìĥĿê°ģ íķ´
Ġì£¼ë¬¸ ìĿĦ
Ġhapp ened
Ġresident ial
E AN
i us
in yl
Ġc af
ĠìŀĪ ê¸°ë¥¼
Ġì¤ĳ ì²©
Ġë§¤ íĬ¸ë¦Ń
ì²Ń êµ¬
Ġview ing
Ġeng aged
Ġë¹ł ìł¸
ĠíĴĪ ëª©
Ġroll ing
ĠëĦ£ ìĸ´
Ġtherap eut
Ġoption ally
Ġmolec ular
h wan
ĠëĤ Ń
Ġde leg
Ġle ague
ĠìĹ¬ ë¶ĢìĹĲ
Ġíĺķ ìĥģìĿĦ
Ġdirect ed
Ġì¹´ íħĮ
Ġìķķ ë°ķ
Ġdismiss ed
Art icle
6 2
í Ī
ê°Ģ ê³ł
ĠA ccording
Ġìłķ ëıĦê°Ģ
ap es
Ġle ase
ĠìĨĮ íĻĶ
10 6
ìĿĮ ìķħ
Ġë°°ì¹ĺ ëĲĺê³ł
Ġmold ed
Ġfavor ite
al es
ĠëĮĢ ìłĦ
Ġìĥģ ìĨį
íĺĳ íļĮ
Ġful f
pir atory
Ġtempor arily
ĠìľĦ ìĥģ
ĠíĮĮ íĭ°
Ġëªħ ìĦ¸ìĦľ
Ġê³łê°Ŀ ëĭĺ
ì°¸ ìĹ¬
ê·¸ëłĩ ëĭ¤ë©´
Ġcance led
ĠìĿ´íĥĪ ë¦¬ìķĦ
Ġg athered
Ġê¸° ìĺ¨
êµ¬ ìĹŃ
Ġsh ift
Ġint ellectual
Ġab use
ë°© ìĿĺ
ĠìĹ¬ ê¸°ìĹĲ
ì¤ĳ ëŁī
Ġser ving
Ġìĸĳ ê·¹
Ġsol utions
Ġgl uc
Ġcall s
ĠëĮĢíĨµëł¹ ìĿĺ
Ġjuris d
M et
Ġm ill
ë¶ ķ
Ġrece ip
inc ome
Ġrepl aced
Ġamend ment
g art
Ġto oth
Ġì§ Ĳ
ëŀ Ħ
ĠC u
ê°ģ íĺķ
Ġma il
ĠíĺķìĦ± ëĲĺê³ł
ĠìłĪ ê°Ĳ
ĠìĪĺíĸī íķľëĭ¤
Ġìķŀ ìĹĲ
Ġnear ly
O R
er ring
ìŀĲ ìĹ°
am ily
Ġì§Ģ ëĭĪ
Ġì£¼ ìĤ¬
Ġval u
ĠYe on
Ġl id
st ate
ëıĦ ìĹĲìĦľ
Ġìĺ Ľ
Ġcomp are
ĠìŀĲ ë¦¬ë¥¼
ib ly
ĠíļĮ ê·Ģ
íĸĪ ìľ¼ëĤĺ
ĠëĨĴ ìĿ´ëĬĶ
Ġì¢ĭ ì§Ģ
Ġgr an
Ġcontact s
ĠíĻĺìŀĲ ìĹĲê²Į
ĠìĹĲëĦĪ ì§Ģë¥¼
Ġë¶Ģìłķ ìłģìĿ¸
ĠìĪĻ ë°ķ
Ġë°Ľìķĺ ìĬµëĭĪëĭ¤
Ġtend ency
Ġvot ing
Ġdiplom atic
habilit ation
le te
Ġre b
Ġê°Ģ ìĬ¤ë¥¼
ĠC CT
ëĵľ ìĻĢ
Ġtr acking
ì£¼ ê³ł
Ġme als
Ġpr ize
ê²° íķ©
Ġcollect ive
Ġreflect ion
Ġshare holder
Ġìĥģíĺ¸ ìŀĳìļ©
ĠìłĦëŀµ ìĿĦ
Ġextreme ly
Ġran king
ed ing
ĠìĿ´ ëĵ¤ìĿ´
ay ment
ol t
Ġhe ater
Ġhe pat
ìľł ê°Ģ
ĠìĻ ¼
Ġë°° ëĭ¬
ĠìĬ¤ ìºĶ
ĠL ife
ific ations
ìĭ¬ íŀĪ
ĠíĪ¬ íĳľ
ĠíĨµìĭł ìĿĦ
ha i
alk yl
ĠëıĦìłĦ ìĦ±
Ġexecut ives
ĠAfric a
ìĹĲëĦĪ ì§Ģ
H is
Ġm ig
Ġë§ ¨
Ġê³µ ìĨĮ
Ġdis hes
Ġì²´ ìłľ
Ġexclud ing
Ġbound ary
Ġinsert ion
Ġê° Ķ
Ġê´Ģ ìĹ¬
Ġì£¼ ì§Ģ
ë¬´ ìĹŃ
ĠìĦ± ìŀ¥ìĿĦ
Ġgro wn
Ġë¬¼ ìĸ´
Ġíģ¬ ê¸°ê°Ģ
Ġdep ression
Ġview s
Ġê°Ģê²© ìĿĦ
Ġfill ing
Ġdanger ous
5 3
D L
Ġn ames
ĠC R
Ġpart ition
ëĭ¹ ìĿĺ
ec ess
Ġinter val
Ġstart s
Ġíģ´ ëĿ¼ìļ°ëĵľ
Ġê³¼ìłķ ìĹĲ
Ġê±´ê°ķ íķľ
ĠíļįëĵĿ íķł
Ġseat s
ĠìĿ´ë©Ķ ìĿ¼ìĿĦ
Ġìī¬ ìļ´
ĠëĤĺíĥĢëĤľ ëĭ¤
ĠHer itage
Ġp ill
ê´Ģ ìĹĲìĦľ
ëħĦ ëıĦ
ĠíķĺëĤĺ ê°Ģ
ĠíĻķìĿ¸ íķĺìĺĢëĭ¤
ĠíĥĦ íĻĶ
sc rip
Ġstrong ly
Ġec osystem
H i
ë ķ
ĠìłĦ ê³µ
Ġê°ľ íİ¸
Ġso y
ëŀĢ ëĭ¤
Ġexch anges
Ġorient ation
Ġelectrom agnetic
ìĪĺ íķľ
ĠìĦł íĺķ
Ġro ugh
Ġë°ĺ íĻĺ
Ġì¦Ŀ ì°©
Ġë°Ľ ìľ¼
Ġbo ost
Ġë¸Ķ ëŀĻ
Ġê¸°ì´Ī ë¡ľ
Ġobs ervation
W HO
Ġst em
Ġë³´ ìĿ´
Ġê´Ģ ë¦¬ë¥¼
Ġpl ug
ìŀħ ëĭĪê¹Į
Ġk illed
Ġcomm it
ĠìĿ´ìľł ê°Ģ
Ġmar g
Ġmar riage
ĠíĻķì§Ħ ìŀĲ
Ġêµ¬íĺĦ ëĲł
ëĶĶìĬ¤ íĶĮëłĪìĿ´
Ġcogn itive
e qu
ìłĦ ê±°
ìŀ¬ ëĬĶ
Ġëĭ¨ ì¶ķ
ĠìĦł ê³ł
Ġsa uce
Ġì²´ íģ¬
ëĦĪ ë¬´
ĠSt adium
íģ °
Ġë°©íĸ¥ ìĿĺ
ĠìĪľ ì°¨
ĠíĹĪ ê°Ģ
Ġput ting
ê³³ ìĹĲ
Ġur gent
S uch
Ġa st
Ġë¶Ģ ìĿ¸
Ġìŀ¥ ìłĲìĿ´
Ġsp end
ĠU I
ĠíĺĦ ìĥģìĿ´
Ġsl iding
Ġìĸ» ìĿĢ
Ġsect ors
ortun ately
Ġëĸł ëĤĺ
Ġactu ator
I nt
ë¡ ¬
ĠìĿ´ ìĤ°íĻĶ
ĠC riminal
ëĮĢ ì±ħ
Ġsh r
ê³µ ìĤ¬
pt ic
ëª¨ ëĵĪ
ê²¬ ìĿĦ
ĠìĬ¬ ëŁ¬
ĠDef ense
aff irm
Ġcontrib ution
Ġtextbook s
Ġweap ons
Ġdin ner
ĠHead quarters
i ance
â ĸ
Ġf ro
ĠìłĦ ëıĻ
Ġìĭľ ë®¬
ìŀ¬ ë¡ľ
Ġëĭ¨ ê¸°
ìĹĪ ì§Ģë§Į
ĠíĺĦ íĸī
Ġì§ĢìĹŃ ìĿĦ
ĠëĤ´ìļ© ìĿĺ
Ġìľłì§Ģ íķł
Ġíĺķíĥľ ë¥¼
Ġmach ines
Ġsect ions
ĠíĿ¬ ìĥĿ
Ġbor der
Ġveget ables
ĠBudd h
Ġempir ical
ìĸ´ ìł¸
ì¹ĺ ê²Į
ĠF air
out heast
ë°© ìĿ´
íĮĲ ë§¤
Ġ12 1
Ġselect ively
Ġê¸°ìĪł ìĿĺ
Ġmar ine
ĠìĤ´íİ´ ë³¸
St ud
ĠEn forcement
s er
Ġb le
ê° Ķ
ĠC heon
ìĪĺ ìĿµ
ìłĦ ëŀµ
lect ion
Ġ5 8
Ġapp lies
Ġìĭ¤ ìłķ
ĠëıĦ ìĸ´
ìŀĦ ê¸Ī
ĠBBB ìĿĺ
Ġprevent ed
Ġutil ize
Ġtal ent
Ġoptim al
ĠíĿĺ ëŁ¬
ĠCCT V
S T
Ġh omes
ĠìĤ¬ ë£Į
Ġtr uth
ê³µ ê¸ī
Ġë°© ìłĦ
ê¸Ī ë¦¬
ĠíĽĦ ìĿĺ
Ġoutput s
Ġì§ģìłĳ ìłģìĿ¸
ìĦ¼ ìĦľ
ĠìķĪìłĦ íķĺê²Į
Ġì´ī êµ¬
Ġded icated
4 7
g l
Ġë »
ê¸° ë¡Ŀ
ìŀ¥ ëĭĺ
ì§Ħ íĿ¥
ĠëĤĺ ìĤ¬
ìľĦ ì¹ĺ
Ġë§Ī ì£¼
Ġact ors
ĠO ne
Ġinv al
Ġìļ´ íĸī
Ġimplement ing
ê´Ģê³Ħ ê°Ģ
inder gart
Ġexperim ental
u ous
Ġm ission
ic ide
ëĿ¼ ë©°
ë² ¼
ìłĦ ìŁģ
Ġíıī ìĥĿ
Ġlaw m
Ġëĭ´ ë°°
ĠProv incial
ìľĦìĽĲíļĮ ëĬĶ
ĠìµľìĨĮ íķľ
Ġëħ¹ ìĥī
G B
Ġêµ īìŀ¥íŀĪ
Ġy ellow
Ġat oms
ìłĦ ìķķ
ĠF igure
Ġen forcement
Ġ6 6
Ġê´ĳ ë²ĶìľĦ
ĠíĸīëıĻ ìĿĦ
oh n
e up
ìĿ´ ìĿĺ
íĬ¸ ëĿ¼
ĠìĿ¼ ê´Ģ
ì§Ħ ìĿĺ
Ġê³Ħ ì¢Į
ì²Ń ìĿĢ
av ed
ëĵ± ê¸ī
ĠíĦ° ë¹Ī
Ġsuper v
Ġë¥ ĺ
ampions hip
Ġpro xim
Ġst anding
êµŃ ìĿ¸
Ġsp aced
ĠìłĢ ìŀĳ
ĠSe ok
Ġ12 2
Ġë¨¹ ìĸ´
Ġê³³ ìĿ´
ĠíĸĪ ìĸ´ìļĶ
Ġflu ct
íĮĢ ìĿ´
Ġtrial s
ĠInd ones
ĠMid dle
ìĿ´ ìĥģ
Ġm asks
il ic
un der
ìłķ ëĲľ
ĠëĮĢ ìķĪ
Ġìĥģ ìŀ¥
Ġëĭ¤ ê³µ
ĠëĤĺ ìĻĶ
ĠD M
ĠìĤ¬ìļ© ìŀĲëĬĶ
ĠT i
Ġthere in
ĠAAA ê°Ģ
íħĮ ìĿ´ëĦĪ
Ġfore cast
Ġê±°ëŀĺ ë¥¼
Ġpartners hip
Ġearn est
Ġh undred
ĠìĪĺ ìĨ¡
íĦ° ê°Ģ
Ġê·¸ ëĵ¤ìĿĢ
ĠëķĮ ìĹĲ
Ġë§Ĳ íķ´
ĠìĹ¬ëŁ¬ ë¶Ħ
ĠëĽ° ìĸ´
L ike
Ġc up
Ġê°Ģ ìĪĺ
ĠC ount
Ġìŀħ ëĭĪëĭ¤
Ġì¶ľ ìłĦ
Ġph ilos
Ġperson ality
ĠíĬ¹ìłķ íķľ
ĠíĶĦë¦¬ ë¯¸
Ġshar p
ĠAustral ia
s ung
ic y
as hing
ê°Ģ ìĨĮìĦ±
ë¦¬ ëĵľ
ĠA c
Ġres on
ĠM a
ĠìĬ¤ íĥ
ĠíĬ¹ ìĦ±ìĿ´
Ġag ed
ìĭ¬ ìĿĺ
Ġac ute
Ġë°ľìĥĿ íķĺì§Ģ
ĠìĪĺíĸī ëĲł
He y
Ġì¶Ķê°Ģ ìłģìĿ¸
Ġìĵ ´
Ġelectroly te
Ġë½ ĳ
ĠëĦĲ ë¦¬
ĠìĪĺ ìĺģ
ìłķ ë¶Ģê°Ģ
ap ore
ĠìĤ¬ìļ© ìĿ´
ĠìĤ¬ìļ© íķĺì§Ģ
ì°¨ ë¡Ģ
Ġìµľ ìĦłìĿĦ
Ġdec isions
Ġì¸¡ ìĿĺ
Ġvis ible
irc raft
f unction
ìŀĲ ìľł
Ġst ro
ĠìĿ¼ ìłķìĿĦ
Ġreg ime
ë©´ìĦľ ëıĦ
Ġê·ľ ë²Ķ
ĠìľĦì¹ĺ íķĺëĬĶ
Ġdi verse
ild ren
Ġleg it
ĠìļĶêµ¬ íķĺëĬĶ
iber ty
ĠìĤ¬ë¡Ģ ë¥¼
Ġmove ments
Ġadvant ages
Ġtal ks
Ġpix els
Ġperman ent
2 50
l in
Ġw ed
Ġan ode
ic ed
ĠS an
ĠD irector
ĠìĦł ë¬¼
ë¥¸ ëĭ¤
Ġë°° ìĸĳ
ĠíĬ¹ ìĦ±ìĹĲ
Ġtechn ological
Ġíĺĳ ì¡°
ĠPl an
Ġtren ds
Ġoverl a
Ġê°ĸì¶Ķ ê³ł
Ġl unch
ĠìĪĺ ìĿĺ
Ġcont am
Ġform al
Ġê°ĢëĬ¥ íķ´
Ġsw im
Ġimm une
ĠSu pport
Ġassum ed
ĠHot el
Ġn om
Ġê¸° ìĥģ
ë²ķ ìľ¼ë¡ľ
ĠìĦ± ë³Ħ
Ġë§¤ ëĭĪ
Ġìĺģíĸ¥ ìĿ´
Ġlith ium
c ol
es ity
Ġg ene
Ġê²ĥ ë³´ëĭ¤
Ġìĭľ ìłĲ
ìĺ¤ ë¡ľ
Ġìŀ¥ì¹ĺ ìĻĢ
Ġloc ations
Ġíĸī ìĤ¬ë¥¼
Ġêµ¬ì¡° ìĿĺ
Ġìłģìļ© ëĲł
Ġì¤Ģ ìĪĺ
ëĨ ĢìĿ´
Ġìłľìĭľ íķľ
Ġê°ĲìĤ¬ ëĵľë¦½ëĭĪëĭ¤
ĠìĬ¤íĬ¸ ëłĪìĬ¤
Ġdetect s
Ġê·¸ëŀĺ íĶ½
ĠìĹ ĳ
ig en
Ġê²ĥ ìĿ¸ì§Ģ
Ġê°ĢëĬ¥ íķł
Ġê°Ħ ìĦŃ
Ġass igned
ĠìĤ¬ìĿ´ íģ´
Ġë§ŀ ê²Į
Ġhard ware
Ġcat ch
Ġpen alty
ìĤ¬ ëĵ¤ìĿ´
íĻĶ íķĺê³ł
ĠíĶ¼ ìĬ¤íĨ¤
Ġloc king
Ġcare fully
Ġcry pt
reg ular
Ġresol ve
ch ange
ìķĦ ìļ¸ëŁ¬
êµŃ ìĿĦ
ĠìķĦ ìĦ¸
ë¶Ħ íķ´
Ġout comes
ìĹĪëĭ¤ ê³ł
anc er
ĠìĨĲ ëĭĺ
Ġevent ually
Ġìŀ¬ë£Į ë¡ľ
Ġë²ĶìľĦ ìĹĲìĦľ
Ġconver gence
ĠìĨĲíķ´ ë°°
Ġfirm s
Ġê¹¨ ëģĹ
Ġkit chen
ĠTok yo
V arious
in ates
ĠìĪĺ ë§İìĿĢ
Ġg ast
Ġdis orders
Ġìĺ¤ íĶĪ
Ġëĵ¤ ê³ł
ĠìĦľë¹ĦìĬ¤ ê°Ģ
íĺĪ ìķķ
ĠíļĮìĤ¬ ìĹĲ
ĠëĤĺíĥĢëĤĺ ê³ł
ì¿ Ħ
Ġë¶Īê°Ģ íĶ¼
at in
Ġf ig
Ġn ucle
Ġê°Ģ ìļĶ
Ġìľł íĸī
ĠëĤ´ ë¡ľ
Ġìĭł ìĦł
ĠL otte
ì¦Ŀ ìĿĺ
ì²Ń ìĨĮ
Ġë§Ĳ ìĿ´
Ġíĺĳ ìķ½
Ġìłģìļ© ëĲĺëĬĶ
Ġsee ing
Ġë°Ģ ìłĳ
Ġsuggest s
Ġë³´ìľł íķľ
ĠìĤ°íĻĶ ë¬¼
Ġappoint ment
Ġnut r
ĠTour ism
ì»´ íĵ¨
Ġjurisd iction
n y
p op
Ġp ure
Ġh idden
ĠB u
Ġrel ie
Ġê²½ìļ° ë¥¼
ê±´ ìĦ¤
Ġpower ful
Ġê°ģê°ģ ìĹĲ
Ġequ ivalent
icult ural
Ġìķŀ ìĹĲìĦľ
Ġtermin als
Ġdel iberation
7 00
B A
Ġd ye
Ġth ous
ê¸° íĽĦ
ëł ·
ê°ģ ìĿĦ
Ġë© Ī
Ġë¬´ íļ¨
Ġlaw y
Ġcre am
Ġfeed ing
ĠUN ESCO
Ġpit cher
Ġhyp othes
O r
ë¡ľ ê°Ģ
Ġê°Ģ ìĿĦ
ĠC ons
ĠìľĦ ë²ķ
Ġê³µ ìĤ¬
Ġsp ent
Ġì¹ ł
ĠëĮĢíķľ ë¯¼êµŃ
ĠL ine
Ġsur gical
Ġì¢ħ êµĲ
íĬ¹ ìłķ
ĠìŀĲìľł ë¡Ńê²Į
Ġë¸Ķë¡Ŀ ì²´ìĿ¸
ĠComp lex
Ġnit rogen
Ġmir ror
Ġf aster
ĠìĿ´ ê²Į
Ġìłľ ëıĦë¥¼
ìĪĺ ì¤Ģ
íĻĶ íķľ
Ġìłķ íķ´ì§Ħ
Ġë³´ ìĺĢ
Ġë°© íķ´
Ġmem or
Ġë²ķ ëł¹
ë§Ŀ ìĿĦ
Ġì¦Ŀê°Ģ íķł
ìĭľê°Ħ ìĿ´
Ġminim ize
Ġjo ining
Ġsudden ly
1 000
5 8
ĠN i
Ġêµ¬ìĦ± ìĽĲ
Ġwin ding
íĺĪ ê´Ģ
Ġdetect or
Ġpret ty
Ġ ĠĊ
ĠìĽĲ ëŀĺ
ĠíĺĦ ìłĢ
Ġë³¸ ì§Ī
Ġíĺ¸ ì£¼
Ġposition ing
Ġsens itivity
ĠìĦ¤ì¹ĺ ëĲĺê³ł
ĠìĪĺì¤Ģ ìľ¼ë¡ľ
Ġtherm oplastic
ì¤ ¬
Ġvict ory
ĠBe ijing
Ġhon or
ĠìĤŃ ìłľ
ê´ĳìĹŃ ìĭľ
ro wn
Ġìľł ìłĢ
ĠëĤ´ êµ¬
Ġê°ľ íıĲ
Ġìŀ¬ ëĤľ
Ġoff ices
Ġì²´ ì¤ĳ
ĠêµĲìľ¡ ê³¼
Ġì²Ń ìĻĢ
ë°Ľ ìķĦ
Ġspe ak
Ġsafe ly
Ġlib rary
Ġpor ous
Ġconclud ed
Ġacknow led
' )
ĠìłĦ ìĹ¼
Ġìĭľ ìŀ¥ìĿĦ
ac ific
ĠìŀĲ ëŀĳ
ĠE ach
Ġass emb
ĠíĪ¬ ìŀĲë¥¼
Ġì§ĳ ê³Ħ
Ġeven ing
Ġëĵ¤ìĸ´ ìĦľ
Ġlow ered
ĠëĦ¤íĬ¸ìĽĮíģ¬ ë¥¼
Ġrequire ment
PG A
Ġc row
Ġf ear
ĠìĿ´ ê²ĥìĿĢ
Ġì§ ľ
ìļ© ìľ¼ë¡ľ
ĠC H
ĠS ME
êµ¬ ìĻĢ
ĠM ex
ĠG od
Ġê²ĥìĿ´ ê³ł
ĠíĶĮ ëŀĺ
Ġcour ses
ĠíĻĺê²½ ìĹĲ
Ġëª¨ìĬµ ìĿ´
Ġëĭ¨ìĪľ íŀĪ
Ġsynt hetic
ëĭĺê»ĺ ìĦľ
7 8
k et
íķĺ ëĲĺ
Ġre verse
Ġê°Ģ ê³ł
iv est
ë£ ¡
Ġdo ctors
Ġtemper atures
On ly
Ġprev ents
ĠìłķíĻķ íŀĪ
Ġdepend ent
ëĭĻ ëĭĪëĭ¤
s m
Ġl es
Ġì§ ĵ
Ġsu ction
ëıĻ ìĹĲ
ê³µ ìĽĲ
ê°Ħ ëĭ¤
ĠìķĦ ë¥´
Ġê³ł ìĸĳ
Ġsub scrip
Ġsc ored
Ġcirc ulation
Ġíħ Ĳ
Ġflow ers
ëĿ¼ ìļ´ëĵľ
ĠìĹ° ì¶ľ
ê°Ħ ìĹĲ
Ġë¬´ ê´Ģ
ìĹĪ ìĿĦ
Ġthough ts
Ġult ra
Ġcop olymer
Ġsubstit uted
T P
ìĿĺ ê°Ģ
ad ing
Ġìĭľ ìŀ¥ìĿ´
Ġro ot
ĠêµŃ íļĮ
Ġê´ĳ ìĿĦ
Ġsome what
Ġill um
Ġìļ´ëıĻ ìĿĦ
ĠÎ ±
Ġguarant eed
tr ans
Ġstatist ically
Ġclos er
U N
Ġ `
Ġan alog
Ġe co
ìĦľ ìĻĢ
Ġê·¸ ë¦°
Ġìļ´ìĺģ íķĺê³ł
ĠëĮĢíĳľ ëĬĶ
Ġë§Īëł¨ ëĲĺìĸ´
Ġbat ter
Con t
Ġpist on
Ġë ĺĳ
ĠìĿ´ ëĭ¬
ìĭľ ê¸°
ì¡° ëĬĶ
Ġì¡° ëĭ¬
Ġco vers
ĠìĽĲ ìĿ¸ìĿ´
ri ers
ĠìłĲ ëıĦ
ĠìķĦëĭĪ ë©´
Ġíİ¸ ê´ĳ
AAA ìĿĺ
Ġëª¨ëĳĲ ê°Ģ
íķĺë©´ìĦľ ëıĦ
Ġíģ´ ëŁ½
Ġcomb ining
3 20
u i
et ition
ìĨĮ ìĹĲìĦľ
íķĻ ìłģìľ¼ë¡ľ
Ġout come
ĠìĹ¬ ìĦ±ìĿĺ
Ġtrans plant
Ġyour self
Ġprot ocol
Ġì²ĺë¦¬ íķĺëĬĶ
Ġê³łê°Ŀ ìĿĺ
ĠëŁ °
Ġì´¬ ìĥģ
Ġvulner able
4 9
E P
F inally
ë ±ħ
Ġc iv
Ġag end
Ġ7 1
ĠìĹ´ ê°ĢìĨĮìĦ±
ì¹´ ìĺ¤
ĠìĤ¬ìĹħ ìĹĲ
ê·Ģ íķĺ
Ġap olog
Ġê¸°íĽĦ ë³ĢíĻĶ
ĠëĬĲëĤ Ħ
íķĺëĬĶ ì§Ģ
Ġv apor
Ġì£¼ ì²´
ĠìĿ¸ ìļ©
Ġë°© ìĹŃ
Ġint r
Ġgo vernor
Ġel ig
ĠêµŃë¯¼ ìĿĺ
Ġconflic ts
Ġchall enge
ĠíĽĮ ë¥Ń
B oth
Ġf ert
Ġê¸° ìĸ´
ìĿ¼ ìĹĲëĬĶ
ë³´ ë¥¼
Ġ5 9
ĠH uman
ê°ģ ìĿĺ
Ġëªħ ì¹Ń
Ġshe l
ĠíĸĪ ëįĺ
Ġê¸°ê°Ħ ìĿ´
ĠíĶĦë¡ľìĦ¸ ìĬ¤
Ġcard s
Ġê°Ħëĭ¨ íķľ
Ġaccomp an
h ae
Ġa ircraft
on ia
ĠìĹ° ìĬµ
ĠêµŃ ë°©
ree ment
Ġfl avor
Ġì§Ħíĸī ëĲĺê³ł
Ġì¤Ģ ëĭ¤
Ġattempt ed
Ġa er
ê¸° íĮĲ
ìĿ¸ ëıĦ
ĠìĿĺ ë¬´ë¥¼
ìĦł ìĿĢ
ĠíĬ¹ ìĿ´
Ġser ves
Ġë¶Ī ë¦¬ëĬĶ
ĠìĹ´ ìĸ´
Ġê´ĳ ìĽĲ
Ġë°©íĸ¥ ìĹĲ
ĠëĲł ê¹ĮìļĶ
ĠíĻľëıĻ ìĿ´
Ġaccept able
Ġ .
Ġë ·°
íķĺ ëįĶëĿ¼ëıĦ
ĠìĿ´ ëŀĢ
ĠëĮĢ ë¶ģ
ĠM E
ĠëķĮ ìĿĺ
ĠìłĢ ìĹĲê²Į
Ġval idity
Ġì¤Ħ ìĿ¼
ĠìĦ¤ì¹ĺ ëĲĺìĸ´
Ġcare ful
ìľ¼ë¡ľë¶ĢíĦ° ìĿĺ
ìĹĨ ëĬĶ
br id
Ġanc ient
Ref erring
6 8
T R
Ġl ap
Ġì¡° íķŃ
ĠëĤĺ ìĿĢ
ĠëĨ ĢìĿ´
Ġmod ules
Ġstudy ing
Ġprev al
Ġë¨¸ ë¦¬
ĠìĦłìĪĺ ëĵ¤ìĿ´
ĠìŀĲìĦ¸ íŀĪ
Ġíĥĳ ìĬ¹
Ġê³µì¤ĳ íķ©
p en
w est
ë© Ģ
ìĭľ ëĭ¤
ë¬ ĺ
ĠìĤ¬ ìĥģ
Ġch urch
Ġëį ĺ
Ġíı¬ ê¸°
ĠíĻĺ ë¶Ī
Ġìļ© ëŁī
Ġadv is
Ġìķ¡ ìłķ
Ġexec ute
ĠìĤ¬íķŃ ìĿĢ
Ġconcept s
Ġsound s
Ġë¶Ģëĭ´ ìĿĦ
Ġë¹Ħìľ¨ ìĿĢ
Ġmort ality
E m
in ant
od er
Ġìĥģ ëĭ¨
ĠI M
ìĭ¤ ë¡ľ
ĠU V
Ġcirc ular
Ġë§Įëĵ¤ìĸ´ ì§Ħ
Ġyoun ger
ivest ock
S ure
Ġr ational
ĠëĤĺ ìĦ°ëĭ¤
ĠìĦ± ìĿ¸
Ġë°ĺ ìĨ¡
ĠíĻĺ ìĽĲ
Ġdr ied
ĠìľĦì¹ĺ ìĹĲìĦľ
Ġstr ing
ĠìĦłíĥĿ ëĲĺëĬĶ
Ġfr ames
Ġimm ers
Ġìłľìĭľ íķĺìĺĢëĭ¤
Ġëĥī ë§¤
az ing
Ġoblig ations
Ġnumer ous
ëĮĢë¶Ģë¶Ħ ìĿĺ
a res
íķĺ ê²łëĭ¤ê³ł
ë¦¬ ê²Į
ĠìĿ´ ìĽĥ
ëĤ Ń
Ġse w
Ġê³ł ë¶ĦìŀĲ
are t
ĠìķĮ ë¦¼
ĠëĨĴ ìĿ¼
Ġmeet ings
Ġíģ´ ëŀ¨
ĠíĻĺê²½ ìĹĲìĦľ
ìľĦìĽĲ íļĮìĿĺ
rict ion
Ġìĺ® ê²¨
Ġrank ed
íİĻ íĬ¸
8 00
u ent
Ġ id
ìłķ ë¶ĢëĬĶ
ìĹ¬ ê¸°ìĹĲ
Ġìľł ëŀĺ
ê²° êµŃ
ok es
Ġì§ģ ìŀ¥
ë§ģ íģ¬
Ġíĳľìĭľ íķĺëĬĶ
Ġfam iliar
Ġì»¨ íħĲì¸ł
Ġreflect s
Ġtext ure
Ġconsider able
Ġban king
Ġëĵ£ ê³ł
Ġw aves
ur se
ìĬ¤ íĥĦ
ìĽ ħ
ĠìĿĺ ê²°
Ġ5 7
Ġìĺ¤ ìĿ¼
ĠìłĪ ìķ½
Ġëª» íķł
ĠìĥĿìĦ± íķľëĭ¤
ĠìķĪìłķ ìłģìĿ¸
Ġë ¼Ī
he ung
op eration
Ġíı¬íķ¨ íķ´
ĠìĹ´ êµĲíĻĺ
gr ade
ĠíĬ¸ ëłĮ
Ġê¼ ¬
Ġroad s
ê¹ Ĳ
ĠìĦ± ì·¨
Ġ6 3
Ġk m
Ġqu ery
Ġë§Ĳ ê³ł
Ġë¬¼ ìĿ´
ĠìĨĲ ìĿĦ
Ġì¶ķ íķĺ
Ġrequest s
Ġìŀ¡ ìķĦ
Ġvent ure
T wo
¾ ¼
Ġ4 10
ìĦł íĥĿ
ë¥ĺ ìĹĲ
Ġíļ¨ ëĬ¥
12 1
Ġì»¤ íĮ¨ìĭľ
Ġì§ĢìĽĲ íķł
ĠíħĮ ëŁ¬
BBB ëĬĶ
Ġbre ast
Ġlater al
Ġagg reg
r un
Ġd ow
ìłģ ê·¹
ment ia
am ine
Ġê°Ģ ìķ¼
ĠìľĦ ìĥĿ
ìķĦ ìĿĺ
Ġë¶Ģ ìĥģ
Ġìĭł ìĦ¤
ĠN H
Th us
ĠAAA ìŀħëĭĪëĭ¤
Ġíķ¨ ìľ¼ë¡ľìį¨
Ġlear ners
Ġfrequ ent
ĠíĶ¼ê³ł ìĿ¸
Ġattract ing
ĠíĿĲë¦Ħ ìĿĦ
Ġargu ment
Ġmiss ing
ĠìłĦëıĦ ìĦ±
L C
ê ¿
íĬ¸ ìĻĢ
Ġìŀ¥ ê´ĢìĿĢ
Ġê°ľ ë§ī
Ġsp in
ĠìĽĲ íĨµ
ĠO n
Ġpay ments
Ġbro ke
Ġbro ken
Ġì°¸ìĹ¬ íķľ
ĠíħĮ ìĿ´íĶĦ
Ġmist ake
t ure
ìĭľ ëĮĢ
Ġpro of
ch o
Ġë³´ ê¸ī
ëł¥ ìľ¼ë¡ľ
Ġte eth
ĠìĭĿ ìĤ¬
ìĹ´ ìĿĦ
Ġìĺ¬ ëł¤
ë°Ľ ì¹¨
Ġlim its
Ġê²Ģì¶ľ íķĺëĬĶ
Ġmer ch
Ġíķĺëĵľ ìĽ¨ìĸ´
W ow
p s
Ġch at
ĠP er
Ġë¹Ħ ëĤľ
ĠìĺĪ ìĻ¸
Ġthan ks
ĠìķĮ ëłĪ
Ġsign ing
ĠìłĲ ìĹĲ
ĠìĪ ²
Ġequ ation
Ġì°½ ìŀĳ
Ġindic ate
Ġdim ension
4 10
k i
Ġinc ent
ĠìĹ¬ ê²¨
ĠíĽĦ ë°©
Ġë³µ ê·Ģ
Ġsm ell
ĠìĦłíĥĿ íķĺëĬĶ
Ġann ular
ĠìķĬëĬĶ ëĭ¤ëĬĶ
ë¸Ķ ë¡Ŀ
Ġìľłì§Ģ íķĺê³ł
Ġì¸¡ìłķ íķĺëĬĶ
Ġìŀ¥ìķł ìĿ¸
Ġëªħëł¹ ìĿĦ
Ġê°ĳ ìŀĲê¸°
Ġtick ets
Ġinevit able
Ġperce ived
f in
Ġt ape
Ġt ension
ëŀ į
ë¶Ħ ìķ¼
Ġë¹Ħ ë¡Ģ
ĠíĨµ ì§Ģ
Ġìŀ¬ ë°ľ
Ġì¦Ŀ ìĥģ
Ġoff ered
ĠìĪĺì¤Ģ ìĹĲ
Ġì£¼ìĭľ ë©´
ĠìĤ¬ìłĦ ìĹĲ
Ġbelong ing
Ġimpl ications
ĠëĥĦ ìĥĪ
om y
Ġê³ ±
Ġëĵ ł
Ġìłķ íķĺëĬĶ
ĠìĤ¬ìļ© íķĺìĺĢëĭ¤
ĠíĶĦë¡ľ íĨł
12 2
Ġë¡ľ ê·¸
Ġneg lig
Ġbacter ia
6 1
h and
ê°Ģ íı¬ë¥´
ce an
ĠìłĦ ìĤ¬
Ġìĭľ ê¸°ìĹĲ
ëıĻ ìŀĳ
ë§Į íķľ
Ġì§Ħ ìĪł
ĠìĿĮ íĸ¥
ĠíĬ¹ì§ķ ìĿ´ëĭ¤
ĠìļĶìĿ¸ ìľ¼ë¡ľ
ĠìĿ´ê²ĥ ìĿĦ
Ġa ce
ro c
Ġn erv
ab s
Ġìłķ ì°©
êµŃ ê³¼
Ġê³µ ìŀ¥
ìĤ° ê³¼
ê²½ íĻĶ
Ġê¶Į ë¦¬ë¥¼
Ġz ero
Ġemerg ing
Ġë²Į ìĸ´
Ġì±ĦëĦĲ ìĿĦ
ĠSer vices
Ġarm s
Ġìĺ¨ìĭ¤ ê°ĢìĬ¤
d y
Ġw are
Ġd ual
el i
Ġë¹Ħ ëĮĢ
ìŀĳ ìĹħ
Ġoff ering
ëŀĢ ëĵľ
Ġstor ies
Ġì½ĺ íģ¬ë¦¬
Ġexem pl
N G
h aps
m ar
o i
ìĿ¼ ëĭ¨
Ġëĭ¤ ëħĢ
Ġìľł ìĿ¼íķľ
ĠM ot
Ġê±° ë¦¬ë¥¼
Ġli k
Ġë¶ĦìĦĿ ìĿ´
íħĮ íģ¬
ì¶Ķ ê°Ģ
ëĲĺìĹĪ ìĿĦ
ë²ł ìĿ´
Ġconnect s
ĠëŃ Ķ
ĠíĨµê³Ħ ìłģìľ¼ë¡ľ
Ġdefin itely
Ġlam inated
ĠíĶĮëĿ¼ ì¦Īë§Ī
D e
U nt
ìĪĺ ì§Ģ
ĠìĿ¸ íķĺ
ĠìĨĮ íĺķ
og ene
ìĭ¤ ìĿĺ
ĠìĦ± íĸ¥
ĠíķĦìļĶ ìĦ±ìĿ´
Ġass ault
Ġbr ake
Ġë¦ ¼
êµ° ìĹĲ
ĠìļĶìĨĮ ê°Ģ
Ġter ror
ĠìĤ¬ íĽĦ
ĠëĮĢ ê¸°ìĹħ
Ġr iver
ĠìĹ° ëıĻ
ĠëĤĺ ìĺ¬
ĠìĨĮ ë°©
ë¯¸ ìĪł
Ġìŀħ ìĤ¬
Ġì± Ļ
Ġì¶ľ ìŀħ
Ġë³µ ìļ©
íĶ¼ ìĸ¸
Ġmost ly
ĠëĴ¤ ìĹĲ
Ġmar ried
Ġden uclear
Ġsubsequ ent
ë¡ľ ê²Ĳ
as ive
ìĿ¸ ê°Ģ
Ġv oc
ìĪĺ ìĪł
Ġinc idence
ëĦ ĺ
ìĥĿ ë¬¼
Ġë°Ľ ê²Į
ĠíĮĮ ìĽĮ
ĠProv ided
Ġconstit ution
re ct
Ġí ĥģ
Ġìĭľ ê³Ħ
íŀ Ĳ
Ġman ual
Ġì°¨ ìĿ´ëĬĶ
ìĹĪ ìĸ´
ë³´ëĭ¤ ëıĦ
ĠìĿ´ë£¨ìĸ´ ì§Ħëĭ¤
Ġê¸°ê°Ħ ìĿĦ
ĠëģĿ ëĤľ
íĽ Īëł¨
Ġì¤ įëĭĪëĭ¤
Ġprotr ud
ìĬĲ ë¦°
ĠSing apore
Ġí Ģ
ìŀĲ ëĵ¤
Ġst ir
ter ing
ad or
ì° Į
ì¡° ì°¨
all s
Ġê¸Ī ë¦¬
Ġdep osition
ĠìĥĿê°ģ ëĲľëĭ¤
Ġlist en
ìĤ¬íļĮ ìłģ
Ġver ified
Ġreceip t
Ġdow nt
j a
m eth
v ascular
y al
it ively
ĠëĮĢ ëĭ¨
Ġì§Ģ ê°ģ
th let
Ġìłķ ë¹Ħ
Ġê³µ ê°Ĳ
Ġìŀ¬ ê°ľ
íĺĦ ëĮĢ
Ġche st
Ġrespons es
á Ĩ
as tern
od el
Ġì§Ģ ë¬¸
ë³´ ê¸°
ĠM us
Ġsecond s
Ġìĸ» ìĸ´ì§Ħ
ĠìºĲ ëĤĺëĭ¤
ëĥĲ íķĺë©´
Ġì»¤ëĦ¥ íĦ°
áĨ ŀ
W ould
g ments
Ġìĥģ ìĥģ
íĬ ľ
Ġcont rary
Ġres piratory
ĠìĿ¸ ê¸°ë¥¼
ê¹ ĥ
ĠìķĬ ì§Ģë§Į
ìĺ¤ íĶĦ
Ġìĺ¨ ëıĦê°Ģ
Ġdef ine
Ġê°ģê°ģ ìĿĢ
ê·ľ ì¹Ļ
ĠìĦ¸ê³Ħ ìłģìľ¼ë¡ľ
Ġì°¸ìĹ¬ íķł
Ġmanag ers
Ġexcl usive
C o
ĠC he
ìĪĺ ëĭ¨
Ġìĭľ ê³µ
ĠìĹ° íķ©
Ġì§Ħ ìłķ
Ġíĺ¸ ìĬ¤íĬ¸
íĻķ ìĿ¸
ĠíĽ ¼ìĨĲ
Ġcert ification
Ġfib ro
ĠìĿ´ìĻ¸ ìĿĺ
Ġstatist ical
ĠìĦłìĥĿ ëĭĺ
Unt il
z en
Ġbe ef
Ġn odes
ìłķ ì¹ĺ
ĠS in
ìłĦ ëł¥
se o
Ġê³Ħ ìłĪ
Ġdr um
ĠëĤĺìĺ¤ ê³ł
olic y
Ġrefriger ant
ëįĶëĿ¼ê³ł ìļĶ
S A
êµŃ ìĹĲìĦľ
ĠT ur
ĠL iberty
ë²Ħ íĦ°
ĠëĲľ ëĭ¤ëĬĶ
Ġemb ed
ĠìĤ´ ê³ł
ĠìĿ´íĽĦ ìĹĲ
ìĶ¨ ìĿĺ
Ġel ong
Ġëĭ¹ìĭł ìĿĢ
Ġê°± ìĭł
ìĹĲ ìĦł
ì§Ģ ìŀĲ
ë£ ©
ìĹħ ë¬´
Ġê³µ ë¬´
ĠG l
íģ¬ ë¡ľ
ĠìĦ¸ ìłķ
Ġgr asp
Ġconduct ivity
Ġë§ŀ ì¶Ķ
Ġì¹ľ íĻĺê²½
ĠìĦ¼ìĦľ ë¥¼
ĠëĤĺëĪĦ ìĸ´
Ġì£ĦìĨ¡ íķ©ëĭĪëĭ¤
Ġconsc ious
F ollow
an ium
Ġl ux
Ġst ations
ul us
Ġ3 50
Ġëĭ¤ ë§Į
ì¶ľ ëł¥
ĠíĺĦ ìŀ¥ìĹĲìĦľ
Ġbl ind
Ġdifferent ly
Ġë¦¬ íĬ¬
Ġfeel s
Ġìĸ´ëł¤ ìļ¸
Ġexc av
Ġstrengthen ed
ĠAl so
Ġëļľ ëł·
ĠìĹ ĺ
ĠìķĦ ìĭľ
ĠëĤ´ ìĿ¼
ĠìĦ¸ ë¡ľ
Ġdes cription
Ġìłķì±ħ ìĿĺ
Ġìĸ´ëł¤ ìĽĢìĿ´
Ġê°Ģê²© ìĿĢ
Ġpast e
ĠìºĲ ë¹Ħ
az e
Ġconver ter
Ġë§ĪìĿĮ ìĿ´
ĠUl san
Ġmetall ic
ĠìĿ¼ ìŀĲ
Ġco verage
ĠìĹ¬ ê³¼
Ġê°ĢëĬ¥ íķĺë©°
ĠíĮĮ ê²¬
Ġíģ¬ ë¦¬ìĬ¤
ĠíĶĮ ëŁ¬
par agraph
Ġart ist
Ġì§Ħíĸī íķł
ĠìĦ¤ëªħ íķĺê¸°
Ġmess ages
íĻľëıĻ ìĿĦ
Ġven ue
A pp
B L
D I
G eneral
¨ ìĿĦ
Ġb ending
ìĭľ ë¯¼
ìļĶ ì¦ĺ
ĠI oT
ĠB ong
Ġìĺ¤ ë²Ħ
Ġì¹´ íİĺ
Ġíļ¨ê³¼ ëĬĶ
Ġìłģìļ© íķĺìĹ¬
ĠìŀĲìĭł ìĿĦ
Ġëª¨ëĵĪ ìĿĦ
Ġë§Ľ ìĿ´
Ġdefect s
Ġcompress or
Ġdemocr acy
ĠìħĪ ìĿ´ëĭ¤
T r
ro t
Ġìĥģ íķĺ
em itting
Ġ3 30
Ġinc ur
ê·¸ ëłĩê²Į
ì§ģ ìĽĲ
íı¬ ë¥¼
Ġì§ĢìĹŃ ìĿĢ
Ġsol ving
ìĺ¨ ëĿ¼ìĿ¸
duc er
ĠPro fessor
Ġarr ive
Ġdisp ens
ìĪľ íĻĺ
Ġlimit ation
Ġìłķìĥģ íļĮëĭ´
ĠPe ople
ĠìľĪ ëıĦìļ°
b ed
Ġê¸° íļĮ
ĠìĨĮ ë§¤
Ġmon omer
Ġdef ining
Ġtax i
Ġë¦¬ ìĨĮ
Ġë°Ŀ íŀĮ
Ġê³µê°Ħ ìĿ´
Ġìŀ¡ ê³ł
Ġenc oding
ĠíĺĲìĿĺ ë¡ľ
ĠíĴįë¶Ģ íķľ
Ġd uct
Ġre habilitation
ìĦľ ë²Ħ
Ġì§Ģ ìĪĺ
íĻĶ ëĲł
Ġì¤ĳ ê³µ
Ġun d
ë¹Ħ ìĿĺ
ìľĦ ìĻĢ
ëĭ¹ ìĤ¬
Ġë°Ķ ëŀĢëĭ¤
Ġë§Ī ì¹ĺ
ĠíļĮ ëĭ´
íķĺì§Ģ ëĬĶ
Ġìĭľê°Ħ ìĿĢ
Ġê¸¸ ìĿĦ
Ġrot ational
Ġë¹Ħìľ¨ ìĿĦ
D R
ë©´ ìľ¼ë¡ľ
Ġê²ĥ ìĿ´ëĿ¼
ìĿ¼ íķĺê²Į
ĠìŀĲ ë°ľ
ĠM y
ĠëĤ´ ë¶ĢìĿĺ
ê´Ģ ìłĪ
ĠG or
ë¯¸ ëĵľ
ë¬´ ìĹĩ
ĠE C
ìĺģ íĻĶ
ĠìĤ¬ìĿ´ ë²Ħ
ë©Ķ ëª¨
Ġë³ĢíĻĶ ëĬĶ
Ġê³¼ìłķ ìĿ´
Ġê¸ī ìĨį
Ġê³³ ìĹĲìĦľ
ĠíĸĪ ì§Ģë§Į
Ġë¹Ħìļ© ìĿĢ
Ġjoint ly
Ġhold s
ê²½ì°° ìĿĢ
Ġë³µìŀ¡ íķľ
Ġisol ation
Ġë³´ ìķĺëĭ¤
ëªħ ëł¹
ĠìĿ¼ ìĿĢ
ĠëıĻ ìĺģìĥģ
ìħ ī
ìĭ¬ ìľ¼ë¡ľ
ĠíĻĺ ìĺģ
Ġê³¼ ìłľ
Ġëĭ¹ ë¶Ģ
Ġëĭ¨ê³Ħ ëĬĶ
Ġvis ion
ëĨ Ĵ
Ġweek end
Ġic on
M C
u an
Ġ +
Ġê¸° ì²´
ìĪĺ ìĪĺ
Ġì£¼ ìĭŃìĭľìĺ¤
Ġun less
Ġë¹Ħ íĥĢë¯¼
íĺķ ìĹĲ
Ġem pt
Ġë°ĺ ëł¤
Ġob esity
Ġfe et
ê·¼ ë¡ľ
íħĮ ìĿ´ìħĺ
íıī ìĸĳ
Ġdeb ate
Ġbeg ins
Ġkeep ing
Ġë¯¸ìĦ¸ ë¨¼
at is
os en
ìĭł ìĿĺ
are n
ĠN e
Ġë°° ìĥģ
ê²ł ìĸ´
Ġher itage
ë´ī ìĤ¬
Ġresid ual
Ġbi ological
ìº ł
ĠAir port
Ġresol ved
p re
ê¸° ë°ĺ
Ġg ly
ig aret
Ġìĥģ ìĿĳ
Ġë³´ ì¶©
Ġê·¸ ë¥¼
Ġê²° ìĿĺ
ì°¨ ëŁī
Ġë²ķ ìłķ
Ġíģ¬ ê¸°ìĿĺ
Ġë¡ ¯
Ġcalc ium
ê²Ģ ì°°
ê³³ ìĹĲìĦľ
ĠDae jeon
Ġì¢Į íĳľ
, âĢĿ
D ep
Ġw rote
op y
ìĹ° ê¸Ī
Ġpres cription
Ġ10 6
Ġreg ret
ĠìļĶ ìĿ¸ìĿ´
íĳľ ìĭľ
Ġcur ved
Ġmon etary
Ġê´Ģê³Ħ ìĹĨìĿ´
Ġprec ip
Ġprec ise
Ġdiscrim ination
j ust
Ġf itting
Ġìĭľ ëĤĺ
Ġë¹Ħ íķµ
ĠíķĦ ë¦¬íķĢ
ĠCh urch
ress ed
Ġê±´ ë¦½
Ġbl ank
Ġgr ain
Ġê²°ìłķ íķľëĭ¤
ĠìĦľë¹ĦìĬ¤ ìĿĺ
Ġêµ¬ì¡° ëĬĶ
Ġcustom ized
ĠìĿ¸íĦ°íİĺìĿ´ìĬ¤ ë¥¼
Ġnood les
2 000
· Ķ
ìĿ´ ë²Ħ
ë³´ ì¦Ŀ
Ġê´Ģ íķł
ĠìĿ¸ ëł¥
Ġíı¬ ìĿ¸
10 3
Ġë°©ë²ķ ê³¼
ĠW omen
Ġìŀĳ ê°Ģ
Ġfl ag
Ġamount s
Ġflow er
ĠìĿ´íķ´ íķł
Ġëĥī ëıĻ
Ġcommon ly
Ġpen etr
Ġenh anced
ĠìłĦë°ĺ ìłģìĿ¸
Ġingred ient
Ġapart ments
2 40
re qu
Ġbe ar
Ġê¸° ìłĢ
Ġsh if
Ġun known
ìłĢ ëıĦ
Ġ6 8
Ġdr aft
ĠìĹ´ ìĭ¬íŀĪ
ĠíĿĲ ë¥´ëĬĶ
ĠSu won
Ġcompl aint
Ġë³´ìĹ¬ì£¼ ê³ł
ĠìĬ¬ëĿ¼ìĿ´ ëĶ©
Ġrepeated ly
Ġsustain able
Ġinfring e
m un
u pp
ìļ° ìĬ¤
ìĤ° ìĿĢ
ĠìķĦ ëĭĻëĭĪëĭ¤
Ġsp ending
Ġìĭł ì¶ķ
ëĭ¹ ìĿĢ
Ġì¦Ŀ ëĮĢ
Ġcur ve
Ġì§ĳ ìĹĲìĦľ
Ġê¸°ìĪł ìĿĢ
ĠëĿ ł
ĠìĦ¤ëªħ íķľëĭ¤
ĠìĿ´ìĸ´ ì§Ī
ĠìĿ¼ë¶Ģ ëĬĶ
Ġê¸°ë°ĺ ìĿĺ
Ġê¸°íĮĲ ìĿĦ
itud es
ĠíļĮìĤ¬ ìĹĲìĦľ
Ġê°Ģê¹Į ìĿ´
Ġmel ting
Ġdestro y
m ic
íķĺ ìĭŃìĭľìĺ¤
ê³ł ê¸°
ìĸ´ ìĹĲ
ĠìŀĪ ê±°ëĤĺ
Ġv ote
ĠìĹ° íĨµ
Ġê³µ íķŃ
íļĮ ìĤ¬ìĿĺ
ĠF C
ĠíĻķ ë¦½
Ġì¢ħ ìĿ´
Ġì¢ħ ëª©
ĠìľĦì¹ĺ íķĺê³ł
Ġhelp ful
Ġë¶Ģìŀ¬ ìĿĺ
Ġtarget s
lec ommun
Ġìŀ¬íĻľ ìļ©
i ological
Ġa uction
ul ator
Ġal t
ë§Į ìĹĲ
ĠìĿ¸ ìĭĿìĿĦ
Ġë°ľ ê¸ī
ĠìĨĮ ë¦¬
ê²½ ìŁģ
ìĽĶ ê¹Įì§Ģ
ĠìĤ¬ëŀĮ ëĵ¤ìĹĲê²Į
ë©Ķ ìĿ¸
Ġret urning
ĠêµŃëĤ´ ìĻ¸
Ġblock ed
Ġëĸ¨ìĸ´ ìł¸
Ġcamer as
Ġë°ĶëŀĮì§ģ íķľ
Ad dition
oper ative
Ġcab in
Ġpil ot
Ġagend a
6 4
s pecific
Ġs ad
Ġto x
ëĵľ ë¦¬ê³ł
Ġëĭ¨ ìĹ´
Ġso le
Ġë§Ī ì°°
ë²Ī íĺ¸
ë§ģ ìĿĦ
Ġdon ation
Ġcateg ories
Ab out
Ġë§ŀì¶¤ íĺķ
Ġinval id
b age
ë¦ ħëĭĪëĭ¤
Ġê¸° ìĽĲ
Ġê°Ģ êµĲ
ĠG im
Ġelect ions
Ġfil es
Ġorig inally
Ġëħ¼ìĿĺ ê°Ģ
Ġcop y
Ġë§ĪìĿĮ ìĹĲ
f it
Ġcom ment
ìłĦ ìĿĢ
ìķĦ ë§Ī
Ġìĺ¤ ë¥´
ìĺ¤ ìĹ¼
ĠìĿ´ìĥģ ìľ¼ë¡ľ
Ġìļ© ëıĦìĹĲ
Ġì»¤ ì§Ģê³ł
Ġinvestig ating
ĠëĶĶë°ĶìĿ´ìĬ¤ ìĿĺ
ĠëıĦìĭľ íķľ
Ġlog istics
Ġver ify
Ġsem i
Ġneighbor ing
ĠëĮĢ íıŃ
ĠA ll
Ġë³´ íİ¸
ëıĻ ìĿ´
ac er
ë£Į ê°Ģ
Ġoff set
Ġintern et
Ġnecess ity
íķĺìĺĢ ìĿĦ
Ġê°ľêµ¬ ë¶Ģ
ĠìĿ¸ê³µ ì§ĢëĬ¥
Ġhab it
Ġvill ages
Ġcomp at
ĠìĿ¸ ìłģ
ĠíļĮ ìĭł
ĠíĶĦ ëĿ¼ìĿ´
Ġì¦Ŀ ì§Ħ
Ġwork piece
ì¢ħ íķ©
Ġpol ishing
ak ao
Ġpoly ester
ìĭŃ ëĭĪê¹Į
ìĤ¬ìļ© ìŀĲëĬĶ
ĠíķĺìĹ¬ ê¸Ī
Ġsaving s
Ġgovern ance
Ġë¡¯ ëį°
Ġo d
Ġcon v
íĻĶ ë¬¼
ĠM un
ĠìĿ¼ ì²´
Ġë¹Ħ ë°Ģ
ìľĦ ìĹĲìĦľ
Ġì¦Ŀ ìĥģìĿĦ
ê¶Į ê³¼
Ġconf ident
ë²Ħ ìĬ¤
Ġê°ľë°ľ íķľ
ĠíĶĦë¡ľê·¸ëŀ¨ ìĿ´
ĠìĿ¼ë¶Ģ ê°Ģ
Ġê³łëł¤ íķ´
Ġê·ľìłķ ìĿ´
ĠëĤľ ë¯¼
ĠCan ada
ĠOlymp ics
ĠPhilipp ines
5 7
P art
Ġf isher
Ġh ub
Ġres c
ĠF A
ê±´ ì¶ķ
Ġelect ed
abl ing
Ġìĭłíĺ¸ ê°Ģ
Ġê³³ ìĿ´ëĭ¤
bo x
Ġê¸°ëĮĢ ëĲľëĭ¤
Ġsus pect
Ġdecl ared
d a
Ġ ,
Ġs ke
ion ed
ar th
ë¡ľ ìį¨
em a
ĠB ang
êµĲ ìĤ¬
Ġk indergart
Ġcr ack
Ġìĸ» ìĸ´
Ġê¸ī ìĹ¬
íıŃ ëł¥
Ġsix th
Ġprob ably
Ġëģ¼ ìĽĮ
Ġconstant ly
9 8
O P
w r
it ime
Ġint ra
ëĭ¹ ìĤ¬ëĬĶ
ĠìĤ¬ìļ© íķ´
Ġcons erv
Ġ11 4
Ġaut o
Ġëĭ¤ìĸĳ íķĺê²Į
Ġrepresent ation
Ġpet ition
Ġinconven ience
c ul
at ched
Ġp ine
Ġw ine
ìķ ¤
ëł Ľ
Ġì§Ģ ìłĲ
íĻĶ ëĲĺê³ł
oc ur
Ġìľł ìķķ
Ġíı¬íķ¨ ëĲľëĭ¤
ĠìĦł ìŀĦ
ĠíĻķ ìĭł
Ġíĺķ ê´ĳ
Ġdes ire
Ġë¹ ļ
Ġë³Ħ ì§Ģ
Ġíŀĺ ëĵł
yc lic
Ġmor al
b ok
al f
am a
ìŀ¥ ê¸°
op hy
Ġê²½ ê¸°ë¥¼
Ġê·¸ ëł¤
Ġì¡° ìĸ¸
ĠìķĦ íĶĦë¦¬ì¹´
ĠB y
ĠíĨµ ë¡ľ
ens us
ĠìĦł ìĪĺê°Ģ
Ġê±° ëĵŃ
ĠL im
Ġì¦Ŀ ë°ľ
Ġprovid er
ë³µ ìĪĺìĿĺ
ĠìŀĦ ìĭł
ë°° ìļ°
ĠSt ud
ĠìĿ´ìľł ë¥¼
Ġê¸°ê°Ħ ìĹĲ
Ġsuccess fully
Ġsho es
ĠíĿĶ ëĵ¤
Ġreli able
ĠìĿ¸ëıĦ ëĦ¤ìĭľìķĦ
Ġdispers ion
Ġë¸ĮëłĪìĿ´ íģ¬
Ġp apers
Ġb urn
Ġd ys
Ġl ivestock
Ġìłķ ìłĦ
ap y
Ġìľł ëĦ¤ìĬ¤ì½Ķ
ĠìĿĺ ë¢°
ë¶Ħ ê°Ħ
pl ing
ëĭ¹ ìĿĦ
ĠL i
ìĭľíĤ¤ ëıĦë¡Ŀ
Ġsol ved
Ġhy brid
ĠìĪĺìĭł íķĺê³ł
ĠìĦ¤ìłķ íķł
ĠIt aly
Ġpasseng ers
H ave
M e
g ok
r ate
ë° ¸
ĠëĮĢ ëŀµ
ì£¼ íĮĮ
Ġthere to
ĠíĻķ ë¥ł
Ġrec ur
ĠìĭľìĬ¤íħľ ìĹĲìĦľ
Ġaut umn
Ġëħ¼ ë¦¬
Ġpack et
6 6
ìŀĲ ê¸Ī
am ing
Ġë¯¸ ì¹ĺì§Ģ
Ġpres ents
Ġë¬¸ íĻĶë¥¼
20 15
Ġsystem atic
Ġì¶ľ êµ¬
ì½Ķ ëįĶ
Ġopp osed
Ġ199 8
ĠíĶ¼íķ´ ê°Ģ
ĠíĮĢ ìĿ´
ëŀ« ëıĻìķĪ
Ġëĭ¨ìĪľ íķľ
Ġìı ŁìķĦ
K T
R ep
íķ´ ìł¸
ìĹħ ê³Ħ
ê³µ ê°ľ
Ġë¯¸ íĮħ
Ġê²ĥìĿ´ ìĹĪëĭ¤
Ġì¹ĺ ìĹ´
íİ¸ ìĿĺ
Ġsl ide
Ġjud ges
Ġreturn s
Ġdebt or
ĠëĳĺëŁ¬ ìĭ¼
Ġìŀĩ ëĶ°
rep rene
Ġjour nal
Ġtherapeut ic
z y
ar io
ì§Ģ êµ¬
ĠìľĦ ë¡ľ
Ġì¤ĳ ì¦Ŀ
Ġëĭ¤ ë¦¬
Ġìłľê³µ íķ´
Ġob st
Ġë§Ĳ íķĺëĬĶ
Ġlo op
Ġoper ators
Ġíĳľë©´ ìĿĺ
Ġë¬¼ì§Ī ìĿĺ
Ġcomplic ations
Ear lier
affirm ative
ê³ ±
an es
Ġcon vert
ĠìĿ¸ ì½ĶëĶ©
ĠP art
ĠN O
ĠìĤ¬ìļ© íķľëĭ¤
ĠìļĶ ìĿ¸ìĿĦ
Ġser um
ĠíĻĶ ìŀ¬
Ġì§ģ ê²½
Ġì¢ħ ì¢ħ
Ġì¶ľëł¥ íķł
Ġhapp iness
ĠëĬ¥ ëł¥ìĿ´
Ġhost ed
Ġan ch
il ization
Ġíķĺ ëĭ¨
Ġíķĺ ìħ¨
Ġë¶Ħ ìĸĳ
ìļ´ ìļ©
Ġê¸Ī ìķ¡
Ġcre ates
Ġjust ice
ë°ķ ë¬¼ê´Ģ
ĠìĪľ ìĦľ
Ġìłĳì°© ìłľ
exp ected
Ġcollabor ation
Ġdenuclear ization
S D
w ha
ì ¾Į
or king
Ġg all
ĠìłĦ íĻĶë¥¼
res ist
Ġtrans formation
ê°Ĳ ìĿĢ
Ġë¦¬ ìĬ¤íģ¬
Ġear ning
Ġdown ward
Ġê·¹ ëĮĢ
Ġexch anger
Ġíĺ¼íķ© ë¬¼ìĿĦ
ĠìĪĺìĹħ ìĿĦ
Ġê½ ¤
Ġwood en
Ġê·¸ëħĢ ìĿĺ
ĠíļĮìĽĲ êµŃ
Ġflo ating
Ġinsul in
C ha
ë »
Ġde mentia
ìŀ¥ ìĹĲê²Į
ort ion
ë¯¸ ëŀĺ
Ġíĥ ĵ
ì²ĺ ìĿĮ
ĠìĨį ëıĦê°Ģ
Ġë§ŀ ìĿ´
ĠìłĦìŀĲ ê¸°
Ġë°©ì§Ģ íķĺê¸°
FFF ëĬĶ
Ġì°¸ì¡° íķĺë©´
ĠBr idge
Ġenact ed
f r
r h
ìĿ´ ìĤ¬
Ġy ield
Ġì£¼ ëĲľ
Ġun em
Ġë§¤ ìĪĺ
ë°Ķ ë¥¸
Ġì§ĳ ìĿĦ
ë©Ķ íĭ¸
Ġê¸°ì¤Ģ ìĿ´
Ġê´Ģë¦¬ íķĺëĬĶ
Ġdown stream
Ġinvol ving
j ung
Ġì ·Į
as ant
Ġê° ¤
st ic
ë¦¬ íķľ
Ġìĥģ ìļ©
ure th
iv ision
ap se
og ue
Ġíı¬íķ¨ ëĲł
ê°Ĳ ê³¼
ì¶ķ êµ¬
Ġíĺ¸ ìĨĮ
ĠPro ject
Ġë¶ģ ë¯¸
ĠìĤ¬ìļ©ìŀĲ ìĹĲ
Ġreported ly
Ġìŀł ìĭľ
Ġexceed s
Ġc ush
Ġl um
Ġìĭľ ìĿĺ
ìĿ¼ ê°Ħ
iv ated
Ġìľł íķ´
ĠìĿ¸ ê¸°ê°Ģ
ag ers
Ġëĭ¨ ëŁī
ĠH o
Ġë³Ģ ì¡°
Ġsupp lier
Ġì§ģ ë©´
Ġì½Ķ ëĶ©
Ġì§ĳ ìłģ
ĠìĺģìĹŃ ìĿĢ
Ġê¶Į ìŀ¥
ĠíıŃ ë°ľ
Ġê¸°ëĭ¤ ëł¤
ë ī
Ġëª¨ íĺķìĿĦ
ĠìĥĿ ê²¨
ìĺģ êµŃ
Ġinter ference
Ġcomm emor
Ġì´Ī ì²Ń
Ġìĭ¤ìĭľ íķĺìĺĢëĭ¤
ĠëĲľ ëĭ¤ê³ł
ĠìĨĲ ìŀ¡
Ġgl ad
Ġìķķ ëł¥ìĿĦ
ĠíķĻìĥĿ ìĿĺ
ax is
ipl inary
in ister
Ġb inder
ëĤĺ ëıĦ
ìĹ¬ ëªħìĿ´
Ġìĭľ ë²Ķ
ĠìĿ¼ ëł¨ìĿĺ
ĠG un
ĠëıĦ ëĤ´
ìĭ¤ ìĿĢ
ìĹ° ìĿĦ
Ġë°©ë²ķ ìľ¼ë¡ľìĦľ
ĠíĮĮ ìĿ¼ìĿĦ
ì¡Į ê³ł
ìħĶ ëıĦ
ĠìķĦëŀĺ ìĻĢ
ĠìĿĺê²¬ ìĿ´
ĠíĥĢìĿ´ ë°į
ĠíĨ ±
ĠCP U
ìĿ´ ìłĢ
or al
ar r
ĠìĪĺ ê¸ī
ìŀ¥ ê´Ģ
ĠC ap
ĠC ode
Ġì§Ģ íľĺ
ib ilities
Ġê³ł ë¦¬
ìĦł ê³¼
ĠìĹ¬ ìĦ±ìĿ´
Ġì´Ī ëĵ±íķĻêµĲ
Ġì¹´ ë¥´
Ġcontact ed
Ġlarge ly
Ġofficial ly
êµĲìľ¡ ìĿĦ
ĠìŀĪìĹĪ ê³ł
Ġbat tle
Ġadhes ion
Ġvent il
Comp ared
Ġin ver
ic iary
Ġbe verage
ĠìĪĺ ìĭŃ
ìĭľ ê²½
Ġêµ ½
Ġëĵ Ŀ
Ġtr ail
Ġìľł ìłģ
Ġì¹ ¸
ĠR ights
20 16
Ġsur ve
Ġíģ¬ ê³ł
ĠìĤ¬ëŀĮ ëĵ¤ìĿĦ
Ġë§ŀ ë¬¼
Ġtreat ments
ĠìķĮëł¤ ì£¼
Ġë°ĽìķĦ ìķ¼
Ġmov ies
ëĭ¤ìĿĮ ìľ¼ë¡ľ
L A
Ġb ic
Ġto urn
ĠìŀĲ ìķĦ
ë¥´ íģ¬
ĠíĮĮ ê¸°
ëĶĶ ìķĦ
Ġê²°ê³¼ ë¡ľ
Ġinvest ments
Ġê°ľìĦł ëĲľ
Ġexceed ed
Ġbelong s
Ġë°©ì¹¨ ìĿ´ëĭ¤
ĠëıħíĬ¹ íķľ
7 4
u han
Ġcon str
ĠëĮĢ ìĻ¸
Ġal arm
Ġë³´ ëĤ¸
ì¡° ìĤ¬ë¥¼
Ġë© ¸
ĠìĬ¬ ë¡¯
ìĿ´ë²Ī ìĹĲ
Ġì¡°ìĦ±ë¬¼ ìĹĲ
Ġìľ¡ ìĦ±
Ġpus hed
ĠíİĦ ìĬ¤
Ġgluc ose
N ew
ic ted
ë° ¤
ĠëĮĢ íķĻìĥĿ
ĠìłĦ ì²´ìĿĺ
Ġìłķ ìłľ
Ġê³µ ëª¨
ĠìĨĮ ë©¸
Ġem itted
ìĸĳ ìĿĺ
Ġany where
Ġêµ¬ì¡° ê°Ģ
Ġì§Ģê¸Ī ìĿĢ
Ġfat ty
Ġë¶ĦìľĦ ê¸°
ìĿ´ë¯¸ ì§Ģ
Ġdiss ol
E A
M O
Ġc a
Ġp iv
it ter
ĠìĪĺ ë¶Ħ
id er
ĠC a
Ġì§Ģ ìŀĲ
Ġwas n
Ġë¹Ħ ìłķ
ĠìĹĨ ê¸°
Ġìĸĳ ì¸¡
Ġì¸¡ ë²½
Ġsing er
Ġpract ices
Ġê²ª ê³ł
Ġsubsid ies
Ġìĸĳíĺ¸ íķľ
Ġì»´íı¬ëĦĮ íĬ¸
ĠíĶĦë¡ľíĨł ì½ľ
ìĬ¤ ëŁ¬
ĠS y
Ġìľł ëĭĪ
ĠP yeong
Ġper me
ĠìĬ¤ íĮĮ
Ġì´Ī ëĵ±
ĠëĤ¨ ìĿĢ
Ġcustom s
ĠíļĮìłĦ ì¶ķ
Ġìĸ¸ìłľ ëĵłì§Ģ
Ġë£¨ íĶĦ
Ġsem ester
Ġrevers ed
Ġtor que
o ke
Ġb read
ĠìĪĺ ëł¹
us ions
Ġse ar
Ġwas h
ìķĦ ë²Ħ
ì£¼ ë¬¸
ìĦ¸ ë¡ľ
form ing
ìľł ë¡ľ
ĠD r
ĠìķĬ ìľ¼
Ġacc used
ëĶĶ ì§ĢíĦ¸
Ġë°ľìĥĿ íĸĪëĭ¤
ìĭľíĤ¤ ì§Ģ
Ġcompet ency
ĠíķĦìļĶíķĺëĭ¤ ëĬĶ
Ġide al
ĠìŀĪìľ¼ ëĭĪ
Ġavoid ance
Ġcryst all
ĠSME s
c omp
ic king
Ġì§Ģ íĤ¤
Ġìłķ ìĦľ
ure au
Ġë¶Ģ ê·¼
Ġ10 3
ìĺ¤ ëĭĪ
Ġspec ification
ĠìłĪ ìłľ
ĠìĿ´ìĸ´ ì§ĢëĬĶ
Ġì¡´ìŀ¬ íķĺì§Ģ
Ġmic roph
Ġíĺ¹ ìĭľ
Ġì°¸ìĦĿ íķľ
Ġultr ason
Ġalb um
' (
b i
Ġre tain
ëĤĺ ê°Ģ
Ġ3 60
ĠìĿ¼ ì°į
Ġed ges
Ġë°©ìĭĿ ìĿĺ
ĠìłķìĿĺ ëĲľ
Ġattrib ute
Ġsmooth ly
ĠAS EAN
P P
P l
l ock
Ã ©
ĠëĮĢ ì²´ë¡ľ
od a
íĴĪ ìĿĺ
ĠëĲĺ ê¸°
Ġì§ģ ìĽĲìĿ´
Ġì§ĢìĹŃ ìĤ¬íļĮ
Ġíħ Ķ
Ġë¯¸êµŃ ê³¼
Ġadm ission
Ġê¸ī ìĦ±
Ġê²Ģì¶ľ ëĲľ
ĠìĤ´íİ´ ë³´ê³ł
Ġë¶Ģëĭ´ ìĿ´
Ġprotect ing
ĠìĭľìĦ¤ ìĿĦ
Ġearth qu
Follow ing
u its
ìĿ´ ëıĻ
ĠìĪĺ ìĦ±
ìĬ¤ íı¬ì¸ł
Ġê²ĥ ìĿ¼
ëŀ ¬
ìŀ¬ ìłķ
ĠìķĬ ìľ¼ë©°
ĠìĦľ ëªħ
10 5
Ġìŀħ ê³ł
ì¦Ŀ ìĿĢ
ĠíļĮë¡ľ ë¥¼
Ġê³¨ ìłĪ
Ġê¸įìłķ ìłģ
Ġscore s
ì¹¼ ë¦¬
Ġnurs es
íķĦìļĶ íķľ
ëıĦì§Ģ ìĤ¬ëĬĶ
Ġtheore tical
ìĮ į
Ġsubscrip tion
9 2
om pl
íĸī ìĿ´
ëĭ¨ ë§Ĳ
Ġìĭł ë°ľ
ĠH ae
ĠìłĢ ê°Ĳ
ru its
Ġë§¤ ê°ģ
ĠíĮĮ ìŀ¥
Ġcar go
ë¡ł ìĿĢ
Ġëĭ¬ ëł¤
ĠìķĦëĭĪ ê³ł
Ġdifferent ial
íİĺ ëĿ¼
Ġsubject ive
Ġadm itted
Ġeng age
ĠìłĦíĨµ ìłģìĿ¸
Ġdecl ar
Ġs izes
ìĭľ ìĻĢ
ĠS ystem
ì²´ ê³Ħ
Ġë¶Ģ íĶ¼
Ġê°ĢëĬ¥ íķĺëıĦë¡Ŀ
Ġë¬¼ ê±´ìĿĦ
ë§ī ìĿ´
ĠíĻĶíķ© ë¬¼ìĿĺ
Ġê¸°ëĭ¤ ë¦¬
Ġmanufacture r
ĠíĻķìĭ¤ íŀĪ
h yeon
ĠìĿ´ ì°¨
ë¶Ģ ëıĻìĤ°
Ġì£¼ ìĿ¸ê³µ
ë¯¸ ë¥¼
ëĭ¹ êµŃìĿĢ
ëłĪ íĥĦ
ê·¼ ëį°
Ġë¶ĦìĦĿ íĸĪëĭ¤
Ġê¸°ì¤Ģ ìĹĲ
ĠíĬ¸ ëŀĻ
ĠìĪĺìĭł íķľ
Ġdown load
Ġì»¨ íħĮìĿ´ëĦĪ
Ġë´ī ìĤ¬
Ġalk al
Ġêµ´ ìłĪ
E n
T M
Ġpl us
Ġë¹Ħ ë§Į
og le
Ġinter act
íĳľ ì¤Ģ
Ġì¦Ŀ ìĹ¬
Ġë°©ë²ķ ìĿĺ
ĠíĻĶ ìĥģìĿĦ
Ġì¶ľ ë²Ķ
Ġê²°ê³¼ ìĻĢ
Ġë¬¸ìłľ ìłĲìĿĦ
ëĤ¨ ëıĦ
Ġëĭ´ ê¸´
Ġaff ord
ĠìĤ°ìĹħ íĺģ
Ġì½ ©
Ġperipher y
Ġcoord inate
Ġleak age
Ġdur ability
Ġneut ral
Ġrestric ted
Ġìłľ ê³ł
ĠI II
Ġì£¼ ìłľ
Ġë¶Ģ ìłģ
Ġnot ify
ĠM n
Ġìŀ¥ ë²½
ĠìĺĪ ì»¨ëĮĢ
Ġê³Ħ ë©´
Ġìŀĳ íĴĪìĿĦ
Ġëħ¸ ëł¥ìĿ´
11 4
Ġsal ary
Ġhelp ed
ĠëĤ® ì¶Ķ
Ġëĭ¹ìĭł ìĹĲê²Į
ĠìĿ´íķĺ ìĿ¸
Ġgen etic
Ġmathemat ical
Ġëŀ¨ íĶĦ
en za
ì§Ģ ìĿ¸
ìĦľ ìĹĲìĦľ
art ing
Ġch rom
Ġun n
Ġíı¬ ì°©
ĠH u
Ġë¬¸ íĹĮ
ëĶ ľ
ì¼ Ī
Ġíĸ¥ ìĥģìĿĦ
Ġì¤ĳêµŃ ìĿ´
Ġmult icultural
Ġíķ´ê²° íķł
Ġë°©ë¬¸ íķ´
Ġê·¼ê±° íķĺìĹ¬
ĠìĪĺìĪł ìĿĦ
ym ph
Ġd um
ur ry
Ġìĥģ íĻĺ
ê³µ ê³µ
Ġad verse
ìŀ¬ ìĥĿ
íĺ¸ ìĹĲ
íĴĪ ìĿ´
Ġìŀ¥ì¹ĺ ë¡ľ
ë²Ī ìĹĲ
Ġìĥģíĥľ ìĿĺ
ĠìĹħ ê³Ħ
ane ous
Ġmount ains
Ġland sc
Ġinit i
ĠëĴ· ë°Ľì¹¨
Ġp ork
ê³µ íķŃ
Ġë© ķìĭľì½Ķ
Ġìŀħ êµŃ
ì²Ń ìĿ´
Ġì¶ľ íĮĲ
Ġì¡´ ì¤ĳ
Ġë³´íĺ¸ ë¥¼
me asures
Ġê¸°ê³Ħ ìłģ
Ġinj ured
Ġarrest ed
Ġbranc hes
Ġfig ures
H z
g ers
Ġd il
Ġl iberal
ìĭľ íĸī
iv als
Ġë°ľ ìĨ¡
ĠìķĪ íĥĢ
Ġall ocation
Ġë¶ĦìĦĿ ìĹĲ
Ġìº Ķ
Ġê±¸ ë¦´
ĠìķĮëł¤ ì£¼ìĦ¸ìļĶ
ĠìĦľìļ¸ íĬ¹ë³Ħìĭľ
Ġëª¨ëį¸ ìĿĢ
ĠìķĬìķĺ ìĬµëĭĪëĭ¤
Thank s
Ġìĸ¸ê¸ī íķľ
Ġsufficient ly
Ġerr ors
ĠìĪĺ ìĽĲ
ìĭľ ë¡ľ
Ġst ain
Ġsh aped
ĠíĨµ ë³´
Ġen abling
ëĲĺìĹĪ ëįĺ
Ġhospital ized
Ġìłľê±° íķĺëĬĶ
Ġëĭ¨ìľĦ ë¡ľ
Ex per
Ġrefriger ator
Ġë¶Ħëªħ íŀĪ
íİĻíĬ¸ ëŁ¼
ìĿ´ ì£ł
Ġde put
Ġìĥģ ê³ł
ìĹ¬ ìĦ±
ĠìĿ¸ ìĬĲë¦°
âĢ ²
ĠìĨĮ ìĪĺ
Ġìĭ¤ ìłģ
ĠìĦ¸ ìĽĮ
ĠìļĶ ì¦ĺ
ret ion
ĠRe volution
Ġsequ entially
sequ ently
Ġpiv ot
Ġcomp act
Ġun re
Ġíķľ ê³Ħë¥¼
pl ay
ë¡Ŀ ìĭľ
ìķĺ ìĸ´ìļĶ
ri an
Ġatt ending
ĠìĥĿìĤ° íķĺëĬĶ
Ġê°ľìĦł ìĿĦ
Ġíļ¨ìľ¨ ìĿĦ
Ġfol k
a ired
en ess
ìĽĲ íķľ
ê¸ Ģë¡ľë²Į
Ġë¬ ¶
ĠR yu
Ġë§Ī ìĬ¤íĦ°
ĠìĺģìĹŃ ìĿ´
Ġíĺĳ ëł¥ìĿĦ
Ġê±¸ ìĸ´
ĠëĿ¼ ë²¨
ĠëĦ¤ ê°Ģ
Ġê³³ ìľ¼ë¡ľ
Ġë°©ìĭĿ ìĿĢ
Ġíķ¨ìľł íķĺê³ł
Ġbott le
Ġê°Ĳëıħ ìĿĢ
Ġë¯¼ì£¼ ì£¼ìĿĺ
Ġdistin ct
at ization
ĠìĪĺ ì§Ģë¥¼
Ġìłķ ìĪĺ
ìĹ° ë§¹
ĠíļĮ ìĤ¬ë¥¼
íĺĦ ìĭ¤
Ġê°ĸ ê²Į
ĠíĶĮ ë¡ľ
Ġsim ulation
ĠìĦľë¹ĦìĬ¤ ëĬĶ
ĠëĨį ì´Į
Ġì¡°ìĦ± ë¬¼ìĿĺ
ĠíıĲ ì§Ģ
Ġê³µê°Ħ ìĹĲ
Ġë§ī ê¸°
ĠAn d
ĠìľłëĭĽ ìĿĦ
ĠEn ergy
I R
S m
S outh
us ing
ë¶Ģ ëĭ´
ment ioned
ul ative
ìĥģ ëĭ´
ĠC al
ĠìľĦ ì´ī
ĠI f
ĠìĤ¬ìļ© ëĲĺê³ł
Ġìĸ´ íĶĮë¦¬ì¼ĢìĿ´ìħĺ
Ġmod ification
Ġdep ends
inc heon
Ġìĭ¶ ëĭ¤
Ġsubject ed
Ġident ifier
ĠìĬ¹ ê°Ŀ
ê·Ģ ìĤ¬ìĿĺ
ĠCon vention
Ġfill er
Ġbond ed
Ġpasseng er
ĠProt ection
Ġaccompan ied
C ìĿĺ
s pe
ìĭľ ë¶ĢíĦ°
ĠìŀĲ ìłĦê±°
ĠB yung
Ġìŀ¥ ê´Ģ
Ġsp ons
ĠìĦł ëĭ¨
ĠìłĢ íķ´
Ġhigh light
Ġë°ľìĥĿ ìĿĦ
Ġinf low
ĠìĤ¬ìĿ´ íĬ¸
ëĭ´ ëĭ¹
Ġê¸°ìĪł ìłģ
Ġì²ĺë¦¬ íķł
ĠëĤ´ìļ© ìĹĲ
Ġcontinu ing
Ġë°ĽìķĦ ëĵ¤ìĿ´
íĺģ ìĭł
ĠìķĬìķĦ ëıĦ
Ġcompl aints
Ġsuppress ing
Ġê¸°ì§Ģ êµŃ
ìĿ´ ë¯Ģë¡ľ
ĠìĿ´ íĭĢ
ìłģ ìĿ´ë©°
em por
Ġíı ¼
ĠìŀĲ ìĤ´
ì§Ħ ì§ľ
Ġê³ł ëĮĢ
Ġpre ference
ĠJ un
Ġj ump
Ġíĺķ ìĭĿ
Ġë°ĺ ë°ľ
Ġë¶Ī ìĪľ
ĠíĺĦ ìĥģìĿĦ
Ġì» ¸
ê²ł ëĦ¤ìļĶ
Ġval ley
Ġë°ķ ìĬ¤
Ġview ers
Ġê°ĲìĹ¼ ë³ĳ
Ġëªĩ ëªĩ
Ġhydro x
Ġê¸´ ìŀ¥
Ġsold iers
Ġupd ated
Ġë¯¸ë§Į ìĿĺ
Ġinevit ably
Ġmag az
ì Ń
ol id
ĠìłĦ ì²´ë¥¼
Ġun us
Ġun con
Ġcl imb
Ġë§Ī ìĦ¸ìļĶ
ĠêµĲ ìłķ
hod s
ë¦Ħ ìĿĦ
ëª© ìłģ
ĠíĻķìĿ¸ íķĺê¸°
ĠëĪĦ ê°Ģ
Ġê·¸ë£¹ ìĿĺ
Ġfavor able
Ġbul k
Ġtransl ation
ĠìłĢëł´ íķľ
Ġìĭ¤ìłķ ìĿ´ëĭ¤
A g
Ġt ap
Ġto ile
Ġth row
Ġê°Ģ ìĬ´
ìĹ¬ ìĦľ
ìĹħ ìĿ´
Ġê³µ ê¸°ë¥¼
Ġad oles
ĠN ort
Ġìĺģ êµ¬
Ġë§Ī ê°Ĳ
ĠCh un
Ġë¬¼ ê±´
Ġinvest ed
íļ¨ ìľ¨
ĠíĻľìļ© íķ´
Ġrepresent atives
Ġresid ence
ê·¸ëŀĺ ëıĦ
Ġbelie f
Ġcompress ed
n o
ì§Ģ ëıĦë¡Ŀ
ìĹ¬ ìķ¼
Ġì§Ģ ìĭĿìĿĦ
Ġëĭ¤ ë¥¼
ìĭł ê²½
íĸī ìĤ¬
ëŁ¬ ìĭľìķĦ
end icular
ìĦł ìĥĿ
ĠíĬ Ģ
ĠJ o
ì°¨ ëĬĶ
Ġìŀħ ìŀĲë¥¼
Ġê³Ħ ìĪĺ
ener y
Ġê°ķ íķĺê²Į
Ġposs ess
ĠìĨį ìĦ±
Ġê°ľë°ľ ìĿĦ
ĠíĸĪ ëĬĶëį°
ĠíĻĪ íİĺìĿ´ì§Ģ
Ġì±Ķ íĶ¼ìĸ¸
ĠìĭłìĨį íķĺê²Į
ĠBrazil ian
Ġw ages
Ġre nal
Ġint ensive
Ġê³ł ëĵ±íķĻêµĲ
Ġ4 20
ëĬ¥ ëł¥
Ġ9 00
Ġìĭ¤ìĭľ íķľ
Ġê²°ìłķ ëĲł
other apy
ug g
Ġimm ig
íıŃ ìĭľ
Ġpan els
Ġwel come
ìĭľì¼ °
Ġíķľë°ĺ ëıĦ
Ġslee ve
a fter
i pp
in ar
ëĭ ·
ro oms
ìĸ´ ë¦°
Ġê¸° ìĿ¸
ĠìĨĮ ìĭĿìĿĦ
Ġíķ´ ì£¼
ìĸĳ ìĿĦ
ĠìĦ¸ íĬ¸ë¥¼
20 17
Ġ7 8
ì²ĺ ê°Ģ
Ġneed le
oci ety
êµĲìľ¡ ìĿĺ
Ġê³łìłķ ëĲľ
Ġdemand s
Ġevalu ating
Ġê·¸ëŀĺ íĶĦ
ĠìĬ¤íĥĢ ìĿ¼
Ġíĭ° ì¼ĵ
oe lectric
Ġtow er
Ġcreat ivity
Ġpanc reat
ĠCount y
+ )
Ġd ies
ĠìĪĺ ì¶ķ
ìĨĮ íķľ
ĠD R
ĠëıĻ ëĤ¨
ĠìļĶ ìķ½
ĠìĿĮ ê·¹
Ġsepar ating
Ġì±ħ ìĿĦ
Ġë°©ìĭĿ ìĹĲ
Ġharm ful
Ġìµľìłģ ìĿĺ
Ġperp endicular
A L
c ut
Ġm ur
ìĭľ íĭ°
ĠìĦ ŀ
ìĤ¬ ì§Ħ
od ium
Ġë§Ĳ íķł
Ġunder w
Ġê²°ìłķ íķĺê¸°
íİ¸ ìĿĦ
ĠìĿ´ë£¨ ëĬĶ
Ġpar liament
Ġbank rupt
ĠìĻľ ê³¡
ĠConf uc
Ġexempl ary
ĠìĪĺ ëıĻ
ĠëĤ ¼
Ġê³µ ìĿµ
ĠìķĦ ëĬĶ
Ġê³ł ìľĦ
ëłĪ íķĢ
ber cul
Ġíĺķ ìĥģìĿĺ
Ġìłľê³µ ëĲľ
íĽĦ êµ°
Ġì§Ħíĸī ëĲľëĭ¤
ëĲĲ ê³ł
ĠìĪĺíĸī íķĺê¸°
Ġìĭľìŀĳ ëĲľ
Ġë§Ľ ìĿĦ
Ġobs erv
ĠìĻĶ ìĬµëĭĪëĭ¤
Ġë¬´ë£Į ë¡ľ
Ġapolog ize
Ġempt y
Ġdeput y
ìĺ µ
íĦ° ì¹ĺ
ĠP olicy
ìľĦ ê¸°
ê¹ Ķ
íĸ¥ íĽĦ
ĠìļĶ ê¸Ī
Ġì°¨ ë¥¼
Ġíķ¨ ìĪĺ
ĠíķľêµŃ ê³¼
Ġìłľìĸ´ ë¥¼
Ġê¸°ìĹħ ìĿĢ
Ġhelp ing
Ġë¸Ķ ë£¨
Ġìłľìĭľ íķĺê³ł
Ġvert ically
ĠëĤĺëĪ ł
ĠëĵľëĿ¼ìĿ´ ë²Ħ
m i
ar ity
ëĵ¤ ìĿ´ëĭ¤
ĠìłĦ íĺķ
ĠA hn
ëĵľ ëŁ¬
Ġun expected
Ġëª¨ ëħ¸
Ġ4 50
Ġìĭł íĥģ
ĠìĹ´ ê³ł
Ġì¹ĺ ë§¤
ë¡ł ìĿĺ
Ġev ac
ĠëıĮ ëł¤
Ġsk y
Ġë³´ëĤ´ ì£¼
ĠíĺĪ ì²Ń
Ġìĸµìłľ íķł
ĠìĬ¤íĥĢ íĬ¸
Ġtransmit ter
Ġfacilit ate
ureth ane
T T
c in
ore sc
Ġsu icide
ĠìľĦ ìĹĲìĦľ
Ġê²½ ë§¤
Ġëĭ¤ ë¬¸íĻĶ
ìĥĿ ìĿĦ
Ġk im
Ġcons ensus
Ġë°©ë²ķ ìĿ´ëĭ¤
ĠëĶĶ ì½ĶëĶ©
Ġ19 60
Ġdec oding
Ġdisc over
Ġìłľì¡° ëĲľ
Ġsl ope
ĠëĤł ìĶ¨
Ġeffic acy
ĠìĶ¨ ê°Ģ
Ġëľ» ìĿĦ
Ġseem ed
ĠìĬĪ íį¼
Ġë¶Ģëĵľ ëŁ½
Ġretr ie
n es
Ġa thlet
Ġw ins
ar a
ìŀ¥ ìĹĲìĦľëĬĶ
ë³´ ëĵľ
ë³´ ìĦ¸ìļĶ
Ġì£¼ ìĹĲ
ĠK won
Ġë¬´ ìĭľ
ĠìĻĢ ìĦľ
ĠìŀĲìĦ¸ íķľ
ĠìĬ¤ì¼Ģ ì¤Ħ
Î ±
íķ´ ì§Ģê³ł
Ġv ital
ĠS ub
Ġì£¼ ìĸ´ì§Ħ
ë£Į ëĬĶ
ĠE L
ìĺ¤ ëĵľ
ric ts
Ġê°ķ ìĿĺ
ail and
íĮĲ ìĹĲ
ĠíĮ¨ ìĬ¤
Ġimpro ves
Ġdesign s
Ġoccur ring
íĮ¨ ëĦĲ
ĠìĹ°ëĿ½ ìĿĦ
Ġê²¬ íķ´
Ġenjoy ed
ì§Ģê¸Ī ê¹Įì§Ģ
Ġcommunic ations
ĠëıĦìĻĢ ëĵľë¦´
ë©Ķëª¨ ë¦¬
F i
i able
z er
Â ±
Ġs ick
Ġëĭ Ń
ĠìłĦ ëħĦ
ĠA nt
Ġle ather
Ġíķĺ ëıĦë¡Ŀ
ëĭ¨ ì§Ģ
ang ular
ĠG a
Ġëĭ¨ ìĸ´
ĠH ee
Ġìĸ´ ê¹¨
Ġta il
Ġqu ot
ĠW oo
Ġmem ories
ĠìĥĿìĦ± íķĺê¸°
Ġsee king
ĠíħĮ ë§Ī
Ġgrad es
Ġaccept ance
ĠìľłìĿĺ íķĺê²Į
Ġtub ular
Ġfast ening
IC A
More over
Ġc ured
Ġl osing
Ġì¤ĳ ë³µ
Ġìľł ë¬´
ìĭł ìļ©
ìĦ¸ ë²ķ
In st
Ġfl ange
ĠìĹŃ ëŁīìĿĦ
Ġìĺ¬ ë¦¼íĶ½
Ġìłľì¡° ë°©ë²ķ
Ġshe ets
ĠìĤ¬ê³ł ê°Ģ
Ġarm y
Ġê¶Įíķľ ìĿĦ
Ġì»¤íĶĮ ë§ģ
Ġrelig ious
Ġm ild
ë¬ µ
Ġì£¼ ìĭł
ĠìĿ¸ ë¬¼
ĠìĿ¸ ëį±
ĠP M
Ġìŀħ ì£¼
Ġë³µ ìĤ¬
Ġëĵ¤ ìĹĪìĬµëĭĪëĭ¤
Ġfeel ings
ĠëıĦìĭľ ëĲľ
Ġì§Īë¬¸ ìĹĲ
Ġimpl ant
met ics
Ġkid s
Ġdeterior ation
Ġderiv atives
Ġciv ic
K O
ic ing
ĠìĪĺ ë°ĺ
id o
Ġê·¸ ê²Į
Ġsp icy
ĠG ames
Ġë¶Ħ ê¸°
Th ose
ĠW i
Ġë¬¼ ë¥ĺ
Ġìĸĳ ìª½
Ġë¬¸íĻĶ ìłģ
Ġexam ining
ĠìŀĳìĹħ ìĿ´
Ġìĵ° ëĬĶ
ìłĦë¬¸ ê°Ģ
fl u
ĠìĦłíĸī ìĹ°êµ¬
Ġfurn iture
ĠíĮ¨íĤ¤ ì§Ģ
ĠìĿ´ëģĮ ìĸ´
Ġstead ily
Ġì»¤ë®¤ëĭĪ íĭ°
ħ íĭ±
Ġb ent
ê°Ģ ë£¨
ch on
Ġìĭľ ìŀ¥ìĿĢ
Ġë³´ ëĤ¼
It s
ĠìĤ¬ìļ© íķĺë©´
Ġì§Ħíĸī íķĺê³ł
ëıħ ìĿ¼
Ġìº ĺë¦¬
Ġevery day
ĠíĶĦë¡ľê·¸ëŀ¨ ìĿĺ
Ġanalyz es
Ġëĭ¹ìĭł ìĿĦ
Ġturn s
Ġê·¼ê±° ë¡ľ
Ġdepos ited
ĠBl ue
ĠYou T
Ġreject ed
Ye ah
Ġcrypt ocur
Ġneglig ence
Ġf est
Ġm elt
ĠìĿ´ ë¥´ëĬĶ
ge l
Ġìĥģ íĸ¥
ìķĦ ëŀĺ
ĠP an
Ġad vice
ĠìĦ¸ ë¬´
íĥľ ë¥¼
Ġê°ĢëĬ¥ ìĦ±ëıĦ
Ġfe as
ìłĪ íķľ
Ġgr id
Ġdispl ace
Ġgu ests
Ġë¦¬ ê·¸
Ġmat ches
Ġì¦Ŀê°Ģ íķľ
Ġexpress ing
Ġë²ĶìľĦ ìĹĲ
ĠìĿ´ë¥¸ ë°Ķ
Ġarom atic
Ġvalu able
ĠìĨĲíķ´ë°° ìĥģ
K B
R ather
ë¦¬ ìĹĲìĦľ
ĠìĿ´ ìŀĲ
ĠM o
Ġë°° ëĭ¹
Ġê³Ħ ì¸¡
ë¸ Ĳ
Ġëĭ¹ êµŃìĿĢ
ĠíķĺëĬĶ ì§Ģ
Ġìĭłíĺ¸ ëĬĶ
ĠìĥĿê°ģ íķĺëĬĶ
ĠíķĻë¶Ģëª¨ ëĭĺ
ĠInf rastructure
T F
l ife
y cl
z ing
Ġg if
ìĨĮ íĨµ
Ġê·¸ ëķĮ
Ġch osen
Ġìłģ ì§Ģ
ĠE lementary
ĠL A
ìĺ¤ ìĬ¤
Ġcomm itted
Ġê°ģ ëıĦ
Ġall erg
Ġì» µ
ìĥī ìĿĦ
íħĮ ë¥´
Ġimport ed
ì¶Ķ ìĹĲìĿ´íĦ°
Ġìłģìļ© íķĺëĬĶ
Ġíıīê°Ģ íĸĪëĭ¤
Ġê°ľë°ľ ìĹĲ
Ġown ed
ĠíıĲ ëł´
ĠìļĶìĨĮ ëĬĶ
ĠìŀĪìľ¼ ìĭľë©´
Ġwithdraw al
Ġreinfor cing
e or
Ġc asing
Ġf ault
Ġêµ ³
Ġex terior
Ġë°Ľ ëĬĶëĭ¤
ris on
ĠëĤĺíĥĢ ëĤł
Ġìķ½ ìłľ
Ġrem ained
ëª© ìĿ´
Ġë¦¬ ëĵľ
Ġì§Ħíĸī ëĲĺëĬĶ
Ġìŀħëł¥ ëĲľ
Ġopp osing
Ġê°ľìĿ¸ ìłķë³´
Ġìĭľíĸī ëł¹
Ġbelie ves
Ġemploy ed
ìĻľ ëĥĲíķĺë©´
Ġantib ody
Ġvolunt ary
O ver
S ub
r um
s on
ì į
ëĬ ¬
Ġw estern
as an
ë¦ ĩ
ĠS ocial
ĠI V
Ġdis k
ìĺĢ ìĬµëĭĪëĭ¤
Ġ7 6
ĠíĻķìĿ¸ íķĺëĬĶ
Ġtax p
Ġent reprene
ĠìĤ¬ìĹħ ìĿ´
Ġprom pt
ĠìĨ¡ ìĪĺìĭł
Ġê³łëł¤ íķľ
Ġìħ Ķ
ier ce
Ġconver ting
ìĺ¤ëĬĺ ìĿĢ
Ġìļ°ë¦¬ëĤĺëĿ¼ ìĿĺ
Ġìµľì´Ī ìĿĺ
ë´Ĳ ìķ¼
c an
d ae
Ġs ort
Ġc um
Ġbe ach
Ġê°Ģ ë©´
ĠK OS
ĠM ong
oun ding
ĠíļĮ ìŀ¥
ĠíķĦ ëĵľ
Ġë°ĺ ê²½
Ġëħ¸ íĬ¸
ê´ĳ ìĿĦ
Ġê²Į ìŀĦìĿĦ
Ġart istic
Ġìŀħëł¥ ìĹĲ
Ġsl ot
Ġconstit uting
Ġpow ers
êµ¬ì²Ń ìŀ¥
Ġìĸ´ëĶĶ ìĦľ
Ġë³´ìĹ¬ì£¼ ìĹĪëĭ¤
Ġvolunte er
Ġswim ming
Cha irman
bercul osis
e ared
Ġc as
or ph
ê³ł ìļ©
ĠìĪĺ ë©´
em ark
Ġì£¼ ìĸ´
íĹ ¨
Ġê±° ì£ł
Ġë¶Ī ê·ł
ĠW HO
ĠíĻĶ ë©´ìĿĦ
Ġ15 1
Ġëħ¼ ìĿĺë¥¼
ĠìĤ¬ìĹħ ìĿĺ
ĠìļĶêµ¬ ëĲĺëĬĶ
Ġstrong er
Ġê¸°ë³¸ ìłģìľ¼ë¡ľ
Ġinflu enced
Ġce ment
Ġcircum ferential
ĠìłĦíķ´ ì¡Įëĭ¤
ĠëªħíĻķ íŀĪ
i ot
Ġë¶Ģ ëĭ¹
ìĭł ì¢ħ
Ġrec overed
Ġìĭľê°Ħ ê³¼
ìĤ¬ìĹħ ìĿĦ
Ġìķħ ìĦ±
Ġsmart phones
Ġkid ney
ĠìºĲë¦Ń íĦ°
i os
m ers
Ġe ase
et te
Ġpro be
Ġìłľ ìķĪìĿĦ
ìĤ¬ ìĿ¸
ìłĦ íķľ
um ed
ĠìŀĲ ê¸ĪìĿĦ
Ġëĭ¨ ëĭ¨
ĠìĦ± ê²©ìĿĦ
Ġsub paragraph
íĮĲ ìĿ´
ĠíķĦìļĶ ìĦ±ìĿĦ
ë°Ķ ëŀĮ
Ġíĸī ëł¬
Ġë©Ķ ìĿ¼
Ġvis c
Ġleg s
Ġíıīê°Ģ íķĺëĬĶ
ëģ Ŀ
Ġdem ocratic
Ġíģ´ ëŁ¬ìĬ¤
Ġrad ical
Ġìĭ¤ì§Ī ìłģìĿ¸
Ġship s
Ġine quality
Ġconvey ing
Ġincl ined
Ġadapt ation
b ur
ur ies
ìĹĲìĦľ ë§Į
ë³´ ì¡°
Ġíķĺ ê²łëĭ¤
ĠìķĦ ëĭĲ
ĠëıĦ ê¸Ī
ĠBBB ê°Ģ
Ġdef e
Ġcirc uits
Ġëĭ´ ìĿĢ
Ġìĥī ìĥģ
ĠBudd ha
Ġinflamm ation
Ġê³¼ëıĦ íķľ
Ġwed ding
Ġkim chi
P h
T B
Ġ ~
on t
Ġs ister
ìŀĲ ëıĦ
Ġë§¤ ëł¥
Ġìĸĳ ìĿĦ
ne ung
ĠìĦ¤ëªħ ìĿ´ëĭ¤
Ġê³¼ìłķ ìĿĢ
Ġissu ance
Ġì¡°ì§ģ ìĿĺ
g eneration
Ġf riction
Ġre aching
ê°Ģ ìĥģ
íķ´ ìĻĶëĭ¤
ĠS W
ĠS ociety
ìĪĺ ìļĶ
Ġë³´ ìĦ¸ìļĶ
Ġvar ies
Ġìĥ Į
Ġcount y
ĠìĦ¸ê³Ħ ìĹĲìĦľ
Ġìłķì±ħ ìĿ´
ë°Ģ íķľ
Ġ199 7
Ġelig ible
f ast
ĠëĤ ³
Ġê°Ģ íķ´
ìŀ¥ ì¹ĺëĬĶ
ìłľ ì¡°
íĥ Ĳ
Ġìłģ ìłķ
ĠìĹĨ ì§Ģë§Į
ĠìłĢ ì§Ģ
Ġte lecommun
Ġ10 5
Ġë§¤ ìŀħ
ĠëĨĴ ìĿ´ê³ł
Ġê°ĻìĿĢ ëį°
Ġtar iff
Ġsw ing
ĠëĶĶë°ĶìĿ´ìĬ¤ ìĹĲ
At t
ĠìĿ´ë²Ī ìĹĲ
Ġë¶ģíķľ ìĿ´
ĠìĨĮê°ľ íķ´
ĠìłĪìĹ° ë§ī
Ġlat ter
Ġassess ed
Ġdev iation
Ġdisput es
Ġdepart ments
ic ious
ëĵ Ģ
Ġwh om
ant ic
Ġres erve
íķĺê¸° ê°Ģ
Ġë¶ĦìĦĿ íķĺìĹ¬
Ġì§Ī ìĿĺ
Ġìļ°ë¦¬ ìĹĲê²Į
Ġê¸°ìĹħ ìĹĲ
ĠìĿ´ë£¨ ê³ł
Ġì¤Ģë¹Ħ ê°Ģ
Ġ199 9
Ġsent enced
ĠíĮĮìķħ íķł
ĠAg reement
Ġclin ic
Ġep oxy
des cribed
ìĸ´ëĸ »ê²Į
Ġdrink s
Ġë²łìĿ´ ì§ķ
ĠMex ico
) :
C V
st yle
ĠS um
ĠëıĻ ìĭľ
ĠìĽĲ íĺķ
Ġìŀ¬ íĺĦ
Ġëį°ìĿ´íĦ° ìĻĢ
Ġì¢ħ ìĨį
ë¦¼ ìĿĦ
ë¶ģ ëıĦ
ĠìķĬëĬĶ ëĭ¤ê³ł
Ġë¯¼ ë²ķ
Ġrecogn izing
ĠíĸĪëĭ¤ ê³ł
Ġê³łê°Ŀ ìĹĲê²Į
Ġste ering
ì±Ħ ë¬´
Ġz ones
Ġì°¨ì§Ģ íķĺê³ł
Ġprosec utor
ĠíĬ¸ëŀľ ìĬ¤
ĠCent ers
íĶĮë£¨ ìĹĶ
Ġcolon ial
Ġh ook
Ġìĭ «
ĠëĮĢ ë§Į
ëĲĺ ê¸°ëıĦ
ìłĦ íĨµ
ëĵľ ëł¤
ìĤ° ìĹĲ
ĠìĨĮ ê·ľëª¨
ĠìĬ¤ íİĻíĬ¸ëŁ¼
Ġdet ach
ì´ ¬
ĠìłĲ ì°©
ë¸Į ëĿ¼ì§Ī
Ġdist ricts
Ġê¸°ìĹħ ëĵ¤ìĿ´
Ġlower ing
Ġannoun ce
Ġemphas izes
ĠìĥĺíĶĮ ìĿĦ
Ġcy cl
ĠëĿ¼ìĿ´ ë¸Į
Ġíı´ë¦¬ìĹĲ ìĬ¤íħĮë¥´
ĠIndones ia
% ),
Ġc oding
ĠìĿ´ ìĤ¬íļĮ
ìłķ ê³¼
Ġìĭľ ê·¸
igh ter
ĠB ar
ĠG al
Ġê±° ë¦¬ê°Ģ
Ġsign ature
Ġoper ational
Ġref ere
Ġfr anch
Ġíĺ¼ ëŀĢ
ĠCo operation
Ġë¹Ħì¤ĳ ìĿĦ
ì¢ĭ ìķĦìļĶ
Ġìĭ± ê°Ģíı¬ë¥´
F P
Ġc rop
íķĺ ìĹĲìĦľ
ig ue
Ġor th
Ġse af
Ġal le
êµ¬ ë§¤
ĠìĿ¼ íĻĺ
ĠêµŃ íļĮìĿĺ
Ġê°ķ ëıĦë¥¼
Ġind ication
Ġë©Ķ ìĿ¼ìĿĦ
ĠìĤ¬ëŀĮ ìĹĲê²Į
Ġcr aft
Ġ199 5
Ġassist ant
Ġë§ĲìĶĢ íķ´
ê°ĲìĤ¬ íķ©ëĭĪëĭ¤
Ġclust er
Ġtourn ament
Ġunn ecess
Ġb und
as is
ent y
ìĸ´ ëĬĲ
ìĬ¤ íĮħ
ë³´ ê°Ģ
Ġíı¬ ì§Ģ
ë£Į ìĿĺ
Ġ7 3
Ġatt aching
ê» ĳ
Ġì´Ī ë°ĺ
ĠìłĢìŀ¥ íķĺëĬĶ
ov iet
aps ed
Ġë¶Ģìłķ ìłģ
ĠìĿ´ê²ĥ ìĿ´
ĠìĿ´ëģ ĦëĬĶ
Ġcast ing
Ġbow l
r ants
t d
ìľ Ī
Ġìķ ¨
ë¦¬ ìĬ¤íĬ¸
ĠìĿ´ ëŀĺ
ĠìĿ´ ëĵĿ
us an
ë§ ·
Ġë¹Ħ ê°Ģ
ĠëĤĺ ê°Ī
Ġwe alth
ĠëıĦ ì¿Ħ
Ġíķ© ë¥ĺ
Ġcap ability
ìĬ¹ ìĿĦ
ĠëıĻìĿ¼ íķĺê²Į
Ġdecre asing
Ġinit ially
ĠìĦĿ íĥĦ
ĠSuper visory
E s
ê¸° ìĹĲëĬĶ
ìĬ¤ ìĹĲìĦľ
ìŀħ ëł¥
Ġk g
red it
ĠíĶĦë¡ľ ê·¸ëŀĺ
ĠBBB ëĬĶ
ĠíĮ¨ ìħĺ
ĠìĦłíĥĿ íķľ
Ġë³ĳ ìĽĲìĹĲìĦľ
Ġvari ation
Ġconfig ur
Ġê·¸ëŀĺ ìĦľ
ĠDo osan
ĠìķĦë¬´ ëŁ°
Ġadvertise ments
dom inal
Ġreserv oir
Ġinquir y
Ġmicroph one
z one
ĠìĪĺ ë¦¬
ë¦¬ ë©°
Ġg el
ĠìĤ¬ ê¸°
Ġì§Ģ ìĥģ
ëĮĢ êµ¬
ëį ľ
Ġnot ified
ĠD ivision
lud ing
íĺķ ìĦ±
ëłĪ ìĺ¤
Ġsc enery
Ġ11 3
ĠìĹĲ ì§Ģ
ĠìĹ°ê²° ëĲĺê³ł
Ġì¸¡ìłķ ëĲľ
Ġreflect ive
Ġë§ī ìĿĦ
ott on
Ġexperi encing
Ġrul ed
Ġìª½ ìľ¼ë¡ľ
Ġrenew able
Ġcush ion
8 5
Ġ vers
ìĿ´ ê±°ëĤĺ
ìĦľ íĬ¸
ìĬ¤ ì¹´
Ġus ual
ĠG PS
Ġ20 21
Ġpr ime
Ġê±° ë¦¬ìĹĲ
ë§Ī íģ¬
Ġam id
Ġê³¼ ìłľë¥¼
ĠëĨĴ ìĿĦìĪĺë¡Ŀ
Ġì±Ħ ìĽĮ
Ġêµ¬ì¡° ë¡ľ
Ġêµ¬ì¡° ì²´
Ġì²ĺë¦¬ ë¶Ģ
Ġíĳľìĭľ ëĲľ
Ġìļ´ìĺģ ìĹĲ
Ġì°½ ì¡°
Ġmembers hip
Ġtop ics
omet ers
Ġmot ivation
ì±Ħ ê¶Į
Ġlist ening
Ġíŀĺ ìĿ´
ĠìĬ¤íĬ¸ ë¦¬
ĠíĬ¹ë³Ħ íŀĪ
Ġì§Ģìłģ ìĿ´
ĠìĶ¨ ëĬĶ
Ġë©Ģ ë¦¬
ĠNon party
Ġsucceed ed
f all
il m
ìĿ¸ ì²ľ
ìĪĺ ìŀħ
íĻĶ ëĲĺìĸ´
ĠI L
Ġìĭľ ë¦¬ì¦Ī
ëħ ¹
Ġíķĺ ìĭľ
ë¬¸ ìłľ
Ġíı¬ ëıĦ
lect ed
íķĺê¸° ëĬĶ
ìĿĮ ê³¼
Ġë¬´ ëĮĢ
Ġëªħ ìĺĪ
Ġë¬¸ìłľ ìĿĺ
ĠíĻķìĿ¸ ëĲĲëĭ¤
ĠêµĲìľ¡ ìĿ´
Ġprot est
Ġfound ed
íĺĳ ìķ½
ĠíĶĦë¡ľê·¸ëŀ¨ ìĿĢ
Ġê¸°ëĮĢ íķĺê³ł
Ġê¸°ë³¸ ìłģìĿ¸
Ġbox es
Ġexpert ise
section al
Ġìĭľë®¬ ëłĪìĿ´ìħĺ
Ġde formation
Ġê¸° ëĳ¥
Ġì£¼ ìĨĮ
ĠìķĦ ìī¬
ëĤ´ ìĿĺ
ass ador
ĠíĺķìĦ± íķĺê¸°
Ġì¶ľëł¥ íķĺëĬĶ
cent ered
Ġì²ł ëıĦ
ĠíĻĪ íİĺìĿ´
ĠìķłíĶĮë¦¬ì¼ĢìĿ´ìħĺ ìĿĦ
Ġprec urs
Ġrein forcement
Ġchip s
Ġneighbor hood
Ġbrief ing
Ġsac r
dep th
) âĢĻ
l u
an a
íķ´ ìĺ¨
ur i
Ġg ases
ìłĦ ìĭľ
ĠìķĦ ë¯¸ëħ¸
ĠëĤĺ ìĿĺ
Ġê³ł ì°°
Ġíķ´ ìķĪ
Ġì¹ Ń
ëŁī ê³¼
Ġup ward
Ġì§Ħíĸī ëĲł
Ġì§ĢìĽĲ ìĿ´
Ġexpl os
Ġhy gi
ëĥĲ ëĬĶ
ìķĦëĭĪ ìļĶ
Ġíľ´ëĮĢ ìļ©
Ġvacc ination
ĠìĬ¬ëĿ¼ìĿ´ ëĵľ
Ġfro zen
Ġdeclar ation
. -
7 6
i en
Ġp pm
ê³ł ìĨį
ìĸ Ģ
ëĵ¤ ìĸ´
ĠìłĦ ìłľ
ĠìĨĮ ê²°
ĠìĥĿ ê²¼
ĠE qu
ìĦĿ ìĿĺ
Ġwork place
Ġëĭ¬ íķĺëĬĶ
êµ° ê³¼
ìĸµ ìĽĲìĿĦ
ĠíĨł íģ¬
Ġes ter
Ġcred itor
ĠìĦ±ê³µ ìłģìľ¼ë¡ľ
Ġenh ancing
Ġrespond ents
Ġcos m
m yeong
n s
s un
Ġë Ĥ¬
it ness
ur b
Ġtr i
Ġê³ł íĨµ
ì¶ľ ìĿĦ
Ġë¯¸ ëģĦ
20 2
Ġë°ľìĥĿ íķĺê³ł
Ġexpl ore
Ġìĵ° ê³ł
Ġbi ometric
Ġìĺ¤ë¥¸ ìª½
ìĭ¤ìĭľ ìĺĪ
Ġstro ke
Ġembed ded
Ġa per
Ġf ruits
ĠA D
ĠI S
ë§Į ì¡±
ê·¸ ëķĮ
ĠH am
ĠH ye
ĠìĬ¤ íİĺìĿ¸
Ġìĺ¤ ëŀ«ëıĻìķĪ
Ġë¬´ ëĦĪ
ĠëĲĺ ëĤĺìļĶ
Ġêµ¬ìĦ± ëĲĺë©°
ĠíĿ °
ë³µ ìĭ¤
Ġpur sue
ë°° ìĨ¡
Ġfil t
Ġíĥľ ëıĦë¥¼
Ġì§ģìłĳ ìłģìľ¼ë¡ľ
Ġcontrib uted
ĠìĤ¬ë¬´ ì´Ŀ
ĠëĪĦêµ¬ ëĤĺ
ëŃ Ĳ
N ever
p yeong
Ġì ¥Ĳ
Ġf ierce
ìłĦ íĻĶ
Ġê²½ ëĤ¨
ĠK akao
ê·¸ ëĦ¤
ëĭĪ ìĸ´
ĠíļĮ ìŀ¥ìĿ´
ĠìĦ± ìłģ
Ġê°ĢëĬ¥ íķĺê³ł
itt ance
Ġë¹ µ
ĠY u
ì½Ķ ëĵľ
Ġapplic able
Ġìĭľìŀĳ ìľ¼ë¡ľ
Ġëıħ ìŀĲ
Ġexpl aining
Ġel ast
land s
ìĥ ¤
ĠìĨĮê°ľ íķĺëł¤ê³ł
ìĿĢíĸī ìĿ´
Do es
Ġrespond ed
Ġoffic ers
Ġìŀĺëª» ëĲľ
Ġhar vest
roll ed
Ġê¸°ìģ ©ëĭĪëĭ¤
ĠAc ad
N H
f ield
ëĭ¤ ëĭĪ
ìľ¼ ëĭĪê¹Į
Ġn ick
et ing
ìĤ¬ íļĮìĿĺ
Ġê³µ ìłģ
ĠìĿĺ ìĭĿ
ĠëĤĺ ì¤ĳìĹĲ
ĠíĨµ ì¦Ŀ
ĠìķĬ ëĭ¤ëĬĶ
ĠëķĮ ëıĦ
ĠìĦ¸ ê¸Ī
20 20
ĠëĲĺ ë©°
Ġê¸Ī ìķ¡ìĿĦ
Ġbr ush
ĠíĻķìĿ¸ ëĲľ
ĠíķŃ ì²´
ĠíĴ ĢìĿ´
Ġcondition er
ĠìĦ¤ì¹ĺ íķĺê³ł
ĠíĹĪ ë¸Į
Ġê±´ê°ķ ìĹĲ
Ġíĭ Ī
ĠëĨĴìķĦ ì§Ģê³ł
Ġguarant ees
ĠìĿ´ë²¤ íĬ¸ë¥¼
Ġpit ch
Ġfriend ly
ĠìĪľì°¨ ìłģìľ¼ë¡ľ
Ġhypothes is
t ally
Ġpro ve
Ġal leg
ĠF ig
ë°© ì§Ģ
ìĹ° íŀĪ
Ġro yal
Ġëį° ìĹĲ
Ġë§Į ëĤľ
Ġ8 2
ì§ĳ ìĿĦ
ĠComm ercial
Ġìĸ» ê³ł
ĠìķĪìłķ ìłģìľ¼ë¡ľ
Ġê¸°ëĭ¤ ë¦¬ê³ł
Ġëª¨ìĸĳ ìĿĺ
ĠíĻĶìŀ¥ íĴĪ
Ġmanip ulation
ìī½ ê²Į
Ġ =
Ġd op
Ġg ains
ut ors
ê¸ ĭ
and on
Ġìĭ¤ íļ¨
ĠìĽĲ ì²ľ
ĠìŀĪìĸ´ ìĦľëĬĶ
Ġì¢ĭ ìķĦìļĶ
ĠìĨį ëıĦë¡ľ
Ġ13 2
Ġì¤ĳìļĶ ìĦ±ìĿĦ
Ġì°¸ìĹ¬ ë¥¼
ĠìļĶêµ¬ ëĲľëĭ¤
Ġinflu enza
Ġpneum onia
ĠìĻ¼ ìª½
V R
Ġd erm
Ġfor get
us hing
ĠìłĦ ìĹŃ
ì£¼ ìĻĢ
ì£¼ íĸī
íļĮ ìĻĢ
ë¯¸ ëĤĺ
ĠìĦľ ìĭĿ
Ġë°° ìĪĺ
ĠíĽĦ ìĽĲ
uc heon
Ġatt itudes
Ġìłľìĸ´ íķľëĭ¤
ëĦĪ ëĬĶ
Ġev apor
Ġì±Ħ ì·¨
ĠìĿ´ë¯¸ ì§ĢìĿĺ
Ġopp on
ìĭľê°Ħ ìĿĦ
Ġìłķì±ħ ìĹĲ
ins eng
ĠíĻľìĦ± íĻĶë¥¼
ĠTh ailand
Ġsilic one
Ġesc ape
Ġderiv ative
Ġinfringe ment
Ġp ie
Ġfor t
ìŀ¥ ì¹ĺë¥¼
ë¹Ħ ë¡ľ
Ġab st
ĠF ace
ê¸ī ìĹ¬
Ġdiff er
ĠëĤĺíĥĢ ëĤ¼
Ġindu ce
Ġadd itive
Ġë³ĳ ìĽĲìĹĲ
Ġê¸¸ ìĿ´ë¥¼
Ġê¸°ëĮĢ íķľëĭ¤
ĠìĬ¬ ë¦¬ë¸Į
ĠìĿĺë£Į ê¸°ê´Ģ
ĠìķĬìķĺ ì§Ģë§Į
Ġexecut ing
Ġremark s
Ġshoot ing
ĠìĬ¤íĥ ł
Ġm ent
Ġìŀ¥ ëĤľ
ous ing
ìľł ìĹĶ
Ġê¸ ĢìĿĦ
Ġë¬¸ íķĻ
ĠìķĪ ìĭ¬
20 1
Ġpos itively
ëĦ¤ ê°Ģ
ëĲĺìĹĪëĭ¤ ê³ł
ĠìłĢíĿ¬ ìĹĲê²Į
Ġeng agement
Ġë°ĺìĿĳ ìĿ´
Ġautom obile
nov ation
Ġìŀ¥ì°© ëĲľ
ëĵľë¦´ ê²ĮìļĶ
Ġcy ber
Ġcos metics
Ġmac ro
ĠìĭľëĤĺ ë¦¬ìĺ¤
R C
Ġ íķĺìĹ¬ìķ¼
om ach
Ġpro duces
am ide
ĠëĮĢ ë¦½
Ġde form
Ġha ptic
Ġch art
ê·¸ ëĥ¥
ĠìĿ¼ ìĸ´ëĤľ
ĠëĤ´ ê³ł
ĠF ire
Ġë°° íĸ¥
ì°¨ ìĹĲ
Ġë© ľ
Ġê³Ħ ê¸°ë¡ľ
Ġunder lying
Ġì¢ĭ ê²łìĬµëĭĪëĭ¤
ĠìľĦì¹ĺ ìĻĢ
ëª© ìĿĺ
Ġìĭ¬ ë¦¬ìłģ
ĠëĮĢíĳľ ê°Ģ
Ġê¸°ë°ĺ ìĿĦ
Ġê³³ ìĿĢ
Ġëª¨ëĵĪ ìĿĢ
íĨ ¨
Ġill ness
íĹĪ ê°Ģ
ĠìĽĢì§ģ ìŀĦìĿĦ
Ġnit r
Ġdivers ity
Ġinflamm atory
t em
Ġb oss
ê³ł ìĹĲ
ê¸° ê³Ħ
Ġê°Ģ ê³Ħ
Ġse iz
ĠB an
âĢ ĵ
Ġsub t
Ġìŀħ ìŀĲìĿĺ
Ġë§¤ íķĳ
ìĺĪ ë°©
Ġë¹ Ĺ
Ġgr ip
ëįĶ ëĭĪ
ĠíĻķìĿ¸ ëĲĺìĹĪëĭ¤
Ġì·¨ ìŀĦ
Ġê³łê°Ŀ ìĿĦ
Ġtarget ing
ĠëĬĺ ìĸ´ëĤľ
Ġê³µëıĻ ì²´
Ġreview s
Ġide ology
Ġì£¼ë³Ģ ìĹĲ
Ġsilic a
Ġexcept ion
Ġunivers al
ĠGr and
h ow
Ġm art
ë¦ İ
ĠìĿ´ ëĵ¤ìĿĦ
ĠìĿ´ ëķĮ
ĠS O
ist an
Ġíķĺ ëĬĺ
ìĤ° ìĹ¼
Ġê³ł íĺĪìķķ
ëĭ¹ ìĤ¬ìĿĺ
ĠìĨį íķĺëĬĶ
ê¸¸ ìĿ´
Ġìħ ĭ
ĠíļĮë¡ľ ëĬĶ
ãĢ ı
Ġsmo ke
ĠPar agraph
Ġdisapp ear
Ġdead line
Ġrecruit ment
Ġbatter ies
P er
R P
g a
at ile
Ġd ress
Ġre aches
ìĿ¸ ëĵ¤ìĿĢ
Ġê°Ģ ë²¼
ĠìłĦ ë¥ĺë¥¼
íĻĶ íķĺìĹ¬
con duct
are r
ĠìĥĿ ê¸°
ĠëĲĺ ê²Į
ĠìĹĲ íıŃìĭľ
Ġbr acket
ëĤł ë¡ľê·¸
Ġë¡ľ ì»¬
ĠCon struction
Ġê°Ģê²© ìĹĲ
Ġê°ľìĭľ íķľëĭ¤
Ġëª¸ ì²´
ĠAg ricultural
Ġaffect ing
ĠëıĮìķĦ ê°Ģ
Ġê²½íĸ¥ ìĿĦ
Ġthorough ly
C EO
m u
Ġ :
Ġr ace
Ġê²½ ìĥģ
ĠK wang
Ġë¶Ģ ê°Ģê°Ģ
Ġê³µ íı¬
Ġê³ł íĴĪ
Ġë³¸ ì²´ìĿĺ
Ġmark ed
Ġê·¼ ëĮĢ
Ġpar ad
ĠíĺĦìŀ¬ ê¹Įì§Ģ
Ġì½ĺ íĥĿ
íķĺìĺĢ ìľ¼ëĤĺ
Ġsat ell
Ġfocus es
Ġbrand s
uls ion
8 8
P r
Ġì ¾Į
Ġt on
Ġex empt
Ġìĭľ ëĮĢìĹĲ
ë³´ ë©´
Ġcont est
Ġout s
ĠìĬ¤ íĥĿ
Ġê°Ĳ ê°ģ
ĠìľĦì¹ĺ ê°Ģ
Ġvis its
Ġsince re
Ġìķķ ì¶ľ
ĠëĨį ëıĦ
ĠíĥĦ ëł¥
Ġbeg un
Ġwear able
Ġload ing
eth ylene
Ġbring ing
yong yang
Ġprohib ited
Ġpregn ant
Ġìĸ´ëĵľ ëłĪìĬ¤
Ġincur red
im p
ìĿ¸ ê°Ħ
ìłĦ íĻĺ
ĠK O
Ġíķĺ ì²ľ
Ġìŀ¥ ë¹Ħë¥¼
ë¯¸ ê°Ģ
Ġìļ° ì¸¡
Ġì°¨ ìĽĲìĿĺ
ìĹĪ ìľ¼ë©°
Ġë¶Ī ëŁī
Ġmod er
ë°Ķ ëĭ¥
Ġph r
Ġëĵľ ë¦¬ê³ł
Ġë³Ģê²½ íķł
Ġì§ĪíĻĺ ìĿĺ
Ġdepos its
Ġë¶Ļ ìĹ¬
Ġinhib itor
Ġìĭ¤ìĭľê°Ħ ìľ¼ë¡ľ
ĠëĮĢë²ķ ìĽĲ
Ġê¸°ìŀĲ íļĮ
as ic
ê¸° ê¸Ī
Ġg un
um er
ì£¼ ìļĶ
ëŁ¬ ë¸Ķ
ìĦł ìľ¼ë¡ľ
Ġ20 22
ec heon
Ġë³Ģ ìĪĺë¥¼
ĠSt and
Ġpass ive
Ġë¶Ģìŀ¬ ëĬĶ
Ġaccount ed
ìľĦìĽĲíļĮ ê°Ģ
ĠíĸīìľĦ ê°Ģ
Ġattempt s
ê ¾¼
Ġg ained
ë³ į
ìķĦ ë¬´
ìĦ¸ ëĬĶ
ĠìĨĮ ìŀ¥
ê°ľ íĺģ
Ġrel ay
Ġag riculture
Ġinter conn
ĠìķĮ ì¹¼ë¦¬
ĠíĮĮ ìĨĲ
ĠO per
Ġpresent ing
ĠëĤ¨ ìª½
ĠìĥĿê°ģ íķĺê³ł
ĠëĿ Ħ
Ġequ ality
ĠêµŃê°Ģ ê°Ģ
Ġdisp osal
Ġìĭľìŀĳ íķł
ĠìĿ¸ìĭĿ íķĺê³ł
pec ifically
Ġnorm ally
Ġbag s
Ġrestrict ion
Ġencour age
Ġnerv ous
F orm
s hip
Ġì į
Ġc ake
ëª ½
Ġch airperson
ĠìĿ¸ ê³¼
Ġíķĺ ìĿ´ëĵľ
íĮ ½
ĠëĤĺ ìĹĲê²Į
ĠG reen
Ġab r
Ġ5 10
ë¯¸ êµŃìĿĺ
ĠL td
ĠíķĺëĤĺ ìļĶ
ĠY outh
19 0
Ġplan ar
Ġêµ¬ì¡° ë¬¼
Ġìķ¡ ì¶ĶìĹĲìĿ´íĦ°
Ġê°Ĵ ìĿĢ
ĠëĤ© ìĦ¸
Ġsuff er
ĠìĿ´ë©Ķ ìĿ¼ë¡ľ
Ġcriter ion
Ġfo il
Ġshar ply
Ġë¹ħ ëį°ìĿ´íĦ°
Ġsubscrib ers
Ġoverla pping
Ġultrason ic
et ween
ëĲĺ ìŀĲ
iz able
Ġëĵ± ëıĦ
Ġ6 7
Ġam azing
Ġbo il
Ġimport s
Ġë°©ìĭĿ ìĿ´
ĠìŀĪìĹĪ ì§Ģë§Į
ĠUS B
Ġbi as
ĠNew s
ĠZ n
Ġpul l
Ġìĭłê²½ ë§Ŀ
Ġstri ke
Ġphosp hor
ashing ton
f ish
u ated
Ġa f
Ġc otton
ìłľ ì£¼
el ong
íĦ° ìĹĲ
Ġëĭ¤ ìĿ´ìĸ´
Ġch ol
ĠF urther
Ġíĥ Ń
Ġì°¨ ê°Ģ
ĠIn ter
Ġ8 1
ìĺĪ ì»¨ëĮĢ
av il
Ġ12 3
Ġì°¾ ê¸°
ĠìĿ´íķ´ íķĺê³ł
ìĭ± íĦ´
ond on
Ġê³µëıĻ ìľ¼ë¡ľ
ĠìŀĲìĹ° ìĬ¤ëŁ½ê²Į
ĠíķĦë¦Ħ ìĿĦ
Ġfat igue
Ġdial ogue
aren cy
Ġseaf ood
5 9
E F
S c
ĠM yeong
Ġacc ompl
Ġìĺ¤ ë¥ĺ
Ġ10 8
ri or
ĠíķĺëĤĺ ìĿ¸
Ġì¶ľ ìĦĿ
ìľ¨ ìĿĺ
Ġìļ© ìķ¡
Ġaccording ly
Ġëĵľ ëŁ¼
ĠSt r
íħĮ ë¡ľ
ĠìĦłíĥĿ ìĿĦ
inc es
Ġíŀ Į
ĠíĻľìļ© íķĺëĬĶ
ĠìłĢíĿ¬ ìĿĺ
ĠìłĦëĭ¬ íķł
ĠíĴĪì§Ī ìĿĦ
Ġíĩ´ ì§ģ
Ġëįķ ë¶ĦìĹĲ
Ġdisapp eared
is an
ì§Ģ ì»¬
ĠìĿ´ ëĵ¤ìĿĢ
ut ation
ìĤ¬ ê±´
Ġv o
Ġcomp ly
ĠëĤ´ ëĬĶ
ëħĦ ê³¼
ìķĪ ìłķ
ìĿĮ ìĹĲ
Ġë§Į ëĤł
Ġëª» íķ´
Ġê¸°ìĹħ ìĿĦ
Ġê²½ìłľ ìĿĺ
Ġì§Ģì§Ģ ë¶Ģ
Ġspe aking
ĠìĥģíĴĪ ìĿĺ
Ġìī½ ê³ł
ë³¼ ëĿ¼
Ġexc ited
ĠìĿ´ìłĦ ìĿĺ
Ġbre aking
Ġtable t
ĠìĹŃìĤ¬ ìłģ
Ġpus hing
Ġcommit ment
Ġpreval ence
H y
Ġê°Ģ ë§¹
ì¹ĺ ë¡ľ
ì¹ĺ ìĻĢ
In d
Ġro utes
Ġte ach
ìłĢ ìŀ¥
ak ed
Ġbo y
Ġë°©íĸ¥ ì¡±
Ġìļ´ìĺģ ìĿĦ
ĠìłĦê¸° ìłģ
Ġê²½ê¸° ìĹĲìĦľ
Ġë¶ĦìľĦ ê¸°ë¥¼
Ġbirth day
Ġë²¨ íĬ¸
Ġstack ed
f ol
Ġìłľ ëıĦìĿĺ
ëĲĺ ì§Ģë§Į
ìłľ íĴĪìĿĦ
Ġê³µ êµ¬
ĠìķĦ íģ¬ë¦´
Ġad equ
ĠìĨĮ ìĭĿ
Ġë°° íı¬
Ġìŀħ ì°°
ĠW ork
Ġì¶ľ ìĤ°
Ġê²°ìłķ ìĹĲ
ì£¼ìĿĺ ìłģ
ĠíķĻìĥĿ ëĵ¤ìĿĢ
Ġìĸ» ê¸°
ĠëĶĶë°ĶìĿ´ìĬ¤ ë¥¼
ĠìĹ¼ ìĥī
ĠìĦĿ ìľł
Ġbehavior al
Ġrob ots
Ġhon est
Ġpremium s
Ġegg s
Ġunc lear
Ġ ions
Ġc uring
ê°Ģ ê³µ
Ġìķ ĵ
im en
Ġst omach
ĠìłĦ ìĭł
Ġë°© ìĪĺ
ĠìĨĮ ìĥģê³µ
Ġ20 2
ĠH B
ë°© ë²ķìĿĦ
Ġpres ervation
Ġ7 4
ĠìĤ° ë¦¼
íĮĮ ë¡ľ
Ġë©Ķ ë¥´
Ġìłľìĸ´ íķĺê¸°
ĠìĹĲ ìĬ¤íħĮë¥´
Ġê²°ìłķ ëĲľëĭ¤
Ġì§Ħíĸī íķĺëĬĶ
Ġê¸°ë¡Ŀ ìĿĦ
Ġkey board
Ġìŀĳìļ© ìĿĦ
ĠìĽĶ ëĵľì»µ
ë´¤ ëĭ¤
Ġcru c
ĠìłľìĬ¤ ì²ĺ
Ġì¹´íħĮ ê³ł
ĠBuddh ist
ĠíĶĦë¦¬ë¯¸ ìĹĦ
3 30
Ġa w
er ving
th al
Ġsh ops
Ġë¶Ģ ëıĻ
Ġê³ł ìŀ¥
pl us
ĠW a
Ġíķł ë¡ľê²Ĳ
Ġ8 4
Ġinv ited
ìĻ¸ ë¶Ģ
ë¸Į ë¦¬ëĵľ
Ġëªħ ìĿĦ
ĠëĤ¨ íķľ
ĠíĶĮ ë£¨
Ġë¡ľ ì§ģ
ĠíĬ¸ ëŀĺ
Ġachie ving
Ġacid s
Ġëª° ìŀħ
Ġcard io
CO VID
Ġachieve ments
ĠëĮ Ĳ
Ġprol ong
Ġvolat ility
N C
Ġl ymph
Ġbe at
ĠS ur
ĠS te
est inal
ìķĦ ìĦ¸
ĠìķĦ ìĽĥ
ì§Ħ ë£Į
ìĭ¤ ê³¼
Ġmet er
ĠìĺĪ ë¡ľ
Ġìļ° ì£¼
ĠV alle
ì¡Į ëĭ¤ê³ł
Ġpost ure
Ġë²ĶìľĦ ìĿĺ
Pro fessor
si k
Ġlif est
Ġsatisf y
Ġëĭ¤ë¥´ ëĭ¤
ĠìĿµ ìĪĻ
Ġcomplic ated
Ġabsolute ly
Ġgrant ed
Ġrecur rence
resist ant
empor ary
Ġfest ivals
I F
h ak
t ae
Ġ vel
Ġc igaret
ìŀ İ
ĠìłĦ ë¶ĢíĦ°
ĠA ward
ĠìĹ¬ ì§Ģê°Ģ
Ġte en
Ġì°¨ íıĲ
Ġë³µ êµ¬
ĠìłĪ ìĤŃ
Ġë³ĳ ë³Ģ
ĠìłĦëĭ¬ íķĺëĬĶ
ëĲ¨ ìľ¼ë¡ľìį¨
ĠìŀĦìĿĺ ë¡ľ
Ġìĸ´ìħĪë¸Ķ ë¦¬
Ġì·Į ìŀ¥
ìł ¯
Ġto ler
ê³ł ìļĶ
ĠìĿ´ ëħĲ
Ġëª¨ ëĵľë¥¼
Ġë¹Ħ íķĺìĹ¬
ĠG ree
ĠìĦł ìĤ¬
Ġsub way
íĨµ íķ©
ub ric
ĠW uhan
Ġdisc retion
ĠìķĦëĭĪ ëĿ¼ê³ł
Ġcommun ities
ĠíĦ ¸
Ġê°ĲìĤ¬ íķĺê²łìĬµëĭĪëĭ¤
ì£Ħ ìĨ¡
Ġëª©ìłģ ìĿ´
Ġì¡°ê±´ ìĹĲ
ì½ĺ íħĲì¸ł
ëĨį ìĹħ
ĠìłĦíķ´ ì§Ī
Ġprotr usion
Ġìĸĩ ìĿĢ
Ġstain less
4 20
Ġb its
Ġd ental
Ġcom ments
Ġde ce
Ġê°Ģ ìĦ¤
Ġê°Ģ ê¹Ŀ
ĠìľĦ ìŀĦ
ìĦ¸ ìĹĲ
Ġsp r
ĠëıĻ ìĽĲ
ĠëıĻ ë§¥
ĠH ol
ëĤ´ ê¸°
ry lic
ove ment
Ġìĭ¬ íķľ
Ġë¯¸êµŃ ìĿ´
Ġexpl ains
Ġë°Ģ ì°©
Ġcomput ers
ĠëıĦìĽ Ģ
Ġì½ĺíħĲì¸ł ìĿĺ
Ġguid ing
go vernment
Ġdemonstr ated
Ġscen ario
Ġë¶ķ ê´´
6 3
Ġì ³
Ġt ire
Ġw ires
Ġcon sequ
ĠS outheast
ìĦ¸ íķľ
ast s
ĠìĿ¼ ë°©
ĠëĤĺ ë¥¼
Ġsp okes
ëĲĺëĬĶ ì§Ģ
ĠE conom
ĠìļĶ ìĸĳ
íı¬ ìĿ¸íĬ¸
Ġdef ines
io let
Ġëĵ¤ìĸ´ ê°Ħ
ĠAr ab
Ġìłķë¶Ģ ìĻĢ
ĠíķĻìĥĿ ìĿ´
ĠìĿ¸ìłķ íķĺëĬĶ
Ġprefer able
Ġflex ibility
cont in
Ġoverl ap
Ġec ological
Ġpig ment
Ġnav igation
Ġearning s
Ġc ited
ct ic
Ġìĭ Ń
ch art
ĠM C
Ġëª¨ ìķĦ
ag er
ĠìĹĨ ê²Į
Ġro les
ëłĪìĿ´ ìĭľìķĦ
ì¶ķ ìłľ
ë¡ł ìĹĲ
Ġdi ode
Ġêµ¬ì¡° ìĹĲ
Ġê´Ģë¦¬ ê°Ģ
Ġlot s
sc ill
ĠìĪĺëĭ¨ ê³¼
Ġê¸°ê´Ģ ìĿĺ
Ġì§Ħëĭ¨ ìĿĦ
Ġir regular
Ġspl it
Pre vious
Ġphotograp hing
Inst ead
ì´¬ ìĺģ
Ġunnecess ary
b in
ed ia
ìĦ °
ëĿ¼ ìĹĺ
ĠS oviet
Ġse aled
ĠìĿ¸ ì¦ĿìĿĦ
ìĹ° ê²°
Ġman power
ëŁī ìľ¼ë¡ľ
Ġph ones
aly sis
ĠSe jong
Ġdisc our
Ġrequ iring
Ġì§Ī ìĨĮ
ĠìĺģìĹŃ ìľ¼ë¡ľ
Ġ13 1
Ġbas ket
Ġê¸°ë¡Ŀ íĸĪëĭ¤
Ġëª¨ëį¸ ìĿĺ
ĠëĮĢíķĺìĹ¬ ëĬĶ
ìĬ¤íģ¬ ë¦°
Ġviol ations
Ġì¦Ĳ ê±°
Ġtrust ee
ê·¸ëŁ¼ ìĹĲëıĦ
Ġdisapp oint
Ġphosp h
Ġmeant ime
Ġsuperv ision
L P
Ġm it
ĠìĪĺ ê°ķ
Ġë¶Ģ ê°ģ
ĠP ass
pl ate
Ġk new
Ġinter v
Ġì¦Ŀ ê°ķ
íĿ ĺ
Ġì¶ľ íĺĪ
Ġì²ĺ ë°©
Ġì¦Ŀê°Ģ íĸĪëĭ¤
Ġprop ag
Ġë²Īì§¸ ë¡ľ
char ge
Ġquant um
Ġë¶Ģì°© ëĲľ
íİĢ ëĵľ
Ġdestroy ed
Ġadoles c
h ye
p rop
Ġt act
Ġo scill
Ġb ub
Ġd ose
Ġbe ad
ë©´ ìłģ
Ġinc omp
Ġun e
ë°ľ ìĥĿ
ĠíĻĶ ë¬¼
Ġíĸī ìĤ¬ê°Ģ
Ġìĺģíĸ¥ ìľ¼ë¡ľ
iel ding
Ġdisp atched
Ġì¤Ħ ìĿ´ëĬĶ
Ġindivid ually
Ġinfl ation
Ġflu oresc
ĠëĬĺ ìĹĪëĭ¤
Ġìķ¼ ìĻ¸
ĠìłĦëŀµ ìłģ
imens ions
ĠìĿ´ë©Ķ ìĿ¼
Ġtro uble
m as
un t
Ġì£¼ ëł¥
ĠëĤĺ ìķĦ
Ġíķ´ ìĪĺ
ĠH ow
ĠE arth
Ġë°Ķ ìĿ´ìĸ´
10 8
Ġar c
ĠìĦ¤ ëĵĿ
íĶĦ ëŀĳìĬ¤
Ġlo ved
Ġëĵ¤ ìĹ¬
ĠëłĪ ìĿ¼
Ġant icip
ĠíĮĲëĭ¨ íķĺëĬĶ
Ġdel iber
Ġbenef icial
Ġquant itative
ë°ĶìĿ´ ìĺ¤
ëłĢ ëĭ¤
Ġuncertain ty
Ġincorpor ated
Ġrecept or
ĠYouT ube
Ġ Ġ
ĠìĪĺ ë°±
ĠìŀĲ ìĻ¸ìĦł
Ġë¹Ħ ëĭĲ
ĠR ed
ĠêµŃ íĨł
Ġpe el
íķĺìĺĢëĭ¤ ê³ł
íĮĮ íģ¬
íĶ¼ íķ´
ĠíĶĮ ëłī
ëĲĲ ìľ¼ë©°
Ġë§Įëĵ¤ ìĹĪëĭ¤
Ġflow chart
Ġcat alog
ìĹĦ ë§Ī
Ġillustr ated
bu ilding
ĠConstit utional
Ġsulf ur
Ġunus ual
? "
D S
at hy
Ġí Ī
ĠìĪĺ ëł´
id al
ìĤ¬ ë²ķ
ĠëĮĢ ìŀ¥
ì£¼ ì£¼
Ġdis order
ĠT o
Ġgro oves
ĠO LED
ĠëĳĲ ëł¤
ĠìĤ¬ìĿ´ ëĵľ
ĠíķľêµŃ ìĿ¸
Ġíħ ľ
Ġpass ion
Ġíĥľ íĴį
íı° ìĿĦ
ĠìĤ¬íķŃ ìĹĲ
ĠëĬĲëģ¼ ëĬĶ
Ġwarrant y
Ġinher itance
Ġvit amin
Ġmand atory
it ual
Ġh ip
Ġex it
ab out
Ġë³´ íĸī
Ġsh ipment
Ġíı¬ íĨł
Ġë¶Ħ ëĵ¤ìĿ´
Ġro ut
Ġtrans f
reat ment
Ġdes c
ë¡Ģ ë¥¼
ĠìĤ¬ìĹħ ìĿĢ
Ġë³ĳ ëł¬
Ġlim iting
ê°Ĵ ìĿĢ
ĠGo ogle
Ġì²¨ ëĭ¨
ĠìŀĶ ë¥ĺ
ĠëĦ£ ê³ł
Ġslow ly
Ġclub s
Ġìı ł
Ġtransform ed
atur day
P R
s chool
Ġcon ve
ìłķ ìľ¼ë¡ľ
ìłķ ìĭł
ĠëĤ ļ
íĦ ±
ĠìľĦ ìĿĺ
Ġìĭł ë¬¸
Ġê°Ĳ ê´ĳ
ĠL ondon
ĠìĹĲ ì¹Ń
ĠìĤ¬ëŀĮ ëĵ¤
ĠìĹħ ì¢ħ
Ġíķ´ëĭ¹ íķľëĭ¤
ĠíĥĦ ìĥĿ
ĠìĤ¬ìĭ¤ ìĿ´ëĭ¤
Ġë§Īëł¨ íķľ
ĠìļĶìĨĮ ìĿĺ
Ġê´Ģìĭ¬ ê³¼
Ġhyd roph
ê²¨ ì§Ħ
Ġì¸¡ë©´ ìĹĲ
Ġì¡°ê±´ ìĿ´
Ġìĩ ł
Ġsubsid iary
Ġë§ĪìĬ¤íģ¬ ë¥¼
Ġmort gage
ĠëĵľëĿ¼ìĿ´ ë¸Į
ëĭ¤ ìĿ´
st ep
ìĸ´ ë²Ħ
ìŀĲ ë¡ľìĦľ
ìĪĺ ìļ©
ëıĻ ë§¥
Ġíķĺ ê±°ëĤĺ
ê·¸ ê±´
Ġíı¬ ë§·
íħ įìĬ¤íĬ¸
Ġë§Ī ìļ´
Ġar g
íĶ¼ ìĬ¤
Ġshould er
Ġë¶ĦìĦĿ íķĺëĬĶ
Ġpass word
ĠìĦ¤ëªħ ìĿĦ
ë¹ ¨
ĠFFF ë¥¼
ax y
ĠÎ ²
ĠìĪĺìĿµ ìĿĦ
Ġì§ķ ìĹŃ
Ġattrib utes
Ġdrain age
ĠGor yeo
Ġseiz ure
. )
r ared
u ed
Ġp ocket
Ġê°Ģ ë¦¬
ĠìłĦ ìłľë¡ľ
ĠìľĦ ì¶ķ
íķ¨ ìľł
ë²ķ ë¥ł
ëĦ ĵ
ĠD an
ĠëıĻ ìłģ
Ġprov inces
Ġcl osure
Ġë°° íķ©
ĠìĽĲ ìĿ¸ìĿĦ
Ġìŀħ ì²´
ĠíĶ¼ ë¶Ģë¥¼
Ġíķł ì§Ģ
ĠìĤ¬ìĿ´ ìĹĲëĬĶ
ì¸¡ ìĿĺ
ĠìķĦëĭĪ ìķ¼
Ġcompris ed
Ġrest oration
ĠìĿ´ëıĻ íķł
ĠìĤ¬ìĭ¤ ìĿĢ
Ġet ching
ĠìļĶì²Ń ìĹĲ
Ġinstall ing
Ġtast es
Ġë³¸ê²© ìłģìľ¼ë¡ľ
Ġoxid ation
L e
r idge
he t
es ides
ì§Ģ ìļĶ
íķ´ ê²°
Ġg one
Ġg arden
ëĲĺ ë¯Ģë¡ľ
Ġíķĺ ì¤ĳ
Ġab andon
ê¹ ¥
Ġwor se
Ġdes k
Ġì¶ľ ëł¥ìĿĦ
ë³µ íķ©
Ġdist al
de ok
ĠìĿ´ë£¨ìĸ´ ì¡Įëĭ¤
Ġë°ľìłĦ ìĹĲ
ĠëĬĺ ê³ł
ĠìķĶ íĺ¸
Ġì°¨ëŁī ìĿĦ
Ġë°©ë¬¸ íķľ
ĠìĿ¸ìłķ íķł
Ġcoll apse
ìĤ¬ìļ© ìŀĲê°Ģ
ĠìķĦëŀĺ ìĹĲ
Ġêµ¬ë¶Ħ íķĺìĹ¬
ìĿ´ìĹĪ ëįĺ
Ġê·¸ëħĢ ëĬĶ
ĠFore st
Ġads orb
Ġê¸īê²© íŀĪ
Ġcosm etic
ĠAcad emy
W ill
i aries
et her
ìĭľ ê¹Įì§Ģ
ĠìłĦ íĪ¬
Ġëª ½
ì¡° ìłĪ
ĠN ak
ĠíļĮ ëıĻ
Ġsupp osed
Ġë¶Ī íıīëĵ±
ĠW ashington
íĸĪ ìĸ´
ĠíĶ¼ íģ¬
Ġìłľìĸ´ ê¸°
ĠìŀĦ ëªħ
Ġíĺĳ ìĹħ
ĠìłĢìŀ¥ ë¶Ģ
Ġhum idity
ĠìĿ´íķ´ ë¥¼
ìĭŃ ëĭĪëĭ¤
Ġbeh alf
Ġbig ger
ĠìħĢ ë£°
Ġreact ions
Ġtransp arency
Ġenterpris e
Ġfract ure
ĠìĻĦë²½ íķľ
ĠíĶĮëŁ¬ ê·¸
ĠíħĶ ëłĪ
Ġcryptocur rency
k in
s ub
v a
Ġt ons
Ġp and
Ġl ubric
Ġbe er
Ġìķ µ
Ġst yl
ìłķ ë¶ĢìĿĺ
ìłľ ê³µ
op sy
Ġëĭ¤ ì¸µ
Ġch ose
ĠìĿĺ ë¥ĺ
ĠìĿĺ ìĤ¬ë¥¼
ĠìĿĺ ìĽĲìĿĢ
Ġë¶Ħ ìĩĦ
Ġout standing
Ġìŀ¬ ê³ł
ĠëįĶ íķ´
Ġê°ĢëĬ¥ ìĦ±
Ġì¦Ŀ ê¸°
ĠíĽĦ ìĹĲëĬĶ
ĠV al
ĠíĥĢ ìŀĦ
Ġfac ed
ĠìĥĿìĦ± ë¶Ģ
ĠìĿ´ëıĻ íķĺëĬĶ
Ġbro w
omet er
Ġë³´ëĤ´ ëĵľë¦¬ê²łìĬµëĭĪëĭ¤
Ġê±´ê°ķ ìĿĦ
Ġì¤Ģë¹Ħ ë¥¼
ĠSp ain
Ġmolec ules
Ġscan ning
yr ight
Ġtrig ger
ĠíĽĮë¥Ń íķľ
9 7
B M
Ġw ake
Ġh o
ìĿ¸ ëĭ¹
Ġìĭľ ê¸ī
ì£¼ ê¸°
ìľł ëĭĽ
Ġê°Ĳ ìĥģ
ìĿĮ ìĭĿ
Ġìŀħ ìĿĦ
Ġup stream
ĠíĪ¬ ìĸ´
Ġstate ments
Ġris en
ê·¸ëŁ¬ ëĭĪê¹Į
ì±Ħ ëĦĲ
Ġur g
Ġdischar ging
Ġexpect s
ĠìłģìłĪ íķĺê²Į
Ġfilter ing
Ġwarm ing
Ġíķ¸ ëĵ¤
Ġpreced ent
onal d
ĠëĶĶìŀĲ ìĿ¸ìĿĦ
Ġdecor ative
Ġsummar ized
9 1
P op
w ol
Ġw ip
Ġê¸° íķľ
íĦ° ë¦¬
Ġêµ¬ ìłľ
Ġë¶Ģ ì§Ħ
ëŁ¬ ëĭĿ
ĠëĤĺ ìĿ´
Ġso vere
Ġìĸ´ ìłľ
Ġar ise
Ġìŀħ ìĿĢ
Ġrep ayment
Ġ8 8
ĠìĹ´ ìĿĦ
Ġinf rared
ĠëĤ¨ ëħĢ
Ġìĭ¤ìĭľ íĺķíĥľ
Ġë¶ĦìĦĿ íķĺê³ł
ëŁ° ìĬ¤
ĠêµĲìľ¡ ìĹĲ
Ġëħ¼ ìŁģ
ĠAr ts
ë°Ľ ìķĺëĭ¤
Ġê¸°ì´Ī íķľ
Ġê¸°ê°Ħ ìĿĢ
Ġce iling
Ġíĥľìĸĳ ê´ĳ
ĠFr iday
Ġpainting s
Ġp m
ig m
ìĥģ ëĮĢ
per ature
ĠëĤĺ ëī
Ġqu iet
wo ven
ĠëĳĲ ëĵľëŁ¬
Ġbo at
Ġê´Ģê³Ħ ëĬĶ
Ġíİ¸ ìĦ±
viron ments
ĠëĨį ëıĦê°Ģ
Ġìµľê·¼ ìĹĲ
Ġê³ĦìĨį íķ´ìĦľ
ĠìĥĿíĻľ ìĿĦ
Ġcompens ate
Ġimmedi ate
Ġcommunic ating
Ġconsult ing
Ġë°°ìĹ´ ëĲľ
ĠìľłìłĦ ì²´
Ġisol ated
Ġhyper t
íĻĶíķĻ ìĭĿ
Ġaffili ated
Ġware house
Ġë¦¼ íĶĦ
avil ion
ĠValle y
j oon
Ġs odium
Ġd imensions
Ġh ung
Ġl uck
ìĤ¬ ìĿ´ëĵľ
el ess
ĠC ar
Ġìĭľ ëĤ´
Ġì£¼ ìĭ¤
Ġìľł ëıĦì²´
ĠëĤ´ ëĭ¤
Ġê°ľ ì§Ī
ĠìĨĮ ëª¨
Ġwor n
Ġatt acks
Ġë¬¼ ìĹĲ
ĠëĤĺíĥĢ ëĥĪëĭ¤
ë³µ ìĿĦ
ëĭ´ ë³´
Ġìĺģíĸ¥ ëł¥ìĿĦ
ëĲĲ ëįĺ
ĠìĥĿìĦ± íķĺê³ł
Ġë¶ģ ë¶Ģ
ĠëıĮ ìĹ°
ĠìĪĺëıĦ ê¶Į
ĠìĪĺì¤Ģ ìĹĲìĦľ
Ġìĭ¤ìĭľìĺĪ ëĬĶ
Ġtransfer ring
Ġì¹¨ íĪ¬
Ġadjust able
Ġpriv acy
Ġut ility
ĠíĥĲ ì§Ģ
Ġcorrect ed
Ġlif ting
Ġì¤ ĺ
Ġsymbol s
ê¸°ì¡´ ìĿĺ
Ġlic ens
ĠGyeongsang buk
Ġinstru ments
Ġads orption
Ġphilos ophy
Ġdownt own
e per
Ġ Â°
Ġp y
Ġb uck
ìķ Ĺ
ìĪĺ ìĹħ
ìłĦ ê³¼
Ġì¤ĳ ëıħ
ĠM yung
íĺķ ìĿĢ
Ġë°Ķ ìĿ¸
ĠìĦ¸ ëĮĢ
Ġêµ¬ìĦ± ëĲĺê³ł
Ġport s
ĠìĹĲ ëŁ¬
Ġì§ĢìĹŃ ìľ¼ë¡ľ
Ġrespon ding
Ġselect s
ìĺ¬ ë¦¼íĶ½
bo xy
ĠìĤ¬ê±´ ìĿ´
Ġ199 6
ĠìłĦìĨ¡ íķĺëĬĶ
Ġur ged
Ġreve al
Ġprec ious
Ġcircum ference
Ġproport ional
Ġdri vers
Ġprem ise
Ġfold ed
resent ative
ĠConfuc ian
T I
w in
Ġ âĹĭâĹĭ
ic ine
ic ians
st and
Ġìĭľ íĬ¸ë¥¼
ë³´ íĨµ
ĠìŀĲ ìĽĲìĿĦ
ĠìĿ¼ ì¢ħìĿĺ
Ġíķľ ë¥ĺ
Ġê²° íķ¨
ĠìĦł ëıĦ
ĠìĹĨ ìĸ´ìĦľ
ass es
Ġê±° ì¹ľ
ìĭ¬ ìĤ¬
Ġam ino
Ġíĳľ ìłģ
Ġìłĳ ì¢ħ
Ġìĸĳ íĥľ
Ġì¹ĺ ìķĦ
Ġê´ĳ ìĹŃ
ì´Ī ëĵ±íķĻêµĲ
Ġëĭ¤ìĿĮ ìĹĲ
Ġíıīê°Ģ ê°Ģ
Ġcollect or
the less
ĠìľłìĿĺ ë¯¸íķľ
ĠìłĪìĹ° ì¸µ
Ġìĺ¤ëĬĺ ëĤł
Ġì¹¼ ìĬĺ
ì¿ ¨
Ġë²¤ ì²ĺ
Ġë¶Ģëĵľ ëŁ¬ìļ´
Ġdistingu ish
Ġíķ©ë¦¬ ìłģìĿ¸
Ġearthqu ake
Ġlandsc ape
u ate
ë ·Ķ
Ġn ose
us es
ê²Į ëĭ¤ê°Ģ
íĻĶ íķĺê¸°
Ġê²½ ë¶ģ
ìĭł ê³ł
Ġë°© ìĸ´
Ġrec ycl
Ġì½Ķ ëĵľë¥¼
Ġìĥģíĥľ ëĭ¤
Ġìĺ¬ ë¦¬ê³ł
ĠíĸīìľĦ ìĹĲ
Ġbor ne
Ġmes h
Ġì½ĺíģ¬ë¦¬ íĬ¸
spe ed
ĠFace book
6 7
Ġ1 19
ìłģ ìĿ¼
Ġì§Ģ ì§Ī
Ġíı¬ ìĬ¤íĬ¸
ë¯¸ ëĦĲ
Ġìĭ¤ ë¦¬ì¹´
ĠìĦľ ìª½
ì§Ī ë³ĳ
ĠR O
ì°¨ ìĿĺ
Ġsur pass
Ġë§İ ì§Ģ
Ġìŀĳ ëħĦ
Ġfin ancing
Ġinv oice
Ġëģ Ī
gu k
ĠíĶĦë¡ľê·¸ëŀ¨ ìĹĲ
Ġrad ial
Ġprote ins
Ġê¸°ìĹ¬ íķł
Ġì§Ģíķĺ ì²ł
Ġë°´ ëĵľ
Never theless
G A
V C
Ġh ing
ìĤ¬ ìĿ¼
ìĽĲ ê³ł
Ġë³´ ìķĦ
ë³´ ìķĪ
ìļ° ê°Ģ
ĠìĨĮ ìŀĲë¥¼
ĠD es
ĠD rug
ĠR ec
Ġë§İ ìĬµëĭĪëĭ¤
Ġ11 5
Ġëĭ¬ ëĿ¼ì§Ī
Ġinput s
Ġmeet s
ê·ľ ìłľ
ĠíĮĮìķħ íķĺê³ł
ĠEx press
Ġìŀ¥ê¸° ê°Ħ
ĠEn ter
ĠìĿ´ê²ĥ ìĹĲ
ë§ŀ ì¶¤
ĠíıĲê¸° ë¬¼
Ġhepat itis
al t
íķ´ ì£¼ëĬĶ
Ġst adium
ow on
ìĦł ìĹĲìĦľ
Ġìĭł ìłľíĴĪ
Ġpr inter
Ġë¶ĦìĦĿ ìĿĢ
Ġwater proof
Ġside w
Ġent h
ĠëıĮ ë´Ħ
Ġìľłì§Ģ íķĺê¸°
ë²ł ìĿ´ìĸ´
Ġì£¼ìŀ¥ íķľëĭ¤
Ġì£¼ë¯¼ ëĵ¤ìĿ´
Ġvirt ually
Ġadvantage ous
Ġexcl usion
ĠìĪĺ ë¹Ħ
ëıĦ ìĦľ
et ers
ad o
Ġal ignment
Ġêµ¬ ê°ķ
Ġíķĺ ìĹĲìĦľ
ĠìĿĺ ìķ½íĴĪ
ĠìŀĪëĬĶ ì§Ģë¥¼
Ġê²° íķµ
íģ¬ ëĿ¼
ĠíķĦ ëĿ¼
und ant
ism s
ĠìĨĲ ìĭ¤ìĿĦ
ëŀĢ íŀĪ
Ġrest ore
ĠíĦ° íĤ¤
Ġrequest ing
13 2
Ġeng aging
ĠìĪĺëĭ¨ ìľ¼ë¡ľ
Ġì¢Į ì¸¡
Ġë´ī ìĩĦ
Ġbal anced
ĠìĽĲê³ł ìĿĺ
ĠìĿ½ ìĸ´
bol a
Ġê±°ì£¼ íķĺëĬĶ
ìłł íħĮìĿ´ìħĺ
Ġìĺ· ìĿĦ
Ġìĺ¤ë¸ĮìłĿ íĬ¸
Ġtu berculosis
ĠìĥģìĿĳ íķĺëĬĶ
K D
S im
Ġa est
ë¦¬ ë©´
ìĽĲ ëĵ¤ìĿ´
Ġë¶Ģ íĴĪìĿĦ
ĠìĦľ ë¥ĺ
ĠìĹĨ ìľ¼ë©°
Ġpr a
ĠìĽĲ ìĿĦ
ĠêµĲ ìĤ¬ìĿĺ
ë°ľ ê´ĳ
Ġê²Ģ ì§Ģ
ract ion
êµ° ìĿĦ
ĠíķŃ ìĥĿ
Ġpress ed
Ġë³¼ ë¡Ŀ
ĠìļĶêµ¬ ë¥¼
Ġíı´ë¦¬ ìĺ¬
Ġdeep ly
Ġcompar ative
Ġë¿Ĳ ìĿ´ëĭ¤
Ġdro pped
Ġdisadvant age
Ġble eding
5 10
A F
Ġt ired
Ġ2 60
ê¸Ī ì§Ģ
Ġen lar
Ġê±° ë¡ł
Ġê±° ëĿ¼ê³ł
Ġk ick
ĠCh ief
Ġë¶Ī ê°ĢëĬ¥íķľ
ric s
Ġë¬¼ íĴĪìĿĦ
ris k
íĭ° ëĵľ
ĠìĦ¸ê³Ħ ìĿĺ
Ġê°ĲìĨĮ íķĺëĬĶ
Ġë¸Į ëŀľ
Ġsent iment
ìĤ¬íķŃ ìĿĦ
ĠíĶĮëŀľ ì§Ģ
ĠìĹĦì²Ń ëĤľ
Ġcardio vascular
d i
m ade
s il
he rent
im ately
Ġë¶Ģ ìĦľ
Ġë¹Ħ ìĭ¸
Ġë¶Ħ ìĿ´
Ġíĸ ħíĭ±
Ġíĸī ìĤ¬ìĹĲ
12 4
Ġview point
ĠAss et
ĠëĮĢë¶Ģë¶Ħ ìĿ´
Ġëĸ¨ìĸ´ ì§ĢëĬĶ
Ġattract ed
ĠíĶĦë¡ľìłĿ íĬ¸ë¥¼
íķ´ì£¼ ìħĶìĦľ
Ġë¦¬ëįĶ ìĭŃ
Ġinterv als
d ef
n ight
s ensitive
ìĿ´ ê±´
Ġb ills
ur t
Ġde aling
ad ata
ĠI R
ĠP yongyang
ê²½ ë¶ģ
Ġsc hem
Ġë§İ ê³ł
Ġac ou
Ġdisc iplinary
ë§Ĳ ìĿĦ
Ġê´Ģê³Ħ ìŀĲ
Ġmeasure ments
Ġhapp ens
Ġê²½ìŁģ ëł¥ìĿĦ
Ġêµ¬ì²´ ìłģ
ĠTe am
Ġìº¡ ì²ĺ
ĠWh ite
Ġë§¤íĬ¸ë¦Ń ìĬ¤
) )
m it
ī ìĿĢ
re ated
Ġw itness
ĠS oo
Ġì£¼ ê°Ģ
ĠK e
ĠM RI
ĠìĿ¼ ì£¼ìĿ¼
Ġab dominal
Ġê±° ì¹ĺ
ìĺ¤ ê³ł
ìķĺ ìĿĦ
Ġê°Ħ ê·¹
Ġê¸°ìĪł ìĹĲ
Ġìĺ¬ ë°Ķë¥¸
Ġë¯¸êµŃ ìĹĲìĦľ
ìĸ¸ ìłľ
ĠëĪĪ ìĿĦ
Ġì¦ī ê°ģ
Ġìĥģê´Ģ ìĹĨìĿ´
Ġtit anium
Ġsurround ed
Ġconfigur ations
D ear
e al
in f
ìĤ¬ ëŀĳ
ĠëĮĢ íĻĶë¥¼
Ġê¸° ìĤ¬
Ġcomp artment
Ġë¬ µ
Ġê²½ ê¸°ê°Ģ
Ġsh ield
Ġdis asters
ĠëıĻ ìĺģ
Ġ20 30
ugh t
íİ ł
ìŀĦ ëĮĢ
ĠëĨĴ ìĿ´ê¸°
íĶĮ ëłī
Ġê·ľ ìłľë¥¼
Ġë©´ ìĹĲ
Ġrecogn izes
ĠìĬ¹ ë¦¬
ĠìĿ¸ìĭĿ ìĿ´
ĠìĦľìļ¸ ìĭľ
Ġhydro carbon
Ġì²ĺìĿĮ ìĿ´ëĭ¤
ĠíĻķë³´ íķł
Ġkeep s
rit is
Ġexhib its
ĠëĵľëŁ¬ ëĤĺ
Ġinform ed
Ġfract ion
Ġtun nel
Ġmetab olic
Ġvoc ational
Ġprotrud ing
Ġtoile t
Ġvisc osity
w orking
ë¡ľ ìĿ´ëĵľ
ë¶Ģ ìŀ¥
ir ation
ëŁ¬ ë¦¬
ĠëĤ´ ìŀ¬
ĠG ong
Ġen vironments
ê²° ìłľ
Ġrec ru
Ġì§Ħ ìłķíķľ
Ġrep orters
ĠâĢ Ŀ
Ġë°Ľ ê¸°
av iolet
Ġinvest or
Ġì²´ ê³Ħë¥¼
Ġstr ain
Ġindu ced
ëĿ½ ìĿĦ
Ġìłģìļ© ëĲľëĭ¤
Ġëıħ ìłĲ
Ġbas ically
Ġì¸¡ìłķ íķł
Ġ199 1
ê³¨ íĶĦ
com fort
Ġprim arily
Ġë°©ìķĪ ìĿ´
Ġìº¡ ìĬĲ
ĠëªħíĻķ íķĺê²Į
Ġcommission ed
Ġì¿ ¼
ĠMal ays
Ġathlet es
h am
Ġfor g
ìĬ¤ íı¬
ĠS aturday
ìłĦ ìľ¼ë¡ľ
êµŃ ìľ¼ë¡ľ
Ġìľł ìķĦ
ê³µ ë¬´ìĽĲ
Ġëª¨ ìĦľ
Ġê³ł ëıĦ
ìķĪ ë³´
Ġì°¨ ìĽĲ
Ġê·ľ ëªħ
Ġche ap
Ġent ers
Ġì²ĺë¦¬ ëĲľ
Ġfac ial
Ġìłģìļ© íķľ
Ġíıīê°Ģ íķł
ì£¼ìĿĺ ìĿĺ
ĠìľłëĭĽ ìĿĢ
Ġquestion na
ĠìĹ´ë¦° ëĭ¤
Ġplatform s
Ġìľ¤ íĻľ
Ġnut ri
Japan ese
ĠëĶ°ëľ» íķľ
ĠIM F
g il
· Ħ
Ġ âī¤
Ġê »
an am
Ġre n
Ġn ations
ut s
ĠëĮĢ ìĹ¬
if orn
ëĤĺ ëĿ¼ëĬĶ
Ġmay be
ang hai
Ġì§Ħ ìĭ¬ìľ¼ë¡ľ
int end
Ġë§¤ ìŀ¥
ë§¤ ë§¤
Ġ11 6
ĠëĤ¨ ë¶Ģ
ì§ĳ íĸī
Ġselect ive
Ġfun ding
Ġì¹´ ì¹´ìĺ¤
Ġë©´ ìĹĲìĦľ
ĠìĿ´ëıĻ ìĿĦ
ĠìĦ¸ê³Ħ ìłģìĿ¸
Ġê³łëł¤ íķ´ìķ¼
ĠìłĦì²´ ìłģìľ¼ë¡ľ
Ġtrad emark
Ġshort age
ier arch
ĠìĿ´ë¦Ħ ìĿ´
ì§Ģê¸Ī ìĿĢ
icip al
ĠìĺĨ ìĹĲ
Ġexem ption
Ġëľ¨ ê±°ìļ´
7 3
a ro
Ġo ste
ĠìĿ´ ë¯¼
ot o
Ġëĵ Ģ
Ġíķĺ ìŀĲ
Ġëª¨ ìħĺ
Ġê³ł ìķķ
Ġ5 20
ĠëıĻ ìª½
Ġìĭł ë¶Ħ
Ġê³¼ ìłľë¡ľ
Ġfl ame
Ġíģ¬ ì§Ģ
Ġëĵľ ë¬¼
Ġëĭ¨ê³Ħ ë¡ľ
ë§ī ìĿĺ
Ġì´Ŀ ë¦¬ëĬĶ
Ġê±¸ ë¦°
ëĥ ħëĭĪëĭ¤
15 1
ĠíļįëĵĿ ëĲľ
Ġlect ures
Ġhundred s
F e
Ġl ad
ìĥģ ìĦł
ĠìłĦ ê¹Įì§Ģ
Ġr ide
Ġsh apes
Ġma pping
ĠíķĻ ìĹħ
íķĺëĭ¤ ê°Ģ
Ġíķ© ë¦¬ìłģ
ĠìĹĲ ìĿ´ìłĦ
Ġstr ange
Ġorder ing
Ġìłľì¡° íķł
ĠìĦ¤ëªħ íķĺëĬĶ
ĠëĤ´ìļ© ê³¼
ĠëĮĢìĿĳ íķĺìĹ¬
ĠìķĦìĿ´ ëĵ¤ìĿ´
Ġìłľìĭľ íķĺëĬĶ
ĠìłĦê·¹ ìĿĦ
Ġbi om
Ġíĺ¼íķ© ë¬¼
ìĿĢíĸī ìĿĺ
Ġestim ating
Ġprovision al
Ġinvent ory
Ġfost er
E L
M r
b ody
ìĿ´ ê³³
Ġre taining
ìĭł íĺ¸ë¥¼
Ġne u
ë¹Ħ ìĻĢ
se on
ire ction
ĠëıĻ ë§¹
ĠìĤ¬ìļ© ìĹĲ
Ġsur ge
Ġë°Ľ ì¹¨
Ġ9 2
ì§ĳ ëĭ¨
Ġmin i
Ġmin eral
ĠìŀĪìĿĦ ì§Ģ
Ġê´Ģë¦¬ ìĹĲ
Ġsk ill
ĠìĬ¹ ìĿ¸ìĿĦ
Ġë¬¸íĻĶ ìŀ¬
Ġinstit ute
Ġhot els
Ġíĸ¥ìĥģ ìĭľíĤ¤ëĬĶ
ĠDe ok
oor i
ĠìĦ±ë¶Ħ ìĿ´
ĠìķĦì§ģ ëıĦ
ĠìĿĮìķħ ìĿĦ
ĠìĨĮìŀ¬ ë¡ľ
Ġabsorb ent
Ġë©ĭ ì§Ħ
hyd ro
P M
S amsung
íķĺ ë£¨
ent ral
ìĽĲ ìĭ¬
um a
Ġìľł ë³ĳ
Ġë¶Ģ ë¥´
ĠìĿ¼ ê°Ħ
íļĮ ìłĦ
ëĦ £
ê¸Ī ìľ¼ë¡ľ
ĠêµĲ ë°ĺ
tern atively
ĠìľĦì¹ĺ ë¡ľ
Ġíģ¬ ê¸°ëĬĶ
ĠìĤ´ ê·ł
Ġhand ed
Wh o
Ġê±¸ ëł¤
Ġris es
íķĺìĭľ ê³ł
Ġê·¹ ëĭ¨
Ġì¸µ ìĿĢ
Ġëª¸ ìĿĦ
Ġìĸµìłľ íķĺëĬĶ
Ġì±ħìŀĦ ìĿ´
ĠìºĲë¹Ħ íĭ°
Ġunem ployment
L ocal
R L
S p
S u
a ug
g yo
ê³ §
Ġf itted
ĠìŀĪ ì£ł
Ġê¸° ë¦Ħ
ì£¼ ìĭĿ
Ġíķĺ íĸ¥
ĠìķĦ ëĤłë¡ľê·¸
ĠìĿ¼ ìłľ
ë¬´ ìļ©
ë³¸ ìĿĦ
Ġë°Ķ ê¹¥
íĹ ¬
Ġë¬´ ë¦İ
wo od
ĠíĻĶ ëł¤
ĠíĨł ìĸĳ
Ġsl urry
ĠìłĳìĨį ëĲľ
Ġsho e
Ġìĭ¤íĹĺ ìĿĦ
Ġlam inate
ĠìĭľìĤ¬ íķľëĭ¤
Ġentrust ed
Ġconscious ness
8 2
A E
j un
ìĿ´ ëįĺ
Ġf ly
Ġb ron
íķĺ ëĿ¼
ure a
ĠG S
Ġper haps
Ġëĭ¨ ìĨį
Ġmet adata
ĠìĹĨ ìĹĪëįĺ
Ġë°° ëł¤
ĠW TO
Ġwhere by
Ġorgan ize
Ġdesign ation
ĠAr my
ë°Ľ ì§Ģ
hy th
Ġjud ging
ëĵ¤ê³¼ ìĿĺ
ĠíĮĲë§¤ íķĺëĬĶ
ìħ¨ ìľ¼ë©´
Ġla ugh
Ġìĺ¨ëıĦ ìĹĲìĦľ
ê³Ħìķ½ ìĿĦ
Ġemot ion
Ġharm ony
ĠìĻĦìłĦ íķľ
Ġdog s
ĠWh at
Ġê·¼ì²ĺ ìĹĲ
iforn ia
Ġì «
Ġin duction
ìĸ´ ìłľ
Ġst ars
ĠìłĦ ëĭ´
ĠP ower
ĠìĿ¼ íķĺëĬĶ
Ġìĭ¤ ìĹħ
Ġj oy
Ġìļ° íķľ
ìĦĿ ìĿĢ
íĨµ ìĥģ
íĨµ ê³Ħ
Ġê³Ħ ê¸°ê°Ģ
Ġêµ¬ì¡° ìłģ
ĠìĿ´ë²Ī ìĿ´
Ġdemand ed
Ġmagn itude
Ġaccommod ate
Ġê·¸ëŁ¬ ë©´
Ġëĭ¹ìĹ° íŀĪ
tem perature
P at
as ury
ì§Ģ ìĬ¤íĬ¸
Ġh oney
ë§ µ
th rough
Ġr um
Ġì¤ĳ ê³Ħ
Ġê·¸ ëŀ¬
ê³µ ìĿĦ
ë¬¸ ìłľëĬĶ
ĠM ovement
and ed
Ġê³ł ëĵ±
ĠH ar
ĠíļĮ ìŀ¥ìĿĢ
ì¤ĳ ìĨĮ
Ġsub ord
ìĭ¬ íķľ
ĠìĹ°êµ¬ ìĻĢ
ĠíĶ¼ ë¶ĢìĹĲ
Ġup load
Ġunder ground
ìĦ¤ ìĿ´
Ġinvest ing
ëĵ± ìĿĦ
Ġíĺ¸ ì¶ľ
Ġconfirm ing
ê¸°ìĹħ ìĿ´
Ġinvestig ations
ĠëĤĺíĥĢëĤ´ ìĹĪëĭ¤
Ġë°©ì§Ģ íķĺëĬĶ
ëĤ¸ ëĭ¤
Ġintellig ent
âī ¥
Ġëª©ìĨĮ ë¦¬ê°Ģ
Ġëļľ ê»ĳ
Ġtele phone
Ġë°Ķê¿ Ķ
Ġrotat ably
ĠíĥĦíĻĶ ìĪĺìĨĮ
Ġconserv ative
Ġmur der
9 3
it ory
íķĺ ëĭĪ
ê¸° ëħĲ
ìľ¼ ìĭľ
ĠS S
ìĪĺ ìĤ¬
íĬ¸ ë¥¨
Ġì£¼ ìľĦ
Ġì£¼ ìĭĿìĿĦ
ĠK y
ĠìĿ¸ ìŀ¥
Ġpl acing
ìķ¼ êµ¬
ĠD el
Ġimp rison
Ġpo ison
ì¦Ŀ ê³¼
ĠíĶ¼ ë¡ľ
íĶ¼ ë¥¼
ĠëĤ¨ ìĦ±ìĿ´
Ġëĭ¬ ìĹĲ
ĠìĹĲ íĭ¸ëłĮ
Ġê²°ìłķ íķĺê³ł
Ġìĺ¬ ëŀĲëĭ¤
Ġì¤Ħ ìĿ´ê¸°
Ġcal ib
ĠíĻĺìŀĲ ìĻĢ
Ġconstit uted
Ġstay ing
Ġserious ly
ĠìĨĶ ë£¨ìħĺ
Ġaccum ulation
Ġaccel eration
Ġrefract ive
Ġillum ination
Addition ally
n m
Ġto uc
ê³ł íķľ
ĠìĿ´ ë¡ľ
ë° Ń
Ġëĭ ¿
ĠC M
ĠC ong
Ġr id
Ġêµ¬ íļį
Ġê°ľ ìĿ¸ìĿ´
ìĥĿ ëªħ
ë¬´ ìĦł
Ġmet ast
ĠL a
íĨµ ìłľ
ĠíĻľ ìķ½
Ġê°Ħ ìĹ¼
ê» ı
ĠìĿ´ìļ© ëĲł
ĠìĹŃ ìĤ¬ë¥¼
ìłĳ ì´ī
ĠìłľíĴĪ ìľ¼ë¡ľ
ì¹´ ë©ĶëĿ¼
ĠëĪ Į
Ġíĸ¥ íķľ
Ġeas tern
ĠëĮĢíĳľ íķĺëĬĶ
Ġê³µê°Ħ ìĿĺ
ë²ł ìĿ´íĦ°
Ġpurch ases
Ġì£¼ìŀ¥ íķĺëĬĶ
Ġëĸł ìĺ¤
lev ision
ĠChrist mas
ĠPa ul
Ġfulf ill
Ġdisplace ment
Ġvel oc
r ams
Ġì į¼
as ound
im a
ìĭľ íĬ¸
ìĭľ ìŀ¥ìĿĺ
Ġde grad
Ġìĭľ ìĪł
ìķĦ ë¦¬
ìķĦ ëħ¸
ìĨĮ ìľł
Ġì£¼ ìľĦìĹĲ
ĠìĿ¼ ëĮĢ
ìĭ¤ íķľ
ë¥´ ëª¬
íĥĢ ìŀĦ
Ġìŀ¬ êµ¬ìĦ±
íĶĦ ê°Ģ
íĶĦ ë¦¬
ĠìļĶ ê±´ìĿĦ
Ġcomm od
Ġ12 5
Ġì¦Ŀê°Ģ íķĺìĺĢëĭ¤
Ġì¤Ħ ìĹ¬
ĠëıĮ íĮĮ
ĠëĪĦ êµ°
ĠìķĪìłĦ ìĿĦ
Ġì¸µ ìĿĺ
Ġíĸ¥ìĥģ ëĲľ
Ġintegr ally
ĠëĪĪ ê¸¸ìĿĦ
ĠìĿ´ë¦Ħ ìĿĢ
Ġtalk ed
Ġgar bage
Us ing
ëŀŃ íģ¬
Ġsynchron ization
Ġprecurs or
G u
Ģ ëĭ¤
it ate
ìĿ¸ ê¶Į
if act
ĠC ard
Ġì¤ĳ ê°ľ
Ġtr ained
Ġê·¸ ë¦¬ìĬ¤
Ġì¡° ìĭ¬
form ance
ĠìķĬ ëĭ¤ê³ł
Ġë§Ī ì»¤
Ġwhere as
hen e
Ġcur ious
ĠìĹŃ íķĻ
ĠìĥĪ ë²½
Ġcirc le
Ġclass room
Ġíĥľ ìĬ¤íģ¬
Ġì¸¡ìłķ íķľ
Ġê·¼ê±° ê°Ģ
Ġë¹Ī ë²Ī
Ġì§ķ ìĪĺ
Ġbed s
ĠíĻķìĭ¤ íķĺê²Į
Ġpolar ization
Ġì¶Ķêµ¬ íķĺëĬĶ
ugg ish
ĠMong ol
íĶĮë£¨ìĹĶ ìŀĲ
ĠìĿ¼íĻĺ ìľ¼ë¡ľ
h our
ì ·Ħ
Ġíķ «
Ġì§Ģ ìľĦë¥¼
Ġì¤ĳ ìĹĲëĬĶ
ĠìŀĲ ëĬĶ
ĠM g
Ġìŀ¥ ë¥´
Ġother wise
Ġë¬´ ìĿ¸
íķŃ ìĿĢ
ë³Ģ ìĪĺ
ëĵ± íķľ
Ġear ned
Ġëĭ´ ê²¨
Ġë¶ģ ìª½
Ġë©´ ìłľ
Ġmult im
Ġstand s
ĠìĨ¡ ê¸Ī
Ġadminist ered
ëłĮ ì¦Ī
Ġrefer ring
Ġpot ato
ìµľê·¼ ìĹĲëĬĶ
Ġwat ched
Ġprec ision
Ġsche me
ĠFed eral
íĶĦëłĪ ìŀĦ
Ġìķī ìķĦ
ĠíİĺìĿ´ìĬ¤ ë¶ģ
Ġmerg er
Ġcum ulative
C L
l ip
p a
Ġê° Ķëĭ¤
ul pt
ĠìĤ¬ ìķĪ
ow s
Ġê°Ģ ë³į
Ġch air
Ġë°ľ ëłĪ
ĠM i
ĠìĿ¼ ìĿ´ëĭ¤
ì§Ħ ê³¼
ĠE bola
Ġë§Ī ì¹ľ
Ġê°ĢëĬ¥ ìĦ±ìĿĢ
Ġë§¤ ëĭ¬
Ġgener ations
Ġ9 8
ëĭ¬ ìĿĦ
ëĦ¤ íĬ¸ìĽĮíģ¬
Ġì¢ĭ ê³ł
ra id
Ġì¹ĺë£Į ê°Ģ
Ġë©´ ëĭ´
Ġcell ul
Ġë°ķ ë¦¬
Ġprom ise
ĠëĨį ì¶ķ
Ġê·Ģ ìĨį
ìĭľê°Ħ ìĹĲ
Ġê³³ ìĿĦ
Ġì¸¡ë©´ ìĿ´
Se cond
Ġseed s
Ġbreat h
Ġê³¤ ëŀĢ
Ġrefuge es
. %
9 4
N O
Ġm un
ro g
us i
Ġì§Ģ ë¶ķ
Ġêµ¬ ìĥģ
Ġcl ause
Ġë© °
Ġìŀ¬ ì§Ī
ĠëĲĺ ëıĮ
Ġ7 7
íı¬ ëĭĪìķĦ
ĠíĶĦë¡ľ íķĦ
Ġê¸°ìĹħ ê°Ģ
Ġsl uggish
ĠíıŃ ìĿ´
Ġgreat est
Ġì¸¡ë©´ ìĿĦ
Ġagree ments
Ġë§Ľ ìŀĪëĬĶ
Ġmechanism s
Ġexceed ing
Ġdur able
Ġìĵ°ëłĪ ê¸°
i ant
ëĭ¤ ë¦¬
ëį ©
Ġêµ¬ íķł
Ġíķĺ ë¥ĺ
ê·¸ ê²Į
ĠëĤ´ ì£¼
Ġë§Ī ìĿ´
Ġê±° ìłĪ
Ġíĺķ ìĥģìľ¼ë¡ľ
íı¬ íĬ¸
Ġëĭ¹ ìĦł
Ġìĸĳ êµŃ
ĠíĶĦë¡ľ ë¸Į
ĠíķľêµŃ ìĿĦ
ĠìĿĮ ì£¼
Ġche ese
Ġíĺĳ ëıĻ
Ġìķ¼ ìĥĿ
ĠìĿ´íķĺ ë¡ľ
Ġgre w
ĠëŃ ĺ
íķĻëħĦ ëıĦ
Ġë¹Ľ ìĿĦ
ĠMar ine
Ġì²ŃìĻĢ ëĮĢ
p atic
Ġf usion
ĠìĿ´ ë£¬
ìĬ¤ íĭ±
ìļĶ ìĿ¼ìĹĲ
00 1
ĠìĿ¸ ìĥĿ
ìŀ¬ ìĹĲ
íļĮ ê³Ħ
ëĲĺëĬĶ ëį°
ĠíķĻ ë¬¸
ĠìĹŃ ëĮĢ
íĭ° ëĤĺ
Ġë²ķ ë¬´
ê°Ŀ ìĿ´
Ġê¶Į ëł¥
Ġë¹ĦêµĲ íķ´
ĠìĿ´íķ´ íķĺëĬĶ
Ġìķ¼ êµ¬
olit ical
ĠíĹ¤ íħĮë¡ľ
Ġstat ue
ĠëĮĢì¶ľ ìĿĦ
Ġì¿ł ìħĺ
Ġìķ± ìĿĦ
Ġradi us
Ġsurpris ed
Ġlux ury
Ġaf raid
e lectric
ch ul
ìĺ ·
ìłľ ë¡ľìĦľ
ĠìłĦ íķĺ
ìĪĺ ì¶ľ
Ġìĭľ ìĿ¼
Ġíķľ ì¸µ
oun ter
ell er
ì¤ĳ ìĿ¸
ì²Ń ìĿĺ
ìĽĶ ìĹĲëĬĶ
Ġê²Ģ ìłķ
olog ic
ĠíķŃ ìĨĮ
ĠëĶ°ë¥´ ëĬĶ
Al ong
Ġexpress ions
Ġdiscuss ing
Ġhospital ization
Ġenc aps
Ġcapac itance
Ġinject ed
bor n
Ġvess els
Ġsynthes is
Ġresc ue
ĠíĶĦë¡ľê·¸ëŀĺ ë°į
Ġlifest yle
C ase
F I
ic ro
ay ers
ìŀĲ ëĤĺ
Ġres ort
Ġë¶Ģ ì§ģ
Ġê³µ ìłľ
ìľł ì¹ĺ
ë¬´ ê°Ģ
Ġë¯¸ ë¦½
ĠëĲĺ ëĬĶëį°
Ġfil ters
Ġdifferent iated
ëĦĲ ëĵľ
Ġë³ĢíĻĶ ìĻĢ
Ġëĭ´ ìķĦ
Ġê¸°ëĬ¥ ìĿĢ
Ġíĥľ ê·¸
Ġì»¨ ìĦ¤
Ġcoll ateral
Ġnegot iation
Ġcounter measures
ĠìłĦë°ĺ ìłģìľ¼ë¡ľ
Ġantib odies
ĠìĽĲìĿ¸ ìľ¼ë¡ľ
ĠëģĬ ìŀĦ
Ġì§ĢëĭĪ ê³ł
o ch
y a
in ery
Ġb olt
Ġh ierarch
ëł ģ
ĠìĿ´ ìŀ¬
Ġpro ud
Ġst y
ĠS illa
Ġì£¼ ì¡°
ìļ° ëłĪíĥĦ
ĠìķĦ ëĤ´
ĠKore as
Ġìłģ ë°ľ
ĠíĻķ ìĤ°ìĿĦ
ëĲľëĭ¤ ë©´
ĠThe ater
ĠíķĻ ìĪł
ĠY i
Ġë²ķ ìĽĲ
Ġê±¸ ë¦¼
ĠíĬ¸ ëłĪ
ĠëĦĺ ê²Į
Ġìĸ´ëł¤ ìĽĢ
Ġëª¨ëį¸ ìĹĲ
ĠëĬ¥ ëıĻ
ĠíĬ¸ë¦¬ ê±°
Ġêµ¬ìĦ±ìļĶ ìĨĮ
Ġthous ands
Ġpie z
w ith
Ġm ere
om atic
ut ch
íĺ Ķëĭ¤
Ġê°Ģ ìļ©
ĠC om
Ġr u
ĠìŀĲ ë¦¬ìĹĲ
íĸī ìľĦë¥¼
Ġê³ł ê¸°
Ġprov en
Ġìłģ ë²ķ
ĠìĹĨ ëıĦë¡Ŀ
Ġdiff usion
íĮĮ ìĿ´
Ġ12 4
ëįĶ ìļ±
Ġpur ification
ĠSt reet
Ġëĭ¤ìĿĮ ìĿĺ
ĠëĿ¼ ëĶĶ
ĠíĹĪ ë¦¬
ĠíĶĦëłĪ ìŀĦìĿĦ
ĠìĤ´íİ´ ë³¼
Ġì¡°ìłĪ íķł
ĠíķĦíĦ° ë§ģ
ì°¸ ê°Ģ
Ġpredic ting
Ġperm it
Ġë¶Ħíı¬ ë¥¼
ĠëªħíĻķ íķľ
Ġphotos ensitive
Ġampl ifier
Ġsand w
Ġkil ometers
ìĿ´ê²ĥ ìĿ´
Ġlawm akers
Ġbankrupt cy
eor ological
er ies
Ġst atic
Ġ2 70
Ġas h
ĠìĿ¸ ë¯¼
íĸī íŀĪ
ĠëıĻ ëł¥
ĠìĦł ì¶ľ
ì¤ĳ ìĿĺ
Ġì§Ī ë¬¸ìĿĦ
Ġgu est
Ġê¸°ìĪł ê³¼
ë¹ Ķ
Ġìķķ ìĹ°
ĠëĤ® ê²Į
ex ist
ìĶ¨ ë¥¼
ĠìĿ´ìĸ´ ì§Ģê³ł
Ġê²Ģì¶ľ íķł
ĠìŀĪìĹĪ ëĬĶëį°
Ġê°Ī ìĪĺë¡Ŀ
Ġë¬´ìĹĩ ìĿ¸ì§Ģ
ĠíĶĮëŀ«íı¼ ìĿĦ
Ġmanufacture rs
Ġdispers ed
Ġhur t
ĠApp le
ëļ Ŀ
Ġepid em
ê¿ Ī
f rom
id ays
Ġìķ ¤
ìĭľ ìŀ¥ìĿĢ
Ġst ere
ìļ© ëŁī
ĠS M
ĠS P
Ġìĭľ ëĮĢìĿĺ
ĠëĤ´ ìĦ¸
ĠN C
ĠH ak
ìĹ° ìĿ´
Ġpres crib
Ġpo le
ë°° ë¥¼
Ġgu ided
Ġë¶Ģë¶Ħ ê³¼
Ġëĭ´ ê³ł
ĠìĿĺë¯¸ íķĺëĬĶ
ĠìķĦëĭĪëĿ¼ ëĬĶ
Ġcompet e
Ġcomb ines
Ġê¸°íĮĲ ìĹĲ
íķĺìĭľ ê¸°
ê²½ìłľ ìłģ
ĠíĨµê³¼ íķĺëĬĶ
ĠìĬ¤íħĮ ìĿ¸
ë¬¼ì§Ī ìĿĦ
Ġëĭ¬ìĦ± íķĺê¸°
ĠDep uty
Ġpharmaceut ically
ĠíķĺìĿ´ ë¸Įë¦¬ëĵľ
m s
Ġr itual
êµŃ ë¦½
Ġíķĺ ìĹĲ
Ġpl ed
ë¹Ħ ìĹĲ
ìŀħ ìĿĦ
ì°¨ ë¡ľ
Ġë¬´ íķľ
ìķĺ ìĸ´
Ġëħ¸ ìĿ´ì¦Ī
Ġins ure
Ġ9 1
Ġgr ains
ëĵ± ìĿĺ
ìķħ ìĿĺ
Ġexpl icit
ju g
ĠíĸĪ ìĿĦ
Ġì¹ľ íĻĶ
ĠìłĦì²´ ìĹĲ
Ġì»¨ ë²łìĿ´ìĸ´
ĠìĻ¸ë¶Ģ ë¡ľ
ĠëĤľ ë°©
ĠíĶĦëłĪìŀĦ ìĿĺ
ĠìłĦë§Ŀ ëĲľëĭ¤
reg n
Ġdest ruction
Ġden ied
ê³Ħíļį ìĿĦ
Ġëį® ê°ľ
Ġqual itative
Ġfer ment
Ġëıķ ëĬĶ
Ġíĺ¸íĿ¡ ê¸°
ĠìķĶíĺ¸íĻĶ íıĲ
Ġpand emic
C N
c ap
Ġìł ĸ
ĠìĪĺ íĥģ
Ġg inseng
ëĮĢ ë²ķ
oc heon
Ġì£¼ ìŀ¥ìĿ´
Ġtr uck
ìĭł íĥģ
Ġê³µ ì§Ħ
Ġdis ability
ĠìĿĺ ì§Ģë¥¼
íĺ¸ íĿ¡
ĠíĪ¬ ìŀĲê°Ģ
Ġmat h
Ġëģ ĵ
ë¹ ħ
Ġprom ised
hy dr
Ġíģ´ ë¡ľ
Ġíĥľ ëıĦ
íĥĦ ìĺ¬
íķĺìĺĢ ëĬĶëį°
Ġì¶Ķìłķ ëĲľëĭ¤
ĠDef endants
Ġìĭłì²Ń ìĿĦ
Ġì°¸ìĦĿ íķ´
ĠIs ra
Ġì°¸ì¡° íķĺìĹ¬
Ġìļ¸ ìĤ°
Ġultr asound
Ġrepro duction
ìĽ¨ ëį´
ĠAfric an
link ed
9 6
m od
n as
ë ¤
Ġthe at
Ġare n
Ġat e
ĠìĿĺ ìĤ¬ê°Ģ
Ġì¡° ì¹ĺê°Ģ
ĠB ureau
Ġcl ip
Ġimp urities
Ġser v
Ġall iance
ĠìĻ¸ ë¶ĢìĹĲ
Ġë¬¸ìłľ ìĻĢ
ĠíķľêµŃ ìĿ´
ĠíĻķìĿ¸ íķľ
Ġëª» íķľëĭ¤
Ġë§ŀ ì¶Ķìĸ´
Ġcult ivation
Ġê³µê¸ī ëĲĺëĬĶ
Ġê°ĲìĨĮ ìĭľíĤ¤ëĬĶ
ĠêµŃëĤ´ ìĹĲìĦľ
Ġìłľìĭľ ëĲľ
Ġë³´ëĤ´ ëĬĶ
ĠíķĻìĬµ ìĿĦ
Ġtravel ers
Ġë¬¼ì§Ī ìĿ´
Ġz inc
Ġë²ĶìľĦ ê°Ģ
Ġëī´ ìĬ¤
Ġload ed
Ġproceed s
Ġë» Ĺ
Ġvo ices
ĠìĿ´ ë¥´ê¸°
ê³¼ ìĦ¸
ĠìĤ¬ ìļ°
Ġìĥģ ë¥ĺ
Ġê´Ģ ìĦ¸
Ġsh orter
Ġì£¼ ìŀ¥ìĿĦ
Ġìŀ¥ ë©´
ĠìĨĮ ë¦¬ë¥¼
ĠìĽĲ ëĤ´
wo ok
íĶĮ ë¦¿
Ġì¹ĺ ì¦Ī
Ġëĭ¨ê³Ħ ìĹĲ
Ġlight s
ĠìĺģìĹŃ ê³¼
ë©Ķ ìĿ´ìħĺ
ëĲĲ ëĭ¤ëĬĶ
Ġë°ķ ëŀĮ
ĠíĮĲëĭ¨ ìĿĦ
Ġacqu ires
Ġê±´ê°ķ ë³´íĹĺ
ĠìĨĮë¹Ħ ìŀĲìĿĺ
Ġdivid end
Ġëª° ëŀĲ
Ġresist ant
Ġbur ied
pro fit
Ġìłģíķ© íķ©ëĭĪëĭ¤
ĠGang neung
Ġpursu ed
ĠVietnam ese
Ġultr aviolet
ĠíİĢ ëĵľ
Ġintent ions
ĠìĦ¸ê·¸ ë¨¼íĬ¸
Ġoppon ent
íķ´ ì£¼ìĦ¸ìļĶ
ol s
ìĹĲìĦľ ë¶ĢíĦ°
ëĤĺ ë§Ī
ĠíĻ Ģë¡ľ
Ġim per
ëĭ¨ ì²´ìĿĺ
Ġwor st
ĠT B
ê°ģ ê°ģìĿĺ
ĠìĺĪ ìĤ°ìĿĺ
ì¤ĳ íķ©
Ġsur fact
ì¢ Ģ
íĺĦ íĸī
ĠìĿ´ìļ© ìŀĲ
Ġì§ĢìĹŃ ìĿ´
ĠëĮĢìĥģ ìĿĦ
ĠìĪĺíĸī íķĺê³ł
ph a
ĠìĿ´íĽĦ ìĿĺ
ĠìĿ¼ë°ĺ ìłģ
Ġsubstr ates
Ġê²½ìŁģ ëł¥
Ġì£¼ë³Ģ ìĿĺ
Ġlens es
ĠPe ak
ĠìĿ¼ìľ¼ íĤ¤
Ġast h
Ġëĭ¹ë¶Ģ íĸĪëĭ¤
ĠCap ital
Ġenth usi
G I
h al
Ġt one
ëĭ «
ĠìĿ´ ê°ĻìĿ´
êµ¬ ë¡ľ
Ġtr ib
ĠìĹ° ìĺĪ
Ġì¶ ĺ
Ġëª¨ ë°ľ
pt ide
ĠìĦľ ìĹ´
ĠìĦ¸ ìħĺ
ĠW ater
ĠíĮĮ ìĥĿ
íĶĮ ëĿ¼
ĠSe on
ìĽĮ ìļĶ
Ġëĵ¤ìĸ´ ê°ĢëĬĶ
13 1
Ġê°ĲìĹ¼ ëĲľ
ĠíĶ¼íķ´ ìŀĲ
pro cess
ìŀ¥ì¹ĺ ìĿĺ
ĠëĵľëŁ¬ ëĤ¬ëĭ¤
Ġìľłìļ© íķĺëĭ¤
ĠMon day
ĠíĬ¸ëłĪìĿ´ ëĭĿ
L B
m al
s um
íķ´ ìĸĳ
ĠìĿ´ ìĨĮ
ĠìĿ¼ ìĹĲ
Ġê²° ë¡łìĿĦ
íĥĢ ë¥´
Ġìĺ¤ íİĺëĿ¼
ê±´ ìĹĲ
ìŀĦ ìĿ´
ĠëĨĴ ìĹ¬
ëĳĲ ìĹĲ
Ġíģ Ĳ
own ed
Ġë°Ģ íıĲ
ìħ¨ ìĸ´ìļĶ
Ġfall en
Ġreview ing
Ġsell er
Ġfarm s
Ġìļ°ìĦł ìĪľ
Ġê²ª ëĬĶ
ĠíĮĮëĿ¼ë¯¸íĦ° ë¥¼
ĠìĬ¤íĨł ë¦¬ì§Ģ
ĠëĮĢì±ħ ìĿĦ
ĠCS R
U V
Ġm ouse
Ġn or
ig er
Ġìłľ ëıĦê°Ģ
Ġìĭľ ë¦¬ìķĦ
ĠìĿĺ ê±°
ĠM u
ĠìĨĮ ê²¬
ĠìłĢ ì¶ķ
ì¤ĳ êµŃìĿĺ
ĠìļĶ ë¦¬ë¥¼
ë¥ł ê³¼
Ġtyp hoon
ĠìĪľ ìľ¼ë¡ľ
íĪ¬ ëªħ
Ġê¸°ë¡Ŀ íķľ
Ġì¼ ľ
ĠìļĶì²Ń íķł
ĠìĪĺìļ© ì²´
ê¸°ê´Ģ ìĿ´
Ġê±°ëŀĺ ê°Ģ
Ġmaintain s
Ġíİ¸ë¦¬ íķĺê²Į
Ġprecip itation
Ġsear ched
ĠCal ifornia
k yung
Ġn ative
ë¦¬ ë©´ìĦľ
ìļ© íĴĪ
ĠìŀĲ ê¶ģ
ag o
Ġen for
ĠìĬ¤ íĭ¸
Ġê±° ì§ĵ
Ġê°ķ ëıĦê°Ģ
Ġbl ades
âĢĻ (
ĠìķĦëĭĪ ì§Ģë§Į
ĠíĮ¨ ëŁ¬
Ġìĭ¬ íĻĶ
Ġìĺģíĸ¥ ìĹĲ
ĠìĨį íķľ
Ġìłģìļ© ëĲľ
Ġì°¾ ìĿĢ
Ġìłķë¶Ģ ìĹĲ
Ġmus h
ê´ ľì°®
Ġê²ĢìĤ¬ ìĹĲìĦľ
Ġsuggest ing
Ġì¦Ĳ ê¸°ëĬĶ
ëģ¼ ë¦¬
Ġnan op
ĠPe ace
Ġconvenient ly
Ġì¹ĺíĻĺ ëĲľ
Ġventil ation
O H
Ġs itting
Ġw ra
Ġin duct
Ġbe ams
ìĬ¤ íĶ¼
ìĽ ¹
Ġê¸° íķĺ
ëĮĢ ìĤ¬
op oly
ĠB el
ĠF amily
Ġìĺģ íĻĶë¥¼
Ġìĸ´ ìļ°
ĠìĬ¤ íİĺìĿ´
ĠìĦ¸ ê·ł
Ġconf usion
ail s
Ġì§ģ ìĦł
Ġìĭ¤ìĭľ íķĺëĬĶ
Ġìĭľê°Ħ ìĿĺ
ra is
Ġìłģìļ© ìĿĦ
Ġì¤Ħ ìĿ´ê³ł
Ġê´Ģë¦¬ íķł
Ġíģ´ ëŁŃ
Ġê°ĲìĨĮ ìĭľíĤ¬
ĠíĻľëıĻ ìĿĺ
ĠìłķëıĦ ëĬĶ
ĠíĨµìĭł ë¶Ģ
Ġë¹ĦêµĲ íķł
Ġì§Ģë°© ìĦ¸
Ġë¹Ī ê³¤
Ġdram as
Ġcoord inates
Ġëĭ¨ëŁī ì²´
Ġunderw ent
Ġp ages
íķĺ ì£ł
ê³ł ëĵ±íķĻêµĲ
Ġë§ ĳ
Ġë³´ ëĥĪ
Ġê·¸ ê±¸
ĠìŀĲ ë¬¸
ag ues
der ing
ĠìĦľ ìĪł
ë°ĺ ëıĦì²´
Ġë§Į ìķ½
Ġê³Ħ ê³¡
ĠCh apter
Ġë¬¼ ì²´
ĠìķĦëĭĪ ìĹĲìļĶ
ĠíĻķìĿ¸ íĸĪëĭ¤
Ġsignal ing
íħĮ ë¦¬ìķĦ
Ġíİ¸ íĸ¥
Ġíħ į
Ġë°©íĸ¥ ê³¼
Ġmake up
Ġíĳľìĭľ ë¶Ģ
ëģ Ī
Ġë³´ê³ł ìĦľë¥¼
ĠìĤ¬ê±´ ìĿĺ
ì£Ħ ìĿĺ
Ġnorm s
ê¸Ģ ë¦¬
Ġìĸ´ëłµ ëĭ¤ëĬĶ
St arting
ëĭ¬ëŁ¬ ìŀħëĭĪëĭ¤
Ġêµ¬ë©į ìĿĦ
ĠìĿ´ë¡ł ìłģ
Ġê³¼íķĻ ê¸°ìĪł
Ġvot es
ĠëĬĲëĤĮ ìĿĦ
Ġspect rum
Ġlawy er
Ġhygi ene
E B
Ġp ou
Ġh orm
et ting
ë§ Ļ
Ġde le
ìĽĲ ì¹Ļ
ac c
Ġun ified
ë¬¸ íķĻ
ĠëĤ´ ë¦°
Ġab ilities
Ġ4 30
ĠJ oon
ame work
ĠL ake
ëª¨ ëĳĲ
ĠíĶĦ ëŀĳ
Ġíıī íĥĦ
ĠíĪ¬ ìĪĺ
Ġknow s
ìĥī ìĿ´
Ġart ifact
Ġëª¨ëĳĲ ë¥¼
Ġë¸Ķ ëłĪìĿ´ëĵľ
Ġcent r
ĠìŀĪìĹĪ ìĸ´ìļĶ
Ġìħ °
Ġì¦Ĳ ê±°ìļ´
Ġëĸł ìĺ¬
Ġmicro sc
Ġì¹´ë©ĶëĿ¼ ë¥¼
ê²°ê³¼ ë¥¼
Ġple asant
v ance
it arian
ìĿĺ ìĤ¬
ê°Ģ ìłķ
Ġë§ ¹
ud i
Ġìłķ ë§¥
ĠK IA
íĥĢ ë¥¼
ìĹĪëĭ¤ ëĬĶ
Ġìŀ¥ì¹ĺ ìĹĲìĦľ
Ġê°ķ ì²ł
ĠíĮĮ ë¦¬
Ġwork sh
Ġfl our
Ġìĭ¤ìĭľ íķĺê³ł
Ġì²´ ë¥ĺ
Ġperiod s
ĠêµŃê°Ģ ìĹĲ
Ġbro wn
Ġë¸Į ë¦¬
ĠíķĻìĥĿ ëĵ¤ìĹĲê²Į
Ġsw ine
ĠëĤł ê°ľ
Ġsimilar ity
Ġì¶Ķì§Ħ íķĺëĬĶ
Ġbehav iors
Ġinterview s
ë¯¼ì£¼ ëĭ¹
ĠOlymp ic
Ġcontam inated
Ġë°Ģìłĳ íķľ
boxy lic
C ould
b ean
m o
u ly
ê ¶
in ent
ê¸° ìĦ±
ìĿ¸ ìĭĿ
Ġê¸° ì¦Ŀ
ap ing
íļĮ ìĤ¬ê°Ģ
ĠìĨĮ ëħĢ
Ġê²° ìĬ¹
ë¬´ ëĬĶ
ĠìĺĪ ìĹĲìĦľ
ĠìĺĪ ìĤ°ìĿĦ
Ġport al
Ġbo oth
Ġë¦ ´
Ġì¤ĳìļĶ íķ©ëĭĪëĭ¤
ĠêµŃê°Ģ ìĹĲìĦľ
Ġrest ored
ë¸Ķ ë¦¿
Ġìŀħëł¥ ë¶Ģ
Ġrot ate
Ġcalc ulates
Ġíķ´ê²° íķĺëĬĶ
ĠìĦ¸íı¬ ìĿĺ
Ġattract ions
Ġëĭ´ëĭ¹ íķĺëĬĶ
Ġep is
Ġcert ified
ë¶ĦìĦĿ ìĿĦ
Ġëį® ëĬĶ
Ġdeliver ing
Ġë³¸ê²© ìłģìĿ¸
press ure
ëĴ ¤
Ġê´ĳë²ĶìľĦ íķľ
M an
O L
y roid
ir ae
Ġde als
Ġê¸° êµ¬ë¥¼
Ġê°Ģ ì£½
os a
Ġhe s
ë§Į ìĽĲìĿĦ
Ġë¶Ģ ìľĦ
Ġê³µ ìĿĦ
end ers
Ġëª¨ ìľ¼
ag en
ĠìĦľ ìĦľ
Ġë§Ī íģ¬
ĠëĨĴ ëĭ¤ëĬĶ
Ġcor ros
Ġunder go
Ġì§ģ ë¬¼
íķŃ ìĿ´
ëł¹ ìĿĦ
Ġbeing s
Ġì§Ħíĸī íķľëĭ¤
11 6
ĠìĿ´ë¯¸ ì§Ģê°Ģ
ĠìĤ¬íļĮ ìĹĲ
Ġë¯¼ ìĤ¬
Ġì¼ĢìĿ´ ìĭ±
Ġcomplex es
Un f
ĠEx change
Ġwave form
ìĥĿíĻľ ìĿĦ
ĠìĿ¼ìĸ´ ëĤĺëĬĶ
Ġbreat hing
Ġencry ption
Ġìķ¨ ë²Ķ
Ġadolesc ents
comfort able
D r
íķĺ ëĿ¼ê³ł
ver ty
ìĹ¬ ìŀĲ
ìĹ¬ ë¦Ħ
ĠC amp
Ġë³´ ëĵľ
qu are
ac co
Ġëĭ¤ ìĦ¯
íĮ Ŀ
íļĮ ìŀ¥
ĠëıĦ ì²´
Ġpo verty
ëª¨ ë¥¼
Ġê³¼ ìĿ¼
íĮĲ ìĿĢ
ĠíĻĶ ë©´ìĹĲ
Ġresult ed
ĠëĤ´ìļ© ìľ¼ë¡ľ
ĠìĿ´ìĸ´ ìĦľ
Ġwin ner
Ġìŀ¬ë£Į ëĬĶ
Ġsuccess ion
ìĭľìĦ¤ ìĿĦ
Ġsumm ary
Ġê´ĳê³ł ë¥¼
íŀĮ ëĭ¤
Ġharm on
Ġfoot ball
Ġrecon struction
gy pt
ĠìĬ¤íĥĢíĬ¸ ìĹħ
Ġacou stic
G iven
re f
Ġm all
ë¦¬ íķĻìłģ
ê³¼ ëıĦ
ĠìĤ¬ ìŀ¥
ëŁ ¿
ë©´ ìĹĲëĬĶ
Ġle af
se e
ĠìķĦ ëĵ¤
Ġìĭł ìĥĿ
Ġíı¬íķ¨ ëĲ©ëĭĪëĭ¤
Ġë¯¸ íĿ¡
Ġthere on
20 14
Ġall ocated
íı¬ íĻĶ
ìĽĶ íķľ
Ġëªħ ë°±
ì¡Į ëĭ¤ëĬĶ
Ġì¶ľëł¥ íķľëĭ¤
ìĦ¼íĦ° ìĹĲìĦľ
Ġë¨¸ ìĭł
Ġê·¸ê²ĥ ìĹĲ
ĠìĤ¬ë§Ŀ íķľ
ëĵľë¦¬ ë©°
Ġëħ¸ëł¥ íķĺê³ł
Ġexperim ents
Ġliter ary
íĶĮë£¨ ìĺ¤ë¡ľ
íļ¨ê³¼ ë¥¼
Ġhab its
Ġpregn ancy
Ġsatell ite
Ġprolong ed
0 2
Ġh itting
il ized
ĠìĿ´ ì£¼
um es
Ġì¡° íĺķ
Ġëª¨ ë¥´ëĬĶ
ĠJ oo
ry st
ìĿĮ ìĿĢ
Ġ8 3
ĠíĮĲ ë³Ħ
ĠìĹ´ ì²ĺë¦¬
str a
11 5
Ġíĺĳ ìĥģìĿĦ
Ġapplic ants
Ġreal istic
Ġdon ations
Ġê·Ģ êµŃ
ĠëĮĢìĿĳ íķł
Ġcaus al
Ġsepar ator
Ġhol idays
ĠíıŃ ëł¥
ĠíĺĪ ìķķ
Ġenjoy ing
man ned
Ġestim ates
erson al
ĠëĳĲê»ĺ ë¥¼
ĠìĿĺë¬´ ê°Ģ
Ġcateg or
Ġded uction
intend ent
h i
Ġst re
ĠìĤ¬ ë¬¼
Ġcomp liance
ìĽĲ ìŀĲ
Ġìĭľ ìĥģ
Ġìĭľ ìķ¼
Ġìłķ íĻĶ
Ġ3 40
Ġê·¸ ìĻĢ
ĠìŀĲ ìĦ±
ĠìķĦ ë¹ł
ĠëıĻ ë¶ģ
ëĭ¬ ëĿ¼ê³ł
Ġë¹ Ļ
ê°ķ ëıĦ
Ġend osc
Ġì¢ħ ëŀĺ
ĠìĹĲ ë³¼ëĿ¼
Ġcontain ers
Ġì°¸ìĹ¬ íķ´
Ġadm inister
Ġwr it
ĠCon ference
ì¹ľ êµ¬
ãĢ Į
Ġ199 4
Ġlet ters
ĠìĶ »
Ġê·ľëª¨ ëĬĶ
ĠëĨĵ ìĹ¬
Ġdest inations
ĠìĹ°ìĨį ìłģìľ¼ë¡ľ
Ġcommand s
Ġë³ĢìĪĺ ë¡ľ
Ġmis under
Ġimmun ity
Ġwilling ness
Ġincent ives
Ġace t
Ġmagaz ine
Ġveloc ity
Ġb ars
ìĦľ ëıĦ
et o
Ġg od
ìĦ± ëĬ¥
ëĵ¤ ê»ĺ
ĠA b
ĠI g
ìĿ¼ ëŁ¬
Ġìłķ ëŁī
ì° ¾
Ġì¡° ìķ½
ĠëĤĺ ìģľ
ë¯¸ ìĦ¸
ĠJ ohn
Ġen cl
Ġê±° ê¸°
Ġtrans verse
ĠêµĲ ë¶Ģ
Ġë§¤ ëıĦ
Ġê°Ħ ê²©ìĿĦ
ĠìĿ´ìļ© ëĲĺëĬĶ
Ġgr ap
ì¸¡ ìłķ
Ġíģ¬ ë¦¼
ë°° ê°Ģ
Ġì§Ħíĸī íķĺìĺĢëĭ¤
Ġë°ķ ë¬¼
ĠëĨį ëıĦë¥¼
ĠìĦ¼ ìĦľëĬĶ
ĠíĻĺê²½ ìĿ´
Ġëĸ ¼
Ġìĸ» ëĬĶëĭ¤
ìĹ°êµ¬ ìĽĲ
ĠSh anghai
Ġbuy ers
Ġêµ¬ë§¤ íķł
Ġë¶Ħë¦¬ ëĲľ
Ġì·¨ëĵĿ íķľ
ìĿ¸ëį° ìļĶ
ĠìĽĲì¹Ļ ìĿĦ
Ġì¡°ë¦½ ì²´
cont ract
Stud ents
Ġë¯¸ìĦ¸ë¨¼ ì§Ģ
ĠìĬ¤íĬ¸ë¦¬ ë°į
9 00
h w
m ia
Ġ )
at ric
Ġd ense
Ġl ift
ìľ¼ë¡ľ ëıĦ
ir th
ìĤ¬ íĥľ
ĠëĮĢ ì¹Ń
Ġcomp uls
Ġêµ¬ ëıħ
ĠìĿĺ ìĽĲìĿ´
ĠìĥĿ ê¸°ëĬĶ
Ġimp ed
ĠìłĢ ìĺ¨
Ġte levision
Ġë°ĺ ëĮĢë¡ľ
Ġsc ulpt
Ġrep utation
Ġë§Ĳ ëłĪìĿ´ìĭľìķĦ
Ġcor ruption
ìľ¨ ê³¼
Ġëª© ìŀ¬
Ġsens ed
Ġë³ĢíĻĶ ìĿĺ
ĠíĻĺê²½ ìĿĺ
ĠíĦ° ëĦĲ
ĠíĬ¹ì§ķ ìĿĢ
Ġê¸¸ ê²Į
Ġìłľìĭľ íķľëĭ¤
ì¼Ģ ìĸ´
Ġë¸Ķë¡Ŀ ìĿĺ
Ġlog ical
Ġìĭłë¢° ë¥¼
Is n
Ġcop yright
ìĦľìļ¸ íĬ¹ë³Ħìĭľ
ĠPlaintiff s
Ġelastic ity
Ġfol ding
Ġëĭµë³Ģ ìĿĦ
Ġëĭ¤ìļ´ ë¡ľëĵľ
Ġë§¤ëĭĪ ìłĢ
Ġdum my
Ġpiez oelectric
Ġë ±ħ
im acy
ol ar
Ġst uff
ĠS ite
ĠI B
Ġres il
ĠT a
ĠìłĢ ëıĦ
ê²° ìĿĦ
ë¶ĢíĦ° ëĬĶ
Ġê°ķ íĻĶë¥¼
Ġcol ored
Ġíĸī ìĤ¬ëĬĶ
Ġbus es
Ġtyp ically
Ġê°ľë°ľ ìĿ´
Ġê³Ħíļį ìĿ´
ĠìķĪìłķ ìĦ±ìĿĦ
Ġìĵ° ê¸°
yc les
ĠìĦ¬ìľł ë¥¼
ĠìĿĺìĤ¬ ìĨĮíĨµ
Ġëª¨ëĵľ ë¡ľ
Ġansw ers
Ġê¶ģ ê·¹
ĠìĦłíĺ¸ íķĺëĬĶ
ĠBo ard
ĠìĹĦê²© íķľ
Ġarchitect ure
ì»´íĵ¨ íĦ°
ĠëŁ° ëįĺ
fr ame
ĠEconom y
V P
ê¸° íķľ
ìľ¼ ìĦ¸ìļĶ
Ġse gments
Ġres ign
Ġun comfortable
ĠíĮ ģ
ĠìķĦ ìļ°
ë²ķ ìłģ
Ġsy mmet
Th ree
Ġê²½ìļ° ìĿĺ
Ġ9 6
Ġed iting
ĠíķľêµŃ ìĿĢ
íİ¸ ìĿ´
io x
ĠìĹ°ê²° ìĿĦ
work s
ĠìłķëıĦ ìĹĲ
ĠìŀĪìĹĪëĭ¤ ê³ł
ĠëĶĶìĬ¤íĶĮëłĪìĿ´ ë¶Ģ
Ġsing ing
Ġmob ility
ê¸°ê´Ģ ìĹĲ
ĠíĶĦëłĪìŀĦ ìĹĲ
Ġess ence
ĠëıĪ ìĿ´
Ġconvey or
Ġentreprene urs
Ġasth ma
R T
Ġl inking
Ġg aining
un ar
ĠA re
ĠìľĦ ê¸°ìĹĲ
Ġì¤ĳ íķĻêµĲ
Ġë¶Ģ ì²ĺ
ĠìĿ¸ íħĮ
Ġë°© ìĹ´
ê¸Ī ìĹĲ
Ġman if
ëŀĺ ê·¸
ĠêµŃ ìĨĮ
Ġreg eneration
Ġê²½ìļ° ìĻĢ
Ġìŀħ ìŀ¥ìĹĲìĦľ
ĠíĻĶ íıĲ
Ġdr one
Ġì¸¡ ìĿ´
ì²ľ ìĿ´
Ġì¶ķ ë°©íĸ¥
Ġtermin ation
ĠëĮĢíĳľ íĮĢ
ë²ł íĬ¸ëĤ¨
Ġdistrib ute
ĠìĪĺìļ© íķĺëĬĶ
ĠëĮĢë¶Ģë¶Ħ ìĿĢ
Ġaccept ing
mon th
ĠìłĦë§Ŀ ìĿ´
Ġinvol vement
Ġê°ľë³Ħ ìłģìľ¼ë¡ľ
Ġbreak fast
Ġê¸Ģ ë¦¬
ëĨĵ ê³ł
Ġabsorb ing
Ġdepend ence
Ġdemonstr ation
ê²ģ ê²Į
ĠìķĦìĭľ ìķĪ
Ġë¶Ģê°Ģê°Ģ ì¹ĺ
8 1
a ven
r ange
Ġc ough
Ġd rew
Ġto ugh
Ġre ward
ĠëĮĢ ëĳĲ
os u
em un
ill ance
ĠP ension
Ġìĭ¤ ìļ©
ìĪ į
Ġëĭ¹ ìĤ¬ìĿĺ
Ġëĭ¹ êµŃìĿ´
Ġ9 4
ê´ĳ ì£¼
ĠíĪ¬ ìĺģ
Ġcr ude
ĠSt at
ìĥī ìĿĺ
ëĲĺìĹĪëĭ¤ ëĬĶ
ĠëĿ¼ ëĶĶìĺ¤
ĠíĻľìļ© ëĲł
Ġëª° ëĵľ
Ġcard i
Ġsearch ing
ĠíĻĶíķ©ë¬¼ ìĿĢ
Ġcapt uring
Ġforest s
Ġple asure
ĠìĪĺìĪĺ ë£Į
Ġëħ¸íĬ¸ ë¶ģ
Ġurg ently
8 4
e lect
Î ²
ê°Ģ ìĻĢ
ìĭľ ìŀ¥ìĹĲìĦľ
Ġst ably
ist ent
ĠK o
Ġì¡° ìļ©
ĠB ase
Ġë¹Ħ ì¶Ķìĸ´
ĠD L
ĠN ong
ĠëķĮ ê°Ģ
ìĪ Ń
Ġmet als
ĠíĬ¹ ìĦ±ê³¼
Ġoff line
Ġê¸Ī íĺķ
Ġëĵľ ëĬĶ
ĠìķĦëĭĪ íķľ
Ġìĺģíĸ¥ ìĿĢ
Ġíİ¸ ìŀħ
Ġíļ¨ê³¼ ìĹĲ
Wh ich
Ġíģ´ ë¦Ń
Ġíı´ë¦¬ ìļ°ëłĪíĥĦ
Ġfactor ies
Ġappropri ately
ĠRe al
Ġep it
eth yl
ĠíĬ¹ìĦ± ìĥģ
Ġì§ķ ê³Ħ
Ġinj uries
ĠCl ass
Ġvib r
Ġrecon struct
Ġë°ĸ ìľ¼ë¡ľ
Ġtro ops
ĠForm ula
Ġtens ile
Ġrig id
Ġchalleng es
ĠíĪ ´
Unf ortunately
I B
º ¾
ad ded
Ġv ic
Ġì§Ģ ì£¼
ìķĦ íĶĦë¦¬ì¹´
Ġint angible
ĠD onald
ĠëıĦ ë©ĶìĿ¸
Ġìĺģ ìĥģìĿĺ
Ġj un
Ġìŀ¬ íķ´
ĠëįĶ ë¯¸
ĠëĦ ¥
Ġê°ķ ìĽĲëıĦ
ì²ľ ì§Ģ
ëª© ìľ¼ë¡ľ
Ġê°Ģìŀ¥ ìŀĲ
ĠëłĪ ë²Ħ
Ġì¤Ħ ê¸°
Ġì¤ĳêµŃ ìĿĢ
Ġì¸¡ìłķ íķĺìĺĢëĭ¤
Ġê°ĲìĨĮ ë¥¼
Ġë¸Į ëĿ¼
Ġë³´íĺ¸ íķĺê¸°
Ġê³łëł¤ íķĺë©´
ĠìļĶêµ¬ ìĹĲ
ĠíĶĦë¡ľìĦ¸ ìĦľëĬĶ
Ġbuy er
Ch inese
az a
Ġincreasing ly
ĠìŀĲë£Į ê°Ģ
Ġcitiz en
ìŀ¥ìķł ìĿ¸
Ġpreced ents
ĠëıĮìĹ° ë³ĢìĿ´
h ole
Ġw ired
an ol
id s
Ġy es
Ġìĭľ ë©ĺíĬ¸
ìķĦ ëıĻ
Ġêµ¬ ëĭ¨
Ġìľł íĬľë¸Į
ìĭĿ ìĹĲìĦľ
ĠF oot
Ġë°° ê´Ģ
ì°¨ ë³Ħ
Ġì¶Ķ ìĸµ
ì¤Ģ ë¹Ħ
ì¢ħ ìĿĢ
Ġì¶ľ íĺĦ
Ġdr ag
Ġìļ© ëıĦ
ob ic
Ġìĭ¬ ë³¼
ì§ĳ ìĹĲ
oy ang
Ġopen ings
ĠëĮĢìĥģ ìĹĲ
Ġíŀ Ĳ
ëı¼ ìķ¼
Ġë²Į ìį¨
Ġcho osing
pat hy
Ġpoll ut
ĠJeoll anam
Ġju ice
Ġrect angular
h ou
Ġin aug
ĠìłĦ ìĽĲìĿĦ
Ġë³´ ìłĦ
Ġì¤ĳ ë°ĺ
Ġle ver
ĠH ang
ĠE G
ìķĺ ìľ¼ë©°
Ġfin ishing
Ġinv ite
ĠìłĲ ìĪĺë¥¼
ë³ĳ ìĿĦ
Ġë§ŀ ì§Ģ
ĠìĥĿìĤ° ìĦ±
ìłĢíĿ¬ ìĿĺ
Ġë³´íĺ¸ íķĺëĬĶ
Ġìłķì±ħ ìĿĢ
Ġê°Ģê²© ìľ¼ë¡ľ
ĠìĥģíĴĪ ìĹĲ
ĠíĶĦëłĪ ìĬ¤
Ġtext ile
Ġì¶Ķì§Ħ íķĺê³ł
Ġê²½ìŁģ ìĿ´
ĠìĤ¬ê³ł ë¥¼
Ġcertain ly
Ġappe als
ĠìłĦë§Ŀ íĸĪëĭ¤
ĠìĽĢì§ģ ìĿ´ëĬĶ
ĠìĨ¡ìĭł íķĺëĬĶ
Ġtom b
Ġê·¸ë¦¼ ìĿĦ
Ġpad s
ìĦľë¹ĦìĬ¤ ë¥¼
Ġreson ance
ì²ŃìĨĮ ëħĦ
A V
U E
w ing
íķ į
Ġh i
ĠëĮĢ ëĭµ
ìļ© ìĿĺ
Ġse vent
Ġê·¸ ê±°
Ġë°© ê³¼
Ġì° Į
íķ© ìĿĺ
ĠìĹ¬ ë¶ĢëĬĶ
ĠR NA
íĨµ íĻĶ
ĠCh ampionship
Ġê°ķ ìĽĲ
ĠW ave
ĠìĤ° íķĺ
ĠìłĲ ìĪĺ
Ġknow ing
Ġmark s
Ġìĭ¤ìĭľ íķł
ĠìĹĲ íĶ¼
ĠV ol
Ġìĭ¬ ì¸µ
Ġíĺ¸ íĻĺ
Ġdiscl ose
Ġë¬¼ì§Ī ë¡ľ
ëķĮ ë¬¸ìĹĲ
Ġord inance
Ġì°© íĥĪ
Ġê³§ ë°Ķë¡ľ
Ġì¤Ħìĸ´ ëĵł
ê²½ê¸°ëıĦ ëĬĶ
ĠFr amework
ĠëĬĺìĸ´ ëĤł
Ġìĺ¤íĶĦ ìħĭ
Ġfight ing
ĠëĮĢíĸ¥ íķĺëĬĶ
Ġrevital ize
ĠGl obal
M R
M W
e un
r ine
om ers
ig ital
ìłģ ìŀħëĭĪëĭ¤
oc c
ë¬¸ ìŀ¬ìĿ¸
ĠB L
ĠëĤ´ ìĻ¸
Ġë¹Ħ ìłķìĥģ
ì¤ĳ êµŃìĿĢ
ìŀĳ ìĿĢ
Ġinter ven
Ġconf ront
Ġíıī ìĨĮ
Ġíıī ìĸĳ
Ġìłĳ ì§Ģ
Ġfl ash
Ġê¹ ľ
ëĲĲ ì§Ģë§Į
Ġíİ¸ ìĿ´ëĭ¤
Ġìĺ¬ ë¦°
Ġcre w
Ġrest ruct
Ġê¸°ëĬ¥ ìĹĲ
ìľĦìĽĲ ìŀ¥
arent s
Ġcheck s
ĠìłĦì²´ ê°Ģ
Ġrele asing
Ġì°¨ëŁī ìļ©
ĠìĪĺëĭ¨ ìĹĲ
ĠíķĻêµĲ ìĹĲ
ì§ĢëĤľ ëĭ¬
Ġobs erve
Ġprog n
Ġprog ression
Ġê²½ì°° ìĿ´
Ġê·¼ë¡ľ ìŀĲ
Ġhor se
Ġgraph ic
Ġsam pling
Ġcook ed
Ġëª©ë¡Ŀ ìĿĦ
Ġcoast al
Ġinquir ies
Ġdeleg ation
Es pecially
Ġo ct
ëĬĶ ì§Ģë¥¼
ìĭľ íķĺëĬĶ
Ġìľ ¼
ìłģ ìĸ´ëıĦ
ot ten
ĠìĤ¬ ì°°
ge un
ad ed
Ġex ting
Ġpl ain
per ty
íĮ ¡
ìĥĿ ìĿ´
Ġíķľëĭ¤ ë©´
und ry
ĠíĽĦ ìĹĲëıĦ
Ġêµ¬ìĦ± íķĺê³ł
ĠìĭĿ ìĤ¬ë¥¼
ĠìĨĲ ìĥģìĿĦ
ĠìĥĿê°ģ íķ´ìļĶ
ĠìĹħ ê·¸
ĠìłĢìŀ¥ ëĲł
Ġíĥľ êµŃ
ĠìĿĳ ìĽĲ
Ġìłķì±ħ ìłģ
íĮ¨ íĦ´
Ġëª° ëł¤
Ġì¦Ĳ ê¸°
Ġê°Ĳì§Ģ íķł
Ġìľłë¦¬ íķľ
ĠìĤ¬ë¬´ ìĭ¤
ĠìĿ½ ê¸°
Ġperm itted
Ġsubsid y
Ġíĸīë³µ íķľ
ĠìĿ´ìĻ¸ ìĹĲ
Ġpark s
Ġrare ly
Exper ts
Ġderm at
Ġexting u
D irector
H an
ê³ł ìŀĲ
ê³ł ëĵ±
ìĿ¸ ì¦Ŀ
Ġtr ay
ĠB ay
ìŀ¬ ìĻĢ
ìŀ¬ ëĤľ
ĠëĤĺ ê°ĢëĬĶ
ìĹŃ ìĿĺ
Ġìĭ¤ ìŀ¥
Ġ6 9
Ġë¬´ ìŀĳ
ound s
Ġê±´ ëĦĪ
Ġpublic ly
ë°ķ ìĬ¤
ĠìĿ´ë£¨ìĸ´ ì§Ģì§Ģ
ê²Ģ ìĤ¬ë¥¼
íķľêµŃ ëĭ¹
ĠìĦ¼ìĦľ ìĿĺ
ë°Ģ ëıĦ
Ġìļ°ìĪĺ íķĺê³ł
ëį°ìĿ´íĦ° ë¥¼
Ġê·¸ëŁ° ëį°
Ġìĺ¤ëŀĺ ëĲľ
ĠKing dom
ĠíĥĿ ìĭľ
Ġpreced ing
Ġveget able
ĠEm ployment
ĠChrist ian
êµ¬ì²´ ìłģìľ¼ë¡ľ
Dep ending
Ġìĸ´ìļ° ëŁ¬
st age
ĠìĪĺ íĻķ
Ġê¸° ìĨĮ
ëĮĢ ìĿĳ
Ġìłķ ìĭĿ
ì£¼ ëıĦ
Ġë°ľ ìĤ¬
ë¹Ħ ê²Į
ĠìķĦ ìĺĪ
ĠB ucheon
íĺ¸ ë¡ľ
ĠF isher
Ġìĸ´ ì©
Ġìĺ¤ ë¦¬
Ġíİ ©
Ġins ect
Ġê°Ģìŀ¥ ìŀĲë¦¬
Ġeas ing
Ġì¡°ìĤ¬ íķľ
Ġappro aches
Ġì¤Ģë¹Ħ íķĺëĬĶ
ĠìĹŃíķł ìĿ´
íĶĦë¡ľ íķĦ
Ġviol ated
Ġì¡°ìłĪ íķĺëĬĶ
Ġìłĳê·¼ íķł
Ġì°¨ì§Ģ íĸĪëĭ¤
ĠìłĦë¬¸ê°Ģ ëĵ¤ìĿĢ
rol og
Ġì´Īê³¼ íķĺëĬĶ
ĠSeong nam
ĠìķĦìĿ´ëĶĶìĸ´ ë¥¼
ĠCor ona
G F
J ung
R NA
ìĿ´ ìĥģìĿĺ
Ġë° Ł
ë° ´
ĠëĤ «
Ġal lev
ëªħ ìĹĲìĦľ
ĠìķĦ íĭ°
ĠìĿ¼ ì°¨
ĠëĤ´ ìĭľê²½
Ġê³ł ìĿĺ
ous es
ìĹŃ ìĿ´
êµĲ íļĮ
lic ation
ëª¨ ë°ĶìĿ¼
ë§Ī ìŀĲ
Ġinter active
Ġì¶Ķ ë¡ł
ì¸µ ìľ¼ë¡ľ
Ġ9 7
íĮĮ ë¥¼
Ġìļ´ ìłĦìŀĲ
Ġìļ© ìķ¡ìĿĦ
Ġmark er
Ġì²´ ìĿ¸
Ġê¸°ìĹħ ê³¼
Ġì¹ĺë£Į íķĺëĬĶ
Ġpolymer ization
Ġwat ers
ĠìłĪì°¨ ìĹĲ
ĠìĿ´ìĿµ ìĿ´
Ġì£¼ëª© íķł
ĠëĨĢ ëĿ¼ìļ´
Ġter r
Ġëļ «
Ġë°ĸ ìĿĺ
Ġreorgan ization
Ġbic ycle
Ġalle ged
C om
Ġs ed
Ġg aze
Ġì¤ĳ ìłĲìĿĦ
Ġìľł ìĿµ
ĠìĿ¸ ì²´
ë²ķ ìĹĲìĦľ
Ġë¹Ħ ì¹ĺ
íĺ¸ ìĦľ
ëĤ´ ìĹĲìĦľ
Ġë°° ë¶Ħ
íĸ¥ ìĿ´
ìĸĳ ìĿ´
Ġì¶Ķ íĽĦ
ìĹĪ ê¸°
ĠëĲĺ ë©´ìĦľ
Ġíķł ë¨¸ëĭĪ
Ġêµ¬ìĦ± íķľëĭ¤
íĮĮ ê°Ģ
Ġcar cin
ĠìĦ¤ëªħ íķł
Ġant igen
omet own
hib ition
ì»¤ ë²Ħ
Ġëª¨ëį¸ ìĿ´
ĠìĪĺëĭ¨ ìĿ´
Ġpath s
Ġë°ľê²¬ ëĲľ
Ġì¶Ķì¶ľ ëĲľ
ĠìĽĮ ìĭ±íĦ´
ĠíļĮìĿĺ ìĹĲìĦľ
Ġì§ĢëĤĺ ì¹ĺê²Į
ĠëĽ° ìĸ´ëĤĺ
ĠìĬ¤íħĮ ìĿ´ìħĺ
Ġê°Ħíĺ¸ ìĤ¬
Ġëĵľë¦´ ê²ĮìļĶ
Ġhop ing
ĠìĿ´ë¥´ê¸° ê¹Įì§Ģ
Ġin n
Ġv inyl
Ġr ack
Ġìłķ ë¥ĺ
ìłĦ ìŀĲê°Ģ
ë¹Ħ ë¡Ŀ
Ġëª¨ ëŀĺ
Ġê°ľ ìŀ¬
Ġê²° ì½Ķ
ê°ľ ìłķ
ĠT H
ĠìĹ¬ ê°Ģ
ĠE S
Ġë°° ìĦ¤
ĠíĻķ ë¥łìĿ´
Ġem it
ĠU i
Ġk er
ë§Ī ìĬ¤
Ġinf ants
ĠìĭĿ ìľ¼ë¡ľ
ĠPro ced
ĠíĻľëıĻ ìĿĢ
Ġtarget ed
ĠìĿ´íķ´ ê´Ģê³Ħ
Ġphot ograph
íĥĪ ë¡ľê·¸
íģ´ ëŁ½
Ġmass ive
Ġê·ľëª¨ ë¥¼
ë¡Ń ê³ł
ĠíļįëĵĿ íķĺëĬĶ
Ġlink age
ĠEng land
Ġstream s
Ġmiss ed
IS T
Ġeth ics
Ġded uct
Ġìłķëĭ¹ íķľ
Ġsuppress ed
ĠChang won
Ġflo ors
F ig
N on
h igh
j oo
k ers
Ġa fore
is p
ë¡ľ ìĹĲ
Ġê³ °
ëĤĺ ìķĦê°Ģ
ĠS L
ìłĦ ëĭ¬
ĠìĿĺ íķĻ
ĠíĮ Ŀ
ĠìĹĨ ìķł
Ġar th
Ġë§Į ëĤ¨
ĠíķĦìļĶ ìĹĲ
aly tic
Ġì½Ķ ëĦĪ
Ġì²´ íı¬
ĠìŀĦ ì°¨
Ġì§ĢìĽĲ ìĹĲ
Ġpoly urethane
Ġì§Ģì§Ģ ì²´
ĠìĦ¤ìłķ íķĺëĬĶ
Ġcut s
Ġìĭ¤íĸī íķł
íħĶ ëłĪ
Ġconstit utes
ìŀ¥ì¹ĺ ìĹĲ
Ġattract ion
ĠìľłëŁ½ ìĹ°íķ©
ĠìĤ¬ëŀĳ ìĿĦ
ëŁŃ ìĭľ
Ġìŀħìŀ¥ ìĿ´ëĭ¤
Ġsett led
ĠíĻľë°ľ íķĺê²Į
ĠíĶ¼ëĵľë°± ìĿĦ
Ġvolunt arily
Ġpancreat ic
Ġrecycl ing
b ut
g ye
w ar
ì ¥Ĳ
Ġs ought
Ġìķ Ļ
Ġê²½ ê°Ĳ
ĠìĹ° íľ´
Ġsp acer
ang le
ìľł ê¸°
ë³¸ ë¶ĢëĬĶ
Ġimp ose
Ġmo od
Ġìłľê³µ íķĺëıĦë¡Ŀ
uc ks
Ġover w
Ġmed ication
ëįĶ ë§ģ
Ġlight weight
ĠìĥĿê°ģ íķł
fer ably
Ġarr ival
Ġì¡°ìĤ¬ ìĹĲ
ĠíĮĲë§¤ íķĺê³ł
Ġben ch
Ġviol ating
Ġprofess ors
ĠìĿĮìĭĿ ìĿ´
ĠHan wha
Ġregular ly
Ġë¯¸ëŀĺ ìĹĲ
ĠíĥĢìĿ´ ìĸ´
Ġdeal t
Ġtum ors
ĠìĬ¤íĬ¸ë¦¼ ìĿĦ
Ġpros pect
Ġclamp ing
Ġirrad iation
Ġë®¤ ì§Ģì»¬
Ġlegit imate
ĠMot or
3 50
S pecifically
Ġë µ
ë¡ľ ìĦľëĬĶ
ĠìĿ´ ìĬ¤
ìĭľ ìłģ
ì¹ ©
ìĽĲ ìĿ¸
ist ory
Ġì¤ĳ ì§Ģ
Ġsh ipped
Ġun manned
ĠìĹ° ê¸Ī
ĠìŀĲ ì²´ë¥¼
ĠìķĦ ë¦´
ìĦ¸ íĬ¸
ĠìĨĮ ëıħ
Ġëĭ¨ ë¶ĢìĹĲ
ĠìĺĪ ê³ł
ì§ģ ìłĳ
Ġìĸĳ ìĥģìĿĦ
Ġcur able
ĠëĤ¨ ê²¨
Ġê²°ìłķ ìĿ´
Ġstr aw
ë§Ŀ ìĿ´
Ġì»¤ ë§¨
Ġë¡ľ íĦ°
Ġcal m
Ġrot ated
Ġëĳ ¥
ê°Ĵ ìĹĲ
íķľêµŃ ìĿĢ
Ġì£¼ë¬¸ íķľ
ĠìĬ¬ ë¦¿
ĠìĥģíĴĪ ìĿ´
Ġconcept ual
ĠíĹ¤ ìĸ´
Ġê¸°ê´Ģ ìĿ´
Ġextract ing
ĠInd ian
Ġrail way
Ġëĭ¤ë£¨ ëĬĶ
Ġarbit rary
íĮ© íĬ¸
Every one
ë» Ĳ
íģ¬ëĿ¼ ìĿ´ëĤĺ
C ìĹĲìĦľ
Ġc odes
Ġp el
it a
es ium
Ġst ance
Ġìĭľ ê°Ģ
Ġhe aling
ìĹħ ìĿĺ
ĠM O
ĠB i
ĠD am
Ġìĭ¤ ìĬµ
ë¬´ ê¸°
ĠH IV
ĠìĬ¤ ìºĲ
ì¤ĳ ìĭ¬
ìĺģ ìĿ´
Ġ6 10
ĠU k
Ġam mon
ì§ģ ìĿĦ
ĠíĽĦ ë©´
Ġë³¸ ìĿ¸
Ġëĭ¹ ìŀ¥
Ġmed ian
ĠíĶĦë¡ľ ëª¨
Ġê´ĳ ìĦ¬ìľł
Ġìĭ¬ ì§Ģìĸ´
Ġë²Ī ìĹĲ
11 3
ĠìĥģíĻ© ìĿĢ
Ġreal izing
ĠGyeong nam
Ġìī ĺ
ĠíĹĪ ìľĦ
ĠìĨ¡ íĴį
Ġprevent ive
Ġdistrib uting
Ġìłľê±° íķł
Ġìŀĳìļ© íķĺëĬĶ
Ġlabor atory
Ġattract ive
ĠíĴĢ ìĸ´
Ġì£¼ê´Ģ ìłģ
ëĵŃ ëĭĪëĭ¤
Ġgather ing
Ġcompat ible
Ġê°Ģë²¼ ìļ´
y sis
y alty
y mmet
ì ¨
Ġë º
Ġa ug
Ġthe ories
Ġm ine
ì§Ģ ìĪĺ
ëĤĺ ìĿĺ
ìĨĮ ë¦¬
ĠM er
Ġê³ł íĺķ
ĠìłĢ ë¥¼
Ġk in
ë§Ī ìĿ´
Ġìĸĳ ìĭĿ
Ġwould n
ìĽĮ ëĵľ
Ġdef icit
íħĮ ìĿ¸
ĠêµĲìľ¡ ìĿĢ
Ġì¦Ŀê°Ģ ë¥¼
Ġstruct ured
Ġê²½ìłľ ìĹĲ
Ġë³ĳ íĸī
ĠìĦ¤ì¹ĺ ëĲĺëĬĶ
Ġë¸Į ëŁ¬
Ġë¨¹ ìľ¼ë©´
ĠìķĪìłķ íĻĶ
Ġê¸°íĽĦ ë³Ģ
Ġíľ´ëĮĢ íı°
Ġfair ness
Ġê²½íĻĶ ìĦ±
ĠìłľìĻ¸íķĺê³ł ëĬĶ
Ġproxim ity
Ġcompuls ory
C F
n ic
ëĬ ¦
Ġp airs
ìĭľ ìŀ¥ìĿ´
ĠC J
ĠìľĦ ìĻĢ
Ġì£¼ ìĿĺë¥¼
Ġwhe els
íĺ¸ ëĬĶ
Ġë¯¸ ëĭĪ
ĠíĬ¹ ìĦ±ìĿĢ
Ġìŀħ ê¸Ī
Ġsc al
ĠíķĦìļĶ íķĺì§Ģ
ì¶ķ ìĿĦ
ĠíĻķìĿ¸ ìĿĦ
Ġë©´ ìłĳ
Ġmodel ing
Ġmult il
ĠìľĦìĽĲ íļĮ
Ġmicro organ
ìĬ¬ ëŀĮ
Ġstream ing
oh ang
ĠíĿĶ íŀĪ
Ġìĺ¬ëĿ¼ ê°Ģ
Sh ould
Ġëĵ¯ íķľ
Ġìŀ¬ë¯¸ ìŀĪ
Ġdistingu ished
Ġped est
Met hods
Form er
D ae
P U
j ud
an ish
im al
ìĭľ ìĹĲìĦľ
Ġì§Ģ ë¦Ħ
ĠS D
Ġìĭľ ìłĲìĹĲìĦľ
Ġë³´ ìķĦìķ¼
ìłĦ êµŃ
Ġun p
Ġê³µ íĻĶ
ĠM ad
Ġê³ł ë§Ī
ĠëıĦ ìĭ¬
ëłĪ ìĬ¤íħĮ
ìĹ° ë£Į
ĠìĦ¸ íĬ¸ìĿĺ
Ġob vious
ìķĺ ëĬĶëį°
íĺĦ ìĿ´
Ġins ol
ĠìĻ¸ ë¶ĢìĿĺ
Ġunder going
Ġêµ¬ìĦ± ìľ¼ë¡ľ
ra vel
ĠìĤ¬íļĮ ìĹĲìĦľ
ĠìĥĿìĦ± ëĲĺëĬĶ
ĠëĮĢíĨµëł¹ ê³¼
Ġbar rel
Ġpolymer ic
Ġê°ľëħĲ ìĿĢ
ĠìĦ±ê³µ ìłģìĿ¸
ĠìľĦìĽĲ ìŀ¥ìĿĢ
ĠìŀĲë£Į ìĿĺ
Ġê·ł íĺķìĿĦ
Ġì·¨ëĵĿ íķĺëĬĶ
Ġlif elong
Ġsubstant ial
Ġëĭ¹ìĤ¬ ìŀĲ
Ġelim inate
Ġom itted
ĠìĬ¤íĬ¸ëłĪ ìĬ¤ë¥¼
vol atile
Ġarg ue
ĠFoot ball
P E
R A
ìļĶ ìĨĮ
Ġê²ĥ ëĵ¤ìĿ´
Ġìĥģ ìĭ¤
Ġìĭľ ë£Į
ìĿ¼ ìĪĺë¡Ŀ
ëĮĢ ìłĦ
ë³´ ìĪĺ
Ġmay or
Ġíķĺ ë°ĺê¸°
ĠìĦł íļĮ
ë°© ë¬¸
Ġreg ulated
ìłĢ ë¥¼
ê±´ ìľ¼ë¡ľ
ìķĺ ëĭ¤ê³ł
Ġ8 7
ì²ľ ìĹ¬
Ġ13 3
Ġíĳľìĭľ ëĲł
Ġê°Ĵ ìĹĲ
ĠìłĦìĨ¡ íķľëĭ¤
Ġì°© ìĥī
Ġë¹Ħìľ¨ ë¡ľ
ĠìĺĪë°© ìłĳ
app ropri
Ġì¡°íķ© ìĿĦ
ĠìĺĪìķ½ ìĿĦ
Ġìĸĺ ê¸°ë¥¼
ĠëĬĲëĤĮ ìĿ´
Ġbath room
ĠëĮĢë³Ģ ìĿ¸ìĿĢ
Ġmarg in
ĠStr ateg
d ang
g ol
s ect
Ġ /
Ġst amp
Ġê°Ģ ìĤ°
ĠA cc
Ġíķ ĳ
ĠìľĦ ê¸°ë¥¼
Ġì£¼ ë°©
ì¡° ìĻĢ
ĠP acific
Ġì¡° íļĮ
ĠB uk
ì§Ħ ìĹĲ
ĠëıĻ ëĦ¤
ĠH ome
out put
ĠìĦľ ë¥ĺë¥¼
êµĲ ë¥¼
ìĿĮ ìĿĺ
Ġëį° ë·Ķ
ë§Ī íĨł
ìķĺ ì§Ģë§Į
Ġëĭ¹ ìĿ¼
Ġëĭ¹ ì´Ī
Ġass ign
íķŃ ìĥģ
Ġìķ½ ê°ĦìĿĺ
Ġbas eline
Ġê³µê¸ī íķł
ĠìĦ¤ì¹ĺ íķł
Ġíı´ë¦¬ ìķĦ
Ġì£¼ìļĶ íķľ
Ġenc oded
ĠìĤ¬ë¡Ģ ëĬĶ
ì£¼ìĭľ ëĬĶ
Ġmaxim ize
Ġcomfort ably
ĠãĢ İ
Ġmolec ule
att ered
Ġíİ¸ìķĪ íķľ
Ġëª©ìĨĮ ë¦¬ë¥¼
ëķ ħ
ĠëĤ´êµ¬ ìĦ±ìĿ´
ĠìķĮëłĪ ë¥´ê¸°
Ġinver ter
- ,
e ger
r id
Ġt ab
ëĭ Ń
ĠìĪĺ íķĻìłģ
Ġn erve
ìŀĲ ë£Įë¥¼
ìĦ± ìĿ¸
ir rh
if iable
ĠìłĦ ëĤ¨
Ġíı °
Ġë³´ ì§Ģ
Ġë¶Ģ ëĮĢ
and a
ëĭ¨ ë¶Ģ
Ġê°ľ ì²´
ĠìĨĮ ìĦ±
ĠH ousing
ĠìĹ¬ ë¶Ģê°Ģ
ĠR A
ĠíĻķ ì¶©
ĠìłĢ ìĨĮëĵĿ
Ġìłľê³µ íķĺë©°
ye ol
ĠíĮĮ ìļ°
ĠìŀĪìĸ´ ëıĦ
Ġì§ģ ìłĦ
ock s
íĶ¼ ë¶Ģ
ĠìľĦì¹ĺ íķ´
Ġext in
Ġpublic ation
Ġë§ŀ ìĿĢ
ĠëłĪ ì§ĢìĬ¤íĦ°
Ġcult ures
Ġoutput ting
ĠìĦ¤ìłķ ëĲł
ĠìĨĮë¹Ħ ìŀĲê°Ģ
Ġë¹ł ë¥´ê³ł
ê³¨ ìĿĦ
Ġê°Ģì¡± ìĿ´
ìĻĦ ìłĦ
Ġfarm land
ĠëĤ© íĴĪ
ĠìĤ´íİ´ë³´ ìķĺëĭ¤
Ġmiss ile
Ġsem inar
ĠëģĮ ê³ł
Ġë´Ĳ ìķ¼
Ġphenomen a
Ġë²ĦíĬ¼ ìĿĦ
ìĹ¬ëŁ¬ ë¶Ħ
ĠSw ed
Ġfert il
Ġë¹Ħíķµ íĻĶ
Ġoverw hel
I L
n is
ìĿĺ ëıĦ
Ġh at
ig nt
Ġê²½ ìľł
Ġêµ¬ íķĺëĬĶ
ĠP ost
ìĤ° ìľ¼ë¡ľ
ĠëĤĺ ëıĦ
Ġìłģ ìŀ¬
ĠëķĮ ë¶ĢíĦ°
Ġìĺ¤ ë¹ł
Ġsc ar
Ġcar b
ë¡ł ìłģ
Ġop ens
ĠìĨĲ ìĹĲ
Ġapplic ant
Ġë³¼ ë¥¨
Ġë§Īëł¨ íķ´
ĠìķĬìķĺ ëĭ¤ê³ł
mon ary
Ġextract s
Ġmultiple x
ĠìłĪì°¨ ê°Ģ
ĠHan a
Ġì§ĪíĻĺ ìĿĦ
ĠìķĪëĤ´ íķ´
ĠEng ine
ĠìĽĲì¹Ļ ìĹĲ
ĠìĥĺíĶĮ ë§ģ
Sh in
ĠìĤ¬íĥľ ê°Ģ
ĠìĭłìĨį íķľ
ĠìķĮê³łë¦¬ì¦ĺ ìĿĦ
ìĩ¼ íķĳ
ĠëıĦìĻĢëĵľë¦´ ê¹ĮìļĶ
Ġcorros ion
ignt y
b ang
f e
h in
u ment
w id
â ĭ
Ġf lying
ê¸° íļį
íķ´ ìķĪ
Ġcon volution
her ic
êµ¬ ìĹĲìĦľ
Ġsh ielding
ĠìĹ° ë§Ĳ
ĠìķĦ ìĹ°
ĠB ae
ĠìĿ¼ íļĮ
ìŀ¬ ëĭ¨
ê´Ģ ìľ¼ë¡ľ
ĠìĥĿ ëŀµ
Ġë¯¸ ëŁ¬
ĠE astern
Ġimp osition
Ġë°Ķ ëĬĺ
ĠêµŃ íķľ
ĠL ib
Ġê°Ļ ëĦ¤ìļĶ
ĠìĽĲ ìĿĺ
ĠìĽĲ ì£¼
20 10
Ġk illing
ĠìĹ°êµ¬ ê°ľë°ľ
Ġëħ¸ íĽĦ
Ġì§ģ êµĲ
ĠY un
ê°ķ ìĿĺ
Ġgr ass
Ġë²ķ ìĽĲìĿĺ
ìĺ¨ ëĭ¤
Ġdef ault
ĠìĨĲ íĿ¥
ìł¸ ìķ¼
Ġì¤ĳêµŃ ìĹĲìĦľ
Ġê·ľìłķ ìĿĢ
íıŃ ìĿ´
ĠíĮĲë§¤ ë¥¼
Ġì¡°ìłķ íķł
ĠíĳľíĺĦ ìĿĦ
Ġcool ed
Ġla undry
ĠìĦ¸íı¬ ë¥¼
ĠíĹĪìļ© ëĲĺëĬĶ
ĠëĨĴìķĦ ì§Ī
Ġìĸ´ëĶĶ ìĹĲ
Ġwindow s
ĠShin han
ĠCheong ju
Ġdiplom acy
Ġdescrib es
ĠSm all
Ġrefuge e
âĸ ³
ĠìĽĲíĨµ íĺķ
Ġsurve illance
ì¨ Į
âĭ ħ
R O
p age
Ġê° Ń
Ġh ometown
Ġl act
Ġl isting
ĠìĿ´ ìĦ±
ĠëĮĢ ê±°
ĠC are
Ġìľł ëł¥
Ġëª¨ ìŀĦ
Ġë¯¸ ì¹ĺ
Ġsa ved
íĥľ íıīìĸĳ
ê°Ĳ ìĹĲ
olog ically
Ġì´Ŀ ê´Ħ
Ġsal ts
Ġê³µê°Ħ ìĹĲìĦľ
ĠíıŃ ìĹ¼
yc led
Ġìłķìĥģ ìłģìĿ¸
Ġentire ly
Ġcredit ors
Ġpursu ing
Ġê¿Ī ìĿĦ
Ġreinfor ced
t est
Ħ ìĬ¤
Ġê º¾
as y
ê¸° ë¶Ģ
Ġst ating
Ġìĥģ ë°ĺê¸°
ëĮĢ ë¬¸
ëĵľ ë¦°
Ġê·¸ ëŁ´
ê³µ ëĭ¨
Ġê³µ ìĤ°
Ġëį ©
ast e
ĠìĿ¼ ë¶ĢìĹĲ
Ġìŀ¥ ìĨĮë¥¼
íħ Ŀ
Ġìłģ ìĸ´
Ġê°Ĳ ìķķ
Ġë§Ī ì¹ĺê³ł
Ġsc r
Ġë¶Ī ìĸ´
Ġìĸĳ ìĿ´
Ġëĵľ ëłĪìĿ¸
Ġany more
Ġì¤ĳìļĶ íķĺê²Į
Ġê¸°ëĬ¥ ìĦ±
Ġnon woven
Ġì¤ĳêµŃ ìĹĲ
Ġì¤ĳêµŃ ê³¼
Ġgrow s
ĠíĻĺìŀĲ ìĹĲ
Ġë¶Ģìŀ¬ ìĹĲ
ĠíĻķëĮĢ ë¥¼
Ġíļ¨ìľ¨ ìĦ±ìĿĦ
Ġê°ķíĻĶ íķĺê³ł
ìĺ¤ëĬĺ ëĤł
íľĺ ë°ľìĦ±
Ġrecommend ations
ê²½ê¸° ëıĦê°Ģ
ĠìłľëıĦ ìłģ
ĠBe ach
ĠìķĦë¦Ħ ëĭ¤
ĠGyeongsang nam
Ġdream s
Res earch
ocy an
ìĬ¤íĭ° ë²Į
incheon ji
Ġquestionna ire
Ġartifact s
Ġìŀ İ
Ġl ies
ìĬ¤ íĤ¤
Ġìľł ìĦł
ĠìĹ° ëıĦ
ì¡° ìĽĲ
ĠìķĦ ìĿ´ìĬ¤
ast ing
Ġìŀ¥ ê°ĳ
ê°ľ ìĦł
ëĤ´ ìĿ¼
ĠT w
Ġimp ression
ĠìķĪ ìľ¼ë¡ľ
Ġdiff ers
ìĹĲê²Į ëıĦ
Ġspec imen
Ġgu ys
Ġê²½ìłľ ê°Ģ
ëĨ ¨
Ġcour ts
ĠíĮĲëĭ¨ íķľëĭ¤
ĠíĹĪ ê°Ģë¥¼
Ġflu x
ĠìĪĺìļ© íķł
ìħ¨ ëĤĺìļĶ
ì¶© ìłĦ
ìĿĢíĸī ìĿĢ
ĠíĸīëıĻ ìĹĲ
Ġì§ĳëĭ¨ ìĿĺ
Ġemphas izing
ĠTe le
Ġì²´ê³Ħ ìłģìĿ¸
ĠíŀĪ íĦ°
ĠíħĮìĬ¤íĬ¸ ë¥¼
Ġmoment um
May be
Ġíļ¡ ëĭ¨
ë¬´ìĹĩ ë³´ëĭ¤
Ġfranch ise
Ġrestruct uring
N R
c ase
Ġc iting
ed nes
ë© ľ
ĠëĮĢ ë¥Ļ
íķł ê²ĮìļĶ
os able
ĠìľĦ ìķĪ
Ġë³´ ëĭĪê¹Į
ê³µ íĻĶ
ë¹Ħ ìłĦ
ĠM ore
Ġë² ¼
Ġab undant
ĠD EG
Ġìĸ´ ê¸ĭ
iff ere
Ġíĳľ ì§Ģ
Ġmod es
Ġup coming
Ġmed al
Ġìķ½ íķľ
Ġíĸ¥ íķĺìĹ¬
Ġìĭľìŀĳ íķĺëĬĶ
Ġì¡´ìŀ¬ íķł
Ġì¡°ì§ģ ìĿĦ
ĠTh us
Ġmic row
ëī´ ìļķ
Ġì£¼ìĭľ ê¸¸
ĠìĦłìłķ ëĲľ
ĠCl imate
Ġkn ee
Ġsn acks
Ġarbit ration
Ġbright ness
Ġles ions
ĠCong ress
ednes day
t aek
er ts
ëĭ¤ ìĪĺìĿĺ
Ġf ake
Ġ2 12
ul atory
am ples
ìĽĲ ëŀĺ
Ġìĭľ ìłķ
Ġê²½ ëł¥
ëĵľ ëł¸ìĬµëĭĪëĭ¤
Ġê³µ ìĽĲ
Ġìŀ¥ ìłĲ
ĠìĨĮ ìĭĿìĿ´
so le
ĠìĹĨ ìľ¼ë©´
ĠìĺĪ íĽĦ
Ġexp ense
Ġsc ent
Ġcons ervation
Ġë§¤ ì²´ë¥¼
Ġ19 50
íķĺìĺĢëĭ¤ ëĬĶ
ĠO pen
ĠìłľíĴĪ ê³¼
ĠìľĦì¹ĺ íķł
Ġclaim ing
Ġë¯¸ëŀĺ ë¥¼
ìĻĶ ìĬµëĭĪëĭ¤
Ġsatisf ies
ĠìĨĮìĨ¡ ìĿĦ
fess ional
ĠìĥĿë¬¼ íķĻìłģ
ĠìµľìłĢ ìŀĦê¸Ī
ĠìĿ´ë£¨ìĸ´ìł¸ ìķ¼
Ġencry pt
ogene ous
Ġê³Ħë©´ íĻľìĦ±
ĠìĬ¤íħĮìĿ¸ ë¦¬ìĬ¤
6 10
Ġs ink
Ġs oph
Ġcont emporary
Ġë¶Ģ íĺ¸íĻĶ
ì£¼ ê°Ħ
ê·¸ ìĹĲ
íķ© ëĭĪê¹Į
íĮ İ
ĠF our
Ġìĭł ëĿ¼
ê²© ìĿ´
ê²ł ì£ł
Ġìłĳ ìĸ´
Ġmed iation
ì²ĺ ëĬĶ
Ġdevelop s
Ġë©Ķ ìĿ´ìłĢ
ëįĶ ë¶Īìĸ´
êµ° ìĹĲìĦľ
orth y
Ġve ter
Ġobject ion
ìµľ ëĮĢ
Ġìķ¡ ìĥģ
ĠìĿĳ ì¶ķ
ì£¼ìĿĺ ë¥¼
Ġëĸ ¡
Ġë¬¸íĻĶ ìĿĺ
Ġê°Ĵ ìľ¼ë¡ľ
ĠìĤ¬ê±´ ìĹĲ
Ġíķ´ê²° ìĿĦ
Ġìłľíķľ ëĲľ
ĠX i
ĠíĺĪ ëĭ¹
Ġpip es
Ġang les
Ġì°¸ìĦĿ íĸĪëĭ¤
Ġëıħë¦½ ìłģìĿ¸
ì¢ĭ ìķĦ
Ġoccup ied
Ġscient ists
ĠíĮĮíĬ¸ëĦĪ ìĭŃ
Ġì»¤íĮ¨ìĭľ íĦ°
Ġunre ason
Ġalleg ations
Ġë¶ĢëıĻ ìĤ°ìĿĦ
Ġmultim edia
P V
ì ĮĢ
Ġt ied
Ġb ilateral
íķĺ ìħĶìķ¼
Ġh omer
íķ´ ìĥģ
The ir
Ġst ones
ëıĻ ìĿĢ
Ġìľł ëŁī
ĠìĿ¸ ìŀ¬
ĠìĿ¸ ì¶ľ
ì£¼ ë³Ģ
Ġë°© ìłķ
ĠìŀĲ ìĿĺ
Ġpl ung
Ġì¡° íĻĶ
and er
ĠëĤ´ ëł¸ëĭ¤
ĠìĨĮ ê·¹
ĠD ang
ĠìĤ¬ìļ© íķ©ëĭĪëĭ¤
ë°© ìĹŃ
ĠêµŃ ìłķ
ĠìķĮ ë¦¬ëĬĶ
Ġì¹ĺ ëªħ
Ġíģ¬ ê¸°ìĹĲ
Ġrem ind
Ġsol o
Ġë°©íĸ¥ ìĿ´
Ġprogram ming
Ġbro ker
ê·¸ëŁ¬ ë¯Ģë¡ľ
Ġconsum ed
ĠìļĶìĨĮ ë¡ľ
ĠìĿ¸ìĭĿ íķł
íļĮìĿĺ ìĹĲìĦľ
ĠìĺĪìĥģ ëĲĺëĬĶ
Ġregard s
ĠìķĦëŀĺ ìĿĺ
Ġeth ylene
íķĺëĤĺ ìĿĺ
atur ated
Ġelev ator
Ġfeas ibility
ĠProced ure
E N
G O
in er
on ym
Ġo ven
Ġê¸° ëıĦ
Ġr anging
Ġal igned
ìĨĮ ìŀĲ
igh th
Ġun ve
Ġìľł ë°©
Ġint eger
Ġìĭł ì¤ĳ
ê²½ ìĹĲ
Ġco inc
Ġë³Ģ ìľĦ
ì¦Ŀ ìĥģ
ë¦½ ìĿĦ
Ġêµ¬ìĦ± ìĹĲ
Ġëĵ¤ ìĿĦ
Ġgr avity
Ġê´Ģê³Ħ ìĹĲìĦľ
ĠìĿ´ë¯¸ ì§ĢìĹĲ
Ġmin isters
ĠAr gent
ĠëĿ¼ ìĿ¸ìĿĦ
ĠìĿĳ ì§ĳ
ĠíĪ¬ìŀĲ ìŀĲ
Ġê°Ŀ ì²´ë¥¼
Ġê°ľëħĲ ìĿ´
ĠZ one
Ġë¬´ìĹĩ ìĿ´
Ġdoll ar
Ġë¶ĢìĹ¬ íķĺëĬĶ
Ġì¡°ê¸Ī ìĶ©
ê³¼ìłķ ìĹĲìĦľ
Ġë²Ĺ ìĸ´
Ġì²Ļ ì¶Ķ
Ab ove
Ġë¯¸ì¹ľ ëĭ¤
Ġë¬ĺ ìĤ¬
Ġë°ĽìķĦëĵ¤ ìĹ¬
Ġabst ract
ĠìĿ´ìĬ¤ ëĿ¼ìĹĺ
D D
ìĹ ĳ
ĠìĹ ī
Ġëı ĭ
ĠS und
ìķĦ íĮĮ
ĠëĤ´ ëĤ´
Ġsp ots
êµĲ ê³¼
íŀĪ ê³ł
ĠìķĪ íĮİ
Ġëį° ìĿ´
ĠCh a
Ġì¸¡ ìĹĲìĦľ
Ġdisc overy
Ġëĵ¤ ìĹĪëĭ¤
ë§Ĳ ë¡ľ
Ġì§Ī ìłģ
12 5
ian o
Ġelectro c
ĠìĪĺìĭł íķľëĭ¤
ĠíĬ¹ì§ķ ìĿ´
Ġìĭ¤ìĭľìĺĪ ëĵ¤ìĹĲ
ĠìŀĳìĹħ ìĹĲ
Ġì°¨ëŁī ìĹĲ
ì½ ķìĭľ
Ġhal ogen
ì§ĢìĹŃ ìĿĺ
Ġê²½ì°° ìĹĲ
ĠìłĦë°ĺ ìĹĲ
Ġì»¬ ëłī
Ġsupplement ary
ĠJeon ju
Ġaccomp any
ëĨĴ ìĿĢ
requ ency
Ġo lig
Ġp aint
ic ian
Ġl y
íķ´ ì§Ħëĭ¤
Ġê¸° ìģĺ
ĠìłĦ ìĿĺ
Ġì§Ģ ë¦¬
Ġì§Ģ ëĤ´
Ġch ocol
ê³µ ìľł
ê³µ íķĻ
ĠìĽ ¨ìĸ´
ĠìĦ± ëĤ¨
Ġê²Ģ ìĿĢ
Ġì¹´ ëĵľë¥¼
ìķħ íķľ
Ġret ention
Ġann ually
Ġchild hood
ë¶Ī ìĿ´
íĪ¬ ìĸ´
Ġlear ner
ĠìĿ´íĽĦ ìĹĲëĬĶ
ĠìĤ°ìĹħ ìĹĲ
Ġìķł ëĭĪ
Ġìķł íĶĮ
Ġê³µìĹ° ìĿ´
Ġdeb ut
íĺĦìŀ¬ ìĿĺ
ĠìĭľìĦ¤ ìĿ´
ĠìľĦìĽĲ ìŀ¥ìĿ´
Ġrecover ing
Ġindirect ly
Ġë¦¬ìĨĮ ìĬ¤
Ġaper ture
G S
ed y
ì§Ģ ì¶ľ
ĠìĤ¬ ë¡ľ
ĠS C
ĠI tal
ac heon
ìĨĮ ë°©
Ġì¤ĳ ëıĻ
ĠìĿ¸ ìŀĲ
ìĭł íķľ
ĠG reat
ĠT imes
Ġë°Ķ ë¥¸
Ġë¬¸ ìĦľë¥¼
Ġë¶Ī ìĿ´
ĠíĻĺ ìĥģ
Ġdr unk
Ġë¶ĦìĦĿ íķł
li ers
ì» ·
íİĺ ëĭĲ
Ġchild care
Ġë³´ëĤ´ ê³ł
Ġwar ned
ĠëĪĪ ìĿ´
ĠëĲĺìĸ´ ìķ¼
Ġìĥī ê¹Ķ
ĠìĦ±ë¶Ħ ìĿĺ
ìĹ¬ê¸° ìĹĲìĦľ
Ġê·¼ê±° ë¥¼
Ġìķķì¶ķ ê¸°
Ġë¹Ħì¤ĳ ìĿĢ
Ġìĭłê·ľ íķľ
Ġbir ds
ĠíĨ ¤
Ġblow ing
Ġatom ic
Ġrotat able
íĹ¨ íĭ°ëĤĺ
Ġsovere ignty
P olice
P rior
it r
es an
ìľ Ļ
st able
ur p
ĠìĤ¬ ìłģ
ìĤ¬ ë¡Ģ
ìĪĺ íķĻ
Ġ3 000
Ġcont rad
ë§Į ìľ¼ë¡ľëĬĶ
Ġwe igh
Ġìĭ¤ íĥľ
ê²½ ìĿĺ
ê²½ íĹĺ
ĠìĬ¤ íħĿ
ìłĢ ê¸°
ĠìĽĲ ìĨĮ
íĶĦ ëĬĶ
Ġgro ss
Ġë§Į ëĤĺëĬĶ
Ġ7 9
wo om
ĠíĮĮ ê¸ī
Ġ8 6
Ġê²°ê³¼ ìĿ´ëĭ¤
te ch
Ġëĵľ ëł¤
Ġdef ic
Ġmat urity
Ġgl ob
Ġë³´ê³ł ìĦľ
ĠGyeong buk
ëĲĺìĹĪ ì§Ģë§Į
Ġëĸ ¨
Ġìĭ¤ìĭľìĺĪ ëĵ¤ìĹĲìĦľ
ĠìķĪìłĦ íķĺê³ł
ĠìļĶìĿ¸ ìĹĲ
Ġult imately
Ġìłľì¶ľ íķľ
Ġcamp ing
Ġenhance ment
Ġelim inated
Ġanc est
zy me
Ġadminister ing
a it
Ġc irrh
Ġê² Ķ
ìĿ¸ êµ¬
ir al
ot ed
íķł ì§Ģ
ĠìłĦ ìĪłíķľ
Ġìĥģ íĳľ
Ġìĥģ ë¶ĢìĹĲ
ìĨĮ ëĵľ
Ġë¶Ģ ì´Ŀ
ĠëĶ ľ
ìļ´ ìĨ¡
Ġprovid ers
ĠìķĦëĭĪ ëĥĲëĬĶ
Ġíĸ¥ íķĺëĬĶ
Ġì§ĢìĽĲ íķľëĭ¤
Ġìĭ¶ ì§Ģ
ĠëĿ¼ ìļ°
íĪ¬ ìĬ¤
Ġident ical
Ġwr iter
ĠìĬ¹ ê°ķ
ĠíĸĪ ê³ł
Ġì¹ľ êµ¬ê°Ģ
Ġì°¨ëŁī ìĿ´
Ġì¤Ģë¹Ħ íķĺê³ł
Ġconnect ions
ĠìķĬìķĺ ëįĺ
Ġê²© ëł¤
Ġbi opsy
ĠíĮĢ ìĿĦ
Ġëª¸ ìĹĲ
Ġìĸ´ëłµ ê²Į
ĠìŀĲë£Į ëĬĶ
Ġreact ive
Ġsure ly
Ġëħ¸ì¶ľ ëĲľ
ê¸°ê°Ħ ìĿ´
Ġìŀ¥ìĨĮ ìĹĲ
ĠëĤĺëĿ¼ ìĿĺ
Ġconsist ently
Ġvacc ines
Ġcontrovers ial
ogen ic
Ġëħ¸ëŀĺ ë¥¼
ĠìĭľìĤ¬ ìłĲìĿĦ
Ġgar ment
Ġíķ©ë³ĳ ì¦Ŀ
Ġcabin et
Ġíģ´ëŁ¬ìĬ¤ íĦ°
Ġhypert ension
Ġmere ly
Ġgrap hene
Ġvic inity
G l
Ġ >
Ġt all
Ġê¸° ì¹¨
ĠS A
Ġr hyth
ëĮĢ ë¦¬
ip e
ìŀ¬ íķ´
ê²½ ìĿĢ
Ġìłģ ê²Į
ìĺĢ ê³ł
ĠT ong
ĠìĬ¤ íĬľ
Ġë§Ī ê·¸ëĦ¤
Ġê±° ëĮĢíķľ
íİ ©
ë§Ī ë¥¼
Ġíĳľ ê¸°
Ġrep orter
Ġê°ĢëĬ¥ ìĦ±ìĹĲ
ë°Ķ ëĭ¤
ëįĶ ë¥¼
Ġëª¨ëĳĲ ìĹĲê²Į
ĠëıĻìŀĳ ìĹĲ
Ġinstit utes
Ġbenef iciary
Ġíķ´ìĦĿ íķł
Ġlat ch
Ġansw ered
ĠíĮĲê²° ìĿĦ
Ġsleep ing
íļ¨ê³¼ ê°Ģ
ĠìĿ¼ìĸ´ ëĤł
ĠëĬĺìĸ´ëĤĺ ê³ł
Ġì¢ģ ìĿĢ
Ġëŀľ ëį¤
Ġcaf e
ĠìĿ´ìĤ°íĻĶ íĥĦìĨĮ
Ġfluct uations
ipp le
Ġnick el
Ġcruc ial
8 9
M a
e ffic
o ided
Ġp our
Ġb omb
Ġto b
ĠìĿ´ ìľ¤
ëĤ ®
Ġcon ce
ìĿ¸ ì¹ĺ
Ġst ator
ë¶Ģ ì±Ħ
Ġas ymmet
Ġê²ĥ ìŀĦìĿĦ
íļĮ íĶ¼
ê°ľ ëĬĶ
Ġrec ycled
Ġsystem atically
Ġsur plus
Ġë§Ĳ ê¹Įì§Ģ
ĠíĮĮ ì§Ģ
Ġcor d
ak en
Ġë²ķ ìĿĦ
12 3
Ġì¦Ŀê°Ģ ìĹĲ
ĠíĥĢ ê¹ĥ
íĮħ ìĿĦ
Ġëĭ´ ìŀĦ
ëĥ ħ
ĠìĦ¸ê³Ħ ìĹĲ
ĠëıĻìķĪ ìĹĲ
ëĲĺìĹĪ ìĿĮìĿĦ
Ġav oided
íıĲ ê¸°
Ġaud itor
Ġíļ¨ìľ¨ ìĿ´
ĠìķĬìķĺ ê³ł
Ġsell s
Ġìľłíĺķ ìĹĲ
ĠìĦ±ê³¼ ìĹĲ
ì½ľ ë¦¿
ograph ical
pat ient
Ġì½ľ ëĿ¼
Ġmusc les
ê·¸ê²ĥ ìĿ´
4 50
D F
re ation
Ġf oss
ìķ ±
st s
ìĤ¬ ê°ģíĺķ
ĠìłĦ ìĪĺ
ìĹŃ ìĤ¬
ĠìĹĨ ìĹĪìĬµëĭĪëĭ¤
Ġê°Ĳ ìĭ¸
Ġk ill
Ġë¬´ íĺķ
Ġall oc
ĠSt ar
Ġíİ¸ íķĺê²Į
ĠëłĪ ìĿ´íĬ¸
ì¡Į ëįĺ
Ġair line
Ġëıħ ìĦľ
Ġdon ated
Ġprom ising
Ġì¸¡ìłķ íķĺê¸°
ĠìĹĨëĭ¤ ë©´
Ġê²°íķ© íķĺëĬĶ
ì»¤ ìĬ¤
Ġë°Ģ ìĸ´
Ġê°ĲìĹ¼ ìĿ´
ĠìľĦíĹĺ íķľ
Ġmach inery
epend ent
Ġì°© ìĪĺ
Ġìłĳì´ī íķĺëĬĶ
Ġ198 9
ĠíķŃê³µ ê¸°
ĠíŀĪ íĬ¸
Ġmal icious
Ġìĩ¼íķĳ ëª°
ĠìĦ¸ê·¸ ë¨¼
Ġbund le
Ġteen agers
ëłĪìĬ¤íħĮ ë¡¤
ì¨Į ëĵł
e conomic
z ard
ìĿ´ ëĵ¤ìĿ´
Ġb ases
ê°Ģ ëŁī
ĠìĿ´ ëł¥
Ġë¶Ģ ìľĦìĹĲ
og ram
ë¥´ ì§Ģ
Ġbut t
Ġë§Ī ë¦¬
Ġë¬¸ ìŀ¬ìĿ¸
Ġëį° ëł¤
ë§Ī ìĿ´íģ¬
Ġë¬´ ìĥģ
ĠCh ildren
Ġíķł ìĿ¸ìĿĦ
Ġíĸī íķĺëĬĶ
ìĦ¤ ìłķ
Ġì·¨ íķĺê³ł
ĠíķŃ ê·ł
ĠëĮĢìĥģ ìĿĢ
ĠíĦ ´
Ġì¶ľëł¥ ëĲĺëĬĶ
ëł¸ ìĿĦ
Ġëª¨ëį¸ ë§ģ
ë²¤ ì²ĺ
Ġê²© ìŀĲ
Ġê°Ŀ ìĭ¤
Ġglass es
ìĤ°ìĹħ ìĿĺ
Ġê´Ģì°° ëĲĺìĹĪëĭ¤
Ġê¸Ģ ë£¨
ë¹Ħìļ© ìĿĢ
ĠKB S
Ġorient al
ĠìĹĺë¦¬ ë²łìĿ´íĦ°
Ġgradu ates
Ġê·¼ë³¸ ìłģìĿ¸
ĠìŀĩëĶ° ëĿ¼
Ġanch or
Ġdiscour se
Ġafore mentioned
wid th
7 7
r ban
ê°Ģ ì¹ĺ
Ġh ang
Ġbe ans
ĠìĪĺ ì¹ĺê°Ģ
ol ation
Ġìĥģ ìĪłíķľ
Ġìłķ êµĲ
op en
ĠìŀĲ ìĦĿ
ĠìķĦ ìļ¸ëŁ¬
ĠëĤĺ ìĦ¤
ĠìĨĮ ìķĦ
Ġíķ´ ë³Ģ
ë°© ìľ¼ë¡ľ
ĠE gypt
ĠR ules
20 13
Ġì¶Ķ ì¸¡
Ġë¶Ī ìĨĮ
Ġë¶Ī íķĦìļĶíķľ
Ġíİ ´
ĠíĻĶ íķĻìłģ
ëĶĶ ìŀĲìĿ¸
Ġgr at
Ġdist urb
ìĭľíĤ¤ ë©°
ĠëĮĢìĥģ ìĿĺ
Ġtermin ated
Ġfr ied
Ġê³Ħíļį ìĹĲ
ĠìłĦì²´ ìłģìĿ¸
Ġê³Ħìķ½ ìĿĺ
Ġìĭ¤íĸī íķĺëĬĶ
Ġrespons ibilities
Ġê°ĢìĬ¤ ìĿĺ
Ġdiv or
Ġprofit ability
ĠíĽĪëł¨ ìĿĦ
ì§Ĳ ìĿĦ
ĠìĿ¼ì¹ĺ íķĺëĬĶ
ĠìĿ¼ìĥģ ìĥĿíĻľ
Ġproxim al
Ġdispens ing
ĠíĴĢìĿ´ ëĲľëĭ¤
Ġì³ Ĳ
ĠExpress way
R D
Ġ âĪ¼
es is
et ime
Ġfor um
ìłķ ëıĦ
ë¶Ģ ë¬¸
ê²Į ìĿ´íĬ¸
ëĮĢ ê¸°
êµŃ ìłģ
Ġtr act
ë§Į ìĹ¬
ë¹Ħ ëĶĶìĺ¤
Ġê³ł ë°ľ
ê¸Ī ê³¼
Ġìłģ ìĻ¸ìĦł
ĠT S
Ġë°° ë¦¬ìĸ´
ĠR est
Ġìŀ¥ì¹ĺ ë¡ľìĦľ
ep ing
Ġqu e
Ġê³¼ ìĹ°
Ġê³¼ ìŀī
ĠìĹ°êµ¬ ìĽĲìĿĢ
íĸĪ ëĬĶì§Ģ
ĠO S
Ġê·ľ ìľ¨
âĢĻ ,
Ġshould n
Ġì§Ī ìĿĦ
Ġì¶© ê²©ìĿĦ
ëħ¸ ëĵľ
ĠíķŃ ìķĶ
Ġpress ur
Ġê±¸ ë¦¬ëĬĶ
Ġë³¼ íĬ¸
Ġste pped
ê²¨ ìļ¸
Ġwa ist
Ġìłľíķľ íķĺëĬĶ
Ġì¡°ìłķ íķĺëĬĶ
Ġroll ers
ìĸ¼ ë§Ī
ĠComp etition
Ġìľ¤ ë¦¬
Ġmal ign
Ġprohib ition
Ġdecomp osition
Ġíĥĵ ìĹĲ
ĠìĥĮ ëĵľ
Ġë©° ì¹ł
Ġsurfact ant
ĠUk rain
N F
Ġt ent
Ġo cean
ìĿ´ ì¤ĳ
Ġto y
ĠìĪĺ ìĤ°
ìĸ´ ë¨¸ëĭĪ
us al
ĠëĮĢ íķĻêµĲ
os er
ê·¸ ëŁ¬íķľ
Ġíı¬ ì¼ĵ
Ġcl ick
ìĪ ¨ìĿĦ
Ġìļ° ìľł
Ġëį° ëĬĶ
Ġinter section
Ġìŀĳ ê³¡
Ġíİ ł
Ġë§Ĳ íķľ
ìĦ¤ ê³Ħ
Ġcar riers
Ġìļ© ê¸°ë¥¼
Ġê²Į ìŀ¬
Ġche aper
Ġì§ĢìĽĲ íķĺê³ł
Ġë³ĢíĻĶ íķĺëĬĶ
Ġìķķ ëıĦ
Ġë¶ģ ê·¹
Ġê·Ģ ìĤ¬
ĠëĮĢìĿĳ ìĿĦ
Ġìķ¡ ìħĺ
Ġìķ¡ ìĦ¸ìĦľ
Ġê¸¸ ìĿ´ê°Ģ
Ġê·ľìłķ íķľ
Ġdig est
ìĦ¼íĦ° ëĬĶ
Ġê·¸ê²ĥ ìĿĺ
lo ok
ĠìŀĪëĬĶëį° ìļĶ
Ġëĵ±ë¡Ŀ ëĲľ
Ġweak ness
Ġexhibition s
Ġrecip ient
Ġcertific ates
Ġdescrib e
Ġacknowled ged
ë¹Ħê²Į ìĿ´ìħĺ
Ġtob acco
b les
h ang
re m
ì§Ģ ìĤ¬
ëĵ Ĳ
ĠëĮĢ íĸī
if iers
her ical
Ġë³´ ìŀħëĭĪëĭ¤
ëıĻ ê¸°
Ġhe patic
Ġì¤ĳ ìĹĲìĦľëıĦ
Ġìľł ê°Ģ
ì¡° ì¹ĺ
ĠM or
ĠìĥĿ ê¸¸
ìļ´ ìłĦ
íģ¬ ë¦¼
Ġê³¼ ëª©
ĠíĻĶ ìĿ´íĬ¸
ìĺĪ ìĤ°
íĶĮ ëŁ¬ìĬ¤
ê´ĳ ê³ł
ĠìĹ´ ëł¸ëĭ¤
Ġgr ay
íİ¸ ìĹĲ
ê²ĥ ëıĦ
ĠìĪĺíĸī íķĺìĺĢëĭ¤
Ġmin ing
ëĭĺ ìĿĢ
Ġê¸°ëĬ¥ ê³¼
ĠìĪĺì¤Ģ ìĿĢ
Ġì¡´ìŀ¬ ë¥¼
ĠëĦĺ ìĸ´ìĦľ
Ġê¸°ëĮĢ ë¥¼
Ġliqu or
Ġaccess ibility
ĠìĿ¼ìłķ ìĿ´
Ġê°Ŀ ì²´ìĿĺ
Ġë¬´ìĹĩ ë³´ëĭ¤
Ġpredict ive
ĠìĽĮ ëĵľ
Ġcy t
ëĭ¤ìĭľ íĶ¼
Ġdismiss al
ĠíĥĢìŀħ ìĿĺ
Ġaffili ates
Ġê°ĢìļĶ ìĦ±
Ġnutr itional
Ġìºĺë¦¬ íı¬ëĭĪìķĦ
Ġnanop art
) "
- [
Ġs ight
Ġan ne
ë¡ľ ë´ĩ
ê³ł ëł¹
ìłķ ì§Ģ
ì¹ «
ìłľ ìŀĳ
ĠA PI
em ployed
ab uk
ëıĻ ê³¼
Ġch ampionship
ì£¼ ì°¨
Ġë°© ì¹ĺ
ë¹Ħ ëĭĲ
ĠB MI
Ġsp ouse
Ġapp s
Ġìĺ¤ ì°¨
Ġëį° ëĭ¤
Ġpat ch
íĤ¤ ìĬ¤íĥĦ
ìĻ¸ êµŃ
Ġíģ¬ ëłĪ
ĠìĭľìĬ¤íħľ ê³¼
Ġany time
Ġìĥģíĥľ ëĬĶ
ĠìĹħ ì²´ê°Ģ
Ġadv ised
ffic ients
ĠìĦ¤ìłķ íķĺê³ł
Ġë°Ģ ì§ĳ
ìķĶ ìĿĺ
Ġê°ľìĭľ ëĲĺìĸ´
use ok
az on
Ġì¡°ìĦ±ë¬¼ ìĿ´
ĠìĦľë²Ħ ìĹĲ
Ġìĸ´ëłµ ê³ł
Ġmother s
ĠëĳĲê»ĺ ê°Ģ
ĠêµĲê³¼ ìĦľ
Ġhar ass
ĠëĮ ĵ
Ġê°Ħê²© ìľ¼ë¡ľ
Ġgradu ate
Ġêµ¬ì²Ń ìŀ¥ìĿ´
ĠíĶĦë¡ľíĮĮ ìĿ¼
Ġnutr ition
ĠTur key
Ġimprison ment
4 30
8 6
ëĭ ¿
íķĺ ìĿ´ëĵľ
Ġd ign
ro cess
Ġê¸° ê¸°ë¥¼
ĠìłĦ ìĦ¸
Ġìĥģ íķľ
Ġhe av
íĸī ìľĦìĹĲ
ĠP ay
ĠM ok
ear ing
Ġman ages
Ġíĺķ ìĭĿìľ¼ë¡ľ
Ġì¶Ķ ìĥģ
ĠW oori
Ġê³¼ íķĻìłģ
ìĺĪ ìķ½
Ġent ities
Ġë¯¸êµŃ ìĹĲ
ĠìĪľ ìľĦ
Ġê³µê¸ī ìĿĦ
Ġìĸ» ìĹĪëĭ¤
Ġê³µê°Ħ ìľ¼ë¡ľ
Ġexam ines
ĠêµŃìłľ ìłģ
ars h
ë¡¯ ëį°
Ġë¶Ģëĭ´ ìľ¼ë¡ľ
Ġê²ĢíĨł íķĺê³ł
Ġexhib it
ĠìŀĶ ìĹ¬
Ġì£¼ëª© ëĲľëĭ¤
Ġìĸ¸ìłľ ëĤĺ
Ġë¶ĦìľĦ ê¸°ê°Ģ
Ġcoe fficients
ĠìłĦìĹ¼ ë³ĳ
Ġlik ed
Ġparliament ary
Ġnitr ide
5 20
ë İ
re x
ìĿ´ ë©´ìĦľ
Ġw rap
ëł ĺ
ìłģ ìĿ´ì§Ģ
ul ent
Ġê·¸ ë¦ĩ
ìĹħ ìĹĲ
Ġne ur
ĠìĿĺ ìķ½
ĠM ilitary
Ġìŀ¥ ê´ĢìĿ´
Ġê³ł ì§Ģ
ìĥĿ ìĦ±
Ġ20 4
Ġë¯¸ ìļ©
Ġimp regn
Ġë°° ìłķ
ĠìķĮ ì§Ģ
Ġì°¨ ìĦ¸ëĮĢ
Ġstud io
ĠìĻ¸ ëŀĺ
Ġê²ĥìĿ´ ëŀĢ
Ġíĳľìĭľ ë¥¼
Ġíĥľ ë¸Ķë¦¿
ĠìĿ´ìĸ´ ì¡Įëĭ¤
cl ock
ĠìĿ¸ìĭĿ íķĺëĬĶ
Ġê³µìłķ ìĹĲ
ĠëĤ´ë¶Ģ ìĹĲìĦľ
Ġê·¸ë£¹ ìĹĲ
Ġmar itime
ĠìŀĲë£Į ìĹĲ
Ġë¹Ħë¡¯ íķĺìĹ¬
ĠíĥĲ êµ¬
Ġtal ents
Ġavoid ing
Ġmut ually
Ġë©Ģíĭ° ë¯¸ëĶĶìĸ´
Ġìŀłìŀ¬ ìłģ
Ġë°ĿíĺĢ ì¡Įëĭ¤
ĠCommun ity
Ġcellul ose
ĠìĽĲëĤ´ ëĮĢíĳľ
m other
an o
ic a
le ge
ĠìĤ¬ ì¶ľ
ìłĦ ë°ĺ
ìľł ì§Ģ
ĠD ream
ĠE l
Ġpo et
ì§ģ íķľ
Ġdec oder
Ġì¸¡ ìłķìĿĦ
ê°ķ ìĿĦ
Ġê¸°ìĹħ ëĵ¤ìĿĺ
ëĭĺ ìĿĦ
íıī íĻĶ
ĠìĦ¤ëªħ ëĲľëĭ¤
Ġê°ľë°ľ íķĺê³ł
Ġcompet ent
Ġeng ines
sc reen
Ġì²ł íķĻ
Ġê°ķì¡° íķĺê³ł
Ġfail s
Ġclean er
Se oul
âī ¦
Ġqual ification
Ġê²ĥìĿ¸ ê°Ģ
Ġmeth yl
Ġparad igm
Ġdece ased
Ġmun icipal
Ġre str
ê² ĢìĿĦ
Ġcon form
Ġpro c
ìłģ ìĿĺ
Ġê°Ģ ìŀĲ
ĠìľĦ ìĦ±
Ġìĭľ íĬ¸ìĿĺ
ĠB TS
ê±° ë¦¬ë¥¼
ëŀĺ ìļĶ
Ġta ught
Ġì§ģ ëł¬
ì²ľ ìĭľ
ìłĪ ìĿĦ
Ġed ition
Ġpers u
Ġê¸°ìĪł ë¡ľ
Ġëĵ¤ìĸ´ ê°Ī
Ġhand led
ĠPro secut
Ġclass ical
Ġpoly ethylene
ĠìĦ¤ì¹ĺ íķľ
Ġsl it
ĠìĿ´íķ´ ê°Ģ
ê°Ĵ ìĿĺ
Ġì¦Ĳ ê²¨
Ġìłĳê·¼ ìĿ´
Ġë¯¸ëŀĺ ìĿĺ
ĠëłĪë²¨ ìĿĦ
ë¶ģíķľ ìĿĺ
Ġhur ry
eto oth
2 60
O ECD
re ce
us hed
Ġìłľ íľ´
Ġ2 11
ëĿ¼ ìĿ¸ìĿĦ
íĻĶ íıĲ
ëĮĢ íĺķ
se ud
Ġëĵ± ìŀ¬
In tern
ĠëĤ´ ìĹ´
ĠìĦł ëĳĲ
ĠJ ud
Ġreg ener
Ġk ne
ĠìļĶ ì²ł
ĠCh airperson
ĠìĹ°êµ¬ ëĵ¤ìĿĢ
ê¶Į ìľ¼ë¡ľ
Ġdec entral
Ġdes cript
Ġêµ¬ìĦ± íķł
Ġê²ĥìĿ´ ê¸°
ë¸Į ë¥¼
Ġcar p
Ġë¬¸ìłľ ìłĲìĿ´
ìĽĮ ìĦľ
ĠìĤ¬ëŀĮ ê³¼
ĠìŀĦ ìĽĲ
Ġperson ally
Ġì¶© ëĤ¨
Ġìłľì¡° íķĺê¸°
ì¡Į ìľ¼ë©°
ëıħ êµĲ
ĠìŀĪìĸ´ìĦľ ëıĦ
Ġê°ĲìĨĮ íķľ
Ġcomb ine
ìľĦìĽĲ ìĿĢ
ID S
Ġresist or
ĠìĹĶ ëĵľ
Ġprotect s
Ġcoll ision
Ġconstit uent
ĠìĦ¤ê³Ħ ëĲľ
Ġfew er
Ġarm ed
ĠQ u
Ġìĭľê°ģ ìłģ
Ġstop s
Ġaltern atives
ĠAustral ian
ryl ate
ë±ħ íģ¬
ĠíĮ¨ëŁ¬ ëĭ¤
F ore
Ġb ore
Ġëĭ ¦
ul i
iv ating
ë³´ ìŀ¥
ĠG old
ĠìĤ¬ìļ© ìŀĲë¥¼
ĠìĦł ìłľ
ë°© ìĤ¬
Ġë°Ķ ëĭ·
Ġë°° ê°Ģ
Ġê°Ĳ ìłķìĿĦ
Ġìĺ¤ íĨł
ĠìĦ¸ ìĥģìĿĦ
ìĺģ ë¦¬
ĠW ang
Ġê³¼ ìłľëĬĶ
ĠíĻľ ìĦ±ìĿĦ
Ġë©Ķ íĭ¸
Ġë¶Ģë¶Ħ ìĹĲìĦľ
ì¡Į ìĿĦ
Ġëĵ¤ìĸ´ ìĺ¤
Ġíĳľìĭľ íķľëĭ¤
Ġê¸°ë°ĺ íķľ
Ġspecific ations
ĠìĪĺìļ© ìĦ±
ìĹ°êµ¬ ìĨĮ
ĠíĶĦë¡ľìĦ¸ ìĬ¤ë¥¼
ĠìĿĢ íĩ´
ams il
Ġê°ķíĻĶ íķĺëĬĶ
Ġcoll apsed
ĠìłģìłĪ íŀĪ
ĠíĹĪìļ© íķĺëĬĶ
Ġì½ ¤
ĠìĦ±ëĬ¥ ìĿ´
Ġê·¸ëŁ¬ ëĤĺ
Ġmuseum s
Ġë³Ģíĺ¸ ìĤ¬
sol uble
[...]
