{"<s>":0,"<pad>":1,"</s>":2,"<unk>":3,"<mask>":4,"!":5,"\"":6,"#":7,"$":8,"%":9,"&":10,"'":11,"(":12,")":13,"*":14,"+":15,",":16,"-":17,".":18,"/":19,"0":20,"1":21,"2":22,"3":23,"4":24,"5":25,"6":26,"7":27,"8":28,"9":29,":":30,";":31,"<":32,"=":33,">":34,"?":35,"@":36,"A":37,"B":38,"C":39,"D":40,"E":41,"F":42,"G":43,"H":44,"I":45,"J":46,"K":47,"L":48,"M":49,"N":50,"O":51,"P":52,"Q":53,"R":54,"S":55,"T":56,"U":57,"V":58,"W":59,"X":60,"Y":61,"Z":62,"[":63,"\\":64,"]":65,"^":66,"_":67,"`":68,"a":69,"b":70,"c":71,"d":72,"e":73,"f":74,"g":75,"h":76,"i":77,"j":78,"k":79,"l":80,"m":81,"n":82,"o":83,"p":84,"q":85,"r":86,"s":87,"t":88,"u":89,"v":90,"w":91,"x":92,"y":93,"z":94,"{":95,"|":96,"}":97,"~":98,"¡":99,"¢":100,"£":101,"¤":102,"¥":103,"¦":104,"§":105,"¨":106,"©":107,"ª":108,"«":109,"¬":110,"®":111,"¯":112,"°":113,"±":114,"²":115,"³":116,"´":117,"µ":118,"¶":119,"·":120,"¸":121,"¹":122,"º":123,"»":124,"¼":125,"½":126,"¾":127,"¿":128,"À":129,"Á":130,"Â":131,"Ã":132,"Ä":133,"Å":134,"Æ":135,"Ç":136,"È":137,"É":138,"Ê":139,"Ë":140,"Ì":141,"Í":142,"Î":143,"Ï":144,"Ð":145,"Ñ":146,"Ò":147,"Ó":148,"Ô":149,"Õ":150,"Ö":151,"×":152,"Ø":153,"Ù":154,"Ú":155,"Û":156,"Ü":157,"Ý":158,"Þ":159,"ß":160,"à":161,"á":162,"â":163,"ã":164,"ä":165,"å":166,"æ":167,"ç":168,"è":169,"é":170,"ê":171,"ë":172,"ì":173,"í":174,"î":175,"ï":176,"ð":177,"ñ":178,"ò":179,"ó":180,"ô":181,"õ":182,"ö":183,"÷":184,"ø":185,"ù":186,"ú":187,"û":188,"ü":189,"ý":190,"þ":191,"ÿ":192,"Ā":193,"ā":194,"Ă":195,"ă":196,"Ą":197,"ą":198,"Ć":199,"ć":200,"Ĉ":201,"ĉ":202,"Ċ":203,"ċ":204,"Č":205,"č":206,"Ď":207,"ď":208,"Đ":209,"đ":210,"Ē":211,"ē":212,"Ĕ":213,"ĕ":214,"Ė":215,"ė":216,"Ę":217,"ę":218,"Ě":219,"ě":220,"Ĝ":221,"ĝ":222,"Ğ":223,"ğ":224,"Ġ":225,"ġ":226,"Ģ":227,"ģ":228,"Ĥ":229,"ĥ":230,"Ħ":231,"ħ":232,"Ĩ":233,"ĩ":234,"Ī":235,"ī":236,"Ĭ":237,"ĭ":238,"Į":239,"į":240,"İ":241,"ı":242,"Ĳ":243,"ĳ":244,"Ĵ":245,"ĵ":246,"Ķ":247,"ķ":248,"ĸ":249,"Ĺ":250,"ĺ":251,"Ļ":252,"ļ":253,"Ľ":254,"ľ":255,"Ŀ":256,"ŀ":257,"Ł":258,"ł":259,"Ń":260,"Ġì":261,"ìĿ":262,"Ġt":263,"Ġë":264,"Ġa":265,"he":266,"in":267,"íķ":268,"Ġê":269,"on":270,"Ġthe":271,"re":272,"ëĭ":273,"ìĹ":274,"Ġs":275,"at":276,"er":277,"Ġo":278,"Ġc":279,"Ġí":280,"en":281,"ëĭ¤":282,"ëĬ":283,"Ġp":284,"ìĿ´":285,"ëĬĶ":286,"is":287,"ed":288,"or":289,"it":290,"Ġw":291,"ê³":292,"an":293,"ìĹĲ":294,"ing":295,"Ġan":296,"Ġin":297,"Ġf":298,"ìł":299,"Ġof":300,"ìĦ":301,"al":302,"Ġb":303,"ion":304,"ìĿĺ":305,"íķĺ":306,"es":307,"Ġm":308,"ìĿĦ":309,"ê°":310,"Ġìŀ":311,"ë¡":312,"Ġd":313,"ic":314,"Ġto":315,"ro":316,"Ġìł":317,"Ġand":318,"ar":319,"ìŀ":320,"ë¥":321,"íķľ":322,"ì§":323,"ë¡ľ":324,"¸°":325,"as":326,"ĠìĿ":327,"ent":328,"ct":329,"le":330,"ou":331,"ìľ":332,"ìļ":333,"ìĭ":334,"Īëĭ¤":335,"ë¥¼":336,"Ġre":337,"Ġë°":338,"Īĺ":339,"ê³ł":340,"ê°Ģ":341,"Ġê°":342,"ëı":343,"Ġe":344,"Ġth":345,"ìĿĢ":346,"ê¸°":347,"ì§Ģ":348,"Ġh":349,"Ĥ¬":350,"ìĦľ":351,"Ġis":352,"ë¦":353,"Ġê²":354,"ation":355,"ëĲ":356,"om":357,"ìķ":358,"Ġl":359,"st":360,"ve":361,"ëĵ":362,"ê²":363,"Ġbe":364,"ĥģ":365,"ìĸ":366,"ìĬ":367,"ĠìĪĺ":368,"il":369,"íķ´":370,"ìľ¼":371,"ëıĦ":372,"ĮĢ":373,"id":374,"ë¶":375,"ce":376,"Ġn":377,"Ġ1":378,"êµ":379,"Ġìĭ":380,"Ġìķ":381,"et":382,"ëł":383,"ë¦¬":384,"ĠìĿ´":385,"ly":386,"ëĤ":387,"ĠìĹ":388,"Ġfor":389,"ur":390,"ìľ¼ë¡ľ":391,"ìĸ´":392,"Ġg":393,"im":394,"ut":395,"ë©":396,"Ġcon":397,"us":398,"ay":399,"ë³":400,"ol":401,"The":402,"un":403,"Ġì§":404,"ìĭľ":405,"Ġpro":406,"ĠìĦ":407,"ìĿ¸":408,"ìŀĲ":409,"Ġon":410,"ë§":411,"ê³¼":412,"ch":413,"Ġê³":414,"Ġë³":415,"Ġìľ":416,"ig":417,"Ġst":418,"Ġìłľ":419,"Ġthat":420,"ìĦ±":421,"ĠìŀĪ":422,"íĸ":423,"ìłķ":424,"ìĹĲìĦľ":425,"ìłģ":426,"ë°":427,"ë¶Ģ":428,"Ġëĭ":429,"ë¬":430,"Ġë§":431,"Ġ2":432,"íĻ":433,"íķĺëĬĶ":434,"ir":435,"ìĬ¤":436,"ot":437,"ment":438,"ìĽ":439,"ì¹":440,"Ġë¶":441,"ul":442,"ì²":443,"ĠëĤ":444,"ĠìĤ¬":445,"ìĤ¬":446,"ëĿ":447,"ow":448,"ĠìŀĪëĭ¤":449,"am":450,"ëĭĪëĭ¤":451,"Ġêµ":452,"ĠëĮĢ":453,"Ġas":454,"ìĺ":455,"£¼":456,"Ġcom":457,"ëĵ¤":458,"ìļ©":459,"ìĨ":460,"ith":461,"ìĥģ":462,"·¸":463,"Ġìĺ":464,"ver":465,"íĺ":466,"íķł":467,"ëĿ¼":468,"Ġde":469,"ìĻ":470,"Ġwith":471,"Ġy":472,"Ġit":473,"od":474,"Ġê¸°":475,"Ġê°Ģ":476,"ter":477,"os":478,"´Ģ":479,"ge":480,"ëŁ":481,"ect":482,"¡°":483,"ìļĶ":484,"ad":485,"ë©´":486,"Ġê²ĥ":487,"ìŀ¥":488,"ore":489,"if":490,"ë²":491,"ëĲĺ":492,"ìłľ":493,"Ġex":494,"ëĲľ":495,"Ġare":496,"Ġwh":497,"ĠìłĦ":498,"Ġsu":499,"el":500,"ëĤĺ":501,"Ġìĥģ":502,"ê²Į":503,"ëª":504,"¹Ħ":505,"ì¹ĺ":506,"ìĹ¬":507,"ëŀ":508,"ate":509,"ĠA":510,"ĠíĻ":511,"Ġv":512,"Ġëª":513,"íĦ":514,"Ġíķ":515,"Ġëı":516,"ĠC":517,"íĬ":518,"pp":519,"Ġì§Ģ":520,"ĥĿ":521,"¤ĳ":522,"em":523,"ìĻĢ":524,"ĠS":525,"Ġor":526,"ess":527,"res":528,"Ġby":529,"ìĪĺ":530,"ive":531,"ity":532,"Ġse":533,"her":534,"00":535,"ĠìľĦ":536,"ab":537,"ain":538,"th":539,"Ġyou":540,"ud":541,"íĦ°":542,"Ġcomp":543,"íĻĶ":544,"ìĽĲ":545,"Ġr":546,"ĠI":547,"ill":548,"Ġìĭľ":549,"íķľëĭ¤":550,"Ġal":551,"Ġat":552,"Ġ(":553,"íĬ¸":554,"Ġìļ":555,"Ġíı":556,"ìĿ¼":557,"Ġíĺ":558,"êµ¬":559,"Ġëĵ":560,"íķĺê³ł":561,"ëĮĢ":562,"du":563,"ial":564,"Ġìłķ":565,"ers":566,"ist":567,"Ġë³´":568,"est":569,"ere":570,"ure":571,"Ġwas":572,"ļĮ":573,"iv":574,"ìłĦ":575,"ìķĦ":576,"ort":577,"um":578,"¯¸":579,"ë³´":580,"'s":581,"qu":582,"ëį":583,"ies":584,"ê¸":585,"oc":586,"ëıĻ":587,"ong":588,"rom":589,"ì²´":590,"art":591,"ìĬµ":592,"Ġhe":593,"ĠìĨ":594,"act":595,"Ġìĸ":596,"Ġë¬":597,"ac":598,"Ĥ°":599,"êµŃ":600,"ê³Ħ":601,"op":602,"Ġê²½":603,"Ĩµ":604,"nt":605,"ë£":606,"ì¶":607,"ëħ":608,"Ġ3":609,"Ġha":610,"íĥ":611,"ìĨĮ":612,"Ġê´Ģ":613,"Ġus":614,"igh":615,"Ġinc":616,"Ġì¤ĳ":617,"Ġsh":618,"Ġë°ı":619,"Ġcont":620,"ëĵľ":621,"Ġì£¼":622,"ĠK":623,"Ġcan":624,"ant":625,"Ġtr":626,"Ġfrom":627,"±°":628,"Ġêµ¬":629,"ated":630,"ice":631,"Ġê·¸":632,"ì°":633,"age":634,"Ġres":635,"Ġëĭ¤":636,"Ġch":637,"Ġun":638,"ìļ°":639,"íķĺìĹ¬":640,"ap":641,"Ġìľł":642,"ĠìĹ°":643,"ë§Į":644,"ding":645,"Ġë¶Ģ":646,"ĠìĿ¸":647,"ìĹħ":648,"ê³µ":649,"iz":650,"Ġì¶":651,"ìĭł":652,"ì£¼":653,"Ġle":654,"Ġë°©":655,"Ġmay":656,"íĶ":657,"ëªħ":658,"Ġíķĺ":659,"orm":660,"ìĬµëĭĪëĭ¤":661,"ìĿ´ëĭ¤":662,"ĠëĶ":663,"Ġne":664,"ì¡°":665,"Ġê³µ":666,"ĠìŀĲ":667,"Ġë°ľ":668,"ê·¸":669,"Ġì°":670,"ld":671,"ke":672,"Ġdis":673,"ĠìĿĺ":674,"íĸī":675,"Ġpl":676,"ip":677,"íķ©":678,"Ġëį":679,"ich":680,"ĠP":681,"ib":682,"ëŁ¬":683,"ĠíĮ":684,"ition":685,"ë¹Ħ":686,"ëł¥":687,"ê°Ħ":688,"ĠíĶ":689,"Ġì¡°":690,"ìĤ°":691,"ë¬¸":692,"se":693,"Ġnot":694,"ĠìķĦ":695,"per":696,"ĠM":697,"ase":698,"Ġwhich":699,"ide":700,"Ġëĵ±":701,"cc":702,"Ġim":703,"Ġì²":704,"ìĦ¸":705,"Ġthis":706,"ical":707,"ĠB":708,"form":709,"Ġwhe":710,"ast":711,"Ġë²":712,"end":713,"Ġad":714,"íĮ":715,"In":716,"íķ¨":717,"ê·":718,"Ġëª¨":719,"ĠìĿ¼":720,"ult":721,"ë²ķ":722,"and":723,"Ġhave":724,"ĠëĤ´":725,"Ġ\"":726,"ë¬¼":727,"ĠìŀĪëĬĶ":728,"ë©°":729,"ans":730,"Ġhas":731,"Ġíı¬":732,"lect":733,"ìŀ¬":734,"all":735,"Ġwill":736,"íļĮ":737,"ëĭ¨":738,"ear":739,"ì§Ħ":740,"ë¶Ħ":741,"Ġme":742,"Ġë¹Ħ":743,"ĠëĤĺ":744,"Ġint":745,"âĢ":746,"ance":747,"Ġìŀ¥":748,"Ġê°ľ":749,"ìĭĿ":750,"Ġsp":751,"ĳľ":752,"ê´Ģ":753,"ìŀħ":754,"ĠìĨĮ":755,"ang":756,"ìľĦ":757,"Ġíķľ":758,"ff":759,"ight":760,"up":761,"ĠëĲ":762,"ĺĲ":763,"ìķ¼":764,"ĠíĨµ":765,"gh":766,"Ġê³ł":767,"ous":768,"Ġpart":769,"ĠG":770,"íı":771,"íĸĪëĭ¤":772,"ëħĦ":773,"ìľł":774,"con":775,"ire":776,"ĠìĬ":777,"Ġab":778,"Ġper":779,"Ġ4":780,"¦Ŀ":781,"pl":782,"ëĦ":783,"ë¡Ŀ":784,"Ġ5":785,"ĠD":786,"ĽĦ":787,"ag":788,"ther":789,"ëĭĪ":790,"duct":791,"Ġë¶Ħ":792,"ģ¬":793,"ê¹":794,"lud":795,"Ġapp":796,"ë¯¸":797,"are":798,"Ġpre":799,"irst":800,"ë£Į":801,"able":802,"ëĬ¥":803,"ign":804,"Ġwe":805,"ĠìķĬ":806,"ìĹŃ":807,"±´":808,"ace":809,"ìĦł":810,"ëł¤":811,"der":812,"AA":813,"Ġê²°":814,"íĴ":815,"ust":816,"ìĥĿ":817,"Ġìĭ¤":818,"ine":819,"ìłģìľ¼ë¡ľ":820,"ue":821,"Ġìĥģê¸°":822,"ķĮ":823,"It":824,"ë¬´":825,"ì¶ľ":826,"íĺ¸":827,"Ġíķ´":828,"ĠìĽ":829,"ĠëıĦ":830,"og":831,"Ġfirst":832,"ĠF":833,"Ġgo":834,"ĠëĶ°":835,"ê±°":836,"Ġëĭ¨":837,"ê°ľ":838,"ĠëıĻ":839,"Ġinclud":840,"ĠKore":841,"Ġìĭł":842,"ĠN":843,"ìķĪ":844,"Ġ20":845,"Ġprov":846,"Ġíı¬íķ¨":847,"Ġê·":848,"Ġìĺģ":849,"íķĻ":850,"ëĭ¹":851,"ens":852,"ĠìĻ":853,"ìĭ¤":854,"ì¸":855,"Ġíĸ":856,"íħ":857,"ĠìĤ¬ìļ©":858,"ê¸Ī":859,"ĠìĥĿ":860,"ĠH":861,"Ġwor":862,"Ġì¹":863,"ary":864,"ê²½":865,"Ġìłģ":866,"íĴĪ":867,"ĠíĬ":868,"so":869,"ents":870,"Ġê¸":871,"ĠëķĮ":872,"ime":873,"ëĤ´":874,"ater":875,"Ġco":876,"íĺķ":877,"ĠëĺĲ":878,"ĠìĦł":879,"ount":880,"ec":881,"ard":882,"ìĺĢ":883,"ĠT":884,"vice":885,"ĠëĮĢíķľ":886,"ĠJ":887,"ëłĪ":888,"íŀ":889,"ould":890,"out":891,"Ġcl":892,"íķĺê¸°":893,"Ġso":894,"vel":895,"ë¥¸":896,"ê°ģ":897,"Ġì¢":898,"pt":899,"Ġìĸ´":900,"ê¹Į":901,"ëį°":902,"our":903,"Ġen":904,"king":905,"Ġout":906,"Ġë¯¸":907,"ìĪ":908,"ë°©":909,"ë³¸":910,"ach":911,"Ġthere":912,"ber":913,"ì¡":914,"ating":915,"ry":916,"Ġmet":917,"ìĹ°":918,"ĠìĹ¬":919,"ions":920,"cess":921,"Ġone":922,"Ġpres":923,"ìĨį":924,"ĠìĦľ":925,"oun":926,"Ġman":927,"ĠìĹĨ":928,"ëĲĺëĬĶ":929,"ĠE":930,"Ġacc":931,"ĳĲ":932,"ìłģìĿ¸":933,"ell":934,"ations":935,"êµĲ":936,"Ġalso":937,"Ġimp":938,"µľ":939,"íŀĪ":940,"vent":941,"Ġë°Ķ":942,"Ġë°°":943,"Ġsa":944,"ë¥´":945,"Ġsy":946,"Ġíĥ":947,"ì§Ī":948,"Th":949,"ĠìĬ¤":950,"ëŀĺ":951,"ĠR":952,"Ġpr":953,"Ġbut":954,"ugh":955,"Ġê°Ĳ":956,"Ġro":957,"ìļ´":958,"íĹ":959,"10":960,"íĸ¥":961,"ĠíĻķ":962,"ome":963,"Ġë§Ī":964,"Ġem":965,"Ġëħ":966,"ĠëĨ":967,"íĥĢ":968,"ĠìĺĪ":969,"ëĲľëĭ¤":970,"low":971,"ie":972,"ĠìłĢ":973,"ame":974,"íģ¬":975,"Ġte":976,"Ġìĺ¤":977,"ìĿĮ":978,"Ġj":979,"ru":980,"¯¼":981,"ìĹĪëĭ¤":982,"ë°ĺ":983,"¤Ģ":984,"ĠêµŃ":985,"erm":986,"Ġrel":987,"ìħ":988,"ìĸĳ":989,"íķĺê²Į":990,"ĠìĦ¸":991,"ĠíļĮ":992,"Ġexp":993,"´ĳ":994,"Ġ'":995,"ì°¨":996,"ëŁī":997,"ê²°":998,"Ġ10":999,"Ġtime":1000,"ass":1001,"Ġê±°":1002,"Ġwere":1003,"Ġë¬¸":1004,"ĠL":1005,"ìĹĲëĬĶ":1006,"Ġreg":1007,"Ġar":1008,"Ġmo":1009,"aus":1010,"Ġê°Ļ":1011,"Ġì´":1012,"ì¤ĳ":1013,"Ġact":1014,"Ġsuch":1015,"ë¶ĢíĦ°":1016,"Ġform":1017,"ĠìĦ±":1018,"Ġwho":1019,"iff":1020,"rough":1021,"íĤ":1022,"ìĺģ":1023,"Ġê²½ìļ°":1024,"Ġíĺķ":1025,"Ġsub":1026,"Ġtrans":1027,"Ġìłľê³µ":1028,"Ġë©":1029,"ìłĢ":1030,"ëĵ¤ìĿ´":1031,"ence":1032,"Ġ6":1033,"ĠìķĪ":1034,"ĠìĦ¤":1035,"ëĲł":1036,"ĠìĽĲ":1037,"ĠíĬ¹":1038,"ëĶ":1039,"ĠU":1040,"Ġmore":1041,"Ġìļ°":1042,"Ġag":1043,"ìĺ¤":1044,"¶Į":1045,"20":1046,"Ġli":1047,"ìŀĳ":1048,"Ġk":1049,"ìĦĿ":1050,"½Ķ":1051,"íİ":1052,"ased":1053,"ĠíķĦ":1054,"ĠêµĲ":1055,"fter":1056,"ìĺĢëĭ¤":1057,"ok":1058,"ĠìľĦíķ´":1059,"ject":1060,"lic":1061,"Ġrec":1062,"ëł¨":1063,"Ġìŀ¬":1064,"Ġëį°":1065,"ĠThe":1066,"Ġì§Ħ":1067,"Ġpo":1068,"ual":1069,"ëª¨":1070,"cond":1071,"íĶĦ":1072,"ë§Ī":1073,"Ġë³Ģ":1074,"íĨµ":1075,"Ġë°ĺ":1076,"Ġbeen":1077,"Ġthan":1078,"Ġìŀħ":1079,"Ġinter":1080,"ĠìļĶ":1081,"ific":1082,"ìĭ¬":1083,"ìłĲ":1084,"stem":1085,"ied":1086,"ë°ľ":1087,"Ġdevice":1088,"Ġgro":1089,"we":1090,"Ġë§Į":1091,"Ġì¶Ķ":1092,"ub":1093,"Ġsecond":1094,"ile":1095,"Ġyear":1096,"Ġbet":1097,"ction":1098,"Ġsc":1099,"Ġíķľëĭ¤":1100,"ll":1101,"Ġthrough":1102,"Ġìµľ":1103,"ìĪł":1104,"Ġbec":1105,"Ġta":1106,"Ġproduct":1107,"Ġother":1108,"formation":1109,"Ġdet":1110,"Ġê³Ħ":1111,"Ġwhen":1112,"íĹĺ":1113,"ree":1114,"Ġdo":1115,"ĠìķĮ":1116,"ative":1117,"Ġsupp":1118,"íĥľ":1119,"Ġma":1120,"ê¸ī":1121,"ĠëįĶ":1122,"ê±´":1123,"Ġam":1124,"ëıĦë¡Ŀ":1125,"Ġsystem":1126,"Ġì°¨":1127,"Ġìŀ¥ì¹ĺ":1128,"Ġë¬´":1129,"Ġdiff":1130,"Ġpos":1131,"ìĹĪ":1132,"Ġíĳľ":1133,"ĠíĶĦ":1134,"ìŀĦ":1135,"ack":1136,"ĠëĺĲëĬĶ":1137,"ious":1138,"Ġsur":1139,"ìĹĲê²Į":1140,"Ġcomm":1141,"Ġstud":1142,"Ġelect":1143,"ational":1144,"íĳľ":1145,"hod":1146,"ĠCh":1147,"int":1148,"ors":1149,"ener":1150,"ĠKorea":1151,"ep":1152,"Ġrep":1153,"Ġcons":1154,"ving":1155,"ark":1156,"ì´":1157,"ording":1158,"und":1159,"Ġser":1160,"ì§ģ":1161,"Ġinformation":1162,"Ġprocess":1163,"ia":1164,"one":1165,"ced":1166,"ë¯¼":1167,"ates":1168,"ĠìľĦíķľ":1169,"ì¤Ģ":1170,"ye":1171,"ven":1172,"ĠAAA":1173,"ëĤľ":1174,"ë¸":1175,"ìĿ´ëĿ¼":1176,"ëĲĺìĸ´":1177,"ĠìŀĪìĬµëĭĪëĭ¤":1178,"Ġê°ĢëĬ¥":1179,"Ġmethod":1180,"ì§Ģë§Į":1181,"ural":1182,"ween":1183,"Ġê²ĥìľ¼ë¡ľ":1184,"íĻĺ":1185,"Ġsaid":1186,"ĠëĲĺ":1187,"Ġì¦Ŀ":1188,"Ġë§¤":1189,"Ġ7":1190,"ause":1191,"Ġyour":1192,"Ġcompan":1193,"ĠëĦ":1194,"Ġbetween":1195,"ĠíĽĦ":1196,"Ī¬":1197,"ì¢":1198,"Ġë¶Ī":1199,"íĭ":1200,"Ġdat":1201,"ric":1202,"Ġê°ķ":1203,"ë£¨":1204,"ìķ½":1205,"ress":1206,"Ġê°ģ":1207,"This":1208,"Ġall":1209,"ĠíĻĺ":1210,"ìĿ´íĦ°":1211,"Ġqu":1212,"BB":1213,"ory":1214,"Ġë§İ":1215,"ì¦Ŀ":1216,"Ġë°©ë²ķ":1217,"ose":1218,"ë¥ĺ":1219,"íĽĦ":1220,"íı¬":1221,"Ġpat":1222,"ļ¨":1223,"Ġeff":1224,"Ġabout":1225,"Ġsign":1226,"ĠW":1227,"ĠíĺĦ":1228,"ë§¤":1229,"Â·":1230,"ê²©":1231,"Ġìŀĳ":1232,"ì²Ń":1233,"ìŀħëĭĪëĭ¤":1234,"ë¦½":1235,"Ġob":1236,"Ġcontro":1237,"Ġë³¸":1238,"ĠâĢ":1239,"ĠëĶ°ëĿ¼":1240,"ìĽĶ":1241,"Ġíİ":1242,"Ġê³¼":1243,"Ġì»":1244,"ë³Ħ":1245,"Ġafter":1246,"Ġdata":1247,"ities":1248,"ĠìĹ°êµ¬":1249,"ower":1250,"Ġunit":1251,"ê¶Į":1252,"Ġconf":1253,"Ĩł":1254,"ĠIn":1255,"íĿ":1256,"íĸĪ":1257,"Ġìłķë³´":1258,"Ġë§Ĳ":1259,"Ġmem":1260,"Ġprovid":1261,"wo":1262,"Ġë°Ľ":1263,"ìķĺ":1264,"ĠíķĻ":1265,"Ġoff":1266,"ail":1267,"Ġì¸":1268,"íĮĲ":1269,"Ġif":1270,"Ġlike":1271,"very":1272,"Ġpe":1273,"ĠíĶ¼":1274,"ê¹Įì§Ģ":1275,"uc":1276,"ri":1277,"Ġmod":1278,"Ġê²ĥìĿ´ëĭ¤":1279,"ìĨ¡":1280,"Ġíķł":1281,"ility":1282,"ëŀĮ":1283,"Ġíķ¨":1284,"aw":1285,"Ġëħ¸":1286,"ĠíĨµíķ´":1287,"Ġcol":1288,"Ġgener":1289,"íĺĦ":1290,"ĠíĮĮ":1291,"ĠíĻľ":1292,"dition":1293,"Ġlo":1294,"ade":1295,"íķ©ëĭĪëĭ¤":1296,"ĠëĨĴ":1297,"Ġwhere":1298,"Ġ8":1299,"Ġê²Ģ":1300,"anc":1301,"ĠíĻĶ":1302,"ĥī":1303,"itt":1304,"ĠìĤ":1305,"ĠëĶĶ":1306,"ĠìŀĪìĸ´":1307,"Ġover":1308,"Ġfin":1309,"ĠíķĺëĤĺ":1310,"Ġatt":1311,"Ġoper":1312,"hed":1313,"),":1314,"Ġperform":1315,"Ġins":1316,"Ġëĭ¹":1317,"ĠíķĦìļĶ":1318,"Ġloc":1319,"ì¦":1320,"Ġ19":1321,"hen":1322,"Ġê°Ħ":1323,"ìĺĪ":1324,"Ġincre":1325,"ë©´ìĦľ":1326,"ection":1327,"ìľ¡":1328,"ëĵ¤ìĿĢ":1329,"Ġhigh":1330,"Ġë¬¼":1331,"Ġíıī":1332,"ĠíĮĲ":1333,"íĤ¤":1334,"Ġì±":1335,"ange":1336,"ound":1337,"reat":1338,"We":1339,"Ġrece":1340,"ĠìĻ¸":1341,"Ġvar":1342,"ren":1343,"Ġeach":1344,"ident":1345,"íķĺìĺĢëĭ¤":1346,"Ġ201":1347,"ized":1348,"vention":1349,"ĢìĿ´":1350,"Ġind":1351,"ĠO":1352,"Ġdec":1353,"Ġthey":1354,"ëĵ¤ìĿĺ":1355,"uring":1356,"ular":1357,"enc":1358,"Ġup":1359,"Ġdes":1360,"ĠìĤ°":1361,"ected":1362,"pon":1363,"ris":1364,"ution":1365,"Ġwork":1366,"Ġinto":1367,"ung":1368,"Ġac":1369,"Ġdire":1370,"íķĺëĭ¤":1371,"íĥĿ":1372,"Ġpartic":1373,"Ġtheir":1374,"ood":1375,"Ġcor":1376,"ì¢ħ":1377,"ë°Ķ":1378,"ê²ł":1379,"Ġunder":1380,"ite":1381,"Ġass":1382,"ê»":1383,"ì¸µ":1384,"ëįĺ":1385,"ning":1386,"Ġfe":1387,"ĠëĮĢíķ´":1388,"ì±":1389,"Ġì§ģ":1390,"Ġinv":1391,"Ġì¶ľ":1392,"íķŃ":1393,"'t":1394,"ermin":1395,"ople":1396,"Ġë³µ":1397,"vern":1398,"Ġref":1399,"Ġval":1400,"Ġê±´":1401,"íĶĮ":1402,"ë²Ħ":1403,"ëĶĶ":1404,"tain":1405,"ĠìĿ´ìĥģ":1406,"Ġë°ľëªħ":1407,"íķĺì§Ģ":1408,"Ġpol":1409,"ince":1410,"red":1411,"ish":1412,"Ġêµ¬ìĦ±":1413,"ĠíĿ":1414,"Ġdr":1415,"Ġíĸī":1416,"Ġëį°ìĿ´íĦ°":1417,"ìĹĲìĦľëĬĶ":1418,"ìĦ¤":1419,"Ġnew":1420,"ê°Ĳ":1421,"Ġìłĳ":1422,"Ġtwo":1423,"ì¼":1424,"ient":1425,"lement":1426,"ak":1427,"Ġmed":1428,"ëĵł":1429,"Ġê¸Ī":1430,"tern":1431,"Ġno":1432,"velop":1433,"Ġused":1434,"rib":1435,"Ġits":1436,"ëĳĲ":1437,"Ġpresent":1438,"olog":1439,"put":1440,"Ġê´Ģëł¨":1441,"ron":1442,"ìĬ¤íħ":1443,"ì²ĺ":1444,"ìľ¨":1445,"Ġê²ĥìĿĦ":1446,"Ġì²ĺ":1447,"Ġ9":1448,"Ġchar":1449,"ĠëĳĲ":1450,"Ġresult":1451,"ê´ĳ":1452,"Ġëĭ¤ë¥¸":1453,"ë¦°":1454,"Ġìĸĳ":1455,"Ġph":1456,"Ġíķ©":1457,"aly":1458,"ally":1459,"old":1460,"now":1461,"ìĻ¸":1462,"ayer":1463,"ëĭ¬":1464,"Ġpeople":1465,"ê»ĺ":1466,"ĠëķĮë¬¸":1467,"Ġbecause":1468,"Ġë¹":1469,"·¨":1470,"ëĦ¤":1471,"ê·¼":1472,"ëłĪìĿ´":1473,"ìĦ±ìĿĦ":1474,"Ġì¸¡":1475,"Ġour":1476,"ê·¹":1477,"ĠY":1478,"Ġonly":1479,"ĠìłĲ":1480,"ĠíķĺëĬĶ":1481,"ĠìĿ´ìļ©":1482,"íĮĮ":1483,"Ġì½Ķ":1484,"Ġfl":1485,"ìĿĳ":1486,"ĠìĹ´":1487,"ëĲĺê³ł":1488,"Ġspec":1489,"Ġìļ´":1490,"ĠSe":1491,"face":1492,"ìľ¼ë©°":1493,"Ġdisc":1494,"ae":1495,"Ġcase":1496,"Ġdiffere":1497,"30":1498,"000":1499,"ĠëĤĺíĥĢ":1500,"Ġinst":1501,"av":1502,"ì²ľ":1503,"Ġê²ĥìĿ´":1504,"vers":1505,"ê°ķ":1506,"ëĵ¤ìĿĦ":1507,"aterial":1508,"ĠìĿĺíķ´":1509,"Ġnum":1510,"As":1511,"gan":1512,"les":1513,"ee":1514,"Ġday":1515,"ìłĪ":1516,"ì¶ķ":1517,"Ġmaterial":1518,"Ġdevelop":1519,"Ġíļ¨":1520,"Ġuse":1521,"Ġbl":1522,"ë¸Į":1523,"ĠíĪ¬":1524,"ĠíĶĦë¡ľ":1525,"Ġì¹ĺ":1526,"ë²Ī":1527,"Ġìĥ":1528,"Ġê·ľ":1529,"Ġíģ":1530,"Ġì°¸":1531,"Ġê²°ê³¼":1532,"ìŀĲìĿĺ":1533,"osed":1534,"Ġëĵ¤":1535,"iss":1536,"ved":1537,"ĠíĺķìĦ±":1538,"ì°©":1539,"Ġshow":1540,"ruct":1541,"ible":1542,"vernment":1543,"ink":1544,"ìļ¸":1545,"Ġcur":1546,"ract":1547,"Ġcar":1548,"Ġë©Ķ":1549,"19":1550,"Ġëªħ":1551,"xt":1552,"Ġright":1553,"ìŀĲê°Ģ":1554,"ock":1555,"Ġìļ©":1556,"Ġeffect":1557,"ë¡ł":1558,"Ġê°Ģì§Ģ":1559,"ê¸°ë¥¼":1560,"Ġ12":1561,"Ġë°ľìĥĿ":1562,"ĠKorean":1563,"Ġed":1564,"Ġì¢ĭ":1565,"Ġinf":1566,"ered":1567,"ĠëĬ":1568,"Ġmon":1569,"ë³´ëĭ¤":1570,"íĶ¼":1571,"ìħĺ":1572,"ë¦¬ëĬĶ":1573,"Ġcontrol":1574,"Ġgr":1575,"ĠìĹŃ":1576,"íĿ¬":1577,"Ġmy":1578,"Ġend":1579,"Ġëª©":1580,"ìĬ¤íħľ":1581,"Ġsm":1582,"ĠBBB":1583,".\"":1584,"Ġusing":1585,"yp":1586,"get":1587,"irm":1588,"Ġì¢ħ":1589,"Ġinvention":1590,"Ġ11":1591,"Ġpers":1592,"ëł¹":1593,"ë³µ":1594,"te":1595,"Ġneed":1596,"ics":1597,"ĠìĤ¬ìĿ´":1598,"Ġê°ĻìĿĢ":1599,"rop":1600,"Ġcount":1601,"ital":1602,"Ġthem":1603,"gr":1604,"Ġmain":1605,"Ġest":1606,"ì¡±":1607,"Ġbus":1608,"There":1609,"Ġknow":1610,"ind":1611,"Ġê°ĸ":1612,"Ġsupport":1613,"Ġnumber":1614,"str":1615,"Ġë¬¸ìłľ":1616,"Ġincluding":1617,"Ġì§ĳ":1618,"íĨł":1619,"Ġrequ":1620,"ìĿ´ìĬ¤":1621,"ough":1622,"Ġcap":1623,"Ġlayer":1624,"Ġì´Ī":1625,"Ġ200":1626,"Ġwould":1627,"Ġmark":1628,"enter":1629,"ĠìĪ":1630,"ìĦ±ìĿ´":1631,"ases":1632,"ool":1633,"ob":1634,"iness":1635,"Ġgroup":1636,"Ġop":1637,"ĠíķľêµŃ":1638,"âĢĻ":1639,"ìłĳ":1640,"Ġê´ĳ":1641,"ë³ĳ":1642,"Ġshould":1643,"If":1644,"ë¦Ħ":1645,"ures":1646,"ĠëĤ¨":1647,"ĠìĿĮ":1648,"ĠìĭĿ":1649,"Ġaccording":1650,"ices":1651,"Ġanaly":1652,"ëįĶ":1653,"Ġconn":1654,"ization":1655,"ank":1656,"íĭ°":1657,"Ġbu":1658,"Ġë²ķ":1659,"Ġdue":1660,"Ġhad":1661,"Ġbeing":1662,"Ġport":1663,"Ġleast":1664,"Ġhis":1665,"FF":1666,"amp":1667,"ĠìłľíĴĪ":1668,"ìĽĮ":1669,"ì¸¡":1670,"Ġhaving":1671,"Ġëĭ¬":1672,"Ġcompany":1673,"Ġ100":1674,"ë§Ĳ":1675,"omm":1676,"Ġdispl":1677,"Ġinvest":1678,"¤Ħ":1679,"ĠìľĦì¹ĺ":1680,"Ġsurface":1681,"ix":1682,"Ġìĭ¤ìĭľ":1683,"Ġíģ¬":1684,"ody":1685,"ì±ħ":1686,"Ġìķ½":1687,"ize":1688,"ting":1689,"Ġdist":1690,"ì´Ī":1691,"Ķëĭ¤":1692,"fore":1693,"Ġ30":1694,"Ġprovide":1695,"Ġbo":1696,"ble":1697,"ĠìĭľìĬ¤íħľ":1698,"ìĹ´":1699,"Ġëĵľ":1700,"Ġì²´":1701,"ited":1702,"Ġê¹":1703,"ëĵĿ":1704,"ise":1705,"Ġrem":1706,"Ġgovernment":1707,"ĠìķĦëĭĪ":1708,"Ġë¸":1709,"ĠíĹ":1710,"Ġìłľìĸ´":1711,"Ġuser":1712,"ĠìĹĲ":1713,"icle":1714,"Ġbr":1715,"Ġë¶ĦìĦĿ":1716,"chool":1717,"ency":1718,"ature":1719,"ìĹ¼":1720,"Ġfact":1721,"Ġpur":1722,"ĠìĤ¬ëŀĮ":1723,"ĠíĮ¨":1724,"Ġincludes":1725,"Ġ0":1726,"ë³Ģ":1727,"Ġdisplay":1728,"50":1729,"ìķ¡":1730,"ë¦¬ê³ł":1731,"Ġì§ĢìĹŃ":1732,"iving":1733,"Ġaut":1734,"ĠìŀĦ":1735,"Ġprovided":1736,"Ġcr":1737,"Ġset":1738,"ëª©":1739,"Ġarea":1740,"Ġdi":1741,"Ġê²°ìłķ":1742,"ëĦĪ":1743,"chn":1744,"ft":1745,"li":1746,"Ġcompris":1747,"ublic":1748,"iew":1749,"ëĸ":1750,"Ġpower":1751,"ë¨":1752,"ê°Ŀ":1753,"ë°°":1754,"conom":1755,"ìĪĺìĿĺ":1756,"ove":1757,"Ġë¨":1758,"ìĭľíĤ¤":1759,"ëŁ°":1760,"ļį":1761,"ments":1762,"Ġfil":1763,"elf":1764,"Ġdep":1765,"Ġbased":1766,"Ġperson":1767,"Ġext":1768,"Ġexper":1769,"ì½Ķ":1770,"ted":1771,"Ġstr":1772,"íĻ©":1773,"ĠV":1774,"rent":1775,"Ġsame":1776,"Ġsol":1777,"Ġany":1778,"ìĺ¨":1779,"Ġcommun":1780,"Ġmarket":1781,"ĠìłĪ":1782,"Ġê´Ģíķľ":1783,"uch":1784,"ick":1785,"ĠëĲľ":1786,"Ġaddition":1787,"Ġsome":1788,"ëŁ¬íķľ":1789,"oci":1790,"ë§Ŀ":1791,"Ġwater":1792,"Ġëł":1793,"Ġìĭ¬":1794,"Ġorder":1795,"pect":1796,"Ġë¦":1797,"ĠSt":1798,"Ġbody":1799,"ild":1800,"ĠíĻķìĿ¸":1801,"erg":1802,"ìĶ":1803,"Ġev":1804,"Ġindu":1805,"ì§ķ":1806,"Ġëĭ¤ìĸĳ":1807,"Ġmeas":1808,"ìĸ´ìļĶ":1809,"Ġbusiness":1810,"ality":1811,"ì»":1812,"Ġì§Ī":1813,"Ġìĭľê°Ħ":1814,"Ġíķ¨ê»ĺ":1815,"Ġmade":1816,"Ġìĺ¨":1817,"ì§Ģë¥¼":1818,"ured":1819,"íİ¸":1820,"Ġvarious":1821,"ord":1822,"Ġëĭ¨ê³Ħ":1823,"ì§ĳ":1824,"Ġì·¨":1825,"ì§ĢëĬĶ":1826,"Ġê²Į":1827,"ollow":1828,"ines":1829,"ared":1830,"ë¡Ģ":1831,"Ġì±Ħ":1832,"ë¹ĦìĬ¤":1833,"Ġconc":1834,"ë¡ľë¶ĢíĦ°":1835,"Ġimage":1836,"ëĭ¤ê³ł":1837,"ìĥī":1838,"ts":1839,"Ġgood":1840,"Ġì¶©":1841,"yeong":1842,"ĠĊ":1843,"hip":1844,"Ġgu":1845,"12":1846,"ĠíĶĮ":1847,"Ġeven":1848,"ìĹĲëıĦ":1849,"Ġsignal":1850,"ìĿ´ëĤĺ":1851,"ients":1852,"ason":1853,"ëĭ¤ëĬĶ":1854,"ìŀĲëĬĶ":1855,"Ġdef":1856,"ê²ĥ":1857,"Ġeduc":1858,"Ġposs":1859,"ëĵ±":1860,"ically":1861,"ê±°ëĤĺ":1862,"Ġlight":1863,"Ġpoint":1864,"Ġtechn":1865,"hes":1866,"cept":1867,"ìĸ´ëıĦ":1868,"êµ°":1869,"ily":1870,"oth":1871,"Ġvis":1872,"Ġê°Ģìŀ¥":1873,"nce":1874,"ì¡´":1875,"ism":1876,"íħĮ":1877,"Ġê·¼":1878,"ĠìĥĪ":1879,"Ġstudy":1880,"ĠâĢľ":1881,").":1882,"âĢĿ":1883,"íĻľ":1884,"oy":1885,"irc":1886,"ĠìĨĲ":1887,"ëĭ´":1888,"Ġrespon":1889,"ëŁ¼":1890,"Ġche":1891,"ëĿ½":1892,"Ġselect":1893,"Ġfun":1894,"Ġlong":1895,"ium":1896,"íķĺë©´":1897,"Ġë¡":1898,"Ġëª»":1899,"par":1900,"illion":1901,"íķĺë©°":1902,"ìĿ´ëĿ¼ê³ł":1903,"Ġë¶Ģë¶Ħ":1904,"ìĦ¸ìļĶ":1905,"Ġlar":1906,"Ġdifferent":1907,"ìł¸":1908,"Ġwhile":1909,"Ġtax":1910,"ìĿ´ëĬĶ":1911,"Ġeconom":1912,"ĠìĺģìĹŃ":1913,"inist":1914,"Ġíĺ¸":1915,"Ġìĺģíĸ¥":1916,"ëĺĲ":1917,"Ġwell":1918,"Ġhead":1919,"ience":1920,"ë¦¼":1921,"į¨":1922,"ëĤł":1923,"An":1924,"Ġvalue":1925,"aining":1926,"ĠìĦłíĥĿ":1927,"ì£":1928,"Ġorgan":1929,"blem":1930,"ner":1931,"Ġside":1932,"ìĬ¤íĬ¸":1933,"osition":1934,"alth":1935,"ëħ¸":1936,"its":1937,"io":1938,"ëŀĢ":1939,"Ġreport":1940,"Ġschool":1941,"Ġimpro":1942,"ĠíķŃ":1943,"ina":1944,"ë¥ł":1945,"Ġê´Ģê³Ħ":1946,"abl":1947,"ĠìĹ°ê²°":1948,"Ġë¦¬":1949,"Ġdirect":1950,"Ġlaw":1951,"air":1952,"ì°°":1953,"ĠUn":1954,"yl":1955,"ĠëĶ°ë¥¸":1956,"Ġstate":1957,"Ġfollow":1958,"Ġìļ°ë¦¬":1959,"ë©Ķ":1960,"ior":1961,"Ġproblem":1962,"Ġ15":1963,"ork":1964,"Ġopen":1965,"acter":1966,"ìĦľëĬĶ":1967,"ë§ģ":1968,"Ġmat":1969,"Ġconduct":1970,"ë§ī":1971,"Ġpublic":1972,"Ġwon":1973,"Ġìĥģíĥľ":1974,"way":1975,"Ġlevel":1976,"ef":1977,"ì¦Ī":1978,"Ġìĸ´ëĸ":1979,"Ġagain":1980,"ĠëĮĢìĥģ":1981,"ì¹´":1982,"ĠëķĮë¬¸ìĹĲ":1983,"ian":1984,"ivid":1985,"Ġtyp":1986,"ĠêµĲìľ¡":1987,"Ġart":1988,"Ġê±":1989,"40":1990,"Ġë²Ī":1991,"Ġì¹´":1992,"lease":1993,"ety":1994,"Ġì§ĢëĤľ":1995,"Ġì¦Ŀê°Ģ":1996,"ë´":1997,"Ġê²ĥìĿĢ":1998,"Ġemb":1999,"ration":2000,"Ġwant":2001,"Ġì§Ħíĸī":2002,"íģ":2003,"Ġê¸°ìĪł":2004,"Ġì²Ń":2005,"Ġìĭłíĺ¸":2006,"agement":2007,"ë¦¬ë¥¼":2008,"ëĤ¨":2009,"When":2010,"ëĲĲ":2011,"ëĲĺìĹĪëĭ¤":2012,"Ġê¸°ìĹħ":2013,"To":2014,"Ġíİ¸":2015,"ss":2016,"11":2017,"Ġposition":2018,"Ġìĺ¬":2019,"ĠìĤ´":2020,"ĠíĥĢ":2021,"ìį¨":2022,"urn":2023,"ìķĺëĭ¤":2024,"ìķķ":2025,"Ġtem":2026,"Ġëĭ¤ìĸĳíķľ":2027,"íķ´ìķ¼":2028,"ĠìĨį":2029,"Ġplan":2030,"Ġë°Ŀ":2031,"orth":2032,"Ġë§ŀ":2033,"Ġinclude":2034,"ĠëĪ":2035,"Ġìłľì¡°":2036,"duc":2037,"Ġcurrent":2038,"Ġìłģìĸ´ëıĦ":2039,"ived":2040,"Ġtreat":2041,"Ġë§İìĿĢ":2042,"You":2043,"Ġyears":2044,"Ġíĸ¥":2045,"Ġcirc":2046,"Ġve":2047,"ëł¥ìĿĦ":2048,"Ġíĺĳ":2049,"Ġlast":2050,"ful":2051,"Ġcre":2052,"round":2053,"Ġformed":2054,"Ġactiv":2055,"Ġstruct":2056,"How":2057,"Ġconst":2058,"su":2059,"Ġëģ":2060,"Ġsens":2061,"Ġsec":2062,"ĠìĿ´ë¯¸":2063,"ĠëłĪ":2064,"Ġgl":2065,"ne":2066,"ra":2067,"Ġsim":2068,"read":2069,"arm":2070,"osp":2071,"ward":2072,"ì¡Į":2073,"ology":2074,"ê²¬":2075,"Ġcompanies":2076,"ife":2077,"Ġthree":2078,"AAA":2079,"uation":2080,"ª½":2081,"ëıħ":2082,"ccording":2083,"Ġduring":2084,"erest":2085,"ost":2086,"ìłķìĿĦ":2087,"'m":2088,"½ĺ":2089,"Ġprot":2090,"ĠìĥĿê°ģ":2091,"ĠìĦľë¹ĦìĬ¤":2092,"Ġìŀĺ":2093,"Ġì»¤":2094,"Ġêµ¬ì¡°":2095,"ever":2096,"ict":2097,"Ġget":2098,"ìĿ´ê³ł":2099,"íĬ¹":2100,"gu":2101,"ute":2102,"fer":2103,"Ġíħ":2104,"Ġmany":2105,"ator":2106,"íķĺëıĦë¡Ŀ":2107,"ëıĦë¥¼":2108,"Ġíļ¨ê³¼":2109,"Ġrate":2110,"port":2111,"ication":2112,"ĠâĢĺ":2113,"ĠíĴ":2114,"ĠìĤ¬íļĮ":2115,"ively":2116,"ĠëĿ":2117,"Ġplay":2118,"íİĺ":2119,"ê¸°ìĹĲ":2120,"Ġimport":2121,"ìĤ¬ë¥¼":2122,"ness":2123,"Ġë°©íĸ¥":2124,"ĠìĪĺíĸī":2125,"iod":2126,"ouse":2127,"Ġmin":2128,"Ġmake":2129,"ìĸµ":2130,"Ġconsid":2131,"iel":2132,"Ġmonth":2133,"Ġmost":2134,"iron":2135,"Ġëĵ¤ìĸ´":2136,"Ġent":2137,"sis":2138,"ìķħ":2139,"ds":2140,"Ġíı¬íķ¨íķĺëĬĶ":2141,"ëĦĲ":2142,"Ġshe":2143,"rap":2144,"other":2145,"Ġdesign":2146,"íļį":2147,"Ġ13":2148,"Ġwithout":2149,"Ġì²ĺë¦¬":2150,"Ġlocal":2151,"Ġcharacter":2152,"Ġfac":2153,"ision":2154,"Ġê²½ìłľ":2155,"Ġinterest":2156,"ĠìĻĦ":2157,"Ġproducts":2158,"Ġchange":2159,"Ġtransm":2160,"ission":2161,"According":2162,"own":2163,"Ġamount":2164,"Ġì§ĢìĽĲ":2165,"ë¶Ģë¥¼":2166,"Ġhand":2167,"ĠìĹħ":2168,"ìĬ¹":2169,"Ġpay":2170,"Ġë³ĢíĻĶ":2171,"Ġlow":2172,"Ġret":2173,"Ġresear":2174,"ëĬĶëį°":2175,"ĠìĥĿìĦ±":2176,"ification":2177,"Ġíı¬íķ¨íķľëĭ¤":2178,"Ġvery":2179,"Ġëħ¼":2180,"ëĭĺ":2181,"ulation":2182,"ified":2183,"ĠPro":2184,"Ġì´Ŀ":2185,"Ġclass":2186,"Ġapplic":2187,"Ġrelated":2188,"fact":2189,"Ġplural":2190,"vices":2191,"Ġcontin":2192,"Ġconfirm":2193,"Ġoperation":2194,"ìĥģê¸°":2195,"Ġê°ģê°ģ":2196,"atus":2197,"inc":2198,"ancial":2199,"Ģë¡ľ":2200,"ĠëĺĲíķľ":2201,"íĮħ":2202,"ëŀĳ":2203,"ì¶Ķ":2204,"Ġeducation":2205,"ty":2206,"Ġpass":2207,"ĠìĤ¬ìĹħ":2208,"Ġìłģìļ©":2209,"ability":2210,"Ġmeans":2211,"Ġelement":2212,"ìĿµ":2213,"tal":2214,"ë¶ģ":2215,"Ġarr":2216,"Ġequ":2217,"Ġthese":2218,"Ġpatients":2219,"Ġsal":2220,"Ġchang":2221,"Ġì¹ĺë£Į":2222,"Ġcomple":2223,"Ġëª¨ëĳĲ":2224,"Ġstart":2225,"Ġdirection":2226,"ives":2227,"Ġobject":2228,"ages":2229,"Ġ16":2230,"Ġperiod":2231,"Ġinput":2232,"Ġjust":2233,"Ġann":2234,"Ġparticip":2235,"por":2236,"ìľµ":2237,"ional":2238,"Ġì¤ĳìļĶ":2239,"Ġìº":2240,"ëłĩ":2241,"ĠìĿ´ë£¨":2242,"Ġëª¨ëĵł":2243,"ìĥģìĿĦ":2244,"Ġear":2245,"duced":2246,"ëĿ¼ê³ł":2247,"Ġplurality":2248,"Ġmember":2249,"Ġë°ľëªħìĿĢ":2250,"Ġke":2251,"ĠêµŃê°Ģ":2252,",\"":2253,"mer":2254,"į¼":2255,"ĠAr":2256,"Ġì¡":2257,"ìľ¼ë¡ľìį¨":2258,"Ġdisp":2259,"wn":2260,"Ġvol":2261,"Wh":2262,"Ġíĳľìĭľ":2263,"Ġintern":2264,"Ġìłķë³´ë¥¼":2265,"Ġestabl":2266,"Ġ50":2267,"Ġì¤Ħ":2268,"Ġpress":2269,"Ġmeet":2270,"ìŀĲë¥¼":2271,"ocial":2272,"Ġcould":2273,"icult":2274,"Ġocc":2275,"Ġportion":2276,"Ġëĭ´":2277,"ë°ķ":2278,"ired":2279,"Ġcult":2280,"ëıĦê°Ģ":2281,"Ġdetermin":2282,"Ġíģ°":2283,"ê²łìĬµëĭĪëĭ¤":2284,"ĠìĥģíĻ©":2285,"Ġservice":2286,"Ġthink":2287,"Ġìĭ¶":2288,"Ġrest":2289,"Ġìĭľìŀĳ":2290,"ĠìķĬëĬĶ":2291,"icial":2292,"ë¦´":2293,"Ġhel":2294,"ê¸°ê°Ģ":2295,"ĠìŀĪìĿĦ":2296,"ë¡ľìĦľ":2297,"Ġ18":2298,"Ġê°ĸëĬĶ":2299,"Ġchild":2300,"ìĿ´íĬ¸":2301,"ries":2302,"Ġair":2303,"Ġlead":2304,"odim":2305,"Ġê¸°ëĬ¥":2306,"apan":2307,"Ġrev":2308,"ìĤ¬ìĿĺ":2309,"Ġ14":2310,"ph":2311,"íıī":2312,"Ġë¡ľ":2313,"Ġmanagement":2314,"ì³":2315,"Łģ":2316,"ĠëĲł":2317,"Ġtreatment":2318,"ê·ľ":2319,"íĻķ":2320,"viron":2321,"ĠAct":2322,"reen":2323,"Ġshall":2324,"ĠìĦ¤ëªħ":2325,"ë¡ľìļ´":2326,"ë¬¼ìĿĦ":2327,"Ġê±¸":2328,"Ġdid":2329,"Ġbefore":2330,"ck":2331,"Ġleg":2332,"Ġëıħ":2333,"Ġë³¼":2334,"eration":2335,"Ġwhether":2336,"ention":2337,"Ġwithin":2338,"ë¹":2339,"ants":2340,"ëŀ¨":2341,"Ġelectro":2342,"ê·ł":2343,"ìª½":2344,"Ġfore":2345,"Ġë²Ķ":2346,"Ġpoly":2347,"Ġë¯¸êµŃ":2348,"Ġê¸°ì¤Ģ":2349,"Ġback":2350,"Ġproject":2351,"Ġëĭ¤ìĿĮ":2352,"oul":2353,"agn":2354,"Ġtake":2355,"ìµľ":2356,"ĠíĬ¸":2357,"Ġíıīê°Ģ":2358,"work":2359,"Ġhow":2360,"Ġsince":2361,"Ġembodim":2362,"Ġcall":2363,"ì¸ł":2364,"Ġìķķ":2365,"ĠëĿ¼":2366,"Ġbas":2367,"Ġë¶ģ":2368,"uss":2369,"ings":2370,"Ġpolic":2371,"Ġreal":2372,"Ġteam":2373,"Ġë©´":2374,"Ġnon":2375,"Ġway":2376,"Ġë°Ŀíĺ":2377,"ters":2378,"inal":2379,"Ġtest":2380,"itive":2381,"Ġëĵ±ìĿĦ":2382,"Ġê´Ģë¦¬":2383,"ëŀľ":2384,"Ġcontact":2385,"ually":2386,"Ġhelp":2387,"ending":2388,"Ġì°¾":2389,"Ġnecess":2390,"ĠìŀĪê³ł":2391,"Ġsmall":2392,"Ġfound":2393,"vironment":2394,"Ġì¶ķ":2395,"Ġì¤Ģ":2396,"ogn":2397,"Ġdon":2398,"Ġadd":2399,"Ġstore":2400,"Ġwhat":2401,"Ġperformance":2402,"bers":2403,"Ġdifficult":2404,"Ġë¯¼":2405,"Ġíķĺê³ł":2406,"Ġìłķë¶Ģ":2407,"Ġstep":2408,"ëĥ":2409,"Ġë°°ì¹ĺ":2410,"ĠKim":2411,"ë¶Ī":2412,"Ġlarge":2413,"Ġpar":2414,"Ġincrease":2415,"©ëĭĪëĭ¤":2416,"ustom":2417,"Ġeas":2418,"ë¸Ķ":2419,"Ġproper":2420,"Ġíķ´ëĭ¹":2421,"Ġì¤ĳêµŃ":2422,"Ġpossible":2423,"Ġìķŀ":2424,"Ġìĸ¸":2425,"Ġë³ĳ":2426,"Ġsit":2427,"Ġcondition":2428,"Ġcell":2429,"Ġgrow":2430,"Ġfood":2431,"Ġcontent":2432,"ĠNorth":2433,"ĠFFF":2434,"Ġpred":2435,"Ġdevelopment":2436,"Ġlower":2437,"ather":2438,"Ġë°ķ":2439,"Ġplace":2440,"ĠëĨĴìĿĢ":2441,"ìŀ¥ìĿĦ":2442,"Ġë§Įëĵ¤":2443,"ek":2444,"ĠëıĮ":2445,"ination":2446,"ĠìĿ´ëıĻ":2447,"ĠìĪľ":2448,"Ġìłľê³µíķľëĭ¤":2449,"ìŀ¥ìĿĢ":2450,"Ġdoes":2451,"Ġê³µê¸ī":2452,"Ġprof":2453,"ined":2454,"Ġprom":2455,"ëĮĢë¡ľ":2456,"ĠëĤ´ìļ©":2457,"ĠìŀĪìľ¼ë©°":2458,"Ġhealth":2459,"ìŁģ":2460,"ĠíĨł":2461,"Ġadv":2462,"Ġmodel":2463,"ĠìłĢìŀ¥":2464,"Ġstructure":2465,"outh":2466,"Ġcost":2467,"de":2468,"Ġê°ľë°ľ":2469,"ĠìĿ´ìĥģìĿĺ":2470,"íĪ¬":2471,"Ġlear":2472,"ently":2473,"Ġexpl":2474,"Ġsocial":2475,"Ġìŀħëł¥":2476,"crib":2477,"ìĤ¬ê°Ģ":2478,"ished":2479,"100":2480,"Ġmult":2481,"lear":2482,"ave":2483,"ë¨¸":2484,"ëĨ":2485,"Ġsubject":2486,"ë°±":2487,"do":2488,"stry":2489,"ĠíĦ":2490,"Ġhy":2491,"ronic":2492,"ample":2493,"ĠìĦ¤ì¹ĺ":2494,"Ġfam":2495,"Ġcour":2496,"oint":2497,"ĠìĦ¸ê³Ħ":2498,"als":2499,"ĠìĿĺë¯¸":2500,"gram":2501,"Ġanalysis":2502,"ëĤ¬":2503,"ĠìłĦìŀĲ":2504,"ov":2505,"ivers":2506,"Ġê¶Į":2507,"led":2508,"ëģ":2509,"ìĿ´ìĹĲ":2510,"ê¸°ëıĦ":2511,"ë°Ľ":2512,"ìĸ¸":2513,"ĠëĨį":2514,"Ġheld":2515,"day":2516,"Ġìĺģíĸ¥ìĿĦ":2517,"ĠJapan":2518,"Ġparticular":2519,"oon":2520,"Ġì¡°ìĦ±":2521,"Ġvari":2522,"ĠëĲľëĭ¤":2523,"Ġworld":2524,"atic":2525,"ĠìĿ´íĽĦ":2526,"He":2527,"Ġstudents":2528,"Ġrepres":2529,"ĠëĤ®":2530,"ĠìĪĺìĭł":2531,"Ġsay":2532,"ĠìķĦëĭĪëĿ¼":2533,"Ġcal":2534,"ĠëĴ":2535,"Ġcustom":2536,"ëĭĪê¹Į":2537,"Ġopt":2538,"Ġnow":2539,"Ġë³´ê³ł":2540,"ĠìŀĪëıĦë¡Ŀ":2541,"ĠìĦ¼":2542,"ëĤĺëĬĶ":2543,"Ġfunction":2544,"Ġresearch":2545,"Ġì¡´":2546,"lied":2547,"ĠíķĺëĤĺìĿĺ":2548,"Ġdem":2549,"Ġnet":2550,"ale":2551,"ĠìķĮëł¤":2552,"Ġhig":2553,"Ġcountries":2554,"Ġresults":2555,"ê·¸ëŀ¨":2556,"Ġíķ©ëĭĪëĭ¤":2557,"Ġher":2558,"ĠëıĻìķĪ":2559,"Ġtermin":2560,"Ġlife":2561,"ĠìĿ´ë£¨ìĸ´":2562,"Ġflow":2563,"Ġant":2564,"urther":2565,"hy":2566,"íķĺë©´ìĦľ":2567,"ìŀ¥ìĿ´":2568,"ĠìĪĺëıĦ":2569,"duce":2570,"Ġtotal":2571,"ĠSeoul":2572,"Ġtemper":2573,"Ġêµ¬ë¹Ħ":2574,"Ġbuil":2575,"ì§¸":2576,"Ġì¶Ķê°Ģ":2577,"Ġlim":2578,"Ġhum":2579,"Ġsignific":2580,"Ġnecessary":2581,"Ġfilm":2582,"hing":2583,"ju":2584,"ìĤ":2585,"Ġevery":2586,"Ġspecial":2587,"less":2588,"ê¸°ëĬĶ":2589,"Ġaff":2590,"However":2591,"Ġrelations":2592,"Ġíģ´":2593,"Ġëĵ±ìĿĺ":2594,"Ġintro":2595,"íļ¨":2596,"ëĲĺì§Ģ":2597,"Ġìľłì§Ģ":2598,"Ġíĥľ":2599,"Ġenvironment":2600,"iting":2601,"ë¦¬ê°Ģ":2602,"Ġprogram":2603,"eng":2604,"ìĤ¬ëĬĶ":2605,"ë¶ĢìĹĲ":2606,"ĠChina":2607,"Ġview":2608,"Ġfinancial":2609,"Ġíŀ":2610,"Ġê·Ģ":2611,"Ġì¸¡ìłķ":2612,"Ġbase":2613,"Ġrecogn":2614,"ĠëĦ¤":2615,"Ġê¹Ģ":2616,"Ġsl":2617,"Ġë²ł":2618,"Ġíĳľë©´":2619,"heon":2620,"Ġident":2621,"ield":2622,"Ġìļ´ìĺģ":2623,"Ġfr":2624,"'ll":2625,"ĠìĤ¬ìļ©ìŀĲ":2626,"ering":2627,"ify":2628,"respon":2629,"ope":2630,"ately":2631,"Ġprice":2632,"ĠìŀĪìĸ´ìĦľ":2633,"Ġ40":2634,"ìĺ¬":2635,"Ġê°ĲìĨĮ":2636,"Ġbro":2637,"Ġreason":2638,"ĠëĮĢìĿĳ":2639,"Ġcontain":2640,"ĠíĻĺê²½":2641,"Ġë³µìĪĺìĿĺ":2642,"ĠíĻľìļ©":2643,"Ġmus":2644,"Ġveh":2645,"Ġofficial":2646,"Ġaround":2647,"Ġ17":2648,"ĠìĹĨëĬĶ":2649,"ces":2650,"Ġtra":2651,"Ġconfig":2652,"ìĩ":2653,"On":2654,"Ġcare":2655,"Ġë°ĿíĺĶëĭ¤":2656,"ĠíĻľëıĻ":2657,"ospital":2658,"imes":2659,"Ġê°ĻìĿ´":2660,"ĠíĺĦìŀ¬":2661,"Ġcomposition":2662,"ĠëĶ°ë¥´":2663,"ially":2664,"Ġlot":2665,"ìĿ´ëĿ¼ëĬĶ":2666,"Al":2667,"Ġì°½":2668,"ìĭĿìĿĦ":2669,"Ġeconomic":2670,"of":2671,"ral":2672,"ëŁ½":2673,"Ġsee":2674,"Ġconfirmed":2675,"Ġcollect":2676,"ì¹¨":2677,"Ġimportant":2678,"ìķł":2679,"ĠíĸĪëĭ¤":2680,"Ġcorrespon":2681,"Ġë¸Ķ":2682,"ĠNational":2683,"Ġoutput":2684,"Ġjud":2685,"Ġris":2686,"Ġë¸Į":2687,"ĠíĦ°":2688,"Ġopp":2689,"Ġallow":2690,"Ġthen":2691,"ĠíĮĲëĭ¨":2692,"ilities":2693,"Ġì°¸ìĹ¬":2694,"Ġregion":2695,"ĠìĥĿìĤ°":2696,"ĠGyeong":2697,"ems":2698,"Ġabove":2699,"Ġstor":2700,"Ġê°ĢëĬ¥íķľ":2701,"Ġcommunication":2702,"Ġmuch":2703,"ê¸¸":2704,"Ġnext":2705,"Ġë§İìĿ´":2706,"íĺĳ":2707,"Ġbel":2708,"íĶĮëłĪìĿ´":2709,"Ġcaus":2710,"ë¯":2711,"ìĭľê°Ħ":2712,"pper":2713,"Ġíı¬íķ¨íķł":2714,"Ġobtain":2715,"íĻĶë¥¼":2716,"Ġadm":2717,"Ġindustry":2718,"Ġcent":2719,"ì²´ë¥¼":2720,"gest":2721,"ëĿ¼ëĬĶ":2722,"ìłĢíĿ¬":2723,"ëħĲ":2724,"ĠíĬ¹ì§ķ":2725,"Ġsk":2726,"Ġìķ¡":2727,"ìĭľìķĦ":2728,"ule":2729,"Ġìī":2730,"Ġstand":2731,"íĥĦ":2732,"ĠìĿĳ":2733,"Ġcases":2734,"vement":2735,"Ġapplication":2736,"íį¼":2737,"ìłľë¥¼":2738,"ĠíħĮ":2739,"ëĲĲëĭ¤":2740,"ì³Ĳ":2741,"ì²´ìĿĺ":2742,"ists":2743,"Ġcompet":2744,"Ġboth":2745,"Ġtemperature":2746,"Ġì¤ĳìĭ¬":2747,"ë²Ķ":2748,"Ġì½ĺ":2749,"Ġsignificant":2750,"ĠìłĢíĿ¬":2751,"Ġgeneral":2752,"Ġoccur":2753,"ert":2754,"Ġ25":2755,"Ġcompon":2756,"Ġgas":2757,"ĠíĹĪ":2758,"ĠìĿ¼ë°ĺ":2759,"ĠëĶĶìĬ¤":2760,"ëĲĺìĹĪ":2761,"Ġë¨¹":2762,"ys":2763,"Ġless":2764,"Ġhere":2765,"ì£¼ìĿĺ":2766,"ĠìŀĲìĭł":2767,"ĠComm":2768,"ìĿ´ë¥¼":2769,"ĠíķĻìĥĿ":2770,"¨ìĸ´":2771,"ense":2772,"Ġadj":2773,"Ġì§ģìłĳ":2774,"Ġdise":2775,"ìĪľ":2776,"Ġë°ľëªħìĿĺ":2777,"Ġëĸ":2778,"Ġë´":2779,"ex":2780,"Ġì¦":2781,"Ġprev":2782,"Ġê³¼ìłķ":2783,"íĤ¬":2784,"Ġreceived":2785,"Ġtechnology":2786,"ĠìłķëıĦ":2787,"Ġë²Ħ":2788,"ìĿ¸ìĿ´":2789,"Ġmembers":2790,"line":2791,"Ġdown":2792,"Ġwr":2793,"omp":2794,"Ġexpected":2795,"erence":2796,"ìĶ¨":2797,"´ë¦¬":2798,"Ġcontract":2799,"ĠìĹĨëĭ¤":2800,"ret":2801,"Ġsepar":2802,"Ġ22":2803,"Ġê¸¸":2804,"izing":2805,"ĠìĪĺì¤Ģ":2806,"Ġelectronic":2807,"ìĭľìĹĲ":2808,"ëħĢ":2809,"ibility":2810,"iven":2811,"Ġown":2812,"Ġ21":2813,"Ġrequest":2814,"íĦ´":2815,"Ġê³łê°Ŀ":2816,"íĥģ":2817,"ended":2818,"ĠìĤ°ìĹħ":2819,"Ġlook":2820,"Ġfour":2821,"Ġíľ":2822,"ë¡ľëĤĺ":2823,"ìľ¼ë©´":2824,"ìĿ´ë©°":2825,"Ġë§¤ìļ°":2826,"Ġì§Ģì§Ģ":2827,"Ġtar":2828,"ons":2829,"Ġempl":2830,"nam":2831,"ĠìŀĪëĭ¤ëĬĶ":2832,"Ġcontroll":2833,"asing":2834,"Ġìĸ»":2835,"ufact":2836,"nel":2837,"ĠìĨ¡":2838,"ĠìĿ¸íĦ°":2839,"Ġmedical":2840,"Ġtop":2841,"Ġë³´íĺ¸":2842,"Ġtype":2843,"Ġrespect":2844,"gi":2845,"ĠìĥĪë¡ľìļ´":2846,"Ġevent":2847,"Ġcomb":2848,"Ġrepresent":2849,"ruction":2850,"ĠíĥĦ":2851,"Ġagainst":2852,"ĠëĴ¤":2853,"Ġcontinu":2854,"ê·¸ëŁ¬":2855,"Ġline":2856,"Ġprevent":2857,"ĠëĮĢíĳľ":2858,"Ġav":2859,"Ġrot":2860,"Ġconsum":2861,"ird":2862,"Ġconnected":2863,"¿Ĳ":2864,"ffic":2865,"Ġìĭ¤ìĭľìĺĪ":2866,"ĠìĬ¹":2867,"ìľĦìĽĲ":2868,"Ġìłķì±ħ":2869,"ĠíĨµìĭł":2870,"oking":2871,"Ġheat":2872,"ene":2873,"Ġmanufact":2874,"ĠìĦ¤ìłķ":2875,"Ġsubstr":2876,"Ġê²°íķ©":2877,"ìĹĲìĦľëıĦ":2878,"ake":2879,"ĠìłĦë¬¸":2880,"Ġembodiment":2881,"Ġincreased":2882,"ëĬĺ":2883,"Ġassoci":2884,"ìĿ¸ìĿĺ":2885,"ì¹ĺëĬĶ":2886,"Ġìķł":2887,"ĠëĶ°ë¥´ë©´":2888,"Ġdays":2889,"Ġcomprises":2890,"ëĿ¼ìĿ´":2891,"Ġeval":2892,"ided":2893,"ìĿ´ëŁ¬íķľ":2894,"Ġê¸°ì´Ī":2895,"ĠíĶĦë¡ľê·¸ëŀ¨":2896,"Ġdom":2897,"istics":2898,"ĠìĤ¬ìĭ¤":2899,"ins":2900,"ĠìĿ´ìĸ´":2901,"Ġexpress":2902,"Ġste":2903,"omen":2904,"Ġweek":2905,"Ġë¹ĦêµĲ":2906,"uture":2907,"Ġindivid":2908,"erv":2909,"Ġamong":2910,"ĠíıĲ":2911,"Ġterm":2912,"ger":2913,"ê°ľìĿĺ":2914,"ergy":2915,"Ġëĳ":2916,"Ġíĺ¼":2917,"Ġpolicy":2918,"Ġneg":2919,"ource":2920,"urance":2921,"ĠíĻĺìŀĲ":2922,"Ġë¶Ģìŀ¬":2923,"ëį¸":2924,"ĠìŀĪìĹĪëĭ¤":2925,"ĠìĿ¼ë¶Ģ":2926,"omet":2927,"Ġprocessing":2928,"ape":2929,"aratus":2930,"Ġì¶ľëł¥":2931,"ode":2932,"ption":2933,"14":2934,"ìĭľíĤ¤ëĬĶ":2935,"Ġë§ĲíĸĪëĭ¤":2936,"Ġcalc":2937,"Ġhouse":2938,"hor":2939,"ances":2940,"Ġê¸°ë°ĺ":2941,"arch":2942,"ID":2943,"Ġìĭľìŀ¥":2944,"íħĲ":2945,"emb":2946,"íķĺìĺĢ":2947,"Ġanalyz":2948,"Ġmust":2949,"oss":2950,"ìħĶ":2951,"ĠìŀĪëĭ¤ê³ł":2952,"Ġë§Īëł¨":2953,"ream":2954,"ëĵ¤ìĹĲê²Į":2955,"ê¸°ìĿĺ":2956,"ĠëĪĦ":2957,"Ġapparatus":2958,"13":2959,"hib":2960,"Ġapplied":2961,"ĠìļĶìĨĮ":2962,"ë°ĶìĿ´ìĬ¤":2963,"For":2964,"cl":2965,"ìĦ¼":2966,"ì¡Įëĭ¤":2967,"15":2968,"ĠArt":2969,"Ġcountry":2970,"Ġê³µê°Ħ":2971,"Ġsaf":2972,"60":2973,"ë²ł":2974,"Ġcomprising":2975,"Ġ24":2976,"ê¸°ìĹħ":2977,"isting":2978,"Ġfurther":2979,"Ġsw":2980,"ĢìĿĦ":2981,"Ġì¡´ìŀ¬":2982,"ìĽĲìĿ´":2983,"ĠëĦĪ":2984,"ane":2985,"Ġimplement":2986,"Ġterminal":2987,"ern":2988,"Ġdam":2989,"Ġsubstrate":2990,"Ġê³łëł¤":2991,"ìľ¼ë¡ľë¶ĢíĦ°":2992,"ĠìĿ´ìľł":2993,"Ġhome":2994,"êµĲìľ¡":2995,"ì»¤":2996,"íķ¨ìľ¼ë¡ľìį¨":2997,"ĠìĹ¬ëŁ¬":2998,"Ġtour":2999,"íķ´ìĦľ":3000,"ĠìĿ´ë¥¼":3001,"Ġsupply":3002,"Ġíĺķíĥľ":3003,"iple":3004,"Ġtarget":3005,"ĠìķĬìĿĢ":3006,"íķĺì§Ģë§Į":3007,"Ġpromot":3008,"įëĭĪëĭ¤":3009,"ĠìķĬê³ł":3010,"ĠìķĦìĿ´":3011,"ĠëĤł":3012,"Ġê¸ī":3013,"Ġë¬¸íĻĶ":3014,"IG":3015,"ìĥģìĿĺ":3016,"uit":3017,"ath":3018,"Ġì±ħ":3019,"Ġnetwork":3020,"Ġinvestig":3021,"Ġê³³":3022,"cribed":3023,"Ġcenter":3024,"bo":3025,"Ġfuture":3026,"Ġfre":3027,"ìłĢëĬĶ":3028,"ë²Į":3029,"ìĪĺë¥¼":3030,"ducing":3031,"ìķĦìļĶ":3032,"Ġannoun":3033,"ks":3034,"Ġel":3035,"ì°½":3036,"Ġspace":3037,"Ġindividual":3038,"ì§Ģê³ł":3039,"ĠëıĻìŀĳ":3040,"arent":3041,"Ġspecific":3042,"erc":3043,"ìĹĲìĦľìĿĺ":3044,"ìłľê°Ģ":3045,"jor":3046,"Ġcheck":3047,"ì¹ĺë¥¼":3048,"Ġrelationship":3049,"ĠëĶĶë°ĶìĿ´ìĬ¤":3050,"Ġdistrib":3051,"ìĿĮìĿĦ":3052,"ì´ī":3053,"ìĬ¤ë¥¼":3054,"ĠJe":3055,"ì·¨":3056,"ī´":3057,"Ġmillion":3058,"Ġê·ľìłķ":3059,"ĠìļĶêµ¬":3060,"ĠìķĪìłĦ":3061,"íĬ¸ë¥¼":3062,"Ġroom":3063,"Ġchildren":3064,"hold":3065,"Ġëĭ¤ìĭľ":3066,"Ġë°©ìĭĿ":3067,"Ġvehicle":3068,"ably":3069,"Ġet":3070,"Ġhol":3071,"ĠêµŃëĤ´":3072,"Ġexam":3073,"Ġpressure":3074,"ĠCO":3075,"ë£¹":3076,"ëł¥ìĿ´":3077,"Ġunderst":3078,"urity":3079,"ug":3080,"ë£Įë¥¼":3081,"ĠíļĮìłĦ":3082,"ister":3083,"Ġê´Ģìĭ¬":3084,"Ġë³´ìĹ¬":3085,"ĠëĶĶìĬ¤íĶĮëłĪìĿ´":3086,"Ġfollowing":3087,"ëĤ¬ëĭ¤":3088,"Ġê¸°íĮĲ":3089,"At":3090,"ĠíĸĪ":3091,"ëĤĺìļĶ":3092,"ront":3093,"let":3094,"ged":3095,"Ġê³łìłķ":3096,"Ġdel":3097,"ĠíĪ¬ìŀĲ":3098,"Ġpop":3099,"Ġmount":3100,"itted":3101,"Ġthose":3102,"ĠíķĦìļĶíķľ":3103,"ìĽĲìĿĺ":3104,"ĠìĿ¸ìĭĿ":3105,"Ġnational":3106,"ì¹Ļ":3107,"Ġrad":3108,"Ġeng":3109,"ateg":3110,"ring":3111,"ìŀĪ":3112,"ëĵĪ":3113,"Ġhigher":3114,"Ġëĵ±ìĿ´":3115,"here":3116,"Ġê²Ģì¶ľ":3117,"Ġê³Ħíļį":3118,"Ġfield":3119,"Ġhous":3120,"ëłĩê²Į":3121,"anding":3122,"ëĪ":3123,"Ġblock":3124,"Ġhyd":3125,"rict":3126,"Ġmeeting":3127,"ëĶ©":3128,"ë¶ĢëĬĶ":3129,"sc":3130,"ê·Ģ":3131,"Ġhuman":3132,"Ġreported":3133,"Ġê¸°ê°Ħ":3134,"ê²¨":3135,"200":3136,"ìĽĲìĿĦ":3137,"ĠìĦľìļ¸":3138,"verage":3139,"me":3140,"que":3141,"Ġacqu":3142,"ì£ł":3143,"ĠíıŃ":3144,"ì§Ħëĭ¤":3145,"ese":3146,"Ġsituation":3147,"Ġexec":3148,"ĠìłĦê¸°":3149,"Ġfree":3150,"Ġmot":3151,"Ġforeign":3152,"Ġthird":3153,"ĠìĿ´ëŁ¬íķľ":3154,"row":3155,"ìĩĦ":3156,"ìłĲìĿĦ":3157,"ì²ĺëŁ¼":3158,"Ġë°Ģ":3159,"ĠëĦĺ":3160,"Ġinfl":3161,"Ġê¸°ë¡Ŀ":3162,"ì±Ħ":3163,"Ġì¡°ìĤ¬":3164,"Ġflu":3165,"cer":3166,"reng":3167,"íĮ¨":3168,"ê²Ģ":3169,"íķĻêµĲ":3170,"Ġmean":3171,"ĠíĿ¡":3172,"Ġê°ľìĦł":3173,"Ġanother":3174,"Ġì»´":3175,"ha":3176,"Ġë°ľìłĦ":3177,"ĠCon":3178,"ë¯Ģë¡ľ":3179,"Ġactivities":3180,"ë¶Ģë¶Ħ":3181,"Ġcircuit":3182,"Ġexperience":3183,"Ġgreat":3184,"ëł¸":3185,"ĠProv":3186,"Ġexample":3187,"Ġì¹ľ":3188,"Ġplate":3189,"Ġì§Ģë°©":3190,"land":3191,"Ġimm":3192,"Ġë°ĺìĿĳ":3193,"ëŀµ":3194,"Ġê°ĲìĹ¼":3195,"ëĬĲ":3196,"ĠìĿ´íķ´":3197,"ves":3198,"ĠìĿ¼ë³¸":3199,"Ġexce":3200,"Ġfeel":3201,"Ġproduction":3202,"Ġdiscuss":3203,"18":3204,"Ġhospital":3205,"ĠìŀĪìĹĪ":3206,"ĠêµŃìłľ":3207,"ĠíĤ":3208,"Ġinstit":3209,"Ġê°Ĵ":3210,"ple":3211,"Ġstorage":3212,"not":3213,"Ġselected":3214,"Ġmajor":3215,"ĠìłĦì²´":3216,"íĬ¹íŀĪ":3217,"ĠìľĦíĹĺ":3218,"Ġscreen":3219,"Ġìłľìĭľ":3220,"Ġful":3221,"vert":3222,"ĠìłĦê·¹":3223,"Ġìĸ´ëł¤":3224,"Ġê²½íĹĺ":3225,"Ġtransfer":3226,"ival":3227,"Ġ23":3228,"ëĵ¤ê³¼":3229,"Ġspe":3230,"Ġenergy":3231,"Ġìħ":3232,"Ġread":3233,"ached":3234,"íĸĪìĬµëĭĪëĭ¤":3235,"Ġresponse":3236,"Ġê°Ģê²©":3237,"Ġìĸ¼":3238,"Ġcorresponding":3239,"Ġìĵ":3240,"ì¼ľ":3241,"Ġì»¨":3242,"Ġíİĺ":3243,"Ġëį°ìĿ´íĦ°ë¥¼":3244,"Ġì¼":3245,"abor":3246,"Ġë°±":3247,"Ġalong":3248,"ng":3249,"Ġthough":3250,"ìĹĶ":3251,"ìĥ":3252,"ĠìŀĳìĹħ":3253,"stit":3254,"Ġstreng":3255,"Ġì§ĢìĨį":3256,"22":3257,"ìłľë¡ľ":3258,"Ġë³´ëĤ´":3259,"ilit":3260,"Ġsing":3261,"ĠìĤ¬ê±´":3262,"Ġrele":3263,"ìĪĺê°Ģ":3264,"âĪ":3265,"Ġsensor":3266,"ìļ°ë¦¬":3267,"Ġreceive":3268,"Ġì¢ĭìĿĢ":3269,"ìĿ¸ìĿĦ":3270,"Ġappro":3271,"ëı¼":3272,"Ġê±´ê°ķ":3273,"Ġhard":3274,"ulated":3275,"emic":3276,"ê°Ĵ":3277,"ëªħìĿ´":3278,"ĠìĨĮë¹Ħ":3279,"Ġperformed":3280,"Ġì½Ķë¡ľëĤĺ":3281,"ĠìĺĪìłķ":3282,"Ġsize":3283,"Ġprovides":3284,"Ġelectrode":3285,"ë¶ĢìĿĺ":3286,"Ġaccount":3287,"Ġpost":3288,"ĠHe":3289,"ìľĦë¥¼":3290,"Ġstandard":3291,"Ġmetal":3292,"Ġê·¸ë¦¬ê³ł":3293,"itor":3294,"Yes":3295,"ìľ¼ë¡ľìĦľ":3296,"Ġë¹ł":3297,"ets":3298,"Ġcomput":3299,"ĠíĬ¹ìłķ":3300,"íļĮìĿĺ":3301,"ĠìĿĺíķľ":3302,"ends":3303,"ross":3304,"Ġì¹¨":3305,"Ġhist":3306,"íķľêµŃ":3307,"Ġëª¨ëį¸":3308,"ĠíķĻìĬµ":3309,"mm":3310,"Ġë°©ë²ķìĿĦ":3311,"ë´ī":3312,"Ġë³Ħ":3313,"Ġinternational":3314,"Ġprep":3315,"ìļ´ëį°":3316,"ì¹ľ":3317,"Ġresid":3318,"Ġprevious":3319,"ì§ĢìĹĲ":3320,"Ġdiscl":3321,"Ġêµ°":3322,"ìĭŃ":3323,"ĠìŀĲëıĻ":3324,"íıŃ":3325,"ĠëĬĺ":3326,"16":3327,"Ġphot":3328,"Ġenter":3329,"Ġcat":3330,"Ġindic":3331,"Ġê°Ģì§Ģê³ł":3332,"íĤ¨":3333,"Ġìłľê³µíķĺëĬĶ":3334,"ĵ¨":3335,"rel":3336,"Ġreflect":3337,"kes":3338,"ëĵľë¥¼":3339,"ars":3340,"ĠìķĶ":3341,"ëĵ¤ìĹĲ":3342,"Ġvide":3343,"Ġê¸ĪìĨį":3344,"Ġquest":3345,"ĠíĮĲë§¤":3346,"ĠíĤ¤":3347,"Ġmaking":3348,"ë¦½ëĭĪëĭ¤":3349,"Ġu":3350,"ìķĮ":3351,"ì§Ģê°Ģ":3352,"íħĲì¸ł":3353,"70":3354,"action":3355,"ìľ¼ëĤĺ":3356,"ised":3357,"Ġê³µìłķ":3358,"Ġì°¨ëŁī":3359,"iversity":3360,"ĠìµľëĮĢ":3361,"ĠëĤ´ì§Ģ":3362,"ten":3363,"ëĭĮ":3364,"Ġtrad":3365,"Ġì¤Ģë¹Ħ":3366,"ained":3367,"ittee":3368,"side":3369,"After":3370,"Ġshort":3371,"ìķĶ":3372,"ĠArticle":3373,"won":3374,"ĠìļĶì²Ń":3375,"ëıĦìĿĺ":3376,"Ġpattern":3377,"ĠUnited":3378,"What":3379,"Ġgrowth":3380,"uk":3381,"Ġgoing":3382,"Since":3383,"itting":3384,"ĠìĦ¼ìĦľ":3385,"Ġê¸Īìľµ":3386,"ĠAss":3387,"Ġfront":3388,"Ġtoget":3389,"Ġmob":3390,"Ġbuilding":3391,"Ġtogether":3392,"ier":3393,"Ġlocated":3394,"Ġgame":3395,"ëĭµ":3396,"Ġcoop":3397,"Ġëª¨ëĵĪ":3398,"Ġpurch":3399,"Â°":3400,"artment":3401,"ê·¸ëŀĺ":3402,"Ġquality":3403,"Ġinstall":3404,"ues":3405,"ë¬¼ìĿĺ":3406,"Ġvir":3407,"pping":3408,"ĠìĤ¬ìĿ´ìĹĲ":3409,"Ġê°ĲìĤ¬":3410,"That":3411,"Ġë¹Ħìļ©":3412,"Ġíķ¨ìľł":3413,"duction":3414,"Ġinsurance":3415,"Ġself":3416,"Ġmemory":3417,"Ġwherein":3418,"Ġê¸°ëĮĢ":3419,"inistry":3420,"Ġì£¼ë¬¸":3421,"ĠìĦľë¡ľ":3422,"Ġadminist":3423,"ĠìĪĺìļ©":3424,"Ġstill":3425,"Ġfix":3426,"Ġra":3427,"ĠLee":3428,"ĠëıĻìĿ¼":3429,"Ġëĥī":3430,"Ġliqu":3431,"Ġíı´ë¦¬":3432,"ì¼ĢìĿ´":3433,"Ġtouch":3434,"Ġcrit":3435,"bon":3436,"Ġlearning":3437,"ĠëĬĲ":3438,"ĠìĿ´ë²Ī":3439,"Ġlist":3440,"Ġplease":3441,"Ġetc":3442,"Ġtre":3443,"Ġë§ī":3444,"ìĥģìĿ´":3445,"ĠSouth":3446,"Ġpurp":3447,"ĠìĹŃíķł":3448,"âĪ¼":3449,"Ġweight":3450,"ological":3451,"íĵ¨":3452,"cent":3453,"ìĿ´ìĸ´":3454,"Ġareas":3455,"Ġapply":3456,"Ġíķ´ê²°":3457,"uted":3458,"íĨµëł¹":3459,"»ê²Į":3460,"ĠíļĮë¡ľ":3461,"Ġeffic":3462,"Ġben":3463,"pec":3464,"orts":3465,"Ġbat":3466,"Ġincluded":3467,"Ġcut":3468,"Ġauthor":3469,"Ġestablish":3470,"Ġpast":3471,"ĠìĪĺëĭ¨":3472,"ĠíĽ":3473,"ĠìĤ¼":3474,"ê¸°ê´Ģ":3475,"Ġê°Ģìļ´ëį°":3476,"Ġprop":3477,"Ġopening":3478,"Ġbeh":3479,"ĠìºĲ":3480,"Ġadjust":3481,"íķĺìĭľ":3482,"ĠëķĮë¬¸ìĿ´ëĭ¤":3483,"Ġservices":3484,"ìļ±":3485,"utes":3486,"Ġfund":3487,"ĠìĿ´ìļ©íķĺìĹ¬":3488,"ìĹ°êµ¬":3489,"ĠëĲĺëĬĶ":3490,"ìĿ´ê°Ģ":3491,"Ġê³¨":3492,"atural":3493,"ching":3494,"egr":3495,"Ġsat":3496,"Ġì¸¡ë©´":3497,"Ġrun":3498,"Ġëĭ¹ìĭł":3499,"ax":3500,"ension":3501,"Ġer":3502,"Ġupper":3503,"ĠìľĦíķĺìĹ¬":3504,"Ġê²ĥìŀħëĭĪëĭ¤":3505,"ë°Ģ":3506,"ìĽĲìĿĢ":3507,"ew":3508,"ĠëģĿ":3509,"'re":3510,"estic":3511,"Ġmodule":3512,"Ġë°©ë¬¸":3513,"iber":3514,"ìĿ´ëĵľ":3515,"Ġtoo":3516,"though":3517,"ì½":3518,"ocus":3519,"ë¶Ģê°Ģ":3520,"Ġissu":3521,"íķĳ":3522,"ì¹Ń":3523,"Ġìĸ´ëĸ¤":3524,"resident":3525,"ĠAn":3526,"Ġface":3527,"Ġable":3528,"..":3529,"VID":3530,"ì£Ħ":3531,"ìĭ±":3532,"Ġincome":3533,"Ġcharacteristics":3534,"ëŁ¬ìĬ¤":3535,"íĥĪ":3536,"chie":3537,"ìĽĮíģ¬":3538,"Ġ60":3539,"Ġmid":3540,"ì§ĢìĿĺ":3541,"Ġtimes":3542,"Ġstudies":3543,"ãĢ":3544,"anged":3545,"Ġhot":3546,"Ġ199":3547,"Ġrelative":3548,"ĠìĻ¸ë¶Ģ":3549,"Ġconfigured":3550,"Ġjob":3551,"Ġíŀĺ":3552,"Ġìŀł":3553,"ë²½":3554,"ĠìĬ¬":3555,"ëĿ¼ìĿ¸":3556,"íķĺê±°ëĤĺ":3557,"Ġê°ľìĿ¸":3558,"ĠìłĦëĭ¬":3559,"aim":3560,"Ġpract":3561,"Ġcannot":3562,"Ġsource":3563,"arding":3564,"Ġmedia":3565,"Ġcome":3566,"Ġê·¹":3567,"Ġìµľê·¼":3568,"Ġinvestment":3569,"ë¨¼":3570,"Ġbest":3571,"Ġrisk":3572,"Ġconnect":3573,"ê·¸ëĬĶ":3574,"aper":3575,"ĠMinistry":3576,"Ġì§Ģê¸Ī":3577,"ĠëĮĢíķĺìĹ¬":3578,"ĠìĿĺë£Į":3579,"wang":3580,"aring":3581,"ĠìĬ¤íĬ¸":3582,"Ġtravel":3583,"ëĺĲíķľ":3584,"chan":3585,"dong":3586,"ëĭĽ":3587,"ĠGo":3588,"ìŀĦìĿĦ":3589,"embly":3590,"Ġwa":3591,"ìķĻ":3592,"Ġstock":3593,"aces":3594,"íģ´":3595,"pped":3596,"ĠíķĻêµĲ":3597,"gen":3598,"Ġbecome":3599,"¬ìľł":3600,"Ġmethods":3601,"Ġreally":3602,"Ġabs":3603,"by":3604,"Ġachie":3605,"Ġdecre":3606,"ĠëıĦìĭľ":3607,"ĠíĻľìĦ±":3608,"Ġì£¼ìļĶ":3609,"Ġaccess":3610,"They":3611,"Ġì¸µ":3612,"ĠëĤĺíĥĢëĤ´":3613,"Ġvisit":3614,"Ġassociated":3615,"imate":3616,"obal":3617,"Ġì²ľ":3618,"Ġframe":3619,"Ġë¶Ħìķ¼":3620,"Ġì´ī":3621,"ĠëĤĺíĥĢëĤ¬ëĭ¤":3622,"ê¸°ë¡ľ":3623,"ables":3624,"Ġhim":3625,"Ġë°Ķëŀ":3626,"etic":3627,"Ġexch":3628,"Ġë³Ģê²½":3629,"Ġsus":3630,"ĠìĥģíĴĪ":3631,"Ġfocus":3632,"Ġwin":3633,"ëĲ©ëĭĪëĭ¤":3634,"co":3635,"ëłĮ":3636,"Ġcompound":3637,"acy":3638,"ìłķë³´":3639,"alk":3640,"ĠìłĦìĨ¡":3641,"Ġsent":3642,"ides":3643,"Ġfrequ":3644,"But":3645,"iation":3646,"Ġworking":3647,"Ġkey":3648,"ĠëĮĢíĨµëł¹":3649,"ëĲĺë©°":3650,"itud":3651,"ì²ł":3652,"íģ¼":3653,"Ġê´Ģê´ĳ":3654,"ware":3655,"ìĿ¸ëĭ¤":3656,"ëıĦë¡ľ":3657,"ĠìĿ¸ìłķ":3658,"ĠíĶĦëłĪ":3659,"Ġìłľíķľ":3660,"ĠíĶĦë¡ľìĦ¸":3661,"Ġê°Ī":3662,"Ġpriv":3663,"Ġíıīê·ł":3664,"Ġconducted":3665,"Ġë²Īì§¸":3666,"íķĺëł¤":3667,"Ġlet":3668,"ìĦ±ê³¼":3669,"oice":3670,"Ġresin":3671,"Ġdeli":3672,"astic":3673,"arant":3674,"íıĲ":3675,"Ġmeasure":3676,"Ġsym":3677,"Ġname":3678,"acher":3679,"ĠëıĦìĽ":3680,"ê²ĥìĿĢ":3681,"Ġìī½":3682,"Ġcompared":3683,"Ġê±°ëŀĺ":3684,"ĠTr":3685,"ĠíĻķëĮĢ":3686,"ê¹Ģ":3687,"Ġreturn":3688,"ott":3689,"aint":3690,"ì¼Ģ":3691,"ean":3692,"ë¦¬ìĹĲ":3693,"Ġì¤ĳìļĶíķľ":3694,"ìĿĺë¥¼":3695,"Ġdetail":3696,"Ġcorpor":3697,"ĠìĿĢ":3698,"Ġì¡°ì§ģ":3699,"ilar":3700,"Ġ-":3701,"Ġindustr":3702,"Ġëĭ¨ë§Ĳ":3703,"Ġfamily":3704,"íĺĪ":3705,"Ġdifference":3706,"Ġë°ĶëŀįëĭĪëĭ¤":3707,"ĠSh":3708,"Ġleft":3709,"Ġrights":3710,"atory":3711,"ìĨĲ":3712,"Ġtext":3713,"Ġìĸ´ëĸ»ê²Į":3714,"Ġask":3715,"ìļ°ë¦¬ëĬĶ":3716,"Ġliquid":3717,"Ġshare":3718,"íķĦ":3719,"oney":3720,"Ġaud":3721,"ĠAs":3722,"Ġcou":3723,"Ġpack":3724,"Ġannounced":3725,"Ġê³Ħìķ½":3726,"for":3727,"ĠìĹĨìĿ´":3728,"Ġíĸ¥ìĥģ":3729,"Ġcomponent":3730,"íĬ¸ìĽĮíģ¬":3731,"ĠTh":3732,"char":3733,"BBB":3734,"%,":3735,"ì²´ê°Ģ":3736,"ĠíļĮìĤ¬":3737,"ĠíĻĶíķ©":3738,"Ġìŀ¡":3739,"ĠUS":3740,"ĠPark":3741,"Ġcer":3742,"Ġreceiving":3743,"Ġmaintain":3744,"vey":3745,"Ġseen":3746,"Ġrelates":3747,"ê³¡":3748,"Ġì²«":3749,"iol":3750,"Ġsection":3751,"Ġíķµ":3752,"Ġrecord":3753,"Ġprinc":3754,"Ġox":3755,"ĠìĹĲëĦĪ":3756,"Ġdomestic":3757,"Ġland":3758,"Ġmach":3759,"ìĿ´ë²Ī":3760,"den":3761,"ains":3762,"Ġvideo":3763,"to":3764,"ìħ¨":3765,"ê°ĢëĬ¥":3766,"Ġbuy":3767,"any":3768,"ì¶©":3769,"Ġíľ´":3770,"Ġoffice":3771,"ternal":3772,"So":3773,"Ġcity":3774,"Ġnatural":3775,"ĠCOVID":3776,"Ġê´Ģëł¨ëĲľ":3777,"ĠìŀĪìĸ´ìļĶ":3778,"raph":3779,"Ġhal":3780,"Ġstrong":3781,"Ġbillion":3782,"edi":3783,"Ġíļ¨ìľ¨":3784,"ëıĦìĹĲ":3785,"Ġë¶ģíķľ":3786,"ìĬ¤íģ¬":3787,"ê³¨":3788,"Ġìłľê±°":3789,"rug":3790,"Ġhousing":3791,"Please":3792,"Ġsales":3793,"ond":3794,"Ġut":3795,"Ġlegal":3796,"Ġì²ł":3797,"ulating":3798,"Ġcalled":3799,"Ġìĭľíĸī":3800,"Ġaverage":3801,"íľ":3802,"ê³Ħë¥¼":3803,"ĠìĥģëĮĢ":3804,"Ġë°©ë²ķìĿĢ":3805,"Ġê°ľìĭľ":3806,"Ġsug":3807,"Ġintegr":3808,"Ġactive":3809,"íķĻìłģ":3810,"ëĿ¼ëıĦ":3811,"Ġrange":3812,"ìĦľë¥¼":3813,"Ġold":3814,"Ġë¬¼ì§Ī":3815,"ë³¼":3816,"Ġmaterials":3817,"ëķĮ":3818,"ĠGyeonggi":3819,"Ġmanag":3820,"Ġelectric":3821,"Ġëĳĺ":3822,"Ġz":3823,"Ġunt":3824,"Ġclaim":3825,"Ġëª©ìłģ":3826,"Ġmobile":3827,"Ġput":3828,"Ġë©Ķëª¨":3829,"ump":3830,"ìĿ´ì§Ģ":3831,"ĠX":3832,"íĮĢ":3833,"ĠGu":3834,"illage":3835,"Ġbenef":3836,"21":3837,"Ġarranged":3838,"Ġwire":3839,"ĩ´":3840,"Ġêµ¬ëıĻ":3841,"ĠMin":3842,"ĠIntern":3843,"Ġbig":3844,"ĠDe":3845,"Ġpolit":3846,"ox":3847,"ams":3848,"Ġëªĩ":3849,"ĠìĹ¼":3850,"ging":3851,"Ġrat":3852,"Ġspread":3853,"Ġappear":3854,"ential":3855,"Ġ31":3856,"ready":3857,"ole":3858,"oms":3859,"Ġwar":3860,"yeon":3861,"Ġenc":3862,"ĠëĤ´ë¶Ģ":3863,"Ġconditions":3864,"ĠëĪĪ":3865,"ê·¸ë¦¬ê³ł":3866,"Ch":3867,"Ġê³ĦìĨį":3868,"ĠìĹ¬íĸī":3869,"Ġpatient":3870,"cheon":3871,"Ġë§Įëĵ¤ìĸ´":3872,"Ġshape":3873,"je":3874,"ĠìĤ¬ë¡Ģ":3875,"Ġagree":3876,"Ġê·¸ë£¹":3877,"Ġë°©ì§Ģ":3878,"ĠíĺĪ":3879,"use":3880,"ĠìĦ±ìŀ¥":3881,"Ġìŀ¬ë£Į":3882,"Ġmeasures":3883,"Ġalready":3884,"Ġë²ĶìľĦ":3885,"íķĺìĹ¬ìķ¼":3886,"Ġcle":3887,"Ġdisease":3888,"Ġchanges":3889,"Ġbook":3890,"inese":3891,"ĠíķĦìļĶíķĺëĭ¤":3892,"Ġhapp":3893,"ê³³":3894,"ëĶĶìĺ¤":3895,"ĠProvince":3896,"Ġsimilar":3897,"xim":3898,"Ġexc":3899,"íĻĶëĲľ":3900,"ê¹ĮìļĶ":3901,"Ġteacher":3902,"ĠìķĪìłķ":3903,"Ġì»´íĵ¨":3904,"ëĺĲëĬĶ":3905,"Ġêµ¬ë§¤":3906,"Ġconstruction":3907,"Ġdivid":3908,"Ġê¸°ì¡´":3909,"Ġgive":3910,"Ġ26":3911,"Ġìĺģìĥģ":3912,"Ġì¡°ê±´":3913,"Ġë°ĽìķĦ":3914,"íķĺê³łìŀĲ":3915,"ëĶ°":3916,"ê°ĢëĬĶ":3917,"Ġëª©íĳľ":3918,"Ġpan":3919,"Ġbank":3920,"Ġestablished":3921,"Ġorig":3922,"ëĦ¤ìļĶ":3923,"ĠëıĻìĭľìĹĲ":3924,"ĠëĦĪë¬´":3925,"Ġhydro":3926,"tage":3927,"Ġpurpose":3928,"ê³¼ìĿĺ":3929,"ĠPl":3930,"Ġtraining":3931,"Ġê³µìĹ°":3932,"Ġdetermined":3933,"Ġê³µëıĻ":3934,"ĠíĬ¹íŀĪ":3935,"Ġdisposed":3936,"êµŃìĿĺ":3937,"ĠíĴĪ":3938,"Ġfacilities":3939,"Ġì½ĺíħĲì¸ł":3940,"Ġdemand":3941,"annel":3942,"Ġfind":3943,"ëĵľëĬĶ":3944,"Ġdevices":3945,"Ġexternal":3946,"And":3947,"Ġê¸°ë³¸":3948,"az":3949,"ĠëĬ¥":3950,"ĠíĮ¨íĦ´":3951,"Ġconsidered":3952,"ëĳ":3953,"ĠìĿ´ë¯¸ì§Ģ":3954,"ĠëįĶìļ±":3955,"Ġhour":3956,"Ġvac":3957,"Ġì¶Ķì§Ħ":3958,"Ġcharge":3959,"Ġìĭ¤íĸī":3960,"ëĤ¸":3961,"ìĤ¬ìĹħ":3962,"Ġuntil":3963,"utions":3964,"ìĦ±ìĹĲ":3965,"Ġ28":3966,"ĠStates":3967,"ĠíĶ¼íķ´":3968,"ĠìľłëĭĽ":3969,"Ġglobal":3970,"Ġfive":3971,"Ġparts":3972,"Ġdetect":3973,"Ġìĵ°":3974,"Ġacid":3975,"ĠëĦ¤íĬ¸ìĽĮíģ¬":3976,"Ġwomen":3977,"sue":3978,"Ġhope":3979,"ĠìĿ´ìłĦ":3980,"Ġculture":3981,"Ġregul":3982,"ĠíĦ°ì¹ĺ":3983,"Ġwhy":3984,"Ġbelie":3985,"ĠìĿ¸íķ´":3986,"Ġemerg":3987,"Ġë°ľíĳľ":3988,"Ġê²°ê³¼ë¥¼":3989,"sh":3990,"íı°":3991,"oor":3992,"ĠìłķìĿĺ":3993,"Ġìĸµ":3994,"Ġì¡°ìłķ":3995,"Ġbre":3996,"Ġ27":3997,"ëªħìĿĺ":3998,"Ġpositive":3999,"Ġclear":4000,"ì£¼ìĭľ":4001,"Ġmass":4002,"ê°ĢìļĶ":4003,"Ġchannel":4004,"Ġinflu":4005,"Ġcolor":4006,"Ġìķ¼":4007,"Ġmic":4008,"usion":4009,"Ġord":4010,"Ġnear":4011,"ĠCity":4012,"Ġphys":4013,"arty":4014,"ê¸ĪìĿĦ":4015,"istic":4016,"Ġcover":4017,"ĠìĤ¬íķŃ":4018,"Ġcommon":4019,"dle":4020,"ĠìķĬìķĺ":4021,"íĶĦë¡ľ":4022,"Ġincreasing":4023,"Ġrecomm":4024,"Ġmanufacturing":4025,"oo":4026,"Ġìŀ¥ì¹ĺëĬĶ":4027,"Ġproperty":4028,"ëıĦëĬĶ":4029,"Ġë²Į":4030,"oll":4031,"ìłĦíŀĪ":4032,"íĨ":4033,"ivity":4034,"ê°Ī":4035,"Ġëª°":4036,"Ġdeg":4037,"ë©´ìĹĲ":4038,"ĠëĤ´ìĹĲ":4039,"Ġearly":4040,"íİ´":4041,"ìłķìĿĺ":4042,"Ġcard":4043,"íķĺìĦ¸ìļĶ":4044,"pr":4045,"Ġviol":4046,"Ġì¡°ìĦ±ë¬¼":4047,"san":4048,"amet":4049,"ìĤ¬íļĮ":4050,"ëŁīìĿĦ":4051,"Ġcontaining":4052,"Ġproblems":4053,"ĠDae":4054,"Ġì¢Ģ":4055,"ë¢":4056,"Ġdriving":4057,"Ġobtained":4058,"Ġcoun":4059,"oid":4060,"ĠìĶ":4061,"Ġwall":4062,"Ġmar":4063,"ë¦¬ìķĦ":4064,"ëıĮ":4065,"ë¢°":4066,"ried":4067,"Ġíģ¬ê²Į":4068,"Ġë§Ľ":4069,"Ġgroups":4070,"Ġsecurity":4071,"Ġ110":4072,"Ġê·ľëª¨":4073,"Ġfactors":4074,"ĠìĤ´íİ´":4075,"Ġsingle":4076,"Ġíĭ":4077,"olution":4078,"ĠëĤľ":4079,"epend":4080,"ĠìŀĲìľł":4081,"ĠëĲĺìĸ´":4082,"Ġìĥī":4083,"Ġpayment":4084,"ĠëĮĢìĥģìľ¼ë¡ľ":4085,"Ġrequired":4086,"ìĬ¤íĦ°":4087,"Ġweb":4088,"olit":4089,"Ġ300":4090,"Ġë³´íĹĺ":4091,"Ġvoltage":4092,"Ġsatis":4093,"Ġê²½ê¸°":4094,"Ġ120":4095,"Ġparty":4096,"Ġnorm":4097,"Ġserver":4098,"ë¬¸íĻĶ":4099,"Ġterms":4100,"Ġexisting":4101,"ì´Ŀ":4102,"ìĭľíĤ¬":4103,"Ġì£¼ìŀ¥":4104,"Ġill":4105,"Ġresist":4106,"Ġrespons":4107,"ili":4108,"leg":4109,".,":4110,"gment":4111,"Ġadditional":4112,"Ġê°ķíĻĶ":4113,"Ġcapable":4114,"ì¼ĢìĿ´ìħĺ":4115,"Ġfall":4116,"ë¡¯":4117,"Ġìłľìŀĳ":4118,"Ġì°©":4119,"Ġìłĳì´ī":4120,"Ġë°ĶëŀĮ":4121,"Ġdeveloped":4122,"Ġimprove":4123,"els":4124,"omes":4125,"íĦ¸":4126,"Ġcaused":4127,"ash":4128,"Ġë¸Ķë¡Ŀ":4129,"Ġkind":4130,"based":4131,"Ġstage":4132,"25":4133,"Ġsil":4134,"ìĨĮë¥¼":4135,"Ġê°Ģì§ĢëĬĶ":4136,"ìķĪìĿĦ":4137,"sec":4138,"Ġì¢ĭìķĦ":4139,"Ġmagn":4140,"Ġmoney":4141,"ë§ĪíĬ¸":4142,"Ġparent":4143,"Ġë³´ìĿ¸ëĭ¤":4144,"Ġì²ĺìĿĮ":4145,"fficient":4146,"ìĹĪìĬµëĭĪëĭ¤":4147,"ĠCenter":4148,"ĠëıĦìŀħ":4149,"ìĦ±ìĿĺ":4150,"ĠíĬ¹ë³Ħ":4151,"ĠPresident":4152,"Ġsuper":4153,"ìĿ¼ìĿĦ":4154,"Ġê²½ìŁģ":4155,"Ġshowed":4156,"ula":4157,"110":4158,"Our":4159,"ìĭľì¼ľ":4160,"ĠìķĮê³ł":4161,"ìŀĲìĿ¸":4162,"Although":4163,"ned":4164,"Ġìķħ":4165,"Ġtransport":4166,"Ġur":4167,"Ġinside":4168,"ì§ľ":4169,"ctions":4170,"ë²¤":4171,"ĠChinese":4172,"ìłĦìŀĲ":4173,"Ġjoint":4174,"tion":4175,"aid":4176,"Ġconcept":4177,"ĠíĳľíĺĦ":4178,"Ġë³´ëĭ¤":4179,"Ġmedium":4180,"ining":4181,"ìĽĲìĹĲ":4182,"ccess":4183,"ĠìĤ¬ìļ©íķĺìĹ¬":4184,"ĠíĿĲ":4185,"Ġpath":4186,"ĠíķĦìļĶê°Ģ":4187,"Ġê²©":4188,"Ġìłķì¹ĺ":4189,"Ġattention":4190,"Ġshown":4191,"Ġconnection":4192,"ched":4193,"Ġprivate":4194,"Ġmechan":4195,"Ġê²½ìļ°ìĹĲëĬĶ":4196,"Ġoil":4197,"ask":4198,"Ġbi":4199,"cast":4200,"ĠìĺĪì¸¡":4201,"Ġinterp":4202,"ì¦ĺ":4203,"Ġbroad":4204,"Ġsusp":4205,"Ġmusic":4206,"ê¸´":4207,"Ġcause":4208,"Ġ70":4209,"Ġbur":4210,"Ġadded":4211,"ìĦ±ìĿĢ":4212,"Ġprofess":4213,"ames":4214,"Ġê°ķì¡°":4215,"the":4216,"osis":4217,"Ġreview":4218,"êµ¬ë¥¼":4219,"Ġknown":4220,"ĠìĿ´íķĺ":4221,"Ġê°ĢìĬ¤":4222,"Ġage":4223,"Ġsoci":4224,"ĠìŀĳëıĻ":4225,"oye":4226,"Ġdirectly":4227,"ê·¸ëŁ¬ëĤĺ":4228,"Ġë°ĶìĿ´":4229,"ipment":4230,"Ġsect":4231,"Ġsell":4232,"ê´":4233,"Ġwind":4234,"ĠBus":4235,"Ġì¼ĢìĿ´":4236,"ermine":4237,"Ġap":4238,"ĠìłķíĻķ":4239,"ìĥĪ":4240,"ìĪĺëĬĶ":4241,"Ġconcent":4242,"ĠìĹ¬ê¸°":4243,"ĠìĹĶ":4244,"osing":4245,"ĠíĹ¤":4246,"Ġë°ľê²¬":4247,"Ġì¶Ķìłķ":4248,"Ġdetermine":4249,"aster":4250,"ìº":4251,"Ġprepar":4252,"Ġfail":4253,"Ġë°Ķë¡ľ":4254,"Ġëħ¼ìĿĺ":4255,"Ġsafety":4256,"ources":4257,"ĠëĮĢë¶Ģë¶Ħ":4258,"ì§ĢëĤľ":4259,"ĠìĦľë²Ħ":4260,"Ġdeb":4261,"ones":4262,"ĠìĹ°ëĿ½":4263,"ocu":4264,"Ġseason":4265,"Ġcustomers":4266,"ìŀ¡":4267,"ortun":4268,"ĠíĴį":4269,"ĠìŀĲìĹ°":4270,"Ġgrad":4271,"ëıĦì²´":4272,"Ġchanged":4273,"ìŀ¥ìĿĺ":4274,"irman":4275,"Ġes":4276,"ì½ĺ":4277,"ìĹĩ":4278,"Ġëĵ±ìĹĲ":4279,"ways":4280,"ĠEu":4281,"Ġlocation":4282,"Ġë¬¸ìłľê°Ģ":4283,"Ġratio":4284,"ĠìĿ¼ìłķ":4285,"Ġbasic":4286,"íĶĦíĬ¸":4287,"ĠíĻį":4288,"ĠDef":4289,"Ġdig":4290,"íħĶ":4291,"ength":4292,"ening":4293,"ĠìĺĪìĥģ":4294,"Ġdescribed":4295,"ìŀ¥ìĹĲìĦľ":4296,"íĴĪìĿĦ":4297,"ression":4298,"Ġwords":4299,"ìĦ¼íĦ°":4300,"Ġpercent":4301,"Ġê²ĢìĤ¬":4302,"íĶĮë¦¬":4303,"Ġsound":4304,"Ġtoday":4305,"Ġoutside":4306,"ĠìĦ±ë¶Ħ":4307,"yc":4308,"Ġgre":4309,"Ġíļį":4310,"ĠíĥĪ":4311,"Ġeconomy":4312,"Ġì¡°ìłĪ":4313,"Ġavail":4314,"Ġë¶Ģëĭ´":4315,"Ġê¸°ê´Ģ":4316,"Ġexpand":4317,"ìĭľíĤ¨":4318,"ìĤ´":4319,"ĠìłľíĴĪìĿĦ":4320,"Ġcultural":4321,"Ġìµľê³ł":4322,"Ġissue":4323,"ĠìłĦìķķ":4324,"80":4325,"ìłĲìĿ´":4326,"Ġthereof":4327,"Even":4328,"ĠìĹ°ìŀ¥":4329,"ling":4330,"ìĹĨ":4331,"Ġinit":4332,"Ġbar":4333,"ëĶĶìĸ´":4334,"Ġë¶Ħë¦¬":4335,"Ġê°Ŀ":4336,"Ġbott":4337,"Ġprotect":4338,"ĠìłĳìĨį":4339,"Ġsever":4340,"Ġclose":4341,"Ġeasy":4342,"ìľĦìĽĲíļĮ":4343,"Ġtry":4344,"tery":4345,"Ġcool":4346,"Ġemploye":4347,"Ġoperating":4348,"Ġaccept":4349,"Ġide":4350,"ëłµ":4351,"Ġcarbon":4352,"ëĤĺëĿ¼":4353,"ĠìķĦëĭĮ":4354,"Ġsuggest":4355,"êµ´":4356,"Ġsubst":4357,"ĠìĹħë¬´":4358,"Ġrole":4359,"eg":4360,"Ġë¨¸":4361,"ĠUniversity":4362,"Ġautom":4363,"Ġsuccess":4364,"Ġcoll":4365,"Ġë©Ķëª¨ë¦¬":4366,"joy":4367,"osure":4368,"Ġdocu":4369,"Ġresidents":4370,"ìĺĪìļĶ":4371,"Ġexcell":4372,"17":4373,"Ġsha":4374,"ĠêµŃë¯¼":4375,"Ġmovement":4376,"Ġclean":4377,"inking":4378,"nd":4379,"aur":4380,"ĠNew":4381,"íĸĪëĭ¤ê³ł":4382,"Ġìĸ´ëĬĲ":4383,"Ġdamage":4384,"ëĦ·":4385,"lex":4386,"ĠìĤ¬ìĿ´ìĿĺ":4387,"Ġlimit":4388,"rd":4389,"idence":4390,"Ġgenerated":4391,"Ġê·¸ê²ĥ":4392,"ì§ĢìĹŃ":4393,"Ġproviding":4394,"Ġdiagn":4395,"Ġíĺ¼íķ©":4396,"Ġprocessor":4397,"ëĵľë¦½ëĭĪëĭ¤":4398,"Ġëª¨ìĬµ":4399,"Ġìļ´ëıĻ":4400,"Ġouter":4401,"Ġë°©íĸ¥ìľ¼ë¡ľ":4402,"Ġmess":4403,"ê°Ģì§Ģ":4404,"endant":4405,"ëĭ¤ë©´":4406,"Ġpolymer":4407,"ĠìĤ¬ê³ł":4408,"aced":4409,"ĠìĨĮê°ľ":4410,"ĠìµľìĨĮ":4411,"Ġconcern":4412,"ĠíķĺìĺĢëĭ¤":4413,"Ġstrateg":4414,"ken":4415,"Ġë¹Ħíķ´":4416,"Ġhalf":4417,"Ġla":4418,"af":4419,"ĠJapanese":4420,"ìłĿ":4421,"Ġìļ°ìĪĺ":4422,"mon":4423,"Ġë¹Ħìľ¨":4424,"Ġobs":4425,"Ġhistory":4426,"Ġpain":4427,"iver":4428,"íĹĪ":4429,"Ġê°ĢëĬ¥ìĦ±ìĿ´":4430,"ĠìłĦìĹĲ":4431,"Ġbeg":4432,"Ġì¦Ĳ":4433,"íĥķ":4434,"Ġsomet":4435,"¿Ĳë§Į":4436,"Ġì§Ģìłģ":4437,"Ġmen":4438,"Ġìłķìĥģ":4439,"Ġswit":4440,"ilitary":4441,"Ġcam":4442,"Ġshows":4443,"Ġdecided":4444,"ĠëĮĢíķ´ìĦľ":4445,"ĠìķĬìķĺëĭ¤":4446,"Ġê¼":4447,"ĠìŀĪìľ¼":4448,"Ġorganiz":4449,"Ġsaying":4450,"Ġìĥģíĺ¸":4451,"ê´Ģë¦¬":4452,"oot":4453,"ëĭ¹ìĭł":4454,"ĠíĮĢ":4455,"ĠíĻĪ":4456,"Ġíķ´ìĻ¸":4457,"Ġpersonal":4458,"Ġreduced":4459,"Ġê²¬":4460,"Ġeasily":4461,"íĺģ":4462,"Ġproced":4463,"ĠíĻķë³´":4464,"Ġê°ľëħĲ":4465,"íĶĮë¦¬ì¼ĢìĿ´ìħĺ":4466,"aff":4467,"pro":4468,"'ve":4469,"Ġenjoy":4470,"ë¦Ń":4471,"ĠëĤ®ìĿĢ":4472,"ìłľëĬĶ":4473,"ĠëŁ":4474,"rm":4475,"ique":4476,"Ġ80":4477,"ëªħìĿĦ":4478,"Ġcourt":4479,"itional":4480,"Ġsend":4481,"ìĿĢíĸī":4482,"ĠìĦ¬ìľł":4483,"ë°©íĸ¥":4484,"Ġdecision":4485,"Ġcapital":4486,"Ġmeaning":4487,"Ġcourse":4488,"ĠZ":4489,"ì£¼ëĬĶ":4490,"ëŁīìĿ´":4491,"ĠìŀĲê¸°":4492,"Ġregarding":4493,"ìĤ°ìĿĦ":4494,"ë¶ĢìĻĢ":4495,"ëĲĺë©´":4496,"aging":4497,"ĠìĪĺì§Ģ":4498,"ëĿ¼ìĦľ":4499,"ë²¨":4500,"Ġìĥģëĭ¹":4501,"Ġevaluation":4502,"Ġbetter":4503,"íĸĪëįĺ":4504,"Ġì¶©ë¶Ħ":4505,"ivil":4506,"24":4507,"cher":4508,"¶ģ":4509,"Ġforming":4510,"Ġì²¨":4511,"Do":4512,"Ġdischar":4513,"Ġitems":4514,"Ġbasis":4515,"íĺĦìŀ¬":4516,"Ġtransmission":4517,"Ġaway":4518,"ĠíĻķì§Ħ":4519,"Ġmonths":4520,"Ġ29":4521,"ìŀĲìĻĢ":4522,"Ġsoft":4523,"ĠYe":4524,"CC":4525,"Ġì¢Į":4526,"Ġcorre":4527,"Ġsheet":4528,"Ġlog":4529,"Ġìŀ¥ì¹ĺë¥¼":4530,"Ġexcellent":4531,"Ġì£¼ë¯¼":4532,"Ġìŀĳìļ©":4533,"ì°¬":4534,"ĠìľłìĿĺ":4535,"uclear":4536,"Ġextract":4537,"man":4538,"Ġcred":4539,"icles":4540,"Ġì±ĦëĦĲ":4541,"ĠìĹŃíķłìĿĦ":4542,"Ġëª¸":4543,"ĠìĤ¬ë§Ŀ":4544,"Ġspeed":4545,"br":4546,"Ġê³µê°ľ":4547,"Ġskin":4548,"Ġturn":4549,"Ġax":4550,"Ġmove":4551,"ising":4552,"Ġcertain":4553,"Ġrefer":4554,"Ġestim":4555,"Ġìłģê·¹":4556,"ury":4557,"ĠìĭĿë³Ħ":4558,"ĠìĥģìĬ¹":4559,"ĠìĹ°êµ¬ëĬĶ":4560,"Ġìĭłíĺ¸ë¥¼":4561,"Ġfull":4562,"Ġsuit":4563,"ĠìķĬìĿĦ":4564,"Ġìĸµìłľ":4565,"With":4566,"Ġreduce":4567,"ĠìĭľìĦ¤":4568,"Ġì£¼ë³Ģ":4569,"ê´Ģê³Ħ":4570,"ëĨį":4571,"Ġconstit":4572,"ĠEurop":4573,"Ġcommunity":4574,"ĠíĶĦëłĪìŀĦ":4575,"ìĤ¬ìĹĲ":4576,"Ġê°Ģì¡±":4577,"Ġì§Ħëĭ¨":4578,"Ġê¸°ì´ĪíķĺìĹ¬":4579,"itiz":4580,"Ġagent":4581,"120":4582,"like":4583,"Ġroad":4584,"ittle":4585,"Ġcoupl":4586,"ìĿ´ìĹĪëĭ¤":4587,"ief":4588,"Ġsubs":4589,"Ġground":4590,"Ġboard":4591,"Ġìĭ¤ìĭľìĺĪìĹĲ":4592,"Ġê¸´":4593,"ĠíĸīìľĦ":4594,"ĠìłĦíĻĺ":4595,"Ġindepend":4596,"Ġrequire":4597,"aking":4598,"ĠÎ":4599,"íķ´ìļĶ":4600,"¾¸":4601,"Ġattached":4602,"ored":4603,"ëĭĿ":4604,"urs":4605,"olitan":4606,"ultural":4607,"Ġcapac":4608,"Ġpot":4609,"Ġsolution":4610,"Ġlabor":4611,"ĠìłĦëł¥":4612,"Ġìľłê¸°":4613,"Ġsite":4614,"Ġpaper":4615,"Ġimpact":4616,"Ġregist":4617,"Ġê°Ģì§Ħ":4618,"ë¥´ê²Į":4619,"rip":4620,"ators":4621,"Ġtherm":4622,"Ġì¦ī":4623,"Ġutil":4624,"Ġgeneration":4625,"Ġë¨¼":4626,"Ġì£":4627,"Ġëŀ":4628,"ëŀľëĵľ":4629,"ìĹ¬ê¸°":4630,"ë¡Ń":4631,"Ġkeep":4632,"ìĤ¬ìļ©":4633,"ĠìĥĿíĻľ":4634,"over":4635,"Ġseems":4636,"Ġreference":4637,"ropolitan":4638,"airs":4639,"mber":4640,"Ġregard":4641,"Ġopin":4642,"Ġnegative":4643,"íĬ¸ìĿĺ":4644,"ìĸ´ëĤĺ":4645,"ëĪĦ":4646,"ìłľìĿĺ":4647,"ĠíĮĮìķħ":4648,"Ġìłĳê·¼":4649,"Ġë§Įì¡±":4650,"Ġì´¬":4651,"ì²´ìĹĲ":4652,"nov":4653,"Ġcells":4654,"Ġëĸ¨ìĸ´":4655,"Ġcross":4656,"ĠëŃ":4657,"Ġequipment":4658,"ìĻĦ":4659,"ĠìĦ¸íı¬":4660,"ĠíĿ¬":4661,"Ġpolice":4662,"ëŀ«":4663,"onduct":4664,"orld":4665,"Ġrather":4666,"ê·¸ëŁ°":4667,"ëĥĲ":4668,"Ġë°°ì¶ľ":4669,"Ġformer":4670,"Ġengine":4671,"ror":4672,"These":4673,"ëĵľë¦¬":4674,"ĠHy":4675,"Ġdistribution":4676,"Ġstatus":4677,"Ġmor":4678,"Ġappe":4679,"Ġpoints":4680,"ĠíļįëĵĿ":4681,"Ġstat":4682,"23":4683,"Ġloss":4684,"Ġvalues":4685,"Ġfri":4686,"etermin":4687,"ctor":4688,"ìĿ¸ì§Ģ":4689,"ĠíķĺìĹ¬":4690,"Ġêµ¬ì²´":4691,"Ġeat":4692,"Ġcooperation":4693,"Ġpip":4694,"ê¶ĮìĿĦ":4695,"Ġtool":4696,"Ġonce":4697,"Ġtrade":4698,"Ġë¯¸ì¹ĺëĬĶ":4699,"ìĥģìĹĲ":4700,"val":4701,"ĠìĮ":4702,"ules":4703,"Ġdraw":4704,"ropri":4705,"Ġminim":4706,"ìĿ´ìĻĢ":4707,"ìĻĶëĭ¤":4708,"Ġìłķë§Ĳ":4709,"thing":4710,"Ġoptical":4711,"íĴį":4712,"emiconduct":4713,"Ġëľ":4714,"Ġavailable":4715,"ĠìķĦëŀĺ":4716,"Ġseveral":4717,"ĠìĹĲëĦĪì§Ģ":4718,"ĠìĤ¬ìļ©íķł":4719,"ì¹ĺê°Ģ":4720,"Ġfixed":4721,"airman":4722,"ê¸Ģ":4723,"íļĮë¥¼":4724,"Ġsociety":4725,"Ġsoon":4726,"ences":4727,"inary":4728,"Ġmachine":4729,"íĭ¸":4730,"Ġê°ĦìĿĺ":4731,"ishing":4732,"Ġinner":4733,"Ġlater":4734,"Ġì§Ģìłķ":4735,"Ġworkers":4736,"ë¡¤":4737,"Ġlooking":4738,"Ġfinal":4739,"Ġê°ģê°ģìĿĺ":4740,"Ġì¤ĳìķĻ":4741,"Ġê°Ĳì§Ģ":4742,"Ġfeed":4743,"hem":4744,"Ġsmart":4745,"ĠëĨĵ":4746,"ë¬¼ìĿ´":4747,"Ġíķ´ìĦĿ":4748,"Ġ500":4749,"ê°ľìĽĶ":4750,"ìĪĺë¡Ŀ":4751,"ì¤Ħ":4752,"íķľëĭ¤ëĬĶ":4753,"ĠìŀĲìĭłìĿĺ":4754,"Ġë°ĽìĿĢ":4755,"ì§ĢíĦ¸":4756,"then":4757,"Ġinternal":4758,"cil":4759,"Ġcomplete":4760,"lig":4761,"Ġëĭ¨ê³Ħë¥¼":4762,"Ġmode":4763,"rical":4764,"ĠíĸīëıĻ":4765,"Ġtoward":4766,"Ġìĸ´ëłµ":4767,"ĠìĺĪë°©":4768,"uration":4769,"Ġíı¬íķ¨íķĺê³ł":4770,"ĠìĤ¬ì§Ħ":4771,"Ġë°©ë²ķìĹĲ":4772,"Therefore":4773,"ì¦ī":4774,"Ġimproved":4775,"Ġagreement":4776,"Ġhold":4777,"Ġë°ĺìĺģ":4778,"Ġì¶Ķì¶ľ":4779,"FFF":4780,"ìµľê·¼":4781,"Ġì°¾ìķĦ":4782,"aut":4783,"Ġcore":4784,"Ġrepl":4785,"ĠìľłìĤ¬":4786,"Ġëħ¸ëıĻ":4787,"ĠìłĦë§Ŀ":4788,"Ġforce":4789,"Ġemploy":4790,"rit":4791,"Ġprefer":4792,"Ġsemiconduct":4793,"ìĦłìĿĦ":4794,"Ġcamer":4795,"Ġlittle":4796,"Ġhours":4797,"Ġíĸīìłķ":4798,"Ġnews":4799,"Ġunderstand":4800,"Ġbehav":4801,"Ġìľłíĺķ":4802,"ĠìŀĪì§Ģë§Į":4803,"Ġvirt":4804,"Ġpolitical":4805,"íĭ±":4806,"ë§Īëĭ¤":4807,"ously":4808,"íĤ¹":4809,"Ġlink":4810,"Ġê°ľìĿĺ":4811,"Ġìłģíķ©":4812,"Ġìĭłì²Ń":4813,"ĠìłľìĻ¸":4814,"íķĻìĥĿ":4815,"Ġevalu":4816,"ĠMet":4817,"ê°ĦìĿĺ":4818,"ĠìĦ±ê³µ":4819,"ĠìĤ¬íļĮìłģ":4820,"Ġê¸°ëĬ¥ìĿĦ":4821,"hol":4822,"ĠìķĦì§ģ":4823,"Ġinvestigation":4824,"ìĭľëĬĶ":4825,"Ġcontents":4826,"RW":4827,"Ġpanel":4828,"ëĩ":4829,"Ġconver":4830,"ĠìłĦëŀµ":4831,"Ġmilitary":4832,"ĠEU":4833,"ĠíĶ¼ê³ł":4834,"Ġalways":4835,"Ġfarm":4836,"ĠìĥģìĹĲ":4837,"ĠìĽĢ":4838,"ë¥´ëĬĶ":4839,"Ġìļ°ëł¤":4840,"ĠìĹŃìĭľ":4841,"Ġrecently":4842,"Ġì§ĳì¤ĳ":4843,"Ġtable":4844,"Ġrestaur":4845,"Ġtaking":4846,"Ġfactor":4847,"ìħĶìĦľ":4848,"ires":4849,"rative":4850,"Ġsearch":4851,"Ġìľłë¦¬":4852,"Ġexpens":4853,"ĠìĿ¸íķľ":4854,"Ġê²ĢíĨł":4855,"ĸìĹĲ":4856,"Ġfill":4857,"ìŀĲìĹĲ":4858,"Ġtrust":4859,"oung":4860,"ë³´íĹĺ":4861,"Ġtypes":4862,"Ġbor":4863,"term":4864,"Ġver":4865,"ĠëĲĲ":4866,"ĠìĿĮìĭĿ":4867,"Ġì»´íĵ¨íĦ°":4868,"ìĿ¸ìĿĢ":4869,"Ġë´ī":4870,"ĠìłľìķĪ":4871,"Ġmix":4872,"ume":4873,"ëĭ¥":4874,"Ġglass":4875,"íİĺìĿ´ìĬ¤":4876,"aled":4877,"ê¸°ìĪł":4878,"Ġcontroller":4879,"vant":4880,"Ġê°Ĳëıħ":4881,"Ġë¬´ìĹĩ":4882,"izes":4883,"Ġìĸ¼ë§Ī":4884,"ìĬ¤ìĿĺ":4885,"ĠAg":4886,"ëī´":4887,"ĠìŀĪê²Į":4888,"aged":4889,"ë©ĶëĿ¼":4890,"ifying":4891,"Ġcancer":4892,"ëħķ":4893,"CO":4894,"ìĻĢìĿĺ":4895,"Ġstored":4896,"ĠìľĦìĽĲ":4897,"Ġexhib":4898,"Ġthick":4899,"íķĺëĬĶëį°":4900,"ĠìĦ¤ê³Ħ":4901,"iency":4902,"ĠìĿ´ë¦Ħ":4903,"Ġíı¬íķ¨íķľ":4904,"ìĿ´íģ¬":4905,"Ġfire":4906,"Ġprotection":4907,"Ġonline":4908,"ties":4909,"ĠìĹĦ":4910,"ĠSer":4911,"ìŀĲëĵ¤ìĿ´":4912,"Ġpurchase":4913,"be":4914,"cy":4915,"Ġê³¼ìłķìĹĲìĦľ":4916,"Ġìŀ¥ìķł":4917,"app":4918,"Ġíĺ¹":4919,"ĠDong":4920,"Ġphysical":4921,"ëĭĲ":4922,"Ġexchange":4923,"Ġeffects":4924,"Ġë¶Ģì¡±":4925,"Ġbelow":4926,"aintiff":4927,"Ġcreate":4928,"Ġê°ĢëĬ¥íķĺê²Į":4929,"Ġdelivery":4930,"Ġquant":4931,"Ġreve":4932,"Ġì§Ģê¸ī":4933,"Ġeffective":4934,"Ġì¤ĳìĭ¬ìľ¼ë¡ľ":4935,"ĠìľĦíķ´ìĦľëĬĶ":4936,"Ġcame":4937,"íķľëĭ¤ê³ł":4938,"ges":4939,"Ġëħ¸ëł¥":4940,"ê·¸ëŀĺìĦľ":4941,"Thank":4942,"Ġìŀ¥ì°©":4943,"Ġcomputer":4944,"Ġìĺ¨ëıĦ":4945,"Ġorganic":4946,"elfare":4947,"Ġwat":4948,"ìŀĲìĹĲê²Į":4949,"Ġë¬´ìĦł":4950,"Ġìĺ¬íķ´":4951,"Ġquick":4952,"Ġcompetition":4953,"Ġelements":4954,"Ġê³µìľł":4955,"Ġrecognized":4956,"Ġgiven":4957,"Ġpopular":4958,"Ġíļ¨ê³¼ë¥¼":4959,"Ġcomplex":4960,"Ġstrengthen":4961,"Ġê³ĦìĤ°":4962,"ìĿ¼ìĹĲ":4963,"Ġexpect":4964,"Ġcentral":4965,"CT":4966,"etermined":4967,"ĠìŀĲë£Į":4968,"Ġë¬¸ìłľë¥¼":4969,"Ġblood":4970,"uel":4971,"Ġë§ĪìĿĦ":4972,"Ġtook":4973,"ĠìĽĢì§ģ":4974,"Am":4975,"Ġíķĺê¸°":4976,"Ġmiddle":4977,"Ġê±°ìĿĺ":4978,"ê²łëĭ¤":4979,"ai":4980,"Ġê·¼ê±°":4981,"ĠFIG":4982,"Ġ2018":4983,"ĠKRW":4984,"ĠíĨµíķ©":4985,"Ġê²ĮìŀĦ":4986,"Ġtren":4987,"estival":4988,"Ġì¢ħë¥ĺ":4989,"ĠìĦłìĪĺ":4990,"Ġëī´":4991,"Ġë³ĢíĻĺ":4992,"Ġrelatively":4993,"Ġpow":4994,"ìĭľìĦ¤":4995,"ĠìĿĺê²¬":4996,"Ġë©Ķìĭľ":4997,"Ġoverse":4998,"íĺ¼":4999,"Ġroll":5000,"Ġentire":5001,"ìŀĲë¡ľ":5002,"Ġë²ķë¥ł":5003,"ëĶ°ëĿ¼ìĦľ":5004,"Ġdate":5005,"ì¹ł":5006,"Ġê·ł":5007,"Ġdeath":5008,"Ġdetection":5009,"osite":5010,"Ġmultiple":5011,"Ġliving":5012,"ìĽĲìĹĲìĦľ":5013,"Ġfew":5014,"ë¦¬ìĿĺ":5015,"ìŀ¥ìĹĲ":5016,"Ġìĭłë¢°":5017,"related":5018,"ners":5019,"Ġsix":5020,"ĠìĿ´ëŁ°":5021,"une":5022,"ĠíĨµíķľ":5023,"ervation":5024,"Ġcry":5025,"Ġguide":5026,"reme":5027,"Ġëı¼":5028,"Ġanalyzed":5029,"Ġë³´ë©´":5030,"íĿ¥":5031,"ĠìĨ¡ìĭł":5032,"ĠìĤ¶":5033,"Ġfrequency":5034,"Ġlit":5035,"ĠCommittee":5036,"ĠìĪĺìĹħ":5037,"Ġì£¼ìĭľ":5038,"Ġêµ¬íĺĦ":5039,"ĠìĿĳëĭµ":5040,"ĠìħĢ":5041,"ĠWorld":5042,"Ġjudgment":5043,"Ġmov":5044,"Ġdrug":5045,"ĠíĮ¨ëĦĲ":5046,"Ġë°ĶëŀĮì§ģ":5047,"ĠCour":5048,"Ġê·¸ëŀĺ":5049,"ĠíĻķìĤ°":5050,"ĠìĹ°ê´Ģ":5051,"Ġpresident":5052,"Ġconven":5053,"ĠìĻ¸êµŃ":5054,"lo":5055,"Ġpredetermined":5056,"Ġë¹Ħë¡¯":5057,"Ġlimited":5058,"ĠParty":5059,"ĠëĲ©ëĭĪëĭ¤":5060,"Ġë¶Ħë¥ĺ":5061,"ĠíĶĮëłĪìĿ´":5062,"',":5063,"ëĭ¤ë¥¸":5064,"ë°ĶìĿ´":5065,"íı¼":5066,"ĠìĿ´ìĹĲ":5067,"Un":5068,"ĠìĨĮëĵĿ":5069,"inance":5070,"Ġthought":5071,"Ġíĺĳëł¥":5072,"Ġ2015":5073,"Ġlikely":5074,"ĠìłģìłĪ":5075,"ĠìŀĪê¸°":5076,"ĠSu":5077,"ĠSec":5078,"ĠëĤĺìĺ¤":5079,"Ġparents":5080,"Ġsemiconductor":5081,"Ġvillage":5082,"angu":5083,"ĠìĽĶ":5084,"Ġstation":5085,"Ġbattery":5086,"ì²Ļ":5087,"Ġang":5088,"ĠìĦłìłķ":5089,"oses":5090,"ĠìłĪì°¨":5091,"¿ł":5092,"ĠMinister":5093,"Ġquestion":5094,"jin":5095,"ocr":5096,"Ġíĺģ":5097,"ê°ĲìĿĦ":5098,"ĠìĬ¤ë§ĪíĬ¸":5099,"ĠíĻĶíķĻ":5100,"íĺĢ":5101,"Ġcham":5102,"Ġder":5103,"Ġprint":5104,"ìģ":5105,"ë³´ê³ł":5106,"ìĤ°ìĹħ":5107,"Ġrepresentative":5108,"ĠìĿĮìķħ":5109,"Ġ90":5110,"ĠBusan":5111,"ĠìŀĶ":5112,"ĠìĿ´ìķ¼":5113,"ĠìķĬëĬĶëĭ¤":5114,"St":5115,"Ġpossibility":5116,"Ġlive":5117,"ĠHan":5118,"Ġtub":5119,"Ġì¶©ìłĦ":5120,"Ġrespectively":5121,"wh":5122,"reg":5123,"ì²´ëĬĶ":5124,"cement":5125,"Ġê°Ļëĭ¤":5126,"FIG":5127,"heong":5128,"Ġë§Įíģ¼":5129,"Ġfilter":5130,"Ġì§ĢëĤľíķ´":5131,"Ġì°¸ìĦĿ":5132,"ledge":5133,"Ġsympt":5134,"Ġê¸°ìŀ¬":5135,"Ġopportun":5136,"ĠíĬ¹ì§ķìľ¼ë¡ľ":5137,"Ġprior":5138,"pris":5139,"inated":5140,"ĠíĹĪìļ©":5141,"Ġë¹Ī":5142,"phas":5143,"itude":5144,"êµ¬ìĿĺ":5145,"ush":5146,"ìĬ¤ëĬĶ":5147,"Ġplat":5148,"íķĺìĿĺ":5149,"iring":5150,"ĠCho":5151,"ĠGang":5152,"ìĤ¬ìĻĢ":5153,"Ġexperi":5154,"Ġfar":5155,"Ġprices":5156,"Ġarm":5157,"ìĽ¨ìĸ´":5158,"Ġjo":5159,"Ġ130":5160,"ĠëıĻìĿ¼íķľ":5161,"Ġtast":5162,"Pro":5163,"aching":5164,"anced":5165,"ĠìĹ¬ìĦ±":5166,"Ġdistance":5167,"Is":5168,"ĠìĪĺì¶ľ":5169,"ĠAl":5170,"ĠìŀĪëĬĶëį°":5171,"aps":5172,"ĠCourt":5173,"ëįķ":5174,"atures":5175,"Ġcris":5176,"ìŀ¥ì¹ĺ":5177,"ëģ¼":5178,"Ġoverseas":5179,"Ġactivity":5180,"ĠEx":5181,"fort":5182,"ĠìĿ´ëĤł":5183,"Ġcurrently":5184,"Ġdigital":5185,"Ġëĭ¹ìĭľ":5186,"avor":5187,"Ġclin":5188,"ëıĻìķĪ":5189,"Ġcosts":5190,"ceed":5191,"Ġêµ¬ë¶Ħ":5192,"Ġcontrib":5193,"Ġë°©ìĨ¡":5194,"ember":5195,"ìĦ¸ë¥¼":5196,"verse":5197,"ĠìķłíĶĮë¦¬ì¼ĢìĿ´ìħĺ":5198,"Ġvia":5199,"Ġattract":5200,"ì§Ģê¸Ī":5201,"ì§Ģë§ī":5202,"Ġê¸°ê³Ħ":5203,"Ġì§ĳëĭ¨":5204,"Ġhousehold":5205,"ĠëĮĢë¹Ħ":5206,"meric":5207,"ĠëıĦìĽĢìĿ´":5208,"Ġcitiz":5209,"Ġfluid":5210,"aling":5211,"ìĬ¤ê°Ģ":5212,"ho":5213,"Ġaffect":5214,"Ġusers":5215,"ĠìĦľë¹ĦìĬ¤ë¥¼":5216,"Ġparticipate":5217,"com":5218,"Ġguid":5219,"Ġcompens":5220,"Ġemphas":5221,"Ġprog":5222,"ĠìĶ¨":5223,"ened":5224,"ëįĶëĿ¼ëıĦ":5225,"ëł¬":5226,"Ġprepared":5227,"ê°Ģë¥¼":5228,"ĠMay":5229,"Ġinfection":5230,"ĠìĤ¬ìļ©ìŀĲìĿĺ":5231,"Ġë¯¸ë¦¬":5232,"ery":5233,"êµŃìĿĢ":5234,"ocal":5235,"ë¡ľëĬĶ":5236,"Ġlay":5237,"lier":5238,"Ġë£":5239,"ĠìłĦíĨµ":5240,"32":5241,"ê±":5242,"Ġpul":5243,"ental":5244,"iet":5245,"yung":5246,"Ġ2016":5247,"Ġê·¸ìĿĺ":5248,"ĠìķĬìķĦ":5249,"Ġsignificantly":5250,"Ġthings":5251,"Ġë°ĺëıĦì²´":5252,"Ġcontains":5253,"ìķŀ":5254,"Ġappropri":5255,"Ġwear":5256,"Ġê²ĥìĿ´ëĿ¼ê³ł":5257,"ĠëĨĴìķĦ":5258,"Ġindustrial":5259,"Ġbottom":5260,"inder":5261,"Ġsubm":5262,"Ġ2019":5263,"Ġêµ¬ì¶ķ":5264,"Ġindex":5265,"Ġproduced":5266,"Ġneeds":5267,"ED":5268,"ĠGerm":5269,"Ġactual":5270,"ë©´ìĿĦ":5271,"Ġcontinue":5272,"Ġinterface":5273,"Ġadvant":5274,"ì¤":5275,"Ġprec":5276,"Ġpen":5277,"ëħĦìĹĲ":5278,"Ġincreases":5279,"Ġexplained":5280,"ameter":5281,"ëĬĶëĭ¤":5282,"Ġëıħë¦½":5283,"Ġintroduced":5284,"Ġload":5285,"Ġwide":5286,"Ġpredict":5287,"Ġbroadcast":5288,"Kore":5289,"Ġpaid":5290,"ĠìĦĿ":5291,"Ġê°Ģìł¸":5292,"ĠëĤ©":5293,"Ġtraditional":5294,"\",":5295,"ĠëĲĺìĹĪëĭ¤":5296,"Ġaddress":5297,"ĠIs":5298,"Ġprim":5299,"Ġêµ¬ìĦ±ëĲľ":5300,"Ġbehavior":5301,"Ġsteel":5302,"Ġemployees":5303,"ë²ķìĿĦ":5304,"ercial":5305,"ĠRes":5306,"Ġìłľê³µëĲľëĭ¤":5307,"sy":5308,"cel":5309,"Ġê¹Ĭ":5310,"rim":5311,"ĠìĬ¤ìľĦ":5312,"Ġ150":5313,"Ġrap":5314,"Ġì±ħìŀĦ":5315,"Ġìī½ê²Į":5316,"ext":5317,"ê¸°ìĻĢ":5318,"ëĤ©":5319,"Ġìĭ¶ìĬµëĭĪëĭ¤":5320,"Ġdiseases":5321,"êµ¬ê°Ģ":5322,"Ġmakes":5323,"Ġnormal":5324,"ĠìĿ´ëĬĶ":5325,"na":5326,"ĠíĺĦìĭ¤":5327,"ĠìĪĺìĪł":5328,"ĠCo":5329,"Ġìŀ¥ê¸°":5330,"Ġtrial":5331,"Ġë¶Ģì°©":5332,"ĠEn":5333,"Ġaction":5334,"Ġorganization":5335,"ê¸Īìľµ":5336,"Ġìłľê¸°":5337,"Then":5338,"Ġìłľê°Ģ":5339,"ĠìĪĺì§ĳ":5340,"ĠíĻĶíķ©ë¬¼":5341,"go":5342,"Ġvoice":5343,"Ġìĭ¤ìłľ":5344,"ĠíķĦíĦ°":5345,"Ġdivided":5346,"Ġregulations":5347,"Ġsystems":5348,"ĠìĪĺìļĶ":5349,"Ġcorporate":5350,"ĠìĻĢ":5351,"Ġsolid":5352,"Ġsumm":5353,"Ġprinciple":5354,"ĠíĺķìĦ±ëĲľ":5355,"Ġplayers":5356,"ìĸ´ë¥¼":5357,"ball":5358,"Ġinstalled":5359,"ĠëĤĺíĥĢëĤ´ëĬĶ":5360,"íķ¨ìĿĦ":5361,"ĠìĹ´ë¦°":5362,"ìķ¡ìĿĦ":5363,"Ġresistance":5364,"ĠëŁ¬":5365,"Ġsomething":5366,"Ġì½":5367,"Ġëĭµ":5368,"ĠOff":5369,"ĠëĮĢìĿĳíķĺëĬĶ":5370,"ë¦¬ìłģ":5371,"Ġê°ĸê³ł":5372,"Ġìĭľê°ĦìĿ´":5373,"ëıĻìĤ°":5374,"Ġê°ĢëĬ¥íķĺëĭ¤":5375,"ĠìŀĳìĿĢ":5376,"Ġdepending":5377,"Ġì´¬ìĺģ":5378,"Ġìľ¡":5379,"Ġì¡°ìŀĳ":5380,"ĠëıĦìłĦ":5381,"ĠëĶĶì§ĢíĦ¸":5382,"Ġlength":5383,"Ġëĵ±ë¡Ŀ":5384,"Ġìĭľë¯¼":5385,"ê°Ģê°Ģ":5386,"ìľ¼ë¡ľëĬĶ":5387,"Ġì°¨ì§Ģ":5388,"Ġcustomer":5389,"ĠìĦ±ê³¼":5390,"Ġneeded":5391,"self":5392,"Ġadding":5393,"Ġdest":5394,"Ġê²½ìļ°ìĹĲ":5395,"Ġì§ĪíĻĺ":5396,"ote":5397,"ĠëıĮìķĦ":5398,"ë¬´ë¥¼":5399,"ĠQ":5400,"Ġfloor":5401,"Ġinstitutions":5402,"Ġ2017":5403,"íļĮê°Ģ":5404,"ĠìŀĲëıĻì°¨":5405,"ĠIt":5406,"Ġë³´ìľł":5407,"tic":5408,"íĿ¡":5409,"Ġê²½ìĺģ":5410,"ìłģìĿ´":5411,"ìļķ":5412,"Ġholding":5413,"ĠìķĪëĤ´":5414,"Ġlangu":5415,"íĸĪê³ł":5416,"Ġbud":5417,"sel":5418,"Ġfiber":5419,"Ġê°Ģìłķ":5420,"Ġchamber":5421,"íĶ½":5422,"Ġissues":5423,"Ġmechanism":5424,"ĠíĻ©":5425,"ĠëĦ£":5426,"Ġaccur":5427,"ì¦ĿìĿĦ":5428,"Ġreleased":5429,"Ġdelay":5430,"ĠëĤ´ìĿĺ":5431,"Ġguarant":5432,"ëĮĢë¥¼":5433,"ëħķíķĺìĦ¸ìļĶ":5434,"Ġcreated":5435,"ĠíĥĲ":5436,"time":5437,"ì°¸":5438,"Ġëĵ±ìľ¼ë¡ľ":5439,"31":5440,"Ġrapid":5441,"Ġfine":5442,"ĠìĿ´ìĿµ":5443,"íĻĺê²½":5444,"ĠìĹ°ìĨį":5445,"ëĲĺìĸ´ìķ¼":5446,"Ġbuilt":5447,"ê²ĮìļĶ":5448,"Ġinvol":5449,"Ġì·¨ëĵĿ":5450,"Ġofficials":5451,"Ġpict":5452,"Ġassembly":5453,"Ġcrisis":5454,"Ġstress":5455,"ĠìĿĺìĤ¬":5456,"ìĪĻ":5457,"aily":5458,"Ġess":5459,"Ġactively":5460,"Ġdegree":5461,"Ġëĸł":5462,"ills":5463,"Ġrecent":5464,"Ġadvance":5465,"Ġyoung":5466,"Ġë°Ľê³ł":5467,"Ġcamera":5468,"First":5469,"ĠìĬ¤íģ¬":5470,"ĠDefendant":5471,"empt":5472,"Ġmicro":5473,"ĠìĦ±íĺķ":5474,"ĠìĿ¸íĦ°íİĺìĿ´ìĬ¤":5475,"íĬ¸ëĬĶ":5476,"Ġwireless":5477,"rance":5478,"íĻĶê°Ģ":5479,"ìĬ¤ë¡ľ":5480,"ê²½ìłľ":5481,"Ġhole":5482,"wan":5483,"Ġreduction":5484,"ĠìłĪìĹ°":5485,"Ġì¹´ë©ĶëĿ¼":5486,"ìĸ´ìĦľ":5487,"come":5488,"Ġstarted":5489,"ĠìľłëŁ½":5490,"Ġmaxim":5491,"Ġsurvey":5492,"All":5493,"Ġtell":5494,"ĠJung":5495,"Ġbecame":5496,"hest":5497,"ĠìļĶìĿ¸":5498,"Ġgenerate":5499,"ĠìĤ¬ìļ©íķĺëĬĶ":5500,"vere":5501,"Ġadhes":5502,"íĬ¸ìĹĲ":5503,"Ġíķĺì§Ģ":5504,"Ġmessage":5505,"Ġplans":5506,"orb":5507,"ĠìĤ½":5508,"year":5509,"ecause":5510,"Ġì£¼ë¡ľ":5511,"ĠìŀĪëĬĶì§Ģ":5512,"Ġì°¨ìĿ´ê°Ģ":5513,"Ġlaun":5514,"ìĽĢ":5515,"Ġë°°ìĨ¡":5516,"Ġê±°ìĺĪìļĶ":5517,"ĠìĻľ":5518,"Ġë°©ë²ķìĿ´":5519,"ĠìĤ¬ìłĦ":5520,"Ġê²Ģìĥī":5521,"ift":5522,"Ġìĺ¤íĽĦ":5523,"ìĿ¸ëį°":5524,"ĠìĽ¹":5525,"ìī":5526,"Ġoften":5527,"Ġmotor":5528,"ram":5529,"ëĮĢìĹĲ":5530,"Ġìĺ¤ëĬĺ":5531,"Ġpresented":5532,"Ġimplemented":5533,"ĠíĴĪì§Ī":5534,"ĳ¸":5535,"ĠìłĢëĬĶ":5536,"ìĤ¼":5537,"NA":5538,"Ġwid":5539,"Ġì¡°íķ©":5540,"Ġëĭ¨ìľĦ":5541,"My":5542,"Ġê°ľìµľ":5543,"Ġinnov":5544,"Ġemail":5545,"No":5546,"Ġult":5547,"Ġconsider":5548,"Ġë°ĽìĿĦ":5549,"Ġcomponents":5550,"Ġitself":5551,"ìĿ´ìĹĲìļĶ":5552,"Ġê²ĥìĹĲ":5553,"Ġsimple":5554,"Ġsymptoms":5555,"anch":5556,"ustr":5557,"Ģë¡ľë²Į":5558,"Ġëĭ´ëĭ¹":5559,"Ġìĸ´ë¦°":5560,"íķĺê¸°ë¡ľ":5561,"Ġexerc":5562,"ĠíĨµíķĺìĹ¬":5563,"rier":5564,"Ġsafe":5565,"Ġstrength":5566,"Ġê²ĥëıĦ":5567,"ìĬµëĭĪê¹Į":5568,"ë¯¸êµŃ":5569,"Ġmeasured":5570,"Ġgreater":5571,"Ġfast":5572,"Ġcand":5573,"ĠBank":5574,"ìĬ¬":5575,"íķľíİ¸":5576,"Ġreact":5577,"Ġcoating":5578,"Ġcredit":5579,"Ġê²½ë¡ľ":5580,"ĠRe":5581,"Ġplatform":5582,"ĠìĤ°íĻĶ":5583,"Ġknowledge":5584,"Ġconsumption":5585,"Ġë¨¼ìłĢ":5586,"ĠíķĦë¦Ħ":5587,"Ġdiv":5588,"ĠTV":5589,"ê²©ìĿĦ":5590,"Ġproducing":5591,"Ġheating":5592,"Ġenh":5593,"ëį°ìĿ´íĦ°":5594,"Ġìĺ¨ëĿ¼ìĿ¸":5595,"iveness":5596,"ë¦¬ì§Ģ":5597,"ester":5598,"Ġgreen":5599,"Ġëħ¹":5600,"Ġìļ°ìĦł":5601,"Ġdirector":5602,"ĠHealth":5603,"Ġefficiency":5604,"ĠíĮĶ":5605,"Ġability":5606,"Ġminutes":5607,"Ġì°¸ê°Ģ":5608,"Ġtal":5609,"Ġbit":5610,"Ġê°ĢìĹ´":5611,"Ġ32":5612,"ëĮĢìĿĺ":5613,"ìŀĲëĵ¤ìĿĢ":5614,"ĠìĤ¬ë¬´":5615,"Ġcomes":5616,"Ġê°ľë³Ħ":5617,"version":5618,"ĠAmeric":5619,"ì»¨":5620,"ĠëĤ´ìļ©ìĿĦ":5621,"130":5622,"Ġimmedi":5623,"Ġbudget":5624,"ĠìłľíĴĪìĿĢ":5625,"ìĭľíĤ¤ê³ł":5626,"Ġlat":5627,"Ġsure":5628,"ague":5629,"ìłķìĿ´":5630,"ìķĪëħķíķĺìĦ¸ìļĶ":5631,"Ġìłľê³µíķł":5632,"Ġëªħëł¹":5633,"ì§Ģì§Ģ":5634,"Ġaspect":5635,"Ġë¹¨":5636,"ensity":5637,"Ġbox":5638,"ples":5639,"sw":5640,"Ġìļ°ë¦¬ëĬĶ":5641,"Ġadministrative":5642,"Ġìµľì¢ħ":5643,"Ġrecognition":5644,"Ġfuel":5645,"Ġep":5646,"Ġë²½":5647,"si":5648,"ëĭ¤ìĿĮ":5649,"ĠëĤĺìĺ¨":5650,"Ġflex":5651,"ìŀĪëĬĶ":5652,"min":5653,"ê°ľë°ľ":5654,"Ġprojects":5655,"Ġëĭ¤ìĿĮê³¼":5656,"Ġìĭ¤ì§Ī":5657,"Ġoriginal":5658,"'d":5659,"ë§¥":5660,"Ġtheory":5661,"íĺ¹":5662,"ëĿ¼ìĬ¤":5663,"ĠëĮĢíķĻ":5664,"Ġëª¨ëĵľ":5665,"Ġë³µíķ©":5666,"Ġsuitable":5667,"Ġcitizens":5668,"Ġnuclear":5669,"Ġcop":5670,"íĨµìĭł":5671,"ê°Ļ":5672,"ĠìĬ¤íĥĢ":5673,"įìłķ":5674,"ĠìĽĮ":5675,"ìĬ¤íħĮ":5676,"ĠëłĪìĿ´":5677,"site":5678,"ë¤Ħ":5679,"Ġphase":5680,"Ġëĭ¬ë¦¬":5681,"ĠìŀĳìĦ±":5682,"ìĿ´ê¸°":5683,"ograp":5684,"roup":5685,"Ġplant":5686,"ĠìĨĮìŀ¬":5687,"ĠìĿĢíĸī":5688,"Ġbal":5689,"Ġnature":5690,"Ġê´Ģì°°":5691,"rast":5692,"Ġregular":5693,"ĠëĳĲê³ł":5694,"Ġvariable":5695,"Ġbegin":5696,"ëŀ«íı¼":5697,"ë¶Ģëª¨":5698,"íķĢ":5699,"Ġtaken":5700,"ìĹĨìĿ´":5701,"ìľĦìĹĲ":5702,"Ġfunds":5703,"Ġmonitor":5704,"ĠíĻľìĦ±íĻĶ":5705,"ì²´ë¡ľ":5706,"Ġlove":5707,"Ġpipe":5708,"Ġsector":5709,"Ġwent":5710,"ëł´":5711,"Ġ35":5712,"Ġê´":5713,"orpor":5714,"Ġvict":5715,"Ġresources":5716,"íĬ¸ê°Ģ":5717,"Ġíķľëĭ¤ëĬĶ":5718,"Ġë¶Ģìłķ":5719,"Ġmoving":5720,"Ġdefined":5721,"íĭĢ":5722,"Ġdisplayed":5723,"Because":5724,"íĽ":5725,"Ġclimate":5726,"ĠíĨµê³¼":5727,"Ġdetermining":5728,"íĺķìĿĦ":5729,"ëľ":5730,"Ġdidn":5731,"Ġunits":5732,"Ġworks":5733,"Ġhost":5734,"ë¦¬ìĬ¤":5735,"Ġë¯¸ëŀĺ":5736,"Ġì¤ĳê°Ħ":5737,"Ġanti":5738,"ulate":5739,"Ġsho":5740,"Ġê³µê¸°":5741,"ëıĦìĻĢ":5742,"Ġë§ĲìĶ":5743,"Ġsold":5744,"Ġce":5745,"Ġmainly":5746,"Ġsetting":5747,"ìĭľìŀ¥":5748,"Ġintroduce":5749,"Ġëħ¸ì¶ľ":5750,"utional":5751,"Ġì²ŃìĨĮ":5752,"eth":5753,"ĠTe":5754,"ĠìĭľìĬ¤íħľìĿĢ":5755,"onom":5756,"ĠíļĮìĿĺ":5757,"Ġìłĳì°©":5758,"Among":5759,"ëĲĺëıĦë¡Ŀ":5760,"ë©į":5761,"agraph":5762,"ead":5763,"Ġìĭ¤íĹĺ":5764,"ison":5765,"300":5766,"ëĮĢíķľ":5767,"Ġball":5768,"ë¹Ħë¥¼":5769,"Ġperforming":5770,"ĠìĪĺìĿµ":5771,"ë¯¸íĦ°":5772,"des":5773,"Ġsense":5774,"Ġbrand":5775,"Ġquestions":5776,"Ġìłľì¶ľ":5777,"Ġauthorities":5778,"ê´ĢìĿĢ":5779,"Ġeducational":5780,"ĠEng":5781,"Ġê¸°íĽĦ":5782,"ìĽĲìľ¼ë¡ľ":5783,"ĠìĨĮìľł":5784,"ìĥģìľ¼ë¡ľ":5785,"ê³Ħìķ½":5786,"ì¼ĵ":5787,"Ġì¤ĳìĹĲ":5788,"Ġë°©ìĭĿìľ¼ë¡ľ":5789,"Ġdou":5790,"Ġê²½ì°°":5791,"ĠíĻĺìŀĲìĿĺ":5792,"ĠìĺģíĻĶ":5793,"Ġcommunic":5794,"ëĭ¨ê³Ħ":5795,"Ġchem":5796,"ì£¼ìĦ¸ìļĶ":5797,"ĠíĽĦë³´":5798,"Ġë°¸":5799,"ĠCoun":5800,"Ġcommand":5801,"Ġsample":5802,"Ġíķ´ìķ¼":5803,"ìĿ´íĶĦ":5804,"Ġëĥīê°ģ":5805,"ìĦľìļ¸":5806,"ë³Ħë¡ľ":5807,"Ġremo":5808,"One":5809,"Ġcircum":5810,"Ġíķµìĭ¬":5811,"atives":5812,"Ġê°Ģê³µ":5813,"Ġinsp":5814,"Ġens":5815,"ìĺ¤ëĬĺ":5816,"Ġanim":5817,"Ġê¸°ìĸµ":5818,"Ġtransmit":5819,"Ġship":5820,"Ġpolicies":5821,"isions":5822,"Ġadvert":5823,"ĠìĹ¬ë¶Ģ":5824,"Ġë³´ìŀ¥":5825,"Ġdepos":5826,"Ġìĭľê°ĦìĿĦ":5827,"Ġvirtual":5828,"ĠìŀĪìĿĮìĿĦ":5829,"ĠAssoci":5830,"Ġled":5831,"ì¦Į":5832,"ĠíĸīìĤ¬":5833,"Ġenvironmental":5834,"Ġorganizations":5835,"ë¹Ī":5836,"Ġproport":5837,"ype":5838,"Ġíĺ¹ìĿĢ":5839,"Ġembodiments":5840,"Ġmeasurement":5841,"ëĩ¨":5842,"Ġgot":5843,"Ġê³µê³µ":5844,"Ġselection":5845,"ĠìĺĪìĪł":5846,"EO":5847,"AAAëĬĶ":5848,"ĠëłĮ":5849,"ĠìĿ´ë²¤":5850,"ĺíĶĮ":5851,"ĠAd":5852,"ì¢Į":5853,"ĠíĿĲë¦Ħ":5854,"ĠìĺĪìķ½":5855,"Ex":5856,"ĠëĽ":5857,"Ġbreak":5858,"fect":5859,"Ġsle":5860,"Ġtourism":5861,"Ġtherap":5862,"Ġreducing":5863,"Ġgoal":5864,"ĠRuss":5865,"By":5866,"ĠìĪĻ":5867,"ĠAI":5868,"Ġexpressed":5869,"ĠìĽĲê³ł":5870,"Ġlanguage":5871,"Ġë³´ê±´":5872,"ìľ¨ìĿ´":5873,"Ġìĩ":5874,"Ġë³´ì¡°":5875,"íĻľëıĻ":5876,"Ġê¸įìłķ":5877,"Ġë©Ģ":5878,"ìłĦìĿĦ":5879,"ificial":5880,"ëł¸ëĭ¤":5881,"ĠëĤ´ìĹĲìĦľ":5882,"ĠìĤ¬ëŀĮìĿ´":5883,"ìĸ¼":5884,"Ġíĺģìĭł":5885,"Ġdaily":5886,"Ġstream":5887,"ì²ĺë¦¬":5888,"Ġì²´ê²°":5889,"Ġíļ¨ê³¼ê°Ģ":5890,"ĠInternet":5891,"ë¦¿":5892,"Ġdisclosed":5893,"ĠJu":5894,"Ġë°Ľìķĺ":5895,"ĠìĿĮìĦ±":5896,"ĠìĿ¸íĦ°ëĦ·":5897,"Ġforward":5898,"Ġrice":5899,"ĠìłĦë¬¸ê°Ģ":5900,"Ġred":5901,"ĠGwang":5902,"Ġcompleted":5903,"ĠíĻķìŀ¥":5904,"%.":5905,"Ġdoll":5906,"Ġcandid":5907,"ëĬĶì§Ģ":5908,"ìĨĮëĵĿ":5909,"Ġinfluence":5910,"Ġwaste":5911,"Ġë¶ĢìĤ°":5912,"Ġë§ĪìĿĮ":5913,"Ġregions":5914,"Ġsum":5915,"Ġdry":5916,"ëĵ¤ëıĦ":5917,"Ġvariables":5918,"Ġprofessional":5919,"Ġreality":5920,"ê´ĢìĿ´":5921,"Ġothers":5922,"ĠMetropolitan":5923,"aph":5924,"ĠìĿ´ëłĩê²Į":5925,"Ġmol":5926,"ĠComp":5927,"êµŃìĿ´":5928,"Ġbecomes":5929,"Ġstay":5930,"ĠìľłëıĦ":5931,"Ġíķĺë©´":5932,"ĠìĹ¬ë¶Ģë¥¼":5933,"pecially":5934,"myeon":5935,"Ġargu":5936,"Ġemergency":5937,"ĠíĬ¹ìĦ±":5938,"ìĬ¨":5939,"iece":5940,"ëĵľìĿĺ":5941,"íĹĮ":5942,"ĠìĺĪë¥¼":5943,"Ġëª©ìłģìľ¼ë¡ľ":5944,"book":5945,"ament":5946,"Ġfat":5947,"ê±°ëŀĺ":5948,"Ġcivil":5949,"Ġê´ĳê³ł":5950,"Ġë§ŀì¶":5951,"augh":5952,"ma":5953,"Ġcarried":5954,"Ġíķĺìļ°":5955,"eum":5956,"ĠMan":5957,"ĠìķĬëĭ¤":5958,"Ġê¸Ģ":5959,"Ġsche":5960,"ê·ľëª¨":5961,"organ":5962,"ëĲĺë©´ìĦľ":5963,"erson":5964,"Ġë¶ĢìĹ¬":5965,"ĠìĦ¤ëªħíĸĪëĭ¤":5966,"ĠPlaintiff":5967,"ground":5968,"ansion":5969,"Ġphone":5970,"erved":5971,"Ġì¤ĳíķ©":5972,"ìłĲìĹĲìĦľ":5973,"Īëł¨":5974,"ĠëıĪ":5975,"isl":5976,"Ġdepartment":5977,"ìĿ´ìħĺ":5978,"Ġê´Ģê³Ħë¥¼":5979,"imens":5980,"Ġì´Īê¸°":5981,"Ġrespond":5982,"Ġíķĺë£¨":5983,"Ġenough":5984,"ĠìĽĲì¹Ļ":5985,"ĠëĮĢíķ´ìĦľëĬĶ":5986,"Ġcho":5987,"Ġë°ľìĥĿíķĺëĬĶ":5988,"ë´ĩ":5989,"Ġconcentration":5990,"ducation":5991,"Ġaim":5992,"íĬ¼":5993,"Ġê¸°ëĭ¤":5994,"ĠMount":5995,"Oh":5996,"Ġtur":5997,"Ġpredic":5998,"gun":5999,"Ġsequ":6000,"ĠìľĦíķ´ìĦľ":6001,"ìħĢ":6002,"enced":6003,"rup":6004,"Ġcontainer":6005,"ĠëĲĺê³ł":6006,"Ġsuff":6007,"Ġê²½ê¸°ëıĦ":6008,"Ġê·¸ëŁ°":6009,"Ġestate":6010,"ë¥ĺë¥¼":6011,"Ġì¶Ķì²ľ":6012,"Ġansw":6013,"ĠëĵľëŁ¬":6014,"Ġmom":6015,"ëĲĺê¸°":6016,"ellig":6017,"Ġbegan":6018,"igure":6019,"CD":6020,"Ġfile":6021,"Ġbeaut":6022,"ìĭľìĺ¤":6023,"ëĮĢê°Ģ":6024,"Ġìĭłê²½":6025,"Ġapplying":6026,"amsung":6027,"Ġcorrect":6028,"Ġë§ģ":6029,"Ġedge":6030,"Ġyet":6031,"ĠìłĦíĻĶ":6032,"ĠíĬ¹ìĦ±ìĿĦ":6033,"ĠìłĦíķ´":6034,"íĸĪìĿĦ":6035,"Ġ2014":6036,"ĠOffice":6037,"ĠíĻķìĿ¸íķł":6038,"ĠíĶĮëŀ«íı¼":6039,"ëĬĦ":6040,"ìŀĸ":6041,"Ġadap":6042,"ë°ĸìĹĲ":6043,"ĠìŀĳíĴĪ":6044,"Ġseparate":6045,"Ġsatisfact":6046,"Ġsilic":6047,"uge":6048,"Ġexecut":6049,"Ġoverall":6050,"ches":6051,"ìĿ´ëŁ°":6052,"ĠìŀĪëĤĺìļĶ":6053,"ìĦ¸ìĦľ":6054,"uck":6055,"Ġvert":6056,"Ġê°ĻìķĦìļĶ":6057,"Ġproperties":6058,"Ġteachers":6059,"ì´Į":6060,"ìĹĦ":6061,"Ġë°ľê´ĳ":6062,"Ġprosec":6063,"ëŁīìĿĺ":6064,"ĠìĭľìĬ¤íħľìĿĦ":6065,"ĠíĮ¬":6066,"Ġscore":6067,"Ġê¸¸ìĿ´":6068,"Ġíĩ´":6069,"Ġì£¼ëª©":6070,"aped":6071,"ĠAssociation":6072,"ìŀĲëĵ¤ìĿĺ":6073,"Ġitem":6074,"Ġ400":6075,"ĠUN":6076,"dr":6077,"Ġwave":6078,"Ġactually":6079,"Ġir":6080,"Ġbon":6081,"Ġê°Ģì¹ĺ":6082,"Ġparticles":6083,"ëĭ¬ëŁ¬":6084,"Ġìķķëł¥":6085,"ĠíĹĮ":6086,"Ġopened":6087,"head":6088,"Ġvolume":6089,"Ġsea":6090,"Ġquickly":6091,"ĠìłĦíĸĪëĭ¤":6092,"ë°ĶìĿ¼":6093,"ìĸ´ì§Ħ":6094,"ìĿ¼ë¶ĢíĦ°":6095,"ipher":6096,"Ġrob":6097,"26":6098,"ĠPr":6099,"Ġappropriate":6100,"Ġ$":6101,"abric":6102,"ë¥łìĿ´":6103,"ìłĢíĿ¬ëĬĶ":6104,"Ġshaft":6105,"êµ¬íķĺê³ł":6106,"Ġevents":6107,"Ġì§ĢëĤĺ":6108,"ton":6109,"Ġê°Ģìŀħ":6110,"Ġìĸ¸ìłľ":6111,"Ġfem":6112,"ëłī":6113,"Ġë¯":6114,"illeg":6115,"Ġshowing":6116,"Ġavoid":6117,"Ġë¶Ģíĥģ":6118,"Ġcarry":6119,"Ġstarting":6120,"ê¸°ê°Ħ":6121,"Ġfacility":6122,"oh":6123,"view":6124,"Ġì²´íĹĺ":6125,"Ġmatch":6126,"ĠGovernment":6127,"ĠìĪĺê°Ģ":6128,"ĠëĽ°":6129,"ë¬¸ìĿĦ":6130,"ĠìĦ±ëĬ¥":6131,"Ġimprovement":6132,"ì½ľ":6133,"Ġdri":6134,"crip":6135,"ĠìĿĺíķĺìĹ¬":6136,"ê±¸":6137,"ji":6138,"oly":6139,"Ġì½ĶíĮħ":6140,"Ġinject":6141,"Ġgate":6142,"ìĶ©":6143,"Ġconductive":6144,"Ġallows":6145,"ĠìĹ¬ìłĦíŀĪ":6146,"Ġë°Ķíĥķ":6147,"·°":6148,"Ġìĺ¤ëĬĶ":6149,"Ġexpansion":6150,"ìĻĶ":6151,"nces":6152,"ĠìłĦêµŃ":6153,"Ġrates":6154,"ordance":6155,"Ġìķķì¶ķ":6156,"Here":6157,"ëĭ¤ë§Į":6158,"Ġsex":6159,"ĠMarch":6160,"Ġìļ©ìĿ´":6161,"ĠìĭľíĹĺ":6162,"Ġë³¸ì²´":6163,"ĠìłĲìĿĦ":6164,"Ġfunctions":6165,"ìĭľíĤ¤ê¸°":6166,"Ġexpenses":6167,"ĠëĬĲëĤ":6168,"ixt":6169,"Ġilleg":6170,"aek":6171,"Ġcommercial":6172,"ëĭ¤ê°Ģ":6173,"Ġeld":6174,"ìłģìĿ´ê³ł":6175,"ìłľíĴĪ":6176,"Ġtrip":6177,"Ġì¡°ê¸Ī":6178,"Ġdeep":6179,"Ġìŀ¥ì¹ĺìĿĺ":6180,"Ġíİ¼":6181,"Ġillustr":6182,"back":6183,"Ġseat":6184,"Ġë°©ìĤ¬":6185,"Ġpursu":6186,"ĠìĤ½ìŀħ":6187,"arily":6188,"Ġcyl":6189,"Ġê·ľìłľ":6190,"ĠìĿ¼ìĿ´":6191,"Ġë°ĺë³µ":6192,"500":6193,"ĠëĦĵ":6194,"stitute":6195,"90":6196,"íķµ":6197,"Ġê½":6198,"ĠSchool":6199,"acking":6200,"Ġemot":6201,"Ġdrive":6202,"Ġlate":6203,"Ġprofit":6204,"ìłķì±ħ":6205,"ĠìĿ¸ê°Ħ":6206,"Ġintention":6207,"Ġì±Ķ":6208,"yle":6209,"ëł¤ê³ł":6210,"íŀĮ":6211,"Ġmatter":6212,"ëħĦë¶ĢíĦ°":6213,"Ġê°Ģê¹Į":6214,"inancial":6215,"Ġëĭ¤ìĪĺìĿĺ":6216,"Ġcert":6217,"ìĤ°íĻĶ":6218,"íĩ´":6219,"ìķĦëĭĪ":6220,"Ġmedic":6221,"Ġschools":6222,"Ġprem":6223,"ĠíĽĦìĹĲ":6224,"Ġlargest":6225,"Ġconflic":6226,"Ġvisited":6227,"34":6228,"idge":6229,"ĠìĤ´íİ´ë³´":6230,"ots":6231,"ĠëĮĢì¶ľ":6232,"ĠìĿ¸ì¦Ŀ":6233,"ĠìĹĨìĹĪëĭ¤":6234,"Ġrestaurant":6235,"alle":6236,"Ġreaction":6237,"Can":6238,"ë®":6239,"Ġgoods":6240,"ym":6241,"Ġarticle":6242,"bor":6243,"ìĿ¼ê¹Įì§Ģ":6244,"ricultural":6245,"Ġvalve":6246,"Ġê°ĲìĤ¬íķ©ëĭĪëĭ¤":6247,"íľĺ":6248,"ìĸ´ëĤľ":6249,"umn":6250,"ë§ĮìĿĦ":6251,"Ġdut":6252,"Ġexist":6253,"ĠíĶĦë¡ľìłĿ":6254,"Ġthickness":6255,"TA":6256,"Ġimages":6257,"Ġaccident":6258,"°ëĭ¤":6259,"ìĦ¸ê³Ħ":6260,"ĠìķĮìķĦ":6261,"ĠìĤ¬ëŀĮëĵ¤ìĿ´":6262,"Ġhydrogen":6263,"ì¸µìĿĦ":6264,"ë°©ë²ķ":6265,"ĠìĿ´ë¤Ħ":6266,"Ġmanager":6267,"Ġmind":6268,"ĠìłĦìĭľ":6269,"Ġhighest":6270,"rig":6271,"ĠìĪĺìŀħ":6272,"ĠìĹĨìĬµëĭĪëĭ¤":6273,"íķĺëĭ¤ê³ł":6274,"ĠìĹ°êµ¬ìĹĲìĦľëĬĶ":6275,"Ġíķ©ìĿĺ":6276,"¨ìĿ´":6277,"ìĬ¤íĥĢ":6278,"Ġrent":6279,"ìĦ¸íı¬":6280,"ĠEducation":6281,"ëŀĻ":6282,"ĠIndu":6283,"Ġnegot":6284,"ìĭŃìĭľìĺ¤":6285,"ĠAssembly":6286,"¼m":6287,"inate":6288,"ìĭ¸":6289,"Ġexclud":6290,"ìŀ¬ë¥¼":6291,"ĠInd":6292,"Ġcrim":6293,"rol":6294,"Ġpowder":6295,"Ġì£¼ìĭĿ":6296,"Ġìĸ¸ê¸ī":6297,"...":6298,"íľ´":6299,"Ġmold":6300,"Ġasked":6301,"ĠìŀĲë¦¬":6302,"Ġseries":6303,"Ġmother":6304,"Ġnever":6305,"Ġoperated":6306,"Ġcollection":6307,"Ġpractice":6308,"ĠChung":6309,"Ġcapt":6310,"Ġnight":6311,"Ġprocedure":6312,"ĠìĭľíĬ¸":6313,"Ġadministration":6314,"Ġdebt":6315,"Ġcamp":6316,"ê´ĢìĿĦ":6317,"ĠìĿ´ìļ©íķľ":6318,"ories":6319,"Ġëĭ¨ìĪľ":6320,"Ġê¸°ì¤Ģìľ¼ë¡ľ":6321,"ĠìĮį":6322,"Ġê°ľìłķ":6323,"ĠìłĢíķŃ":6324,"Ġing":6325,"amm":6326,"Ġì§Īë³ĳ":6327,"Ġprogress":6328,"Ġcomfort":6329,"êµŃëĤ´":6330,"ĠìĥĺíĶĮ":6331,"Ġbenefits":6332,"pir":6333,"Ġadvantage":6334,"Ġexcept":6335,"Ġì£¼íĥĿ":6336,"ìĤ°ìĿĺ":6337,"Ġlegisl":6338,"Ġë³´ëıĦ":6339,"Ġë¹Ħì¤ĳ":6340,"Ġê³łìļ©":6341,"ĠìłĲìĹĲìĦľ":6342,"Ġì·¨ìĨĮ":6343,"ubl":6344,"ĠíĬ¸ëŀľ":6345,"Ġpopulation":6346,"Ġrecommend":6347,"ìĿ´íķĺ":6348,"Ġfabric":6349,"Ġaccordance":6350,"ëĤ´ê°Ģ":6351,"From":6352,"Ġcode":6353,"Ġunf":6354,"ĠëĳĲê»ĺ":6355,"lec":6356,"Ġpix":6357,"Ġintegrated":6358,"ìĭľíĤ¨ëĭ¤":6359,"Ġmorning":6360,"isc":6361,"Ġrevealed":6362,"ë¡Ńê²Į":6363,"Ġêµ¬ë©į":6364,"vernor":6365,"ìĥĿíĻľ":6366,"ì¤ĳêµŃ":6367,"Ġoblig":6368,"Ġcere":6369,"ì³¤":6370,"ĠëĿ¼ìĿ¸":6371,"Ġraised":6372,"ĠìĿ¸ìĩĦ":6373,"Ġ198":6374,"Ġì²Ńêµ¬":6375,"ĠMountain":6376,"Some":6377,"Ġinform":6378,"ëĮĢíĳľ":6379,"Ġfollows":6380,"Ġformula":6381,"Ġparticipation":6382,"Ġìľ¤":6383,"ĠJae":6384,"Ġburden":6385,"Ġgen":6386,"Ġagency":6387,"Ġperipher":6388,"Ġë°°ìļ°":6389,"Ġê·¼ë¡ľ":6390,"iate":6391,"Ġìŀ¥ìĨĮ":6392,"ĠìĤ°ì¶ľ":6393,"Ġíķĺìļ°ì§ķ":6394,"ĠëĶĶìŀĲìĿ¸":6395,"Ġíĺ¸íħĶ":6396,"ëĨĵ":6397,"Ġê¶ģ":6398,"Ġdetected":6399,"ĠìĺģìĹħ":6400,"Ġìļ°ë¦¬ëĤĺëĿ¼":6401,"ë°į":6402,"ĠìĻĶ":6403,"Ġíĭ°":6404,"Ġaxis":6405,"Ġê°Ģìĥģ":6406,"Ġwhole":6407,"Ġì»¤ë²Ħ":6408,"Ġë¬´ìĹŃ":6409,"ĠëĤĺíĥĢëĤĺ":6410,"Ġleading":6411,"Ġago":6412,"Ġìŀ¥ì¹ĺìĹĲ":6413,"ĠNo":6414,"Ġimmediately":6415,"ray":6416,"Ġpun":6417,"Ġfourth":6418,"Ġefficient":6419,"Ġìŀ¬ìĥĿ":6420,"ĠìĺĪìłķìĿ´ëĭ¤":6421,"Ġefforts":6422,"Ġcritic":6423,"ĠìĿ½":6424,"ëĿ¼ì§Ī":6425,"Ġheart":6426,"Ġmiss":6427,"Ġìĭľê°ģ":6428,"Ġê°ľêµ¬":6429,"atically":6430,"ë³´ëĭ¤ëĬĶ":6431,"Ġstop":6432,"Ġì§ĢëıĦ":6433,"ĠìĬ¤íħĮ":6434,"ĠíĿ¡ìĪĺ":6435,"ë¿Ĳë§Į":6436,"êµ¬ì²Ń":6437,"Ġê²½ìļ°ê°Ģ":6438,"ĠìŀĦìĥģ":6439,"Ġprepare":6440,"Ġtaste":6441,"ĠCouncil":6442,"Ġphen":6443,"Ġmention":6444,"ĠInternational":6445,"Let":6446,"eral":6447,"ĠëıĦìĻĢ":6448,"Ġprograms":6449,"Ġë¬¼ë¡ł":6450,"Ġfeature":6451,"ĠíĶĦë¦¬":6452,"Ġconsult":6453,"gery":6454,"ership":6455,"Ġ33":6456,"ë¶ĦìĿĦ":6457,"Ġë³ĢìĪĺ":6458,"Ġartificial":6459,"ĠëŃĲ":6460,"Ġwel":6461,"Ġlif":6462,"ĠìĿ´ë¡ł":6463,"ëĲ¨":6464,"abilities":6465,"ĠëĤ´ê°Ģ":6466,"Ġë°ĺëĮĢ":6467,"ĠCommission":6468,"Ġíĳľì¤Ģ":6469,"Ġê³¼íķĻ":6470,"Ġë°ľìĥĿíķľ":6471,"ìĿ´ìĹĪ":6472,"ploy":6473,"Ġë£¨":6474,");":6475,"Ġcompar":6476,"Ġìļ°ìĪĺíķľ":6477,"rehen":6478,"Ġraw":6479,"ëŀĳìĬ¤":6480,"ĠíĥĦìĨĮ":6481,"íķĺê²łìĬµëĭĪëĭ¤":6482,"Ġì§ķ":6483,"Ġstated":6484,"ĠìĦľë¸Į":6485,"Ġprob":6486,"elt":6487,"Ġstudent":6488,"Ġsmo":6489,"Ġìĥģê´Ģ":6490,"ĠìĿ´ìłľ":6491,"Ġalk":6492,"Ġë³´ìķĪ":6493,"Ġë¶ĢëıĻìĤ°":6494,"Ġassist":6495,"Ġê¸°ìĹħìĿĺ":6496,"ëĥ¥":6497,"ĠFe":6498,"Ġlack":6499,"ìĺ¥":6500,"Ġcombination":6501,"Ġê³¼ìłķìĿĦ":6502,"Ġmight":6503,"Ġdetails":6504,"bol":6505,"Ġìłķìĭł":6506,"ì¢ĭ":6507,"Ġê±´ì¡°":6508,"ĠService":6509,"Ġdone":6510,"road":6511,"ëĵ¯":6512,"ĠëĤĺëĿ¼":6513,"Ġhit":6514,"urities":6515,"Ġdocument":6516,"ë¬¼ìĹĲ":6517,"Ġê±´ìĦ¤":6518,"Ġperm":6519,"urrent":6520,"Ġintellig":6521,"Ġgenerating":6522,"Ġlevels":6523,"Ġunique":6524,"encies":6525,"Ġê´Ģê³ĦìŀĲëĬĶ":6526,"Ġachieve":6527,"Ġtw":6528,"ìĽĥ":6529,"Ġhighly":6530,"Ġoccurred":6531,"ĠíĨµê³Ħ":6532,"Ġdance":6533,"íķĺìĭł":6534,"Ġtom":6535,"Ġdoing":6536,"Ġcommittee":6537,"OS":6538,"ĠìŀĲë³¸":6539,"Ġê¸Ģë¡ľë²Į":6540,"Ġtrend":6541,"Mean":6542,"ĠíĴĢ":6543,"Ġreferred":6544,"Ġinterested":6545,"Ġhair":6546,"ĠëĤĺëĬĶ":6547,"Ġë¶ĦìĤ°":6548,"Ġìĸ´ëĶĶ":6549,"Ġstaff":6550,"ender":6551,"Ġê²ĥê³¼":6552,"ĠëĤĺíĥĢëĤ¸":6553,"NS":6554,"Ġtank":6555,"Ġë¿Ĳ":6556,"Ġaltern":6557,"Ġìĭłê·ľ":6558,"hent":6559,"ipl":6560,"ëĭĪíĦ°":6561,"ê·¸ëŁ¼":6562,"Ġrear":6563,"ë¨¸ëĭĪ":6564,"Ġì¡°ë¦½":6565,"ĠëŁ¬ìĭľìķĦ":6566,"DA":6567,"Ġfib":6568,"ëŀĲ":6569,"Ġë°°íĦ°":6570,"ĠìĽĲíķĺëĬĶ":6571,"ĠíķŃê³µ":6572,"Ġíķ¨ìľłíķĺëĬĶ":6573,"Ġë¶Ļ":6574,"Ġdoor":6575,"Ġpharm":6576,"Ġexceed":6577,"Ġinitial":6578,"erly":6579,"ë¦¬ì¹´":6580,"Ġdischarge":6581,"Ġemployment":6582,"yn":6583,"Ġsong":6584,"ĠìŀĦìĿĺ":6585,"Ġêµ¬ì¡°ë¥¼":6586,"Ġmulti":6587,"ê°ĳ":6588,"Ġê°ģì¢ħ":6589,"Ġcalculated":6590,"ê·¸ëŁ°ëį°":6591,"Ġê²ª":6592,"ĠLe":6593,"ĠEuropean":6594,"ìĽł":6595,"Ġë¶ĢíĴĪ":6596,"ĠDo":6597,"pective":6598,"Ġexpression":6599,"Ġtalk":6600,"Ġê³¡":6601,"ĠíĮĮëĿ¼":6602,"Ġinj":6603,"Ġmut":6604,"Ġë¶Īêµ¬íķĺê³ł":6605,"Ġwelfare":6606,"arters":6607,"Ġë²łìĿ´ìĬ¤":6608,"Ġëľ»":6609,"Ġìĥģë¶Ģ":6610,"Ġrepe":6611,"Ġcontrolling":6612,"Ġclinical":6613,"Ġì£¼íĮĮ":6614,"Ġsupporting":6615,"Ġíķ´ëĭ¹íķĺëĬĶ":6616,"Ġ34":6617,"Ġê´Ģìĭ¬ìĿ´":6618,"Ġclosed":6619,"Ġë°ĽëĬĶ":6620,"Ġprote":6621,"Ġë§ĲìĶĢ":6622,"she":6623,"ìĸ´ëĸ":6624,"ĠìĿ¸ê³µ":6625,"Ġestablishment":6626,"Ġstrategy":6627,"ë¡ľìĿĺ":6628,"dule":6629,"Ġweak":6630,"Ġ2010":6631,"Ġfeatures":6632,"Se":6633,"ëłĪìĬ¤":6634,"ê¶ĮìĿĺ":6635,"Ġunderstanding":6636,"ìĬĪ":6637,"ĠìķĬìĬµëĭĪëĭ¤":6638,"Ġê°ĸëĬĶëĭ¤":6639,"ĠìĿ´ë©Ķ":6640,"ìĭ¤ìĿĦ":6641,"ĠíĥĢìĿ´":6642,"ĠìĿĺë¬´":6643,"ëħĦëĮĢ":6644,"Ġrelevant":6645,"lies":6646,"Ġpubl":6647,"alyst":6648,"most":6649,"Ġharm":6650,"Ġsatisfaction":6651,"ĠëĮĢìĭł":6652,"Ġdeal":6653,"ë¶ĦìĦĿ":6654,"yo":6655,"Ġíį¼":6656,"Ġë³ĢíĻĶë¥¼":6657,"Ġsteps":6658,"ĠíĶĦë¡ľìĦ¸ìĦľ":6659,"ëªħíķľ":6660,"ì§ĢìĽĲ":6661,"Ġíı¬íķ¨ëĲľ":6662,"Ġbeam":6663,"Ġlens":6664,"Ġcounter":6665,"ìĥģìĿĢ":6666,"ference":6667,"Ġhor":6668,"Ġê·¸ë¦¼":6669,"Ġtakes":6670,"ĠíĺķìĦ±íķĺëĬĶ":6671,"Ġcooper":6672,"rary":6673,"vest":6674,"Ġìĸ´ëł¤ìļ´":6675,"Ġden":6676,"ìĿ¼ìĿ´":6677,"Ġexperts":6678,"Ġdesignated":6679,"Ġmagnetic":6680,"yang":6681,"Ġ<":6682,"ĠìłĦë°ĺ":6683,"Ġalone":6684,"Ġdeveloping":6685,"Ġsem":6686,"Ġregistration":6687,"ľë¸Į":6688,"ê³¼ìłķ":6689,"ĠMed":6690,"Ġangle":6691,"Ġê°ĻìĬµëĭĪëĭ¤":6692,"Ġplanning":6693,"Ġì²´ê³Ħ":6694,"Ġauthent":6695,"ĠCl":6696,"Ġëĭ¤ìĿ´":6697,"Ġë°Ķëĭ¥":6698,"Ġì§ģìĽĲ":6699,"Ġ2000":6700,"ìķĦê°Ģ":6701,"Ġprimary":6702,"âī":6703,"ĠìŀĪì§Ģ":6704,"ĠìĿ¸ìłĳ":6705,"Ġêµ¬ìĦ±ëĲľëĭ¤":6706,"Ġopportunity":6707,"umin":6708,"ĠìĹ°ë£Į":6709,"Ġë°¸ë¸Į":6710,"Ġcriminal":6711,"ë§¹":6712,"Ġsubjects":6713,"Ġë°Ķíĥķìľ¼ë¡ľ":6714,"ulture":6715,"Ġë³ĢëıĻ":6716,"Ġdesigned":6717,"Ġtransmitted":6718,"Ġë¡¤":6719,"Ġíķľëĭ¤ê³ł":6720,"Ġì°¨ëĭ¨":6721,"Ġìļ°ë¦¬ê°Ģ":6722,"Ġconsidering":6723,"ĠPC":6724,"Ġrise":6725,"Ġêµ¬ë¹Ħíķľëĭ¤":6726,"Ġserious":6727,"ĠìĪĺíĸīíķł":6728,"ĠëĳĺëŁ¬":6729,"pril":6730,"mosp":6731,"Ġbring":6732,"Ġexhibition":6733,"Ġfing":6734,"ĠìĪĺëĬĶ":6735,"ĠíŀĪ":6736,"ĠAsian":6737,"ê²°ê³¼":6738,"Ġconsist":6739,"Ġsecure":6740,"Ġpromote":6741,"Ġproceed":6742,"Ġregional":6743,"Ġíľ´ëĮĢ":6744,"ux":6745,"avy":6746,"Ġìĥģíĥľë¥¼":6747,"Ġine":6748,"ĠíķŃìĥģ":6749,"ields":6750,"Ġnation":6751,"Ġê°ĢìĿ´ëĵľ":6752,"Ġsubstant":6753,"Ġlayers":6754,"ê²¼":6755,"ìĸ´ìķ¼":6756,"ë¬¼ì§Ī":6757,"ĠíĿĶ":6758,"Ġautonom":6759,"Ġíĺķíĥľë¡ľ":6760,"while":6761,"Of":6762,"ograph":6763,"íĨ¤":6764,"Ġtempor":6765,"Ġrul":6766,"Ġë°ľëªħìĹĲ":6767,"Ġì£½":6768,"35":6769,"isition":6770,"ìľ¤":6771,"ë¶ĦìĿĺ":6772,"Ġë¶Ģë¶ĦìĿĦ":6773,"Ġelectrical":6774,"Ġexperim":6775,"Ġexport":6776,"Ġcooling":6777,"ĠìĿ´ê²ĥ":6778,"Ġvariety":6779,"ĩĮ":6780,"Ġblack":6781,"Ġvacc":6782,"Ġcompensation":6783,"ĠãĢ":6784,"Ġappoint":6785,"ban":6786,"Ġê¸°ìĹ¬":6787,"ĠìŀĲìĦ¸":6788,"ĠìĭĿíĴĪ":6789,"Ġbusinesses":6790,"ĠSi":6791,"eneral":6792,"Ġê´Ģìĭ¬ìĿĦ":6793,"Ġwebsite":6794,"Ġcryst":6795,"Ġë¯¿":6796,"ëĵľë¦´":6797,"ì°®":6798,"ycle":6799,"ë°±ì§Ī":6800,"Ġschedule":6801,"Ġpad":6802,"ì§Ģë¡ľ":6803,"ĠêµĲíĨµ":6804,"Ġsecondary":6805,"Ġëĭ¬ìĦ±":6806,"ë¥´ê³ł":6807,"ê·¸ëłĩ":6808,"Ġëĭ¬ëŁ¬":6809,"Ġmounted":6810,"aser":6811,"ìĦľë¹ĦìĬ¤":6812,"íķ¨ìĹĲ":6813,"ëĵ±íķĻêµĲ":6814,"ĠìĿ´ëĵ¤":6815,"ĠìĤ¬ëŀĳ":6816,"ĠInstitute":6817,"sequ":6818,"Ġespecially":6819,"ì¹¼":6820,"ìŀ¥ê³¼":6821,"lectric":6822,"Ġtransportation":6823,"Ġì¤ĳëĭ¨":6824,"Ġìĸ¼ë§ĪëĤĺ":6825,"Ġproduce":6826,"Ġì§ĢìĭĿ":6827,"Ġìľłìļ©":6828,"Ġstandards":6829,"uary":6830,"Ġwindow":6831,"ê³Ħíļį":6832,"ĠìĥģëĮĢìłģìľ¼ë¡ľ":6833,"ĠíĻĶìĥģ":6834,"anger":6835,"ëŁ¬ìļ´":6836,"ĠApril":6837,"Ġìĭ¬ê°ģ":6838,"ë§İ":6839,"ë¹Ħìļ©":6840,"Ġë§Įëĵł":6841,"Ġcold":6842,"Ġconnecting":6843,"êµ¬ì¡°":6844,"Ġë°°ìĹ´":6845,"Ġê±°ë¦¬":6846,"Ġcoupled":6847,"ĠGroup":6848,"Ġsignals":6849,"Ġëį®":6850,"Ġìłľê³µíķ©ëĭĪëĭ¤":6851,"Ġoperate":6852,"ĠìĻĦë£Į":6853,"ĠíĶ¼ë¶Ģ":6854,"Ġëĭ¹ìĤ¬":6855,"ipped":6856,"ĠëĩĮ":6857,"ĠìĪĺìĨĮ":6858,"Ġì¹ľêµ¬":6859,"Ġatmosp":6860,"rehens":6861,"ays":6862,"Ġconfiguration":6863,"know":6864,"Ġtask":6865,"Ġband":6866,"ê´´":6867,"Ġinspection":6868,"ìłĦìĹĲ":6869,"Ġë§ĮëĤĺ":6870,"Ġacad":6871,"Ġdie":6872,"Ġíĥĳ":6873,"Ġìŀ¬ìłķ":6874,"ĠìľĦìĹĲ":6875,"ĠìķĦëĭĪëĭ¤":6876,"ê²½ê¸°":6877,"Ġevidence":6878,"omer":6879,"ìłģìĿĦ":6880,"Ġassess":6881,"Ġcy":6882,"Ġê°ĳ":6883,"Ġëª¨ëĭĪíĦ°":6884,"Ġ140":6885,"ĠìĤ¬ìļ©ìŀĲê°Ģ":6886,"Ġdecl":6887,"Ġgovernments":6888,"ĠìĨĲíķ´":6889,"ĠëıħìĿ¼":6890,"íĢ":6891,"oman":6892,"Ġë§¡":6893,"íļĮìĤ¬":6894,"Ġë¹ĦëĶĶìĺ¤":6895,"ê²łìĸ´ìļĶ":6896,"ĠëłĪë²¨":6897,"forcement":6898,"Ġelderly":6899,"II":6900,"Ġinsulating":6901,"Ġmm":6902,"asks":6903,"ĠìĨĮíĶĦíĬ¸":6904,"Ġì¤ĳìĹĲìĦľ":6905,"Ġëª¨ë°ĶìĿ¼":6906,"ëĵľê°Ģ":6907,"Ġadhesive":6908,"house":6909,"Ġreform":6910,"Ġì¢ħíķ©":6911,"Ġtransaction":6912,"ĠìķĪìĹĲ":6913,"ook":6914,"Ġgap":6915,"ĠSamsung":6916,"Ġmountain":6917,"Ġexercise":6918,"Ġsevere":6919,"Ġpointed":6920,"Ġê°Ģì§Ī":6921,"Ġë³´ìĺĢëĭ¤":6922,"ĠìĿĺë¯¸íķľëĭ¤":6923,"Ġcriter":6924,"Ġestimated":6925,"Ġsubsid":6926,"Ġ45":6927,"Ġresearcher":6928,"rew":6929,"Ġmodern":6930,"ĠìĤ¬ìļ©ëĲĺëĬĶ":6931,"ê²½ì°°":6932,"Ġingred":6933,"ĠSc":6934,"Ġê´Ģëł¨ìĿ´":6935,"Ġproportion":6936,"ĠìłľëıĦ":6937,"Ġtransp":6938,"Ġdisclosure":6939,"Ġoxide":6940,"ĠíļĮë³µ":6941,"ĠíĻľëıĻìĿĦ":6942,"Ġthin":6943,"ìĻķ":6944,"ĠìĬµ":6945,"cember":6946,"Ġuses":6947,"Ġë¹ĦíĮĲ":6948,"ĠìĻĶëĭ¤":6949,"Ġround":6950,"Ġessential":6951,"IS":6952,"Ġìłķë¶Ģê°Ģ":6953,"Ġtube":6954,"ah":6955,"itten":6956,"Ġmaximum":6957,"Ġê±°ìķ¼":6958,"Ġdefect":6959,"ober":6960,"ulum":6961,"Ġê´Ģëł¨íķĺìĹ¬":6962,"Ġimproving":6963,"Ġêµ¬ë¹Ħíķĺê³ł":6964,"ĠJuly":6965,"light":6966,"PS":6967,"ë¦¬ìĸ´":6968,"ê°ĢëĬ¥íķľ":6969,"ĠìĦ¤ë¦½":6970,"ĠíĮĲê²°":6971,"Ġstores":6972,"Ġpotential":6973,"Ġcrime":6974,"ë©ĺ":6975,"Ġcompl":6976,"Ġprincip":6977,"hether":6978,"ĠìĥģìĿ´":6979,"Ġê°ľë°©":6980,"ES":6981,"Ġmanner":6982,"type":6983,"Ġsan":6984,"ĠJune":6985,"ìŀĳìļ©":6986,"Ġuseful":6987,"Ġbag":6988,"ìĭľë©´":6989,"Ġìĸĺ":6990,"othes":6991,"íķŃìĹĲ":6992,"Ġìª½":6993,"ê³łë¥¼":6994,"taining":6995,"ixture":6996,"Ġban":6997,"Ġ36":6998,"ĠJan":6999,"íĪ¬ìŀĲ":7000,"Ġindustries":7001,"Ġcateg":7002,"íĬ¸ë¡¤":7003,"Ġì°¸ì¡°":7004,"Ġidentified":7005,"Ġëª¨ìĸĳ":7006,"ĠHong":7007,"Ġconsumers":7008,"Ġë§ĪìĬ¤íģ¬":7009,"ĠìĹ°êµ¬ìĹĲìĦľ":7010,"aves":7011,"ĺë¦¬":7012,"Ġsurgery":7013,"Ġstip":7014,"ĠìĪĺìłķ":7015,"ĠCent":7016,"Ġspring":7017,"ĠìĨĮìłķìĿĺ":7018,"ommod":7019,"ĠìĹĶì§Ħ":7020,"Ġcapacity":7021,"Ġequal":7022,"buk":7023,"pe":7024,"ìĿ´ê²ĥìĿĢ":7025,"aceut":7026,"ructure":7027,"ê¸°êµ¬":7028,"DP":7029,"wide":7030,"acent":7031,"Ġì¡°ìĦł":7032,"ĠëıĦì°©":7033,"rad":7034,"ëª»":7035,"Ġìľłíļ¨":7036,"Ġëª¨íĦ°":7037,"Ġë¯¸ìĦ¸":7038,"Ġlaws":7039,"Ġacquisition":7040,"Ġwood":7041,"ĠBe":7042,"Ġcontinued":7043,"Ġdecrease":7044,"ĠDecember":7045,"ëĤ¼":7046,"Ġëģ¼":7047,"Ġrotation":7048,"Meanwhile":7049,"Ġlines":7050,"Ġìłľìĸ´ë¶Ģ":7051,"ĠëıĦë¡ľ":7052,"Ġìļ´ìłĦ":7053,"28":7054,"Ġfoot":7055,"Ġcomposed":7056,"ĠFinancial":7057,"ĠëĶ°ëĿ¼ìĦľ":7058,"Ġcance":7059,"Ġì¹¼":7060,"pite":7061,"itis":7062,"Ġíķĺë©°":7063,"ìĽĢìĿĦ":7064,"ìłľìĹĲ":7065,"Ġpassed":7066,"km":7067,"Ġparties":7068,"Ġ2012":7069,"Ġì§Īë¬¸":7070,"Ġtreated":7071,"Ġê¸°ìĪłìĿĦ":7072,"ĠëĦĺìĸ´":7073,"Ġtit":7074,"ê³Ħê°Ģ":7075,"ë²ķìĿĺ":7076,"Ġliter":7077,"itation":7078,"igation":7079,"ëª¨ëĵł":7080,"ë§ĪìĿĦ":7081,"sang":7082,"Ġì¤ĳëŁī":7083,"Ġê°ĢëĬ¥íķ©ëĭĪëĭ¤":7084,"ĠëªħìĿĺ":7085,"ìĭľìĬ¤íħľ":7086,"ĠìĹĨìĸ´":7087,"Ġë²Ķì£Ħ":7088,"Ġìķŀìľ¼ë¡ľ":7089,"Ġswitch":7090,"Ġê¸°íĥĢ":7091,"Ġexecution":7092,"ìłľìĸ´":7093,"íĻĶìĹĲ":7094,"Ġëĭ¨ìĿ¼":7095,"Ġ2013":7096,"ĠOr":7097,"ĠíĺĦì§Ģ":7098,"Ġë°ĶìĿ´ëŁ¬ìĬ¤":7099,"ë¦¬ê·¸":7100,"Ġpreparing":7101,"Ġcutting":7102,"Ġslow":7103,"arter":7104,"ëĤĺë¬´":7105,"ë¶Ļ":7106,"oles":7107,"ëĿ¼ìļ°":7108,"Ġì¤ĳìĿ¸":7109,"Ġthereby":7110,"Ġì²¨ê°Ģ":7111,"ìĿ´ë¸Ķ":7112,"Ġìľµ":7113,"Ġheard":7114,"Ġë¶ĦìľĦ":7115,"ĠìĹ°êµ¬ê°Ģ":7116,"While":7117,"aving":7118,"ĠSK":7119,"ê¸ĪìĿ´":7120,"íķĺëĭ¤ëĬĶ":7121,"Ġê²°ê³¼ëĬĶ":7122,"Ġwarm":7123,"íĸĪëĭ¤ëĬĶ":7124,"ĠìĻķ":7125,"Through":7126,"Ġchemical":7127,"ģëĭĪëĭ¤":7128,"Ġrein":7129,"ìĿ¼ë³¸":7130,"Ġê´ĳíķĻ":7131,"Ġattempt":7132,"Ġplaced":7133,"Whether":7134,"Ġë°Ķê":7135,"ĠMoon":7136,"Ġê²Ģì¦Ŀ":7137,"AN":7138,"lish":7139,"Ġupd":7140,"Ġë¸Įëŀľëĵľ":7141,"Con":7142,"ĠíĻĢ":7143,"Ġê²½ìłľìłģ":7144,"ë¶ģíķľ":7145,"ãĢį":7146,"ìĿ´ë¯¸":7147,"ĠìĪĺì§ģ":7148,"ë¦¬ìĻĢ":7149,"Ġaccommod":7150,"Ġë§ĪìĿ´íģ¬":7151,"ĠìłķëıĦë¡ľ":7152,"pat":7153,"Ġsor":7154,"Ġbir":7155,"Ġê³¼ê±°":7156,"Ġì´īë§¤":7157,"ìĦľìĹĲ":7158,"Ġring":7159,"Ġerror":7160,"kay":7161,"Ġìļ¸":7162,"ĠìĨĶ":7163,"Ġìľłìŀħ":7164,"Ġìĺ¤ìĹ¼":7165,"OK":7166,"Ġìłģì¸µ":7167,"ê°ĢìĿĺ":7168,"ĠìĿ´ìĨ¡":7169,"ĠKB":7170,"ĠìľĦë°ĺ":7171,"íĸĪì§Ģë§Į":7172,"Ġsecret":7173,"Ġsatisf":7174,"ë°ĶìĿ´ëŁ¬ìĬ¤":7175,"º¼":7176,"Ġfirm":7177,"ĠìľĦì¹ĺìĹĲ":7178,"Also":7179,"unding":7180,"Ġìĺ¬ëĿ¼":7181,"íĺľ":7182,"Ġcolle":7183,"Ġíļ":7184,"Ġoptim":7185,"ìłķë¶Ģ":7186,"Ġíķ´ìļĶ":7187,"ĠHospital":7188,"Ġëª»íķľ":7189,"ply":7190,"íķĺìĭ¤":7191,"ĠëĨĢ":7192,"ê±´ìĿĦ":7193,"riculum":7194,"ĠìĪ¨":7195,"Ġsensing":7196,"Ġpair":7197,"ìĿ¸ê³¼":7198,"Ġìĺ¤ìłĦ":7199,"ĠìĥģíĻ©ìĹĲìĦľ":7200,"Ġinfect":7201,"ĠPre":7202,"ĠìĨĮìĨ¡":7203,"Ġ[":7204,"oding":7205,"ĠíķľêµŃìĿĺ":7206,"Ġsolve":7207,"Ġconcerns":7208,"ĠPar":7209,"Ġdiss":7210,"Ġopinion":7211,"ĠDep":7212,"Ġvictim":7213,"mony":7214,"ĠëĤĻ":7215,"Ġì¤ĳìĨĮ":7216,"ì¤Ģëĭ¤":7217,"Ġì¶ľìĭľ":7218,"lev":7219,"Ġthing":7220,"ľì°®":7221,"Ġ2020":7222,"ĠShin":7223,"ëıĦìĭľ":7224,"Ġì£¼ëĬĶ":7225,"ĠìķŀìĦľ":7226,"íĸīìľĦ":7227,"ĠìķĦë¬´":7228,"ìĦ¸ìĬ¤":7229,"Ġíĳľë©´ìĹĲ":7230,"Ġweeks":7231,"Ġgames":7232,"ĠëĤ´ëł¤":7233,"Ġbelieve":7234,"Ġdriver":7235,"ëħĦê°Ħ":7236,"ĠYong":7237,"ĠíķŃëª©":7238,"iding":7239,"ë§Įíģ¼":7240,"Ġë°ĺìĤ¬":7241,"aker":7242,"Ġnovel":7243,"ĠSept":7244,"Ġvolun":7245,"ëĭĪìĬ¤":7246,"Ġinhib":7247,"ĠJin":7248,"Ġfair":7249,"Ġë¯¸ë§Į":7250,"ĠëģĮ":7251,"quarters":7252,"Ġë§¥":7253,"ifier":7254,"Ġë°©ìķĪ":7255,"ìĦŃ":7256,"Ġword":7257,"Ġinterm":7258,"ĠìľĦì¹ĺë¥¼":7259,"Ġreli":7260,"ĠìĹ°êµ¬ìĿĺ":7261,"Ġdecreased":7262,"Ġdollars":7263,"Ġfo":7264,"Ġthinking":7265,"Ġë¶Ħíı¬":7266,"Ġê¸Īì§Ģ":7267,"han":7268,"rence":7269,"Ġchanging":7270,"ë²ķìĹĲ":7271,"Ġassets":7272,"Ġhotel":7273,"íķĺëł¤ê³ł":7274,"ìĿ¼ë¡ľ":7275,"Ġclasses":7276,"Ġvirus":7277,"ĠJong":7278,"ë§İìĿĢ":7279,"ëŁŃ":7280,"Ġìĭ¤íĺĦ":7281,"ĠíĻĶë©´":7282,"Ġì§ĢìĹŃìĿĺ":7283,"fully":7284,"tle":7285,"ĠìĿ´ëģ":7286,"ĠAir":7287,"ìĺ¤ëĬĶ":7288,"Ġdiscount":7289,"haust":7290,"zz":7291,"ì§Ģë°©":7292,"ĠìłĦë¥ĺ":7293,"Ġíķĺë¶Ģ":7294,"Ġmatters":7295,"Ġìº¡":7296,"Ġwidth":7297,"Ġoffer":7298,"Ġacross":7299,"Ġê¸°ë°ĺìľ¼ë¡ľ":7300,"overy":7301,"ĠêµĲíĻĺ":7302,"Ġbad":7303,"ëĵľìĹĲ":7304,"ĠëĲĲëĭ¤":7305,"ded":7306,"Ġpump":7307,"Ġconstant":7308,"Ġsale":7309,"Ġgrowing":7310,"Ġter":7311,"Ġsoftware":7312,"Ġminimum":7313,"set":7314,"Ġaware":7315,"Ġsqu":7316,"ë³ĳìĽĲ":7317,"Ġbed":7318,"osal":7319,"ìĭĿìĿ´":7320,"Ġë§Īì§Ģë§ī":7321,"ancing":7322,"ĠìĿ´ë¯¸ì§Ģë¥¼":7323,"cont":7324,"Ġìµľì´Ī":7325,"Ġ2008":7326,"rec":7327,"ìľ¨ìĿĦ":7328,"Ġoccup":7329,"holders":7330,"Ġsou":7331,"ĠìĿ¸ëıĦ":7332,"Ġì»¬":7333,"Ġë¶ĦìĦĿìĿĦ":7334,"Ġcollected":7335,"Ġìī¬":7336,"Ġnurs":7337,"ìĿ¸íĬ¸":7338,"ĠëĬ¥ëł¥":7339,"ë¬¼ìĿĢ":7340,"Ġfavor":7341,"Ġresol":7342,"ĠIncheon":7343,"Ġìĸ¸ë¡ł":7344,"Ġindependent":7345,"sych":7346,"Ġfields":7347,"íķĻìĬµ":7348,"Ġëĭ¨ë°±ì§Ī":7349,"ê°ĲìĿ´":7350,"Ġmeasuring":7351,"Ġdefin":7352,"used":7353,"Ġ42":7354,"Ġpreparation":7355,"ë¹ł":7356,"Ġadjacent":7357,"Accordingly":7358,"Ġì£¼ìĦ¸ìļĶ":7359,"illed":7360,"Ġplaces":7361,"ĠíĺķìĦ±ëĲł":7362,"Ġmotion":7363,"Ġrecommended":7364,"ĠìłģìłĪíķľ":7365,"ĠJanuary":7366,"ìºĲ":7367,"She":7368,"ëĮĢìĥģ":7369,"Ġë°Ľìķĺëĭ¤":7370,"ĠOct":7371,"ĠëłĮì¦Ī":7372,"ëĵ¤ë¡ľ":7373,"Ġusually":7374,"Ġê±°ì³Ĳ":7375,"ĠíķĻë¶Ģëª¨":7376,"ĠíĿ¥":7377,"Ġcurriculum":7378,"ĠíĽĪëł¨":7379,"ĠEnglish":7380,"Ġdust":7381,"ĠìĿ´ìľłë¡ľ":7382,"įìĬ¤íĬ¸":7383,"Ġsides":7384,"RS":7385,"Ġexhaust":7386,"actions":7387,"ìħĺìĿĦ":7388,"ì§ĢëıĦ":7389,"ì¡°ìĤ¬":7390,"ĠLG":7391,"Ġìľłë°ľ":7392,"Ġë¬¸ìĿĺ":7393,"Ġinstruct":7394,"Ġbelong":7395,"ĠJeju":7396,"cm":7397,"erve":7398,"Ġexcess":7399,"Ġë¹Ķ":7400,"Ġgetting":7401,"uting":7402,"Ġë°ĶìĻĢ":7403,"Ġways":7404,"ĠíħĮìĬ¤íĬ¸":7405,"ĠìĹŃìĤ¬":7406,"Ġoccurs":7407,"Ġë´Ĳ":7408,"Ġinterpret":7409,"Ġimpl":7410,"Ġpoor":7411,"Ġëĵľë¦¬":7412,"Ġeth":7413,"ëĭ¨ì²´":7414,"Ġgraph":7415,"Ġë³ĳìĽĲ":7416,"Ġë³´ìĹ¬ì£¼":7417,"Ġscope":7418,"ĠëªħíĻķ":7419,"Ġdivision":7420,"ĠSeptember":7421,"Ġloan":7422,"ëª°":7423,"Ġë¯¼ê°Ħ":7424,"ĠDaegu":7425,"ê¶ĮìĿ´":7426,"Ġattend":7427,"Ġê¾¸":7428,"Ġlives":7429,"ì¶ĺ":7430,"ĠRep":7431,"Ġë³µìĪĺ":7432,"ĠYang":7433,"ither":7434,"Ġsufficient":7435,"Ġplastic":7436,"Ġê°ĴìĿĦ":7437,"Ġtrillion":7438,"ĠElect":7439,"Ġìłķë³´ìĹĲ":7440,"Ġillegal":7441,"Ġë²Ĺ":7442,"ĠìĿ´íĸī":7443,"ëĭ¨ìĿ´":7444,"Ġow":7445,"Ġlaser":7446,"Ġprevention":7447,"Ġclub":7448,"Ġíĸ¥íĽĦ":7449,"Ġcontinuous":7450,"olic":7451,"Ġstory":7452,"Ġoffic":7453,"Ġlonger":7454,"Ġconvey":7455,"ĠCEO":7456,"íı¬ì¸ł":7457,"Ġë¶Ģê³¼":7458,"ê´ĢìĿĺ":7459,"Ġprescribed":7460,"Ġë³Ģíĺķ":7461,"Ġpoll":7462,"ìĿ´ë¡ľ":7463,"Ġded":7464,"ê·¸ë£¹":7465,"Ġëª¨íĺķ":7466,"incial":7467,"imensional":7468,"ran":7469,"idents":7470,"ì°¨ë¥¼":7471,"Ġelection":7472,"ĠíĺĦëĮĢ":7473,"Ġì½ľ":7474,"Ġrestrict":7475,"bit":7476,"sized":7477,"yu":7478,"earch":7479,"Ġì¶Ķê°Ģë¡ľ":7480,"Ġwriting":7481,"Ġë¥":7482,"Ġmentioned":7483,"ìĪĺìĹĲ":7484,"Ġnode":7485,"êµ¬ëĬĶ":7486,"Ġê·¸ëħĢ":7487,"Ġfriends":7488,"ĠIsland":7489,"Ġpicture":7490,"Ġìłķëĭ¹":7491,"Ġleave":7492,"íĺ¸íĻĶ":7493,"ĠìĺģêµŃ":7494,"ĠìĤ¬ìļ©ëĲł":7495,"Ġlost":7496,"Ġdifferences":7497,"cohol":7498,"bu":7499,"Ġdy":7500,"ìĿ¼ë°ĺ":7501,"ĠìŀĲì²´":7502,"Ġthank":7503,"Ġarrange":7504,"ìĹ¬ê¸°ìĦľ":7505,"íĸĪìĸ´ìļĶ":7506,"Ġflexible":7507,"ë§ŀ":7508,"Ġë¯¼ì£¼":7509,"off":7510,"ĠìłĦìĽĲ":7511,"Ġcomprehens":7512,"ĠìĨĮìŀĲ":7513,"Ġvertical":7514,"Ġë§Ŀ":7515,"ì§ĢìĬ¤íĦ°":7516,"Ġge":7517,"Ġíĥľìĸĳ":7518,"Ġmoment":7519,"IC":7520,"Ġbond":7521,"íĬ¹ë³Ħ":7522,"Ġpit":7523,"Ġê²½íĸ¥":7524,"ylene":7525,"Ġìłķë¶ĢìĿĺ":7526,"ello":7527,"ĠAsia":7528,"Ġfriend":7529,"íĦ°ë¥¼":7530,"Ġresponsibility":7531,"Ġì§Ģë¶Ī":7532,"Ġdoesn":7533,"phone":7534,"ystem":7535,"ë¶ĦìĿ´":7536,"Ġmoved":7537,"Ġê²ĮìĿ´íĬ¸":7538,"45":7539,"Ġsam":7540,"ìļ´ëıĻ":7541,"ĠíĻĺìŀĲê°Ģ":7542,"Ġremaining":7543,"Ġfemale":7544,"Ġrelease":7545,"ologies":7546,"raz":7547,"Ġfestival":7548,"Ġrub":7549,"Ġmonitoring":7550,"ìŀĲì¹ĺ":7551,"Ġê·¸ëĮĢë¡ľ":7552,"Ġagricultural":7553,"Ġê·¸ëŁ¬":7554,"jeong":7555,"Ġwhite":7556,"Ġê¹¨":7557,"±íģ¬":7558,"ĠìĭľëıĦ":7559,"Ġchairman":7560,"Ġdouble":7561,"ê²łëĭ¤ëĬĶ":7562,"ĠíķĺëĿ½":7563,"ĠíĻķìłķ":7564,"Ġ2011":7565,"ĠëĤ¨ìķĦ":7566,"Ġproposed":7567,"ìĨĮìĿĺ":7568,"Ġtend":7569,"ĠìķĦíĮĮ":7570,"\".":7571,"vis":7572,"Ġinterview":7573,"Ġdiameter":7574,"Ġsports":7575,"Ġdrink":7576,"Ġê°Ģì§Ģë©°":7577,"oph":7578,"ĠìĤ¬ìĭ¤ìĿĦ":7579,"Ġì±Ķë²Ħ":7580,"Ġrail":7581,"ĠìľłëıĻ":7582,"Ġê³µìĭĿ":7583,"Ġdocuments":7584,"Ġìĩ¼":7585,"Ġsched":7586,"Ġloans":7587,"ì»¬":7588,"Ġì¹ĺë£Įë¥¼":7589,"Ġmap":7590,"ĠìĹ¬ê¸°ìĦľ":7591,"Ġaccum":7592,"ìĹĪëįĺ":7593,"oming":7594,"Ġìĸ´ë¦°ìĿ´":7595,"Ġë¡ľë´ĩ":7596,"ĠìľłìĹĶ":7597,"Ġì´Īê³¼":7598,"ì§Ĳ":7599,"ìĦ¸ê°Ģ":7600,"Ġcatalyst":7601,"Ġatmosphere":7602,"ians":7603,"Ġê±°ì£¼":7604,"ĠêµĲìĪĺ":7605,"ëĥĪëĭ¤":7606,"ê³ĦìĿĺ":7607,"íķĺê¸°ëıĦ":7608,"ĠíļĮìĽĲ":7609,"estern":7610,"Ġëĵ±ìŀ¥":7611,"Ġtraffic":7612,"Ġê¿":7613,"íĻĶìĿĺ":7614,"ëĲĺìĹĪìĬµëĭĪëĭ¤":7615,"ĠíĮĮëĿ¼ë¯¸íĦ°":7616,"ìŀĲë¦¬":7617,"Ġì´īì§Ħ":7618,"ĠëĮĢì²´":7619,"ĠíĶ½":7620,"Ġìµľìłģ":7621,"inally":7622,"Ġmanufacture":7623,"Ġeye":7624,"Ġnan":7625,"ìĬ¤ìĹĲ":7626,"ĠìĨĮìĨį":7627,"íĭ´":7628,"Ġey":7629,"Ġnut":7630,"ĠìĿ¸ì§Ģ":7631,"ĠTable":7632,"Ġformation":7633,"wa":7634,"Ġsurv":7635,"Ġdram":7636,"Ġenterpris":7637,"Ġintelligence":7638,"ĠOctober":7639,"Ġcharacterized":7640,"Ġë°°ì¹ĺëĲľ":7641,"Ġlearn":7642,"lim":7643,"Ġstable":7644,"ĠìĥģíĥľìĹĲìĦľ":7645,"ëĵľë¦¬ê²łìĬµëĭĪëĭ¤":7646,"ault":7647,"Ġì§ĢìĹ°":7648,"ìĨĮê°Ģ":7649,"ĠìĺģìĹŃìĿĦ":7650,"ĠThis":7651,"ĠíĺĲ":7652,"Ġë¯¸ëĶĶìĸ´":7653,"ë´Ĳ":7654,"Rec":7655,"Ġ&":7656,"ĠëıĦì¶ľ":7657,"Ġìĭłê³ł":7658,"Ġdistributed":7659,"ê³¼ëĬĶ":7660,"Ġìŀ¥ë¹Ħ":7661,"Ġë§Ĳíķľëĭ¤":7662,"ĠSang":7663,"Ġopinions":7664,"ocratic":7665,"íĺ¸ë¥¼":7666,"acks":7667,"Ġthermal":7668,"ê³¤":7669,"ìĭľê°Ģ":7670,"ĠCheong":7671,"ĠìĻĢìĿ´":7672,"Ġrapidly":7673,"ĠëłĪìĿ´ìłĢ":7674,"ĠìľłíĨµ":7675,"Ġwritten":7676,"person":7677,"Ġê³§":7678,"Ġvent":7679,"íĴĪìĿĢ":7680,"Ġì¦Ŀê±°":7681,"velopment":7682,"ĠCont":7683,"ĠPh":7684,"Ġpreventing":7685,"faces":7686,"ĬìĿĢ":7687,"ĠìĹ°ê³Ħ":7688,"íķĻëħĦ":7689,"ìĶ¨ê°Ģ":7690,"ìī¬":7691,"ì¡°ìĿĺ":7692,"Ġìĺ¤ëŀĺ":7693,"ì¸µìĿĺ":7694,"Ġ2009":7695,"ĠìĨĮíĶĦíĬ¸ìĽ¨ìĸ´":7696,"ìĬ·":7697,"ìĤ¬ìĭ¤":7698,"Ġheight":7699,"Ġreasons":7700,"ìŀĪëĭ¤":7701,"íķ´ì£¼":7702,"Ġordered":7703,"Ġ41":7704,"Ġcompletely":7705,"Ġfish":7706,"ession":7707,"Ġê·¸ëłĩ":7708,"ĠíĶĦë¡ľê·¸ëŀ¨ìĿĦ":7709,"Ġmixture":7710,"ĠID":7711,"íļĮëĬĶ":7712,"ê±°ë¦¬":7713,"Ġanything":7714,"rest":7715,"Ġtried":7716,"Ġë¶Ħíķł":7717,"Ġfamous":7718,"iful":7719,"Ġsynt":7720,"Ġreplace":7721,"27":7722,"Ġdev":7723,"ĠìľłìłĦ":7724,"Ġê³µê²©":7725,"Ġvib":7726,"ìĪĺë¡ľ":7727,"Ġë¹¨ë¦¬":7728,"Based":7729,"Ġê°Ħëĭ¨":7730,"Ġëįķ":7731,"Ġworth":7732,"Ġrefers":7733,"Ġconsumer":7734,"ë·°":7735,"ìłĲìĹĲ":7736,"Ġbeginning":7737,"Ġsorry":7738,"inding":7739,"Each":7740,"Ġbound":7741,"Ġë³´ëĬĶ":7742,"Ġalmost":7743,"Ġsupported":7744,"íļĮìĹĲ":7745,"Ġê±±":7746,"Ġphenomen":7747,"Ġpromotion":7748,"Ġì¶©ë¶ĦíŀĪ":7749,"Ġpsych":7750,"Ġplayed":7751,"fere":7752,"ë³µì§Ģ":7753,"iction":7754,"ĠKing":7755,"Ġobserved":7756,"Ġsummer":7757,"Ġë¶Ģëª¨":7758,"ĠìķĦìĭľìķĦ":7759,"ĠíĮĮìĿ¼":7760,"Ġfinding":7761,"mp":7762,"ĠìŀĲìĽĲ":7763,"ê¸°ì¤Ģ":7764,"ĠìĦłíĺ¸":7765,"Ġpharmaceut":7766,"Ġcauses":7767,"Korean":7768,"overed":7769,"Ġsalt":7770,"ĠëıĻìŀĳìĿĦ":7771,"Ġphoto":7772,"Ġ210":7773,"íĬ¸ë¡ľ":7774,"Ġê°ķëł¥":7775,"ë£¨ë¯¸":7776,"Ġreceives":7777,"new":7778,"Ġsun":7779,"ìĸ´ê°Ģ":7780,"Ġtrue":7781,"ëĭ¨ìĿĺ":7782,"Ġfinger":7783,"33":7784,"Kim":7785,"oseon":7786,"Ġ180":7787,"42":7788,"more":7789,"Ġê³µíĨµ":7790,"Ġplayer":7791,"Ġëª¨ìĬµìĿĦ":7792,"Ġmixed":7793,"load":7794,"Ġê²¨":7795,"ìĻľ":7796,"Ġdiag":7797,"Ġê±¸ì³Ĳ":7798,"Ġpredicted":7799,"ĠíĪ¬ìŀħ":7800,"Ġplane":7801,"Ġbanks":7802,"iated":7803,"amed":7804,"Ġfollowed":7805,"ĠìĤ¬ìĹħìĿĦ":7806,"150":7807,"ĠëıĮì¶ľ":7808,"ĠGermany":7809,"Ġëķ":7810,"Ġextending":7811,"AS":7812,"idity":7813,"Ġë³´ê´Ģ":7814,"Ġfailure":7815,"Ġceremony":7816,"140":7817,"CH":7818,"Ġbill":7819,"Ġêµ´":7820,"Ġimplementation":7821,"ography":7822,"Ġsurro":7823,"ĠìĿ¼ë°ĺìłģìľ¼ë¡ľ":7824,"Hello":7825,"band":7826,"Ġìĭłì¢ħ":7827,"ëĤ´ìĹĲ":7828,"Ġsaw":7829,"Ġtold":7830,"Ġnar":7831,"ëªħìľ¼ë¡ľ":7832,"eces":7833,"Ġíķľë²Ī":7834,"Ġparticipated":7835,"Ġì¤":7836,"Ġcompress":7837,"ëĭ¨ìĹĲ":7838,"Ġinser":7839,"Ġcharacteristic":7840,"Ġquarant":7841,"íĸĪìľ¼ë©°":7842,"Ġparticipants":7843,"ĠJeong":7844,"tr":7845,"Ġë³´ìĿ´ëĬĶ":7846,"Ġì¡°ìĦ¸":7847,"ĠìķĦëıĻ":7848,"Ġqual":7849,"ĠRussia":7850,"ĠìłľëĮĢë¡ľ":7851,"ĠëĤĺë¨¸":7852,"ĮíĶĦ":7853,"Ġswe":7854,"enior":7855,"ĠêµĲê³¼":7856,"ëĿ¼ìĬ¤íĭ±":7857,"Ġtim":7858,"Ġdisapp":7859,"ì°¨ìĽĲ":7860,"Ġgenerally":7861,"hood":7862,"Ġstability":7863,"Ġconsideration":7864,"ë²łìĿ´ìĬ¤":7865,"ìĹħì²´":7866,"duces":7867,"ĠìĿ¼ì¹ĺ":7868,"ĠNam":7869,"Ġë¯¸ìĪł":7870,"Ġhands":7871,"'.":7872,"ĠíĻķìĭ¤":7873,"Ġì§ĳíĸī":7874,"Ġë©´ìĹŃ":7875,"Ġskills":7876,"ìĹħìĿĦ":7877,"Ġwanted":7878,"Ġë§ĮìĹĲ":7879,"shaped":7880,"Ġten":7881,"ĠìķĬëıĦë¡Ŀ":7882,"ë²ķìĿ´":7883,"Ġaudio":7884,"ëĭ¨ìĿĦ":7885,"upreme":7886,"Ġattrib":7887,"Ġinnovation":7888,"ìĿ´ëĦĪ":7889,"ruit":7890,"36":7891,"ĠíĨµíķ´ìĦľ":7892,"ë¥łìĿĦ":7893,"Ġhappy":7894,"íİĺìĿ´":7895,"ĠìĻĦìłĦíŀĪ":7896,"Ġdiscussion":7897,"Ġê¼Ń":7898,"ëŁīìĿĢ":7899,"ugust":7900,"Ġinterpre":7901,"ley":7902,"Ġresolution":7903,"ìĶ¬":7904,"ë°ĽìĿĢ":7905,"ietnam":7906,"allel":7907,"Ġstates":7908,"resh":7909,"ĠìĺģìĹŃìĹĲ":7910,"Ġexpanded":7911,"Sh":7912,"met":7913,"ëıĦìĿ´ëĭ¤":7914,"ĠíĨµìłľ":7915,"Ġíķ´ìĦľ":7916,"Ġprovision":7917,"ĠìĦłíĥĿëĲľ":7918,"Ġforest":7919,"Ġexamination":7920,"Ġsmooth":7921,"Ġmask":7922,"Ġdetailed":7923,"Ġbul":7924,"Ġëĭ¨ì²´":7925,"ĠìĬ¤ìĬ¤ë¡ľ":7926,"íĤ·":7927,"Ġê±´ì¶ķ":7928,"Ġinstead":7929,"Ġcareer":7930,"ìĬ¤ëŁ½":7931,"Ġê²ĥìĿ´ëĿ¼ëĬĶ":7932,"ĠIT":7933,"ĠChairman":7934,"Ġcontrolled":7935,"Ġë¶Ģë¬¸":7936,"Ġì¡°ì¹ĺ":7937,"Ġcontrovers":7938,"ìĬ¤ì½Ķ":7939,"Ġpercept":7940,"Ġë§¤ì¶ľ":7941,"Ġpractical":7942,"íķĺëł¤ëĬĶ":7943,"Ġrequirements":7944,"ê°ĢìĬ¤":7945,"ìĦľìĿĺ":7946,"Ġì§ĦëıĻ":7947,"Ġscience":7948,"Ġdiab":7949,"Be":7950,"Ġìłģíķ©íķľ":7951,"Ġë¿Ĳë§Į":7952,"Ġpi":7953,"Ġscale":7954,"AR":7955,"ĠJang":7956,"Ġflat":7957,"Ġì±Ħê¶Į":7958,"ĠìĿ´ë£¨ìĸ´ì§Ħ":7959,"Ġopposite":7960,"ì¹ĺê³ł":7961,"Ġearlier":7962,"ë¹Ļ":7963,"ilies":7964,"Ġclassified":7965,"Ġauthority":7966,"ĠSong":7967,"Ġêµ¬ìŀħ":7968,"Ġê·¸ëłĩê²Į":7969,"ĠPe":7970,"Ġvehicles":7971,"ìŀĲê¸°":7972,"Ġìłľìķ½":7973,"ìĿ¼ë¶Ģ":7974,"Ġë¶ĪìķĪ":7975,"ĠSp":7976,"Ġfee":7977,"ĠëĤĺíĥĢëĤľ":7978,"Ġabsorb":7979,"ming":7980,"rant":7981,"ĠìĹĨìĿĦ":7982,"Ġë¶Īë²ķ":7983,"riend":7984,"ë¬¼ë¡ł":7985,"Ġoption":7986,"Ġëļ":7987,"íĻĶíķĺëĬĶ":7988,"Ġchip":7989,"Ġbranch":7990,"Ġê°ķì¡°íĸĪëĭ¤":7991,"Ġperipheral":7992,"During":7993,"Ġadop":7994,"ĠìĹ°êµ¬ë¥¼":7995,"ĠSupreme":7996,"Ġìļ°ë¦¬ìĿĺ":7997,"Ġintermedi":7998,"nal":7999,"íĬ¸ëĤ¨":8000,"quality":8001,"Ġrecording":8002,"ĠìĿ¼ìĿĦ":8003,"âĢĺ":8004,"Ġcorrel":8005,"ëĭĺê»ĺ":8006,"ìĦłìĿ´":8007,"ogen":8008,"Ġë°°ê²½":8009,"Ġìłķë³´ëĬĶ":8010,"Ġantib":8011,"ê³łê°Ŀ":8012,"Ġincident":8013,"Ġdiagnosis":8014,"íĻĢ":8015,"rastructure":8016,"Ġlam":8017,"ĠëĮĢê¸°":8018,"Ġconstruct":8019,"ìĹĲìļĶ":8020,"ĠìĤ¬íĥľ":8021,"ë¬¼ë¡ľ":8022,"ĠíĺĦìŀ¥":8023,"ì¸¡ìĹĲ":8024,"Ġìĭ¶ìĿĢ":8025,"ĠìŀĲë£Įë¥¼":8026,"asty":8027,"ĠìĽĲìĿ¸":8028,"rency":8029,"Ġcompositions":8030,"ìĿ´ì§Ģë§Į":8031,"íļĮìĹĲìĦľ":8032,"Ġíĸīë³µ":8033,"Ġë°©ì¶ľ":8034,"ê´Ħ":8035,"400":8036,"Ġhall":8037,"Ġalcohol":8038,"Ġë¹ĦìĬ·":8039,"Ġêµ¬ìĦ±ëĲĺëĬĶ":8040,"ĠìĪĺë°ĸìĹĲ":8041,"Ġwhose":8042,"ë²ķìĿĢ":8043,"ĠíĪ¬ìĹ¬":8044,"Ġthus":8045,"ìłĦë¬¸":8046,"Ġheavy":8047,"ĠìŀĲëħĢ":8048,"Ġhandle":8049,"Ġindividuals":8050,"Ġradio":8051,"ê³łê°Ģ":8052,"ulates":8053,"Ġissued":8054,"Ġevaluated":8055,"Ġbalance":8056,"Ġì¿ł":8057,"ĠìŀĲì£¼":8058,"Ġìĸ´ëĸł":8059,"Ġcleaning":8060,"Ġì²ŃìĨĮëħĦ":8061,"íķĺëįĺ":8062,"ĠëķĮëĬĶ":8063,"AM":8064,"iqu":8065,"íķĺëĤĺ":8066,"Ġìķ±":8067,"Ġì§Ħì¶ľ":8068,"ovember":8069,"Ġì»¨íĬ¸ë¡¤":8070,"Ġsleep":8071,"Ġë³´ëıĦíĸĪëĭ¤":8072,"Ġìłķë¦¬":8073,"ìĹĪê³ł":8074,"ishment":8075,"Ġëĭ¹ìĭłìĿĺ":8076,"Ġx":8077,"ought":8078,"ìĸµìĽĲ":8079,"Ġnegoti":8080,"íķ´ëıĦ":8081,"ëĵľìĭľ":8082,"Ġsurrounding":8083,"ì§ĢìĻĢ":8084,"Ġ65":8085,"Ġcarrier":8086,"Cons":8087,"ĠìĦłê±°":8088,"ìļ´ëĵľ":8089,"Ġ197":8090,"ĠìĥģíĻ©ìĿĦ":8091,"Ġi":8092,"ê³¼íķĻ":8093,"ë³´ëĬĶ":8094,"ë§ĮìĿ´":8095,"Ġê°ĻìķĦ":8096,"Ġë§ĮëĵľëĬĶ":8097,"Ġproperly":8098,"Ġanalyze":8099,"ë¦¬ì½ĺ":8100,"ìĸ´ë¡ľ":8101,"Ġconversion":8102,"êµŃê°Ģ":8103,"Ġì¤Ħìĸ´":8104,"Ġparallel":8105,"Ġemphasized":8106,"Most":8107,"ĠAugust":8108,"Ġperformances":8109,"Ġimportance":8110,"ĠìĿ´ë£¨ìĸ´ì§ĢëĬĶ":8111,"unction":8112,"ì¤ĳìĹĲ":8113,"Ġcandidate":8114,"DC":8115,"iform":8116,"Ġmanage":8117,"ìª½ìľ¼ë¡ľ":8118,"Ġfully":8119,"Ġweather":8120,"Ġhealthy":8121,"Ġìĸ¼êµ´":8122,"Ġë°ľëĭ¬":8123,"Ġremov":8124,"êµ¬ìĹĲ":8125,"Ġsupplied":8126,"Ġìĸ»ìĿĦ":8127,"urrently":8128,"Ġowner":8129,"ensive":8130,"Ġì§Ħì§ľ":8131,"Ġìłķë³´ê°Ģ":8132,"ĠíĪ¬ëªħ":8133,"Ġcities":8134,"ìĿ´íĽĦ":8135,"ë³´ê±´":8136,"ìħĪ":8137,"ĠíķĦìĪĺ":8138,"Ġpassage":8139,"Ġcombined":8140,"Ġensure":8141,"Ġexact":8142,"ë¶Īìĸ´":8143,"Ġê·ĢíķĺìĿĺ":8144,"Ġreading":8145,"ocking":8146,"ê°ľë¥¼":8147,"ĠJoseon":8148,"ĠEast":8149,"210":8150,"ì¿":8151,"Ġmal":8152,"ìłķìĹĲ":8153,"Ġìĭłìļ©":8154,"Ġìŀ¬íĮĲ":8155,"Ġeverything":8156,"Ġë¹łë¥´ê²Į":8157,"Ġidea":8158,"ulf":8159,"izon":8160,"Ġë²¤":8161,"Ġê²°ìłľ":8162,"Ġrefrig":8163,"Ġstocks":8164,"Ġconcentr":8165,"reet":8166,"ì§Ģë©´ìĦľ":8167,"Ġinvestors":8168,"ĠìĻ¸êµŃìĿ¸":8169,"ëŁ´":8170,"Ġuniversity":8171,"ĠëĤĺëħ¸":8172,"Ġbeautiful":8173,"Ġê°Ģì§Ħëĭ¤":8174,"Ġdism":8175,"ĠíĿ¬ë§Ŀ":8176,"Ġíķ¸":8177,"ë³´íĺ¸":8178,"Ġperfect":8179,"roph":8180,"Ġleader":8181,"fl":8182,"íķĺìĺĢê³ł":8183,"Ġcompounds":8184,"Ġmolec":8185,"Ġì¸¡ë©´ìĹĲìĦľ":8186,"Ġappearance":8187,"onstr":8188,"Ġê²°ê³¼ê°Ģ":8189,"Ġended":8190,"Ġê²½íĻĶ":8191,"Ġforms":8192,"ĠSeong":8193,"strial":8194,"Ġelastic":8195,"asc":8196,"Ġì§Ģíĳľ":8197,"seong":8198,"ĠNovember":8199,"Ġì§ĢìĨįìłģìľ¼ë¡ľ":8200,"ĠChoi":8201,"Ġadvertise":8202,"ĠëĤĺëĪĦ":8203,"Ġë°©ë²ķìľ¼ë¡ľ":8204,"ĠìĹ°ê²°ëĲľ":8205,"Ġapplications":8206,"Ġidentification":8207,"Ġzone":8208,"íķľíħĮ":8209,"ĠìĿ´ìľłëĬĶ":8210,"Ġanswer":8211,"Ġsuppress":8212,"Ġperspective":8213,"Ġprotr":8214,"Ġelementary":8215,"Ġhistor":8216,"Ġì°©ìļ©":8217,"ìłķíķľ":8218,"ĠëĮĢíĺķ":8219,"ì¡°ìĹĲ":8220,"ĠìķĦì£¼":8221,"ë¬¼ê´Ģ":8222,"Ġê³¼ìĦ¸":8223,"Ġë¹Į":8224,"Ġë°ľìĥĿíķł":8225,"Ġschedul":8226,"AT":8227,"Ġlin":8228,"ìĨĶ":8229,"ìľĦê°Ģ":8230,"ĠëĲĺë©´":8231,"ĠìĿ´ìķ¼ê¸°":8232,"Ġhyp":8233,"ĠLED":8234,"ney":8235,"ë¯¹":8236,"ivered":8237,"ĠìĺĪìĤ°":8238,"ronics":8239,"Ġobjects":8240,"MS":8241,"Ġíķ©ìĦ±":8242,"Ġìºł":8243,"useum":8244,"Ġprotein":8245,"Ġtherapy":8246,"Ġpixel":8247,"ĠYoung":8248,"scale":8249,"íķĺìŀĲ":8250,"Ġfamilies":8251,"ê°ĴìĿĦ":8252,"ĠíĻįë³´":8253,"ithm":8254,"Ġëĭ¤ë¥´":8255,"ĠBl":8256,"ìķĪìłĦ":8257,"Ġdepend":8258,"Ġintroduction":8259,"Ġtourists":8260,"Ġê´Ģê´ĳê°Ŀ":8261,"Ġìŀħìŀ¥":8262,"Ġë§İìķĦ":8263,"ìħľ":8264,"ĠVillage":8265,"Ġconvenient":8266,"Ġdelivered":8267,"¨ìĶ¬":8268,"ĠëĮĢì¤ĳ":8269,"Ġseem":8270,"ĠìĿ¼ìľ¼":8271,"rought":8272,"Ġëĭ¹ëĩ¨":8273,"Ġportions":8274,"Ġê·¼ë¬´":8275,"Ġpage":8276,"Ġneigh":8277,"irect":8278,"Ġê°Ħíĺ¸":8279,"Ġìłĳíķ©":8280,"Ġbackground":8281,"ĠëıĦìĽĢìĿĦ":8282,"razil":8283,"Ġìı":8284,"dom":8285,"Ġì§Ģìĭľ":8286,"Ġë¹Ľ":8287,"Ġìłķë¶ĢëĬĶ":8288,"ì¿ł":8289,"Ġrain":8290,"Ġíĺľ":8291,"Ġíİ¸ë¦¬":8292,"Ġrecorded":8293,"Ġsto":8294,"Ġresource":8295,"Ġmathem":8296,"Ġcreating":8297,"ê²Ĳ":8298,"Ġëį§":8299,"oud":8300,"ìĬ¤íĨł":8301,"íĺĦì§Ģ":8302,"Ġsuggested":8303,"ê¼":8304,"ìħĭ":8305,"ats":8306,"ĠíĥĿ":8307,"ìĿ´ëŀĢ":8308,"ìĸ´ë§ģ":8309,"Ġjudged":8310,"ìĿ´ìŀĲ":8311,"irl":8312,"êµŃìłľ":8313,"Ġsyn":8314,"Ġguarantee":8315,"ìŀ¥ìķł":8316,"Ġfunctional":8317,"ĠìĬ¤íģ¬ë¦°":8318,"Are":8319,"ëªĩ":8320,"Ġbuild":8321,"Ġì§ĢëĤľëĭ¬":8322,"Ġadvanced":8323,"cription":8324,"ĠìĿµ":8325,"Ġresident":8326,"ĠìĹ°ëł¹":8327,"ĠëĤĺìĦľ":8328,"Ġoperations":8329,"ĠìĻ¸êµĲ":8330,"Ġêµ¬ìĦ±ëĲĺìĸ´":8331,"Ġtick":8332,"aries":8333,"ê·¸ê²ĥìĿĢ":8334,"Ġexposed":8335,"point":8336,"urch":8337,"Ġcoord":8338,"ì¢ħìĿĺ":8339,"Ġcomputing":8340,"ĠíĽ¨ìĶ¬":8341,"ĠìĤ¬ìĿ´ìĹĲìĦľ":8342,"Ġëĵľë¦´":8343,"ĠíĺķíĥľìĿĺ":8344,"Ġdeliver":8345,"ĠãĢĮ":8346,"ĠíķĢ":8347,"BC":8348,"lor":8349,"inter":8350,"ĠMuseum":8351,"ĠëıĻë¬¼":8352,"Ġì°¨ìĿ´ë¥¼":8353,"Ġcharging":8354,"Ġparticularly":8355,"Ġsubstantially":8356,"dimensional":8357,"ì§ĪíĻĺ":8358,"Ar":8359,"lying":8360,"ĠBr":8361,"ìłĲìĿĢ":8362,"Ġë§İëĭ¤":8363,"Ġconference":8364,"%)":8365,"Ġëª¨ë¥´":8366,"Ġcoil":8367,"Ġì¢ħë£Į":8368,"Ġlawsu":8369,"ìĶ¨ëĬĶ":8370,"Ġbehind":8371,"igned":8372,"Ġaffected":8373,"Ġreached":8374,"ĠìĪĺë¦½":8375,"Ġbirth":8376,"ĠìĪĺíķĻ":8377,"Ġcontext":8378,"ĠìľłìĤ¬íķľ":8379,"Ġì¢ħë¥ĺìĿĺ":8380,"down":8381,"friend":8382,"Ġ38":8383,"ĠFore":8384,"Ġeyes":8385,"íıīê°Ģ":8386,"Ġcriteria":8387,"ĠìľĦì¹ĺíķľ":8388,"Ġstatement":8389,"Ġconvention":8390,"Ġvot":8391,"Ġì°į":8392,"ĠìķĦë¦Ħ":8393,"Ġì¶Ķìłģ":8394,"Ġoverl":8395,"Ġdemonstr":8396,"Ġgoes":8397,"Ġìĥģíĥľë¡ľ":8398,"Ġì£Ħ":8399,"ĠìŀħìŀĲ":8400,"Ġclient":8401,"ĠEurope":8402,"Ġliver":8403,"Ġachieved":8404,"ĠìŀĪìľ¼ë©´":8405,"ê¶ģ":8406,"ĠìĦłíĸī":8407,"ĠíĻĶìŀ¥":8408,"Ġrubber":8409,"minist":8410,"room":8411,"Ġcomposite":8412,"Why":8413,"ifically":8414,"ĠIns":8415,"Ġpet":8416,"inafter":8417,"Ġchoose":8418,"Ġchoice":8419,"ĠJi":8420,"ìĺĪë¥¼":8421,"Ġcoron":8422,"Ġê¸°ì¡´ìĿĺ":8423,"Ġauthentication":8424,"Ġëª¨ëĭĪíĦ°ë§ģ":8425,"bre":8426,"Ġreach":8427,"Ġìĭľì¦Į":8428,"ëĦ¥":8429,"board":8430,"fess":8431,"âĹ":8432,"Ġsymbol":8433,"aft":8434,"ê±°ëĵł":8435,"Ġprovince":8436,"irus":8437,"ê´Ģê´ĳ":8438,"ĠVietnam":8439,"ĠìĦŃ":8440,"Ġê°ĢëĬĶ":8441,"istor":8442,"ìĦłìĿĺ":8443,"Ġcoe":8444,"Ġscene":8445,"stream":8446,"Ġnit":8447,"Ġìĥģëĭ´":8448,"Ġìŀ¬ìĤ°":8449,"ĠëĳĶ":8450,"ìľĦìĿĺ":8451,"Ġsupplement":8452,"Ġdisposition":8453,"Ġmodels":8454,"car":8455,"level":8456,"odies":8457,"ĠDist":8458,"ìķ¡ìĿ´":8459,"Ġdetecting":8460,"Ġquantity":8461,"íĽĪ":8462,"Ġtransparent":8463,"Ġseven":8464,"Ġê³łë¬´":8465,"selves":8466,"Now":8467,"Ġmort":8468,"Ġìŀĺëª»":8469,"ĠëĤĺëĪ":8470,"ìĿ´ëĤł":8471,"ĠëĬ¦":8472,"Ġmaintained":8473,"word":8474,"ĠìŀĪëįĺ":8475,"Ġremote":8476,"Ġrequested":8477,"EU":8478,"Ġfell":8479,"iles":8480,"aches":8481,"Ġ37":8482,"Ġwoman":8483,"Ġinqu":8484,"Ġdrop":8485,"íŀĪëł¤":8486,"Ġacquired":8487,"cing":8488,"Ġvess":8489,"Ġì£¼íĸī":8490,"ê¸ĪìĿĺ":8491,"conomic":8492,"ygen":8493,"young":8494,"ata":8495,"Ġmel":8496,"ĠìĿ´ìĺ¨":8497,"Ġunivers":8498,"ëĭ¨ìĿĢ":8499,"ĠYork":8500,"Ġreflected":8501,"Ġtrying":8502,"erior":8503,"ê¸°ì¡´":8504,"ìļ°ìĦł":8505,"ë¹Ħê°Ģ":8506,"Ġmeat":8507,"ĠìĤ¬íķŃìĿĦ":8508,"Ġrobot":8509,"ĠíķĺëĬĶëį°":8510,"jeon":8511,"ĠíĬ¹ë³Ħíķľ":8512,"ĠAmerican":8513,"Ġê´ľì°®":8514,"ĠFeb":8515,"Ġthres":8516,"ops":8517,"ĠìĬ¤íĶĦ":8518,"Ġì¡°ìĦ±ë¬¼ìĿĦ":8519,"ëĭ¹ìĭłìĿĢ":8520,"ì£¼íĥĿ":8521,"Ġregulation":8522,"Ġpersonnel":8523,"ĠìĿĺì¡´":8524,"ĠëħĦ":8525,"Ġassociation":8526,"Ġapproach":8527,"ìĸ´ëĸ¤":8528,"íĻį":8529,"ĠGe":8530,"yong":8531,"Ġìŀī":8532,"ros":8533,"ĠìŀĲìĤ°":8534,"ĠìĺģìĥģìĿĦ":8535,"ĠìĹĨëĭ¤ëĬĶ":8536,"ì°¨ê°Ģ":8537,"Ġdispers":8538,"ì°¬ê°Ģì§Ģ":8539,"ìĿĺë£Į":8540,"Ġprocesses":8541,"pecial":8542,"secut":8543,"ĠìłķíĻķíķľ":8544,"Ġê·¸ëĬĶ":8545,"Ġcontinuously":8546,"Ġera":8547,"Ġë³µìŀ¡":8548,"Ġdetermination":8549,"Ġdiscussed":8550,"Ġë¹łë¥¸":8551,"Ġ220":8552,"Ġadult":8553,"ĠëķĮê¹Įì§Ģ":8554,"Ġìŀ¥ì¹ĺê°Ģ":8555,"Ġallowed":8556,"Ġremoved":8557,"Ġeither":8558,"ĠìĿĺìĭ¬":8559,"ĠëĲĺì§Ģ":8560,"Ġë°©íĸ¥ìĿĦ":8561,"ĠíıĲìĩĦ":8562,"íķ´ì§Ħ":8563,"Ġì§§":8564,"Ġorient":8565,"Ġdied":8566,"ëĲĺê±°ëĤĺ":8567,"ëĦĮ":8568,"Ġpresence":8569,"íİľ":8570,"Ġsurfaces":8571,"Ġpreced":8572,"Ġprovisions":8573,"ìłĲìľ¼ë¡ľ":8574,"Ġpackage":8575,"Ġsharing":8576,"ë¬´ìĽĲ":8577,"ancy":8578,"Ġinterests":8579,"Ġidentify":8580,"ĠíĥĦìĦ±":8581,"Ġpublished":8582,"itage":8583,"Ġhar":8584,"ĠìĿ¸ì²ľ":8585,"ĠTae":8586,"ĠìĹĨëĭ¤ê³ł":8587,"Ġanalyzing":8588,"Ġclearly":8589,"Ġprosecution":8590,"Ġdatab":8591,"Ġê°ĸì¶Ķ":8592,"Reg":8593,"Ġë°¤":8594,"Ġìĭłì²´":8595,"Ġìĥ¤":8596,"ĠëĪĦêµ¬":8597,"ĠFestival":8598,"Ġtransactions":8599,"Ġannual":8600,"Ġaffairs":8601,"Ġguidel":8602,"ìĿ´ìķ¼":8603,"ê°Ģê²©":8604,"ĠìĿ´ìĻ¸":8605,"ĠìĥģìĿĺ":8606,"ĠíĬ¹ìĪĺ":8607,"Ġjobs":8608,"ĠDem":8609,"Ġentered":8610,"odes":8611,"ĠìĨĮìĬ¤":8612,"ruary":8613,"Ġtransform":8614,"Ġappeared":8615,"ĠBud":8616,"Ġê°ĢëĬ¥ìĦ±ìĿĦ":8617,"Ġcolumn":8618,"ĠìĬ¬ëĿ¼ìĿ´":8619,"Ġê²ģëĭĪëĭ¤":8620,"ë©´ìĿĺ":8621,"ëĵľë¡ľ":8622,"41":8623,"ìĤ¬ë¡ľ":8624,"ì§ĦìĿ´":8625,"Ġdesired":8626,"íĶĮë£¨":8627,"Ġ2007":8628,"Ġcircumst":8629,"Ġrecovery":8630,"Ġnewly":8631,"Ġìļ©ê¸°":8632,"Ġtechnologies":8633,"Ġrepresents":8634,"DM":8635,"icip":8636,"Ġincl":8637,"102":8638,"ëĭĺìĿ´":8639,"ĠìķĮëł¤ì¡Įëĭ¤":8640,"Ġrunning":8641,"ĠYeong":8642,"Ġtiss":8643,"ĠìĭłìĨį":8644,"Ġsett":8645,"Ġë°°íĦ°ë¦¬":8646,"Ġìĺ¥":8647,"Ġrule":8648,"Ġíķĺì§Ģë§Į":8649,"Ġíı¬ìŀ¥":8650,"ĠFed":8651,"Ġkid":8652,"Ġëħ¸ëŀĺ":8653,"ì¼ĢíĮħ":8654,"ê°ĻìĿĢ":8655,"Ġpositioned":8656,"Ġillustrating":8657,"BS":8658,"reed":8659,"ë¡ľë¥¼":8660,"ĠìĤ¼ìĦ±":8661,"Ġshareholders":8662,"Ġrefriger":8663,"ike":8664,"Ġahead":8665,"Ġfurn":8666,"Ġê·ľì¹Ļ":8667,"Ġhospitals":8668,"Ġì§Ģë°°":8669,"Ġì¡°ëªħ":8670,"Ġë¶Ħë§Ĳ":8671,"Ġsolar":8672,"íģ¬ë¥¼":8673,"China":8674,"Ġì£¼íĮĮìĪĺ":8675,"ì²´ìĿ¸":8676,"ëħĦê¹Įì§Ģ":8677,"ëĭĪìķĦ":8678,"Ġë¶Īíİ¸":8679,"ìĭľì¼":8680,"ĠëĭĪ":8681,"ĠëĤĺìĻĶëĭ¤":8682,"Ġlock":8683,"ĠHyun":8684,"ì¡¸":8685,"Ġgradually":8686,"Ġconflict":8687,"Ġec":8688,"ìĤ¬ìĹĲìĦľ":8689,"ĠíĻĺìŀĲëĬĶ":8690,"Ġpeace":8691,"Ġê²°ê³¼ìĹĲ":8692,"Ġduty":8693,"ëĭ¤ìĸĳ":8694,"ìĦ¬ìľł":8695,"Ġends":8696,"Ġëĭ¬ëĿ¼":8697,"ìĵ":8698,"ìłĦìĿ´":8699,"ĠìłģìĿ´":8700,"Ġconvenience":8701,"Ġì½Ķìĸ´":8702,"Ġì¶©ì¡±":8703,"Ġinstitution":8704,"Ġëĵ±ê³¼":8705,"Ġattitude":8706,"ì½ĶëĶ©":8707,"Ġë§ĪìĿ´íģ¬ë¡ľ":8708,"HO":8709,"onal":8710,"Ġì¡°ë¡Ģ":8711,"Ġveget":8712,"Ġíĳ¸":8713,"Ġëĵ£":8714,"Ġchall":8715,"ĠìŀĲìľ¨":8716,"Ġnorth":8717,"ëĮĢíķĻ":8718,"ĠChang":8719,"Ġê±´ë¬¼":8720,"Ġappeal":8721,"Ġcollege":8722,"ìłķìĿĢ":8723,"Ġê¸°ê¸°":8724,"ĠMar":8725,"ultane":8726,"ê²½ê¸°ëıĦ":8727,"ĠìĦ¸ë¶Ģ":8728,"woo":8729,"ĠFebruary":8730,"Ġfresh":8731,"Ġaccel":8732,"Ġwinter":8733,"Ġfather":8734,"ĠíļĮìĤ¬ìĿĺ":8735,"Ġindicating":8736,"Ġê¸°ëħĲ":8737,"ĠìĺĪìĹĲ":8738,"Ġkn":8739,"ĠìĸĳìĦ±":8740,"âĹĭ":8741,"ë¦¬ì¦ĺ":8742,"ĠìĭľìĤ¬":8743,"íĭ°ë¸Į":8744,"Ġparagraph":8745,"Ġhorizon":8746,"rees":8747,"oration":8748,"ĠTax":8749,"Ġexpanding":8750,"ĠëªħìĿ´":8751,"Ġradiation":8752,"ì½©":8753,"Ġultr":8754,"ĠSung":8755,"Ġyouth":8756,"ë¡ľë¶ĢíĦ°ìĿĺ":8757,"etes":8758,"Ġë°©ìķĪìĿĦ":8759,"abled":8760,"Ġpieces":8761,"Ġcoming":8762,"ĠìĻĦíĻĶ":8763,"Ġtreating":8764,"Ġpreferably":8765,"rically":8766,"iday":8767,"ìłľìĻĢ":8768,"ĠìłģìĿĳ":8769,"Ġexpert":8770,"Ġë¹Ħìļ©ìĿĦ":8771,"ëĳ¥":8772,"Ġ101":8773,"ĠíħĮìĿ´ë¸Ķ":8774,"ĠëĤ´ë¶ĢìĹĲ":8775,"ĠëĬĲëģ¼":8776,"ynasty":8777,"Ġìĺģìĸĳ":8778,"101":8779,"ê²łëĭ¤ê³ł":8780,"Ġelectrodes":8781,"Ġmounting":8782,"ik":8783,"ìĺģìĥģ":8784,"Ġpark":8785,"ĠTour":8786,"ĠJeon":8787,"Ġlic":8788,"Ġë³´ìĥģ":8789,"rix":8790,"Ġlarger":8791,"Ġì¡´ìŀ¬íķĺëĬĶ":8792,"Ġê°ľìĭľëĲľëĭ¤":8793,"Ġpick":8794,"amic":8795,"Ġrules":8796,"ocation":8797,"Ġì°¨ë³Ħ":8798,"Ġê·¸ê²ĥìĿĦ":8799,"ĠAgency":8800,"rust":8801,"Ġflight":8802,"Ġadjustment":8803,"ĠìĽĢì§ģìŀĦ":8804,"ino":8805,"Ġexcl":8806,"Ġìļķ":8807,"ìĹĪìĸ´ìļĶ":8808,"ĠìķĮëł¤ìł¸":8809,"Ġupon":8810,"ĠTrade":8811,"Ġcorrelation":8812,"Ġthreshold":8813,"Due":8814,"Ġson":8815,"Ġë¹Ħíĸī":8816,"Ġresulting":8817,"ports":8818,"Ġprofits":8819,"Ġwatch":8820,"PA":8821,"Ġrare":8822,"ëł¥ìĿĺ":8823,"Ġconsists":8824,"Ġmarketing":8825,"ĠìĿ¸ê°Ģ":8826,"ĠDevelopment":8827,"ĠìĬ¤ë§ĪíĬ¸íı°":8828,"Ġderived":8829,"ìķŀìĦľ":8830,"iary":8831,"where":8832,"Ġuniform":8833,"Ġdisput":8834,"Ġemitting":8835,"Currently":8836,"jong":8837,"ìĿ¼ìĿĺ":8838,"ìĨĮìĹĲ":8839,"Ġcook":8840,"ê·¸ëĵ¤ìĿĢ":8841,"Ġë³¸ê²©":8842,"ĠìłľíĴĪìĿĺ":8843,"Ġdistrict":8844,"Ġlongitud":8845,"29":8846,"Ġpiece":8847,"ĠìĥĿì¡´":8848,"Ġallowing":8849,"ìĿ´ëłĩê²Į":8850,"ìĿ¸íĦ°":8851,"Ġoxygen":8852,"ĠRiver":8853,"Ġbuff":8854,"Ġê²°ìłķíķĺëĬĶ":8855,"Ġthreat":8856,"ĠëķĮìĹĲëĬĶ":8857,"ĠíĶĮëĿ¼ìĬ¤íĭ±":8858,"ë¨¼íĬ¸":8859,"Ġê°Īëĵ±":8860,"ĠëĮ":8861,"Ġfract":8862,"Ġcoff":8863,"Ġroute":8864,"Ġìķ¡ìĦ¸ìĬ¤":8865,"Ġradi":8866,"Ġurban":8867,"orporation":8868,"ĠëıĻìĿĺ":8869,"Ġë©Ķëī´":8870,"Ġtechnical":8871,"Ġvisual":8872,"Ġë¹Ħë¡¯íķľ":8873,"Ġhon":8874,"Ġreservation":8875,"ĠíĶĦëŀĳìĬ¤":8876,"Ġreports":8877,"Ġrespective":8878,"ëĭ¤ìĭľ":8879,"ises":8880,"ĠíĺľíĥĿ":8881,"iture":8882,"Ġë°ĺëĵľìĭľ":8883,"ì½Ķë¡ľëĤĺ":8884,"Ġëĵ¤ìĸ´ê°Ģ":8885,"ĠíıĲê¸°":8886,"Ġfocused":8887,"ì¦Ĳ":8888,"Ġê¶Įíķľ":8889,"Ġgave":8890,"ì²´ìĻĢ":8891,"Ġphotos":8892,"Ġcomprehensive":8893,"ìĤ¬íķŃ":8894,"ivation":8895,"soo":8896,"Ġinfected":8897,"íĻľìĦ±":8898,"Ġë¯¸êµŃìĿĺ":8899,"ĠÎ¼m":8900,"Ġê¶ģê¸Ī":8901,"po":8902,"Ġfans":8903,"ìłł":8904,"ìĤ¬ìĿ´íĬ¸":8905,"íķľëĭ¤ë©´":8906,"Ġë¶Ħëªħ":8907,"Ġìĭ¤ë¦¬ì½ĺ":8908,"Ġassum":8909,"Ġsites":8910,"Ġapart":8911,"Ġì¤ĳìĨĮê¸°ìĹħ":8912,"Ġëĥ":8913,"íĶĪ":8914,"ĠMon":8915,"Ġìĺ¤ë¥¸":8916,"ĠìĭľìĬ¤íħľìĿĺ":8917,"Ġsimultane":8918,"Ġ160":8919,"Ġseparated":8920,"Ġìµľê³łìĿĺ":8921,"Ġtests":8922,"Ġdifficulties":8923,"ìĺ¬íķ´":8924,"Ġhouseholds":8925,"Ġingredients":8926,"ĠìĿ´ìļ©íķł":8927,"ĠëĿ¼ìĿ´":8928,"ero":8929,"Ġrecon":8930,"Ġêµ¬ê°Ħ":8931,"Ġrooms":8932,"ĠíĹ¤ëĵľ":8933,"ĠëĤĺíĥĢëĤ¸ëĭ¤":8934,"yond":8935,"ìĭľìĿĺ":8936,"ĠìĿĺíķĺë©´":8937,"avity":8938,"Ġmovie":8939,"íĻĶìĻĢ":8940,"ë§ĮìĽĲ":8941,"ĠêµĲìĤ¬":8942,"ĠëĨĴëĭ¤":8943,"Ġë¶Ģíĥģëĵľë¦½ëĭĪëĭ¤":8944,"Ġmedicine":8945,"ë£¨ë¯¸ëĬĦ":8946,"More":8947,"Ġ1000":8948,"etary":8949,"Ġ250":8950,"ìķĦìĿ´":8951,"ëªħìĿĢ":8952,"ĠHouse":8953,"Ġeffectively":8954,"Ġrepeated":8955,"ëĢ":8956,"Ġìłľì£¼":8957,"ì¡°íķ©":8958,"Ġëħ¼ë¬¸":8959,"Ġenhance":8960,"Ġdiagram":8961,"ao":8962,"acing":8963,"Ġrequires":8964,"ħëĭĪëĭ¤":8965,"ìĭľê³ł":8966,"ĠSun":8967,"Ġì¤ĳìĿĺ":8968,"ĠìŀĦëĮĢ":8969,"Ġregistered":8970,"Ġëį§ë¶Ļ":8971,"ìĿ¸ê°ĢìļĶ":8972,"ĠìĹĨê³ł":8973,"ĠìĬ¤íĨł":8974,"ĠGwangju":8975,"ìĿ´ìłľ":8976,"Ġselling":8977,"ightly":8978,"Ġdatabase":8979,"Ġsouth":8980,"ìķĦìķ¼":8981,"Ġrecognize":8982,"ĠíĻĶíķĻìĭĿ":8983,"Comp":8984,"ëĵ¤ìĹĲìĦľ":8985,"ìĭłìĿĦ":8986,"Ġprocessed":8987,"Ġìļ´ìĨ¡":8988,"Ġsanctions":8989,"ìļ°ë¦¬ê°Ģ":8990,"ĠìłĢìŀ¥ëĲľ":8991,"ĠLeague":8992,"Ġintermediate":8993,"Ġalumin":8994,"ìĺĪìĪł":8995,"Ġëį°ìĿ´íĦ°ìĿĺ":8996,"ĠíħįìĬ¤íĬ¸":8997,"Ġê³ĦíļįìĿ´ëĭ¤":8998,"Ġdynam":8999,"ony":9000,"rete":9001,"Ġì£¼ìŀħ":9002,"Ġscan":9003,"ë¨¼ìłĢ":9004,"Ġtip":9005,"Ġquite":9006,"Ġíŀĺëĵ¤":9007,"ĠìĥģìĿ´íķľ":9008,"Ġë¬´ë£Į":9009,"Ġëª»íķĺê³ł":9010,"ĠíĹĮë²ķ":9011,"Ġacademic":9012,"Ġmathemat":9013,"ĠKT":9014,"Ġêµ¬ìĹŃ":9015,"ĠìĿ¸ê·¼":9016,"Ġdefense":9017,"Ġarray":9018,"Ġìłģê·¹ìłģìľ¼ë¡ľ":9019,"ĠAdminist":9020,"Ġë¹ĦíĬ¸":9021,"Ġpolar":9022,"Ġinterpretation":9023,"uations":9024,"ĠHall":9025,"ëŀĺìĿĺ":9026,"Ġëĵľë¦½ëĭĪëĭ¤":9027,"ĠëĤĺìĺ¨ëĭ¤":9028,"orption":9029,"Ġlib":9030,"Ġê²°êµŃ":9031,"ĠRF":9032,"Ġmoist":9033,"ĠìĥĿê°ģíķ©ëĭĪëĭ¤":9034,"Ġpreviously":9035,"Ġë°ľíĸī":9036,"Ġë²ķìłģ":9037,"Ġpatterns":9038,".âĢĿ":9039,"Ġê¸°ìļ¸":9040,"Ġtransl":9041,"ì¦ĿìĿ´":9042,"Ġnoise":9043,"ë¦¬ë¡ľ":9044,"olf":9045,"Ġimaging":9046,"Ġë¹Ħì¦Ī":9047,"Ġrelation":9048,"ĠìĿĺë¯¸ë¥¼":9049,"ĠìłĢíĿ¬ê°Ģ":9050,"Ġlooks":9051,"Ġmis":9052,"Ġeight":9053,"ëį°ìĿ´íĬ¸":9054,"Ġsir":9055,"Ġë³´ìĿ´ê³ł":9056,"ĠKang":9057,"ĠWar":9058,"Ġparticipating":9059,"noon":9060,"íķ¨ê³¼":9061,"Ġcenters":9062,"ë¥´ê¸°":9063,"ĠìŀħìĽĲ":9064,"Ġcele":9065,"ĠìĤ¬ìľł":9066,"ĠìĦłë³´":9067,"wards":9068,"Ġprinting":9069,"ĠStation":9070,"ĠìĨįìĹĲìĦľ":9071,"Ġwife":9072,"ĠAf":9073,"Ġë²¨":9074,"Ġextreme":9075,"Recently":9076,"Ġeating":9077,"Ġgold":9078,"Ġì§ĪëŁī":9079,"ĠìĿĺê²¬ìĿĦ":9080,"ĠDistrict":9081,"oe":9082,"ĠíĨ":9083,"íĺķìĿĺ":9084,"ĠëĮĢì±ħ":9085,"Ġê¸°íļĮë¥¼":9086,"adium":9087,"Ġëĭ¨ë¶Ģ":9088,"ë¡łìĿĦ":9089,"Ġbenefit":9090,"rdinance":9091,"Ġquarantine":9092,"Ġscheduled":9093,"Ġtree":9094,"roll":9095,"Ġhear":9096,"ê³µê°Ħ":9097,"anging":9098,"Ġafternoon":9099,"ĠíĮ¨íĤ¤":9100,"Ġìķ¡ì²´":9101,"Ġìĭ¤ì§Īìłģìľ¼ë¡ľ":9102,"ì¹ĺì§Ģ":9103,"Ġcloth":9104,"Ġëĭ¹ìĭłìĿ´":9105,"ĠManagement":9106,"Ġëĭ¤ë£¨":9107,"tenance":9108,"ĠëĤĺë¨¸ì§Ģ":9109,"Ġwal":9110,"ìĥģê³¼":9111,"ëĿ¼ë§Ī":9112,"atively":9113,"Ġturned":9114,"Ġë©Ģíĭ°":9115,"Ġfol":9116,"Ġê´ĢíĨµ":9117,"ĠìłĪëĭ¨":9118,"ses":9119,"vit":9120,"Ġattended":9121,"Ġì¤ĳêµŃìĿĺ":9122,"Ġexperiences":9123,"Ġfit":9124,"Ġcausing":9125,"Ġruling":9126,"isher":9127,"ìłģìĿ´ëĭ¤":9128,"ĠìłĦë©´":9129,"ĠìŀĲê·¹":9130,"Ġteams":9131,"ĠGovernor":9132,"iplom":9133,"38":9134,"Ġë°ĶëĿ¼":9135,"Ġmusc":9136,"ĠìŀĲìĭłìĿ´":9137,"Ġbooks":9138,"ìĨĮìĨ¡":9139,"Ġì£¼ê´Ģ":9140,"Ġseparately":9141,"Ġdrawing":9142,"Ġsenior":9143,"Ġwage":9144,"Ġë°ĸ":9145,"ĠìĪĺìĤ¬":9146,"ë¶ĦìĹĲ":9147,"norm":9148,"ĠìłĦíĺĢ":9149,"ĠíĬľë¸Į":9150,"ì£½":9151,"ĠìĥĿìĦ±íķł":9152,"Ġwrong":9153,"ĠìĨĮë¹ĦìŀĲ":9154,"Ġnegotiations":9155,"íĳ¸":9156,"izer":9157,"ĠëıĻê¸°":9158,"Ġrock":9159,"ĠSecurity":9160,"Ġpremium":9161,"Ad":9162,"ĠIP":9163,"ê·¸ëħĢ":9164,"Ġê²ĢìĤ¬ë¥¼":9165,"Ġtro":9166,"att":9167,"ĠìĿ´íĥĪ":9168,"Ġalg":9169,"ĠBrazil":9170,"ê±´ê°ķ":9171,"Ġì°½ì¶ľ":9172,"ĠëĮĢíĨµëł¹ìĿ´":9173,"ĠResearch":9174,"Ġsexual":9175,"Ġtum":9176,"Ġìĭľì²Ń":9177,"ocol":9178,"ìĭĿìĿĺ":9179,"Ġ600":9180,"akes":9181,"itors":9182,"ìĿ¸ìĹĲ":9183,"ĠìĤ¬ìļ©íķľ":9184,"Ġë¬´ê¸°":9185,"ìķ½ìĿĦ":9186,"Ġrepresented":9187,"Ġstatist":9188,"ëŀĢìĿ´":9189,"ëħģ":9190,"ì»´":9191,"Ġfoundation":9192,"Ġë´¤":9193,"Ġprocedures":9194,"Ġfed":9195,"ĠìĪĺíĸīíķĺëĬĶ":9196,"Ġë¹ĦêµĲìłģ":9197,"Ġdamages":9198,"Ġìŀłìŀ¬":9199,"ĠìľłìĿĺíķľ":9200,"ĠëĬĲëĤĮ":9201,"êµ¬ì²Ńìŀ¥ìĿĢ":9202,"ìĿ´ë©´":9203,"Ġë¶Ħë°°":9204,"Ġêµ¬ì²´ìłģìĿ¸":9205,"Ġple":9206,"Ġìĺ®":9207,"ĠìĿ¼ë¶Ģë¥¼":9208,"Ġë¶Ħíķ´":9209,"ê²°ìłķ":9210,"Ġtransmitting":9211,"ĠëĴ·":9212,"Ġmuseum":9213,"Ġexamine":9214,"ëŃ":9215,"ëĭ¤ìļ´":9216,"Ġautomatically":9217,"ìĹĺ":9218,"ĠìĿ´ìĻĢ":9219,"ë¶Ģìŀ¬":9220,"Ġcalculation":9221,"Ġìĸ´ëłµëĭ¤":9222,"Ġconsisting":9223,"ĠìĦ¬":9224,"chol":9225,"ĠìĽĲìŀĲ":9226,"ìķ¡ìĿĺ":9227,"ĠìĥĿìĦ±ëĲľ":9228,"Ġapproval":9229,"Ġraise":9230,"220":9231,"Ġë°ĶëĢ":9232,"Ġsimply":9233,"Ġcrystal":9234,"tes":9235,"ë¥¨":9236,"anges":9237,"Ġëį°ìĿ´íĦ°ë²łìĿ´ìĬ¤":9238,"ĠìĹĲìĸ´":9239,"Ġrecords":9240,"ĠìĤ¶ìĿĺ":9241,"Ġsummit":9242,"ìĿ´ì¦Ī":9243,"ìĭĿìľ¼ë¡ľ":9244,"Ġë³ĢíĻĶê°Ģ":9245,"ëĿ¼ìĿ´ìĸ¸":9246,"Ġdismiss":9247,"Ġfer":9248,"Ġisol":9249,"Ġcombust":9250,"ìŀ¥ìľ¼ë¡ľ":9251,"ĠMr":9252,"ĠFr":9253,"Ġë§Īì°¬ê°Ģì§Ģ":9254,"Ġìĺ¤ëĶĶìĺ¤":9255,"Ġfees":9256,"Ġê²°ìłķíķł":9257,"ĠUnion":9258,"Ġ196":9259,"Ġcontinues":9260,"Ġcoffee":9261,"water":9262,"Ġíľĺ":9263,"Ġë°Ģë´ī":9264,"Ġtransferred":9265,"íħľ":9266,"Ġìłľê³µíķĺê³ł":9267,"ìĪłíķľ":9268,"Ġsmaller":9269,"Ġexplain":9270,"ĠCentral":9271,"Ġoutlet":9272,"ìĭľíĤ":9273,"ĠíĶ¼ëĵľ":9274,"ĠíķĺëĤĺë¥¼":9275,"Ġbonds":9276,"ĠìľĦíĺĳ":9277,"Ġtrack":9278,"íĮĲìĿĦ":9279,"Ġì§ĢìĽĲìĿĦ":9280,"Ġê¸įìłķìłģìĿ¸":9281,"Ġgar":9282,"ìĿ¼íķľ":9283,"ì£¼ê°Ģ":9284,"Ġcoach":9285,"Ġscient":9286,"issions":9287,"ì»µ":9288,"Ġë¶Ģë¶ĦìĹĲ":9289,"AC":9290,"yr":9291,"oring":9292,"ë¬´ë¦¬":9293,"Ġparticle":9294,"Ġmarkets":9295,"Ġappears":9296,"Many":9297,"Ġgiving":9298,"Ġê´ĢíķĺìĹ¬":9299,"Ġì¹´ëĵľ":9300,"Ġinjection":9301,"imb":9302,"ĠAS":9303,"Ġì¹©":9304,"ĠìĹ¬ë¦Ħ":9305,"Ġvisiting":9306,"Ġshopping":9307,"ëĭ¤ìĸĳíķľ":9308,"ME":9309,"Ġ48":9310,"Ġê²½ìļ°ëĬĶ":9311,"Ġë¶Īê³¼":9312,"Ġê²½íĹĺìĿĦ":9313,"Ġì£¼ëıĦ":9314,"ëł¥ìĹĲ":9315,"ĠìłģìĿĢ":9316,"íķĺê²ĮëĬĶ":9317,"Ġcreation":9318,"Ġwait":9319,"Ġìĸ´ëĸłíķľ":9320,"abil":9321,"Ġspir":9322,"Ġserve":9323,"Ġë¬¼íĴĪ":9324,"ĠOrdinance":9325,"Ġcylinder":9326,"ìĪĺìĻĢ":9327,"Ġmatrix":9328,"Ġtourist":9329,"ĠìŀĪëĭ¤ë©´":9330,"Ġì²Ļ":9331,"orrow":9332,"Ġdead":9333,"Ġ55":9334,"ĠìłĢíķĺ":9335,"Ġmembr":9336,"ĠëĤ¨ë¶ģ":9337,"Ġinvolved":9338,"Ġê±±ìłķ":9339,"Ġlawsuit":9340,"Ġremains":9341,"Ġëĭ¹ëĩ¨ë³ĳ":9342,"ĠìĦ¹":9343,"Ġshared":9344,"Ġapprec":9345,"Ġcircumstances":9346,"ipping":9347,"Ġíı¬íķ¨ëĲĺìĸ´":9348,"Ġquarter":9349,"ĠìĥģíĻ©ìĹĲ":9350,"ëĳĺ":9351,"PG":9352,"PI":9353,"omb":9354,"Ġbeyond":9355,"uls":9356,"ĠìłĦëıĦ":9357,"Ġì£¼ìĿĺ":9358,"Ġlect":9359,"Ġinstallation":9360,"ĠíĬ¸ëŀľì§ĢìĬ¤íĦ°":9361,"Ġsn":9362,"ĠìĿ¸êµ¬":9363,"Ġë§¤ëħĦ":9364,"Ġtechnique":9365,"íĬ¸ëĦĪ":9366,"íļ¨ê³¼":9367,"Ġíķ´ìłľ":9368,"Ġíı¬íķ¨íķĺë©°":9369,"Ġë°Ľì§Ģ":9370,"ìª½ìĹĲ":9371,"ĠëĬĺìĸ´":9372,"ë¡ľê·¸":9373,"ĠìŀĪìľ¼ëĤĺ":9374,"ĠëĮĢê·ľëª¨":9375,"Ġìĺ·":9376,"Ġspect":9377,"Ġì§ģìĹħ":9378,"Ġë§ŀëĬĶ":9379,"Ġstructural":9380,"Ġearth":9381,"hyun":9382,"ites":9383,"Ġampl":9384,"ler":9385,"ĠíĺķìĦ±ëĲľëĭ¤":9386,"Ġorganized":9387,"ë¿Ĳ":9388,"Ġencour":9389,"Ġfailed":9390,"ĠíĶĮëłĪìĿ´íĬ¸":9391,"Ġsequence":9392,"Ġinserted":9393,"Ġê²ĥì²ĺëŁ¼":9394,"ĠBrit":9395,"ëĤ´ëĬĶ":9396,"Ġattach":9397,"Ġapartment":9398,"hetic":9399,"Ġwt":9400,"Ġnm":9401,"Ġê²ĥìĿ¸":9402,"Ġëĭ¤ì¤ĳ":9403,"Ġì°¨ë¡Ģ":9404,"Ġìļ©ìľµ":9405,"Ġmaintenance":9406,"ĠìĦ¤ìłķëĲľ":9407,"ĠìŀĳìĹħìĿĦ":9408,"Ġinterpreted":9409,"Ġperception":9410,"Ġbrought":9411,"Ġdiplom":9412,"Ġì£¼ìħĶìĦľ":9413,"ĠSeung":9414,"Ġìłķì¹ĺìłģ":9415,"Ġswitching":9416,"ĠGerman":9417,"Ġìļ©ìĿ´íķĺê²Į":9418,"FC":9419,"ë¦¬ê¸°":9420,"ì¹ĺë£Į":9421,"Ġ52":9422,"Ġíķ´ëıĦ":9423,"Ġì¤ĳìļĶíķĺëĭ¤":9424,"heast":9425,"ìĥģíĥľ":9426,"Ġê¸°êµ¬":9427,"active":9428,"Ġ102":9429,"Ġrepro":9430,"Ġë¶Īê°Ģ":9431,"Ġwaiting":9432,"draw":9433,"Ġê¿Ī":9434,"Ġtasks":9435,"struction":9436,"ĠëĮĢêµ¬":9437,"Ġcomplic":9438,"ĠICT":9439,"ĠBudd":9440,"TS":9441,"ì§Ģê²Į":9442,"ìķĦìĭľìķĦ":9443,"Ġnotice":9444,"Ġê³łìľł":9445,"Ġ1990":9446,")-":9447,"íļĮë¡ľ":9448,"ĠFor":9449,"Ġsigned":9450,"Ġfixing":9451,"Ġdiabetes":9452,"Ġìŀĥ":9453,"ìĸ´ìĿĺ":9454,"ë§Įìķ½":9455,"ìĦ¸ìĿĺ":9456,"ì§ĦìĿĦ":9457,"ëĭĪì¦ĺ":9458,"Ġìĭ¤íĮ¨":9459,"Ġthemselves":9460,"Ġë°°ì¹ĺëĲł":9461,"ĠConstit":9462,"Ġpharmaceutical":9463,"Ġ%":9464,"Ġcast":9465,"Ġgrade":9466,"ĠìĿĮìĭĿìĿĦ":9467,"Ġdrugs":9468,"ĠDepartment":9469,"Ġphenomenon":9470,"alog":9471,"Ġë³´ì¡´":9472,"Ġbutton":9473,"ìŀĸìķĦìļĶ":9474,"uct":9475,"Ġmale":9476,"ĠDec":9477,"Ġìĭ¤ìłľë¡ľ":9478,"ĠEm":9479,"ĠìŀĪìĸ´ìķ¼":9480,"Ġinsert":9481,"Ġarticles":9482,"Ġexplan":9483,"Ġlongitudinal":9484,"Ġpor":9485,"Ġ75":9486,"Ġê°ķíķľ":9487,"Ġì§ĢìĹŃìĹĲ":9488,"Ġë²ĦíĬ¼":9489,"Ġdegrees":9490,"íı´ë¦¬":9491,"Ġinterior":9492,"Ġadapt":9493,"Ġarrangement":9494,"ì£¼ë¯¼":9495,"Ġì§ģë¬´":9496,"ĠìĬ¤íĬ¸ë¦¼":9497,"Ġdeposit":9498,"ìĭĿìĹĲ":9499,"PC":9500,"ying":9501,"ê½":9502,"iling":9503,"Ġsud":9504,"ateral":9505,"Ġagg":9506,"Ġìŀħë²ķ":9507,"Ġalloy":9508,"Ġíķłëĭ¹":9509,"avirus":9510,"Ġequipped":9511,"Ġsand":9512,"ê¸°ëĬ¥":9513,"Ġê¸°íļį":9514,"Ġê°Ģì¹ĺë¥¼":9515,"Ġëıķ":9516,"Ġvisitors":9517,"íĶĦë¡ľìĦ¸ìĦľ":9518,"Ġenterprises":9519,"Ġsending":9520,"ìŀĲëıĻ":9521,"Ġë³¸ëĭ¤":9522,"Ġì°¸ê³ł":9523,"Ġì°¾ëĬĶ":9524,"ë§ĮìĿĺ":9525,"Ġimposs":9526,"Ġdetermines":9527,"ĠGyeongsang":9528,"Ġsudden":9529,"Ġtransition":9530,"Ġaccounting":9531,"Ġneighbor":9532,"Ġcycle":9533,"Ġìŀĩ":9534,"Ġë²¡":9535,"Ġbecoming":9536,"Ġflo":9537,"íħĮëĤĺ":9538,"ìĦľê°Ģ":9539,"ë§¨":9540,"Ġëĭ¤ìĨĮ":9541,"Ġë³ĢíĻĶìĹĲ":9542,"Ġëį§ë¶ĻìĺĢëĭ¤":9543,"Ġiron":9544,"ê°ĢëĿ½":9545,"Ġ44":9546,"Ġpositions":9547,"rist":9548,"ìĬĲ":9549,"ĠìĿ´ëĵ¤ìĿĺ":9550,"usive":9551,"Ġê·¸ëĵ¤ìĿĺ":9552,"Ġagreed":9553,"Ġíĺ¸íĿ¡":9554,"ëħ¸ëıĻ":9555,"Ġíİ¸ìķĪ":9556,"ĠìŀĪìĿĦê¹ĮìļĶ":9557,"Ġì½Ķë¡ľëĤĺë°ĶìĿ´ëŁ¬ìĬ¤":9558,"Ġsilicon":9559,"Ġpursuant":9560,"Ġëĵ¯":9561,"Ġíİľ":9562,"ĠíĺķìĦ±ëĲĺìĸ´":9563,"Ġì±ĦíĥĿ":9564,"Ġì»´íĵ¨íĮħ":9565,"Ġnort":9566,"ëª¬":9567,"ĠíĮ½":9568,"Ġìĺ¤ë¸Į":9569,"Ġìŀ¬ë£Įë¥¼":9570,"íķĺìĺĢìľ¼ë©°":9571,"ĠOrgan":9572,"ìĬ¤ìĻĢ":9573,"Ġtrain":9574,"Ġchain":9575,"ĠTem":9576,"Ġì¶ľë°ľ":9577,"ĠìĹħëį°ìĿ´íĬ¸":9578,"ications":9579,"ĠIC":9580,"Ġëħ¸ëĵľ":9581,"Ġplaying":9582,"Ġfeeling":9583,"ameters":9584,"Ġstim":9585,"Ġpersons":9586,"Ġaluminum":9587,"ì²©":9588,"ìĹ°íķ©":9589,"ĠíĬ¹íĹĪ":9590,"arket":9591,"Ġextended":9592,"Ġì¶©ê²©":9593,"Ġanten":9594,"Ġreturned":9595,"Ġregardless":9596,"Ġlaunched":9597,"ij":9598,"Ġwish":9599,"êµŃìĹĲ":9600,"ĠëĶĶìŀĲ":9601,"Ġëĭ¹íķ´":9602,"Ġsuccessful":9603,"ë¡ľìĦľìĿĺ":9604,"ĠìĦ¼íĦ°":9605,"Ab":9606,"Ġion":9607,"Ġmer":9608,"asion":9609,"Ġìľłì²´":9610,"ĠëĤĺìĻĢ":9611,"ĠìłĢëł´":9612,"ìĿ´ëĿ¼ë©°":9613,"ĠìĤ´ìķĦ":9614,"Ġeveryone":9615,"Ġgreatly":9616,"ĠìłľíĴĪìĹĲ":9617,"Prov":9618,"ĠIndustrial":9619,"Ġìĭ¬ê°ģíķľ":9620,"Ġìĭ¤ì²ľ":9621,"IP":9622,"che":9623,"ìĽĲê³¼":9624,"ĠìĿ´ìļ©íķ´":9625,"Ġíģ¬ê¸°":9626,"Ġhyper":9627,"Ġê³µê°ĦìĿĦ":9628,"Ġentering":9629,"gent":9630,"ê³łëĬĶ":9631,"âĢľ":9632,"Ġë¬¸ìłľëĬĶ":9633,"Ġë²ķìĿ¸":9634,"ĠìĻĦìłĦ":9635,"Ġì¹¨íķ´":9636,"ĠìĿ´ë²¤íĬ¸":9637,"ĠElectronics":9638,"Consid":9639,"Ġrecess":9640,"Ġmist":9641,"olute":9642,"ì¡°ì§ģ":9643,"Ġelectrically":9644,"Ġë¶Ģë¶ĦìĿĢ":9645,"Ġfocusing":9646,"Ġpartners":9647,"Ġattack":9648,"Ġë°ĿíĺĢ":9649,"Ġì¼ĢìĿ´ë¸Ķ":9650,"Ġfelt":9651,"Ġê·¸ìĹĲ":9652,"Ġplants":9653,"ì§ĪìĿĦ":9654,"Ġteaching":9655,"ëĭĺìĿĺ":9656,"Ġraising":9657,"Ġgenerator":9658,"ë®¤":9659,"Ġinevit":9660,"vered":9661,"Ġìĭ¸":9662,"ĠìķĮíĤ¬":9663,"Ġêµ¬ë¹Ħíķľ":9664,"ĠìĬ¤ìľĦì¹ĺ":9665,"ĠìĨĮíĨµ":9666,"ĠìĪł":9667,"Ġë²łíĬ¸ëĤ¨":9668,"Ġcounsel":9669,"Ġlab":9670,"íĻĶíķł":9671,"Ġshar":9672,"Ġthroughout":9673,"Ġinstru":9674,"Ġfundament":9675,"Ġexperienced":9676,"ĠìłĬìĿĢ":9677,"Ġever":9678,"Ġìľłëªħ":9679,"íķŃê³µ":9680,"íķĺìĭľë©´":9681,"Ġmenu":9682,"Ġfeedback":9683,"local":9684,"Ġê°ĢëıĻ":9685,"ĠìĦłë°ľ":9686,"ĠíİĮíĶĦ":9687,"ë¦°ëĭ¤":9688,"ĠíĥĢëĭ¹":9689,"Ġelectroly":9690,"ëĲĺìĹĪê³ł":9691,"Ġprotective":9692,"ìĦ¸ê¸°":9693,"Ġrecip":9694,"Ġë§¤ê°ľ":9695,"Ġê´Ģëł¨íķ´":9696,"Ġspecified":9697,"ĠìĥģíĻ©ìĿ´":9698,"Ġtrees":9699,"Ġê°Ģì¤ĳ":9700,"ìĹ¬íĸī":9701,"apor":9702,"ê²½ìĿĦ":9703,"ĠRo":9704,"Ġarrest":9705,"íĸĪëĬĶëį°":9706,"Ġbroadcasting":9707,"Ġconventional":9708,"IA":9709,"hoon":9710,"ìĥģíĴĪ":9711,"ĠAt":9712,"Ġíķľìłķ":9713,"Ġ51":9714,"ĠëįĶë¶Īìĸ´":9715,"Ġê¸°ìĹħìĿ´":9716,"ĠëģĬ":9717,"Ġwrite":9718,"Ġëª¨ëį¸ìĿĦ":9719,"ployment":9720,"Ġcontroversy":9721,"Ġì§Ħìŀħ":9722,"ìħĪë¸Ķ":9723,"44":9724,"Ġdensity":9725,"Ġìľłì¹ĺ":9726,"ëĳĲê³ł":9727,"ìĬ¤íħĮë¥´":9728,"ĠìĭľëĮĢ":9729,"ĠYou":9730,"ĠìĿ´ìļ©íķĺëĬĶ":9731,"Ġplas":9732,"Ġamb":9733,"ĠìĭľìĬ¤íħľìĹĲ":9734,"Ġentrance":9735,"ìĤŃ":9736,"ìģĺ":9737,"ĠCP":9738,"ĠìĬĪ":9739,"oxide":9740,"ĠSa":9741,"Ġë§Īì¼ĢíĮħ":9742,"Ġbrain":9743,"ĠìĥĪë¡ľ":9744,"ĠìĨĲìĭ¤":9745,"Ġbelieved":9746,"ĠëĮĢë¶Ģë¶ĦìĿĺ":9747,"care":9748,"ĠReg":9749,"ë´¤":9750,"Ġresponsible":9751,"ĠìĦŃì·¨":9752,"Ġsust":9753,"ĠíĺĳìĿĺ":9754,"oxy":9755,"Ġì¶©ë¶Ħíķľ":9756,"ê±°ëĵłìļĶ":9757,"Ġseal":9758,"ĠìłĦìŁģ":9759,"ìĨĮëĬĶ":9760,"ĠíĻľë°ľ":9761,"ĠFrance":9762,"ĠNa":9763,"Ġrevised":9764,"Ġcentury":9765,"eed":9766,"ì£¼ë¥¼":9767,"Ġactions":9768,"Ġgroove":9769,"chnology":9770,"Ġfreed":9771,"print":9772,"Ġprediction":9773,"Ġpus":9774,"ingu":9775,"Ġdream":9776,"Ġprohib":9777,"Ġì¢ħìĸĳ":9778,"Ġì·¨ìķ½":9779,"Ġelim":9780,"Ġguidelines":9781,"Ġdelic":9782,"Ġê²½ìļ°ìĹĲëıĦ":9783,"ĠìĽĲê²©":9784,"Ġreasonable":9785,"Ġimpossible":9786,"ìĿ´ìĿµ":9787,"Ġì§Ģì¶ľ":9788,"Ġabroad":9789,"ëł¤ë©´":9790,"ĠëĨįìĹħ":9791,"ĠìĥĿíĥľ":9792,"ĠState":9793,"Ġcash":9794,"containing":9795,"Ġê¸°ë°ĺíķĺìĹ¬":9796,"free":9797,"Ġfishing":9798,"Ġhouses":9799,"ìķĮê²łìĬµëĭĪëĭ¤":9800,"âī¤":9801,"Ġwalk":9802,"Ġelectricity":9803,"ĠìĿ¼ìĸ´":9804,"ë¥ĺìĿĺ":9805,"ĠíĮĲìłķ":9806,"ĠëĵľëĿ¼ìĿ´":9807,"ĠCS":9808,"Ġì¹ĺíĻĺ":9809,"Ġstrip":9810,"Ġìĭ¤ìĭľìĺĪìĹĲìĦľ":9811,"Ġcorrection":9812,"Ġjoined":9813,"Korea":9814,"TE":9815,"Ġstyle":9816,"Ġ39":9817,"Ġëĵ±ìĿĢ":9818,"Ġabnorm":9819,"ĠêµŃë¦½":9820,"ĠìĻĦìĦ±":9821,"Ġidentity":9822,"insula":9823,"ĠSNS":9824,"Ġì°¬":9825,"ë²ķìĥģ":9826,"Ġìĸ´ëłĪìĿ´":9827,"Ġê±°ë¶Ģ":9828,"Ġì½Ķëĵľ":9829,"Ġdepth":9830,"Ġstra":9831,"Ġshares":9832,"íķĺìħ¨":9833,"ĠìŀĲê¸Ī":9834,"ĠWon":9835,"Ġëªħìĭľ":9836,"ĠêµŃê°ĢìĿĺ":9837,"Ġê½ĥ":9838,"Ġnice":9839,"ĠAff":9840,"Ġwashing":9841,"ëĵłì§Ģ":9842,"Ġì°¾ê³ł":9843,"ĠìĪĺìĭłëĲľ":9844,"inations":9845,"ĠìĿ´ìĿĺ":9846,"ĠìĿ´ê³³":9847,"Ġìĭ¤ìĭľê°Ħ":9848,"ĠìĥĿìĦ±íķĺëĬĶ":9849,"Ġë°ĶìĿ´ìĺ¤":9850,"Ġseek":9851,"ĠDynasty":9852,"ĠíķłìĿ¸":9853,"encing":9854,"Ġëĭ¨ë§Ĳê¸°":9855,"Ġê²©ë¦¬":9856,"Ġë©Ķìĭľì§Ģë¥¼":9857,"Ġì¡°ì¹ĺë¥¼":9858,"ĠìĿ¼ìĥģ":9859,"uble":9860,"eneration":9861,"Ġëª©ë¡Ŀ":9862,"ìķ¡ìĿĢ":9863,"Ġsecured":9864,"ĠíķĻìĥĿëĵ¤ìĿ´":9865,"Ġfan":9866,"ìĦ¯":9867,"Ġìĺµ":9868,"alled":9869,"ëĭ¹ìĿ´":9870,"ĠìĦłìĥĿ":9871,"Ġìĺ¤íĶĦ":9872,"ĠìłĲìĿ´":9873,"ĠìĪľíĻĺ":9874,"Ġlimitations":9875,"ĠìŀĦìĿĺìĿĺ":9876,"osan":9877,"Gyeong":9878,"Ġì§ĢëĬ¥":9879,"ĠDis":9880,"ĠìķĮë£¨ë¯¸ëĬĦ":9881,"ĠëĨĴìĿ´":9882,"Ġìķ½ìĨį":9883,"Ġë¶Ģë¶ĦìĿ´":9884,"Ġìłľì¡°íķĺëĬĶ":9885,"Ġêµ¬ë¹ĦíķĺëĬĶ":9886,"Ġblow":9887,"ìĽĢìĿ´":9888,"ĠCorporation":9889,"Ġìłķì§Ģ":9890,"êµŃë¯¼":9891,"Ġsubstit":9892,"ìłķìĥģ":9893,"Ġwithdraw":9894,"êµĲíĨµ":9895,"Ġpainting":9896,"52":9897,"Where":9898,"ilk":9899,"Ġì§Ģêµ¬":9900,"uman":9901,"ìĭłíĺ¸":9902,"Ġ43":9903,"ĠìķĬìľ¼ë©´":9904,"rench":9905,"Ġsomeone":9906,"ĠTrans":9907,"orithm":9908,"íĻĶíķĻ":9909,"Ġleak":9910,"Ġcorporation":9911,"Ġolder":9912,"ë§Įìľ¼ë¡ľ":9913,"ĠëĤ´ìļ©ìĿ´":9914,"ĠìĪĺì¤ĢìĿĺ":9915,"LG":9916,"Ġsources":9917,"Ġê¸°ì§Ģ":9918,"Ġíĥ±íģ¬":9919,"Ġíķĺê²łìĬµëĭĪëĭ¤":9920,"ups":9921,"Ġë¬¼ìĿĦ":9922,"Ġlogic":9923,"Ġsamples":9924,"Ġë¶Ģëĵľ":9925,"ustral":9926,"ê±°ìļ´":9927,"Ġcolors":9928,"íķŃìĿĺ":9929,"Ġcars":9930,"ĠìĹħì²´":9931,"Ġnearby":9932,"Ġìĥģëĭ¹íŀĪ":9933,"Ġlinear":9934,"ĠPen":9935,"andom":9936,"Ġsession":9937,"ì§Ģë©´":9938,"ĠìĿ¸ìĤ¬":9939,"ĠKoreans":9940,"Ġ2005":9941,"raft":9942,"door":9943,"Ġíİ¼ì³Ĳ":9944,"hern":9945,"Ġrank":9946,"Ġcertific":9947,"Ġtomorrow":9948,"TO":9949,"Ġcable":9950,"Ġìĭľê¸°":9951,"ĠìĺģìĹŃìĿĺ":9952,"Ġstone":9953,"ìĽĶë¶ĢíĦ°":9954,"Ġìĸĺê¸°":9955,"ë©¸":9956,"ìĿ¸ëĵ¤ìĿ´":9957,"Ġsealing":9958,"ëĭ¹ìĭľ":9959,"Ġë°ĺë©´":9960,"ĠìĨĲìĥģ":9961,"Ġentry":9962,"queous":9963,"Ġabsolute":9964,"Ġanimal":9965,"aughter":9966,"ĠìĿ´ì¤ĳ":9967,"Ġwheel":9968,"Ġcoast":9969,"Ġcovered":9970,"ĠAAAìĿĺ":9971,"Ġworked":9972,"Ġê´Ģëł¨íķľ":9973,"Ġremain":9974,"Ġconcl":9975,"ii":9976,"Ġpin":9977,"ĠìĺĨ":9978,"Ġë³´ì¦Ŀ":9979,"Ġë³´ìĻĦ":9980,"ìĹŃìĿĦ":9981,"ĠHigh":9982,"Ġtea":9983,"ĠíļĮìĤ¬ëĬĶ":9984,"Ġopposition":9985,"Considering":9986,"Ġdog":9987,"ìĽ¨":9988,"ĠPD":9989,"Ġparking":9990,"íķĺìĭľëĬĶ":9991,"Ġaspects":9992,"Ġtissue":9993,"Ġaid":9994,"Ġatom":9995,"ĠìŀĲì¹ĺ":9996,"Ġviolence":9997,"Ġìĸ´ìħĪë¸Ķ":9998,"íĮĲê²°":9999,"Ġìļ©ìłĳ":10000,"Ġcorrespond":10001,"Ġholder":10002,"Ġì»¨íĬ¸ë¡¤ëŁ¬":10003,"ëĮ":10004,"Ġdial":10005,"ìĬ¤ëŁ¬ìļ´":10006,"Ġran":10007,"ìĽĶìĹĲ":10008,"Ġíİ¸ìĿĺ":10009,"Ġêµ°ìĤ¬":10010,"Ġnursing":10011,"ĠAffairs":10012,"hab":10013,"ĠìĬ¤íı¬ì¸ł":10014,"Ġìĺ¤íŀĪëł¤":10015,"Ġoperator":10016,"Ġì²ŃëħĦ":10017,"Ġseparation":10018,"Ġê°Ģê¹Įìļ´":10019,"ĠTemple":10020,"bal":10021,"Ġê²½ê³Ħ":10022,"Ġselecting":10023,"Ġtextbook":10024,"Ġcoupling":10025,"Ġalternative":10026,"ĠìĿ´ëģĮ":10027,"ìĭľë¥¼":10028,"Ġê´Ģì¸¡":10029,"Ġcooking":10030,"ìĿĮíĮĮ":10031,"ĠWhen":10032,"ë¥łìĿĢ":10033,"Ġpasseng":10034,"Ġcontained":10035,"Ġê¸´ê¸ī":10036,"ĠSo":10037,"ëĮĢëĬĶ":10038,"ĠìĺĪë¹Ħ":10039,"Ġíĺķìĥģ":10040,"Ġadjusted":10041,"48":10042,"Ġê²½ìĤ¬":10043,"ĠìĹ°ìĤ°":10044,"Ġê²°íĺ¼":10045,"ĠëıĦëĭ¬":10046,"Ġtheme":10047,"Ġconducting":10048,"Ġstraight":10049,"ze":10050,"Ġê°ľíĺģ":10051,"exp":10052,"Ġmaintaining":10053,"ĠAfric":10054,"ĠíĶ¼ëĵľë°±":10055,"link":10056,"ĠCivil":10057,"Ġê³łë¯¼":10058,"ĠìķĪíħĮëĤĺ":10059,"Ġìļ°ìĬ¹":10060,"Ġtaxes":10061,"ĠíĻĶíķ©ë¬¼ìĿĦ":10062,"Ġcoefficient":10063,"Table":10064,"ĠíļĮìĪĺ":10065,"Ġcontrols":10066,"ë¡ľëĵľ":10067,"ĠëĤĺê°Ģ":10068,"âĢĭ":10069,"Ġemission":10070,"Ġpeak":10071,"Ġpassing":10072,"ĠíĸĪìĬµëĭĪëĭ¤":10073,"Ġê´ĢìłĲìĹĲìĦľ":10074,"íİĢ":10075,"Ġíķ©ë³ĳ":10076,"ĠìĹ´ë¦¬ëĬĶ":10077,"Ġscreening":10078,"Ġink":10079,"ìłģìľ¼ë¡ľëĬĶ":10080,"Ġarch":10081,"Ġelse":10082,"ì³¤ëĭ¤":10083,"Ġalgorithm":10084,"ECD":10085,"uction":10086,"ìļ°ëĬĶ":10087,"Ġë¬¸ìłľìĹĲ":10088,"ĠíĥĢìŀħ":10089,"ĠìłĢíĿ¬ëĬĶ":10090,"aught":10091,"ĠëıĪìĿĦ":10092,"alty":10093,"Ġunion":10094,"Ġë§¤ì²´":10095,"ĠìŀĪìĹĪëįĺ":10096,"Ġlinked":10097,"ì»¨ëĮĢ":10098,"ìĿ¸ê³µ":10099,"ulations":10100,"ìĭłì²Ń":10101,"ĠìķĦì¹¨":10102,"ĠíĿĳ":10103,"ëŁ¼íĶĦ":10104,"Ġìĭ¶ìĸ´ìļĶ":10105,"ì¯":10106,"ëį´":10107,"ĠìľłìĹ°":10108,"ĠíİĢ":10109,"ĠìłĪëĮĢ":10110,"Ġì±Ħë¬´":10111,"Ġclassification":10112,"Ġtrading":10113,"ìĿ¸ìĹĲê²Į":10114,"ĠPublic":10115,"Ġstoring":10116,"ET":10117,"Ġmaster":10118,"Ġalthough":10119,"Ġíı´":10120,"Ġíģ¬ëĭ¤":10121,"Ġdepart":10122,"Ġëª»íķĺëĬĶ":10123,"Des":10124,"Your":10125,"ìĤ¬ëŀĮ":10126,"Ġfacing":10127,"Ġexcluded":10128,"ĠìłĦì§Ģ":10129,"ests":10130,"Ġëį°ìĿ´íĦ°ìĹĲ":10131,"êµ°ìĿĺ":10132,"hereinafter":10133,"ìķĪìĿ´":10134,"Ġacts":10135,"ĠâĢĭ":10136,"ìķĺìĬµëĭĪëĭ¤":10137,"tainment":10138,"ë¦°ëįĶ":10139,"Ġëª©ìĨĮ":10140,"Ġìĭľê°ĦìĹĲ":10141,"ari":10142,"Ġwholes":10143,"ì£¼ë¡ľ":10144,"Ġcomparison":10145,"Ġê´Ģê³Ħê°Ģ":10146,"Ġë¹Ħìľ¨ìĿ´":10147,"ĠInsurance":10148,"Ġfreedom":10149,"ìłĦìĿĺ":10150,"ê·¸ë¦¼":10151,"ĠëıĻë°ĺ":10152,"Ġìļ°ëł¤ê°Ģ":10153,"ìĿ´ëĵ¤":10154,"Ġì£¼ê³ł":10155,"Ġchick":10156,"íĳľë¥¼":10157,"Ġreception":10158,"ĠìĤ¬ëŀĮìĿĢ":10159,"ĠìĿ¼ë°ĺìłģìĿ¸":10160,"Ġproposal":10161,"Ġnarrow":10162,"May":10163,"xy":10164,"ĠìĿ¸íķĺìĹ¬":10165,"ëłĪìĿ¸":10166,"ë°ĺë©´":10167,"ĠìĮĵ":10168,"ĠâĢĭâĢĭ":10169,"íķ´ë³´":10170,"Ġê·¸ë¦¬":10171,"ë¬¸ìĿ´":10172,"ìŀ¬ìĿĺ":10173,"Ġkit":10174,"ë§Īì§Ģë§ī":10175,"ĠìļĶê±´":10176,"ë¥ĺê°Ģ":10177,"Ġë§ĲìĿĦ":10178,"ĠíĮĮíĬ¸ëĦĪ":10179,"Ġasset":10180,"ëĵ¯ìĿ´":10181,"Ġcoronavirus":10182,"ë¶ĢìĹĲìĦľ":10183,"Ġê·¸ëĥ¥":10184,"ĠëĤĺìĦł":10185,"Ġperforms":10186,"Ġì´Īëŀĺ":10187,"olice":10188,"Ġë°ľíĺĦ":10189,"ĠëĤ´ëħĦ":10190,"ĠGeneral":10191,"Ġparameters":10192,"ìļ°ë¦¬ëĤĺëĿ¼":10193,"Ġë¬¼ì§ĪìĿĦ":10194,"gg":10195,"Ġë³µì§Ģ":10196,"Ġaudience":10197,"Ġsubmit":10198,"ë¥Ļ":10199,"Ġhuge":10200,"ĠìĿ´ë¥¸":10201,"ê²ĮìŀĦ":10202,"ìķĪìĹĲ":10203,"ĠìĿ´ìĥģìĿ´":10204,"Ġì¡¸":10205,"Ġê¶Įë¦¬":10206,"ê°ĢìĹĲ":10207,"Ġ230":10208,"ĠDC":10209,"Ġblue":10210,"Ġheadquarters":10211,"ĠíĬ¸ë¦¬":10212,"Ġìĸ¸ìĸ´":10213,"íĭ¸ëłĮ":10214,"Japan":10215,"oma":10216,"ìĹ¬ëŁ¬":10217,"Ġìľłì¶ľ":10218,"ê¸ĪìĿĢ":10219,"ĠìĨįëıĦ":10220,"Ġtowards":10221,"ĠPrime":10222,"au":10223,"ĠëĤĺë¬´":10224,"Ġíıīë©´":10225,"Ġê·¹ë³µ":10226,"ìŀī":10227,"Ġvul":10228,"Ġê³µì¤ĳ":10229,"Ġgoals":10230,"closed":10231,"Ġê³łëł¤íķĺìĹ¬":10232,"Ġë³´ìĹ¬ì¤Ģëĭ¤":10233,"Ġì£¼ìĭľê¸°":10234,"iques":10235,"ĠíĮĮìĿ´íĶĦ":10236,"ĠìłľìĻ¸íķľ":10237,"Ġvibration":10238,"SS":10239,"ìľ¼ë©´ìĦľ":10240,"Ġgender":10241,"Ġcond":10242,"ìĦ±ëıĦ":10243,"Ġadditionally":10244,"Ġparameter":10245,"Ġholes":10246,"ë£°":10247,"Ġsolvent":10248,"Ġì½ĺíħĲì¸łë¥¼":10249,"ëĵŃ":10250,"Ġë°©ìĭĿìĿĦ":10251,"Ġë°©ì¹¨":10252,"ĠAAAëĬĶ":10253,"ĠíİĦ":10254,"ees":10255,"ëł¥ìĿĢ":10256,"Ġíķľìª½":10257,"Ġìĭłìŀ¥":10258,"ĠìĬ¤ì¼Ģ":10259,"ĠíĺĲìĿĺ":10260,"entially":10261,"Ġgift":10262,"Ġworry":10263,"ĠìłĢëħģ":10264,"ĠThere":10265,"Ġdespite":10266,"Ġnozz":10267,"ĠìĻĦë²½":10268,"Ġíļ¡":10269,"irector":10270,"Ġì¶ľìĭł":10271,"ë³ĢíĻĶ":10272,"IT":10273,"Ġtow":10274,"ê²Ł":10275,"ĠëĮĢë²ķ":10276,"Ġì§Ģíķĺ":10277,"ĠBaek":10278,"ĠSeo":10279,"Ġreinfor":10280,"ìĨĮë¹Ħ":10281,"ëł¥ê³¼":10282,"Ġì¼Ģ":10283,"Ġdelayed":10284,"Ġresearchers":10285,"37":10286,"section":10287,"Ġones":10288,"Ġchance":10289,"ìĦ¸ëĮĢ":10290,"Ġê°ľìŀħ":10291,"Ġsaving":10292,"Ġstructures":10293,"Ġownership":10294,"Ġorders":10295,"Ġcombustion":10296,"Ġmembrane":10297,"Ġplasma":10298,"ķìĭľ":10299,"asure":10300,"ĠCT":10301,"ĠìĨĮìłķ":10302,"Ġclothes":10303,"Ġaccidents":10304,"Ġëį°ìĿ´íĦ°ëĬĶ":10305,"Ġgrand":10306,"ĠëĬ¥ëł¥ìĿĦ":10307,"rogen":10308,"umb":10309,"Ġ2006":10310,"Ġflows":10311,"ĠìĿ´ìĤ¬":10312,"Ġstri":10313,"ĠCan":10314,"illing":10315,"Ġneural":10316,"Ġë°°ìĦł":10317,"ĠWelfare":10318,"Ġtested":10319,"iled":10320,"ì½Ķìĺ¬":10321,"Ġë¸ĮëĿ¼ì§Ī":10322,"ëĿ¼ìļ°ëĵľ":10323,"Ġsquare":10324,"iers":10325,"ĠìĤ¬ëĬĶ":10326,"Ġdisaster":10327,"íķĺê¸°ìĹĲ":10328,"Ġarbit":10329,"ĠWe":10330,"Ġíļ¨ìľ¨ìłģìľ¼ë¡ľ":10331,"Ġì²ĺìĿĮìľ¼ë¡ľ":10332,"fessor":10333,"ĠíķĺìĿ´":10334,"íĶĦëĿ¼":10335,"Ġcarrying":10336,"kg":10337,"Ġspot":10338,"place":10339,"íĺķìľ¼ë¡ľ":10340,"Ġì»¤íĶ¼":10341,"Ġê°Ģê²©ìĿ´":10342,"Ġdestination":10343,"Ġë§ŀì¶°":10344,"Ġì»¬ëŁ¬":10345,"46":10346,"Ġstabil":10347,"ades":10348,"ĠìĥĿì²´":10349,"Ġcopper":10350,"ìĭ¬ìĿĦ":10351,"Ġextent":10352,"ëģĦ":10353,"ĠíĿ¡ì°©":10354,"Ġturb":10355,"Ġenact":10356,"Ġhelps":10357,"Ġìĺ¤ë¸ĮìłĿ":10358,"ìĿ´ê²Į":10359,"ĠìĪĺìĥģ":10360,"Ġë°ľëªħíĴĪìĿĢ":10361,"Ġconclud":10362,"Ġê¸°ëĬ¥ìĿ´":10363,"Ġcalculating":10364,"ĠìĦ±ê²©":10365,"Ġlegislation":10366,"Ġinlet":10367,"íĬ¸ë¦¬":10368,"Unlike":10369,"ì¤ĺ":10370,"rupt":10371,"Ġalkyl":10372,"my":10373,"Ġchronic":10374,"Ġagencies":10375,"Ġë¶Īê°ĢëĬ¥":10376,"Ġbuildings":10377,"ĠëĮĢíĨµëł¹ìĿĢ":10378,"Ġkinds":10379,"ĠíĴįë¶Ģ":10380,"FA":10381,"Ġisland":10382,"Ġusage":10383,"Ġdrain":10384,"ëĲĺìĹĪìľ¼ë©°":10385,"ĠìķĮê³łë¦¬ì¦ĺ":10386,"Ġì§ĢìłģíĸĪëĭ¤":10387,"IM":10388,"osc":10389,"ëŀ©":10390,"ìĿ¼ìĿĢ":10391,"Ġrefund":10392,"Ġblade":10393,"Ġremoving":10394,"¾Į":10395,"atch":10396,"Ġreject":10397,"ìŀ¬ê°Ģ":10398,"Ġì¦Ŀëªħ":10399,"Ġëļľ":10400,"Ġreven":10401,"Ġgear":10402,"Ġì¶Ķêµ¬":10403,"Ġê²°ìłķëĲľ":10404,"Ġìłķì±ħìĿĦ":10405,"ĠìĥģíĴĪìĿĦ":10406,"Ġmovable":10407,"Ġhorizontal":10408,"ĠAdministration":10409,"Us":10410,"Ġclos":10411,"Ġêµ¬ìĦ±íķĺëĬĶ":10412,"Ġmolding":10413,"PD":10414,"ull":10415,"ĠìĨĮìļĶ":10416,"ĠìĬ¤íĶ¼":10417,"ube":10418,"ë²Īì§¸":10419,"Ġportable":10420,"Ġextend":10421,"Ġcomfortable":10422,"ĠíĶ½ìħĢ":10423,"wise":10424,"Ġcos":10425,"Ġforces":10426,"ë§Ľ":10427,"ë©´ìĿ´":10428,"ĠCulture":10429,"thern":10430,"Ġë©ĶìĿ¸":10431,"ĠìĬ¹ìĿ¸":10432,"iliary":10433,"Ġê¼½":10434,"ĠìĹ°ê´ĢëĲľ":10435,"Res":10436,"Ġdanger":10437,"Ġì°¨ìĿ´":10438,"Ġinsu":10439,"Ġbrief":10440,"Ġê·ľìłķíķĺê³ł":10441,"flow":10442,"íĥĳ":10443,"ĠìĿ¸ê¶Į":10444,"Ġë©¤":10445,"ĠìłĲìĿĢ":10446,"Ġeffectiveness":10447,"Ġargued":10448,"¿Į":10449,"ĠCup":10450,"ĠDa":10451,"Ġë°°ìłľ":10452,"Ġtaxation":10453,"Ġë¨¹ìĿĦ":10454,"Ġhistorical":10455,"ĠìĹĺë¦¬":10456,"ĠëıĦíı¬":10457,"Ġactu":10458,"ĠêµĲì²´":10459,"Ġscrew":10460,"Ġìļ´ìļ©":10461,"ĠêµĲìľ¡ìĿĦ":10462,"ĠScience":10463,"chain":10464,"Ġstack":10465,"Ġherein":10466,"ê°Ķëĭ¤":10467,"ìĥģìĹĲìĦľ":10468,"Ġì§Ģì¼ľ":10469,"Ġnothing":10470,"Ġíķľê³Ħ":10471,"íĶĦë¦¬ì¹´":10472,"Ġplays":10473,"Ġíıīê°Ģë¥¼":10474,"Ġì°½ìĿĺ":10475,"Ġguidance":10476,"Ġemotional":10477,"ëıĪ":10478,"Ġëħ¸ìĿ¸":10479,"ĠìŀĦê³Ħ":10480,"Ġoccurrence":10481,"Ġchannels":10482,"Ġonto":10483,"Ġexem":10484,"ocy":10485,"Ġíı¬íķ¨íķĺìĹ¬":10486,"ĠWh":10487,"Ġêµ¬ìĦ±ìļĶ":10488,"Ġvector":10489,"Ġimmun":10490,"Ġhur":10491,"ĠìĿ´ê±°":10492,"íļĮëĭ´":10493,"Ġtransistor":10494,"Ġì²ĺë¦¬ë¥¼":10495,"ĠìĤ¬ëŀĮëĵ¤ìĿĢ":10496,"Ġacquire":10497,"ĠìĿ´ìłĦìĹĲ":10498,"icated":10499,"etr":10500,"Ġseed":10501,"ĠHa":10502,"akers":10503,"Ġpresentation":10504,"ĠìļĶìĨĮë¥¼":10505,"olymer":10506,"Ġautonomous":10507,"Ġê²¨ìļ¸":10508,"51":10509,"standing":10510,"Ġìĭ¤ëĤ´":10511,"Ġcloud":10512,"Ġconcrete":10513,"ĠìĸĳìĿĺ":10514,"ĠíĶĮëŀľ":10515,"afety":10516,"ĠíĿ¥ë¯¸":10517,"ìĵ°":10518,"Ġantenna":10519,"hered":10520,"íĦ°ìĿĺ":10521,"Ġê³µìłķìĿĦ":10522,"ëłĪìĿ´ìħĺ":10523,"ĠìĤ¬ìĭ¤ìĥģ":10524,"Ġcaught":10525,"ìĬĺ":10526,"ĠìĪĺíıī":10527,"usband":10528,"Ġdecline":10529,"ì¸µìĿ´":10530,"ĠStream":10531,"Ġëĭµë³Ģ":10532,"ëľ¨":10533,"ĠpH":10534,"ì¤ĳìķĻ":10535,"Ġsupports":10536,"Ġëī´ìļķ":10537,"ĠìĦłë°ķ":10538,"ĠíķĺëĤĺë¡ľ":10539,"ĠìłľíĴĪìĿ´":10540,"Ġì¦Ŀê°Ģíķĺê³ł":10541,"ë°©íĸ¥ìľ¼ë¡ľ":10542,"Ġlaunch":10543,"Ġinning":10544,"Ġë§º":10545,"ĠìĥģìĦ¸":10546,"ì¡°ë¥¼":10547,"ìľĦëĬĶ":10548,"Ġrod":10549,"Ġpromoting":10550,"Ġlisted":10551,"Ġmeaningful":10552,"ìĭľíĤ´":10553,"Ġë¬»":10554,"Ġìŀ¬ë¯¸":10555,"Dis":10556,"Ġmental":10557,"ì£¼ìĹĲ":10558,"Ġë¯¸ì¹ł":10559,"ì§ĪìĿĺ":10560,"Ġdeterior":10561,"Ġgenerates":10562,"ĠíİĺìĿ´":10563,"RI":10564,"Ġë¶Ģê°Ģ":10565,"ë°ľìłĦ":10566,"Ġgrant":10567,"ĠìĪľê°Ħ":10568,"Ġì¤ĳíķ©ì²´":10569,"Ġefficiently":10570,"ĠOrganization":10571,"ĠìłĦíĮĮ":10572,"ĠAustral":10573,"ĠìĻ¸ì¸¡":10574,"Ġì²ĺë²Į":10575,"Ġrotating":10576,"Ġcancell":10577,"uum":10578,"Ġë¯¸ì¹ľ":10579,"Ġelectron":10580,"Ġë§ŀì¶¤":10581,"Art":10582,"uff":10583,"Ġgirl":10584,"Ġêµ¬ìĦ±ëĲł":10585,"Ġ112":10586,"ĠìĤ¬ëŀĮìĿĺ":10587,"Ġì¶©ëıĮ":10588,"ìłķë³´ë¥¼":10589,"Ġëª©ìłģìĿĢ":10590,"ĠìĿ¼ìłķíķľ":10591,"ëľ»":10592,"press":10593,"Ġë¹¼":10594,"ìļ¸ëŁ¬":10595,"SK":10596,"êº¼":10597,"orn":10598,"ìĭ¼":10599,"íĬ¸ë¦Ń":10600,"ĠìŀĲê°Ģ":10601,"ĠìłĲìĿ´ëĭ¤":10602,"Ġcurrency":10603,"Ġguard":10604,"Ġplanned":10605,"ĠìĮįìĿĺ":10606,"±ħ":10607,"Ġunlike":10608,"ĠìķĪë³´":10609,"ĠUl":10610,"ìľ¨ìĿĢ":10611,"Ġì¢ħìĤ¬":10612,"Ġdivers":10613,"ì¶Ķìĸ´":10614,"Ġwidely":10615,"Ġobligation":10616,"ìľłëŁ½":10617,"Ġê°Ĳìłķ":10618,"ìļ´ìĺģ":10619,"Ġì§ĢìĹŃìĹĲìĦľ":10620,"Ġdirectors":10621,"ĠìĺĪìĥģëĲľëĭ¤":10622,"Ġfibers":10623,"Ġê°ķëł¥íķľ":10624,"ë¦ī":10625,"Ġpros":10626,"ĠìŀĪìĬµëĭĪê¹Į":10627,"oper":10628,"Ġpret":10629,"Ġê°Ħê²©":10630,"ĠíĮĲëıħ":10631,"Ġslightly":10632,"Ġcentered":10633,"ĠíĭĢ":10634,"Ġsuspension":10635,"Ġesc":10636,"Ġclosely":10637,"Ġnewsp":10638,"Ġderiv":10639,"Ġexcessive":10640,"Ġvessel":10641,"Ġanc":10642,"ctors":10643,"unch":10644,"ĠíĺķìĤ¬":10645,"ì¦Ŀê¶Į":10646,"ĠìŀĪìľ¼ë¯Ģë¡ľ":10647,"Ġfilled":10648,"Good":10649,"Lee":10650,"orter":10651,"Ġrandom":10652,"ĠëĶ¸":10653,"ìĤ°ìĿ´":10654,"Ġrow":10655,"Ġregister":10656,"Ġtiming":10657,"íķĺë¯Ģë¡ľ":10658,"ê¸°ê¸°":10659,"ì¸µìĿĢ":10660,"Ġhumans":10661,"ìŀĸìķĦ":10662,"ĠìłĦê°ľ":10663,"Ġcreative":10664,"Ġíļ¨ê³¼ìłģìľ¼ë¡ľ":10665,"ìĩ¼":10666,"ĠíķĻìĥĿëĵ¤ìĿĺ":10667,"ĠMedical":10668,"Ġtemporary":10669,"TV":10670,"ìĿ´ëķĮ":10671,"Ġexposure":10672,"Ġìŀħìŀ¥ìĿĦ":10673,"íģ´ë¡ľ":10674,"ĠTrump":10675,"ëŁīìĹĲ":10676,"ë§īìĿĦ":10677,"íĥĦìĨĮ":10678,"Ġprofessor":10679,"Ġrestaurants":10680,"ì¯¤":10681,"Ġice":10682,"Ġbab":10683,"Ġsupplies":10684,"Ġinfrastructure":10685,"Ġremove":10686,"ĠDemocratic":10687,"Ġsimultaneously":10688,"Ġì§Ģì¹¨":10689,"Ġ46":10690,"Ġfinally":10691,"Ġsays":10692,"Ġì²¨ë¶Ģ":10693,"Ġbearing":10694,"Ġì£¼ê¸°":10695,"ë¬¸ìĹĲ":10696,"ĠìĥĿë¬¼":10697,"Ġìłľê³µíķĺê¸°":10698,"Ġìŀ¬ë¬´":10699,"Ġëħ¸ì¦Ĳ":10700,"ĠíĿĺ":10701,"urthermore":10702,"Ġestablishing":10703,"Ġë¡¤ëŁ¬":10704,"Ġdur":10705,"ĠíķĺëĤĺëĬĶ":10706,"ĠìĿĮë£Į":10707,"certain":10708,"Ġunfair":10709,"Ġê¾¸ì¤Ģ":10710,"Ġìłķë°Ģ":10711,"Ġnotification":10712,"íĮĶ":10713,"ëį°ìļĶ":10714,"Ġì±ħìŀĦìĿĦ":10715,"Ġanimals":10716,"ìłľìĸ´ë¶Ģ":10717,"Ġì¤ĳìĿ´ëĭ¤":10718,"Ġëįľ":10719,"ĠìĹ¬ìŀĲ":10720,"Ġìłķë³´ìĿĺ":10721,"Ġsets":10722,"Ġinflamm":10723,"Ġì¦īìĭľ":10724,"lymp":10725,"êµ¬ìĦ±":10726,"ĠìĦ¤ì¹ĺëĲľ":10727,"ĠíĥĲìĥī":10728,"Ġcylind":10729,"ìĹĲëĦĪ":10730,"Ġbid":10731,"ë°©ìĿĦ":10732,"ĠíĪ¬ê³¼":10733,"Ġprobability":10734,"íĺĦì§Ģìĭľê°Ħ":10735,"ì§Ģê¸°":10736,"Ġê°Ģêµ¬":10737,"Ġnumer":10738,"Ġcollabor":10739,"Provided":10740,"Just":10741,"sa":10742,"hee":10743,"hel":10744,"Ġcm":10745,"Ġscen":10746,"ferent":10747,"undai":10748,"Ġclaims":10749,"pass":10750,"Ġvary":10751,"Ġpatent":10752,"Ġìĥģëĭ¹íķľ":10753,"Ġhusband":10754,"Ġê°ķìłľ":10755,"Ġë¬¼ë¦¬":10756,"Ġìłľìĸ´íķĺëĬĶ":10757,"ê½ĥ":10758,"Ġexports":10759,"ĠëĨĴê²Į":10760,"Ġê°ĦìĹĲ":10761,"Another":10762,"ĠìĦłíĥĿíķł":10763,"Ġê²½íĹĺìĿ´":10764,"ĠSpecial":10765,"Ġì£¼ì£¼":10766,"Ġintended":10767,"ĠìµľëĮĢíķľ":10768,"Ġvacation":10769,"Ġfight":10770,"ĠìĪĺëĤ©":10771,"Ġpartially":10772,"ê¹Įì§ĢìĿĺ":10773,"riage":10774,"Ġcouldn":10775,"Ġ170":10776,"Ġë°ĺìĿĳìĿĦ":10777,"56":10778,"ì§ĵ":10779,"pport":10780,"opl":10781,"ĠíķĺìľĦ":10782,"Ġmetropolitan":10783,"Ġë¹ħ":10784,"Ġnumbers":10785,"Ġfacilit":10786,"Ġë¯¼ê°Ĳ":10787,"party":10788,"Ġìłľìłķ":10789,"ĠëĮĢíĻĶ":10790,"ìľĦë¡ľ":10791,"rene":10792,"Ġadjusting":10793,"Ġindependently":10794,"ascular":10795,"EC":10796,"Ġcart":10797,"Ġcreat":10798,"Ġë¬ĺ":10799,"Ġprovincial":10800,"Ġeffort":10801,"ĠëĤ¨ìĦ±":10802,"Ġpunishment":10803,"comm":10804,"ì§Ŀ":10805,"otion":10806,"ì²«":10807,"ì¶¤":10808,"Ġë§Īë¬´ë¦¬":10809,"íĶĦëłĪ":10810,"Ġë¹Ħì¦ĪëĭĪìĬ¤":10811,"ÃĹ":10812,"ores":10813,"emy":10814,"opic":10815,"Ġamend":10816,"ê°ĲìĤ¬":10817,"ìĻ¸ìĦł":10818,"holder":10819,"amin":10820,"Ġreserv":10821,"ë¯¼ì£¼":10822,"ì²ĺë¥¼":10823,"ĠìĭĿë¬¼":10824,"Ġdistingu":10825,"ĠëĮĢìĥģìĿ´":10826,"íķĺìĺĢìĬµëĭĪëĭ¤":10827,"Ġë°±ìĭł":10828,"Ġvacuum":10829,"Ġì¢ĭìķĦíķĺëĬĶ":10830,"CS":10831,"piece":10832,"Ġsulf":10833,"Ġgather":10834,"Ġê°Ģë¡ľ":10835,"ĠCultural":10836,"Ġê´ĢëŀĮ":10837,"ĠìµľìłĢ":10838,"Ġcharges":10839,"Ġfactory":10840,"Ġviolation":10841,"Ġmixing":10842,"rep":10843,"acters":10844,"ĠìĽ¨ìĿ´":10845,"Ġinstruction":10846,"íĻķìĭ¤":10847,"ĠíŀĺìĿĦ":10848,"Ġsuspected":10849,"ographic":10850,"ê°Ģì¡±":10851,"ĠìĿ´íķĺìĿĺ":10852,"Ġinsufficient":10853,"MP":10854,"ëħ¼":10855,"Ġshock":10856,"ĠìĿĺíĺ¹":10857,"ëł¤ëĬĶ":10858,"ĠOlymp":10859,"Ġdiscovered":10860,"Ġremark":10861,"known":10862,"Ġhop":10863,"ĠKong":10864,"ĠForm":10865,"ë°©ìĹĲ":10866,"Ġì§Ħë£Į":10867,"ĠíĶĦë¦°":10868,"Ġearn":10869,"Ġfoods":10870,"ĠìľĦíĹĺìĿ´":10871,"Ġíı´ë¦¬ìĹĲ":10872,"Ġcelebr":10873,"AP":10874,"ker":10875,"Ġìķī":10876,"Ġclock":10877,"velength":10878,"Ġìŀ¬ë°°":10879,"ë°ĽìĿĦ":10880,"ê·¸ëŁ¬ë©´":10881,"ĠControl":10882,"ëĿ¼ë©´":10883,"Ġsuc":10884,"rome":10885,"ë¦¼íĶ½":10886,"ĠìĤ¬ì§ĦìĿĦ":10887,"160":10888,"ìĦ°ëĭ¤":10889,"Ġlip":10890,"Ġads":10891,"Ġtherefore":10892,"Ġexpend":10893,"ĠìĽĲë£Į":10894,"ĠìłĲì°¨":10895,"Ġì»¤ëĦ¥":10896,"Ġë²łìĿ´":10897,"ĠìķĦìĿ´íħľ":10898,"Ġë¹Ħë¡¯íķ´":10899,"Ġaward":10900,"Ġbath":10901,"Ġê°Ģìķķ":10902,"ĠìĦ±ë¦½":10903,"Ġdecor":10904,"ĠíĬ¸ëłĪìĿ´":10905,"Ġready":10906,"Ġrental":10907,"Ġnamed":10908,"Ġhem":10909,"Ġaccomp":10910,"Ġfiled":10911,"Ġê·Ģíķĺ":10912,"ë²ĶìľĦ":10913,"ĠìĪĺì¤ĢìĿĦ":10914,"Ġmanaged":10915,"Ġautomatic":10916,"01":10917,"ìŀł":10918,"ìĤ¬ê³ł":10919,"Ġë³´ìĪĺ":10920,"Ġì¢ĭìĬµëĭĪëĭ¤":10921,"Ġdim":10922,"Ġcharacters":10923,"Ġëĵ¤ë©´":10924,"ë°Ľê³ł":10925,"friendly":10926,"Ġbought":10927,"arn":10928,"ëłĢ":10929,"Ġserved":10930,"ĠInvest":10931,"ì»¤ëĭĪì¦ĺ":10932,"Ġê³ĦíļįìĿĦ":10933,"Ġmechanical":10934,"ì§ĢëĤľíķ´":10935,"Ġfoam":10936,"¶¤":10937,"ĠAm":10938,"ĠìĭľìĹĲ":10939,"ìĭ¤ìłľë¡ľ":10940,"2019":10941,"ĠChrist":10942,"ĠìĤ¬ìļ©ìŀĲìĹĲê²Į":10943,"Ġbone":10944,"Ġmir":10945,"ĠII":10946,"êµ¬ì²´":10947,"ĠUE":10948,"Ġtechniques":10949,"ĠíķĦìļĶíķĺëĭ¤ê³ł":10950,"Ġì¦Ĳê¸¸":10951,"Ġsubmitted":10952,"US":10953,"êµĲíĻĺ":10954,"Ġë°Ķëĭ¤":10955,"Ġovercome":10956,"Ġsubstance":10957,"ëĭ¹ìĭłìĿ´":10958,"Ġextracted":10959,"Ġsmartphone":10960,"Ġhab":10961,"ìĭľíĹĺ":10962,"ĠìłĦìļ©":10963,"Ġíķĺëĵľ":10964,"ĠíĶĮëĿ¼":10965,"gy":10966,"volution":10967,"za":10968,"Ġpig":10969,"Ġìłľê³µëĲĺëĬĶ":10970,"ĠìĤŃ":10971,"Ġê³Ħìķ½ìĿĦ":10972,"Ġê·ľëª¨ìĿĺ":10973,"Ġë°©ìĤ¬ìĦł":10974,"Ġbuffer":10975,"ìĦ±ìŀ¥":10976,"ĠìĦ¸íĬ¸":10977,"Ġê²Ģì°°":10978,"ĠíķĦìļĶë¡ľ":10979,"Ġëį°ìĿ´íĦ°ê°Ģ":10980,"Ġlighting":10981,"ĠëĤ®ìķĦ":10982,"Ġexpensive":10983,"Ġwearing":10984,"itative":10985,"Ġfif":10986,"ì¹ĺìĿĺ":10987,"Ġë³´ìłķ":10988,"Ġê·¸ëŁ¬íķľ":10989,"ĠíĺķìĦ±ëĲĺëĬĶ":10990,"ìħĶìķ¼":10991,"atur":10992,"ĠìłľíĴĪìŀħëĭĪëĭ¤":10993,"orders":10994,"Ġfalling":10995,"Ġì¼ĢìĿ´ìĬ¤":10996,"Ġëľ¨":10997,"Ġë°ĶëŀĮì§ģíķĺëĭ¤":10998,"Ġë§ģíģ¬":10999,"Ġtwice":11000,"itance":11001,"Ġshipping":11002,"Ġtrig":11003,"ìĭ¤ìĹĲ":11004,"ĠëĦĺëĬĶ":11005,"\")":11006,"75":11007,"ĠìĹ°ìĨĮ":11008,"Ġmanip":11009,".'":11010,"Ġrevers":11011,"íķ´ë¥¼":11012,"íķ´ëĭ¹":11013,"ĠSam":11014,"ìĭĿìĿĢ":11015,"Ġìŀħì¦Ŀ":11016,"Ġphosp":11017,"Ġaudit":11018,"Ġordinary":11019,"Ġstrengthening":11020,"Ġlatest":11021,"Ġic":11022,"Ġvill":11023,"ìłĦì²´":11024,"ĠìĤ¬ìĿ´ì¦Ī":11025,"ë°ĽëĬĶ":11026,"ĠìķĮëł¤ì§Ħ":11027,"Ġë³ĦëıĦìĿĺ":11028,"ìķĮíĤ¬":11029,"Ġdiagnosed":11030,"rs":11031,"Ġconsecut":11032,"Ġspat":11033,"Ġìłľìĸ´íķł":11034,"Ġextra":11035,"Ġì°½ìĹħ":11036,"Ġcollecting":11037,"Ġowners":11038,"Ġêµ¬ì²´ìłģìľ¼ë¡ľ":11039,"Well":11040,"ifies":11041,"Ġë³´íĨµ":11042,"ë°©ìĨ¡":11043,"Ġemployee":11044,"Don":11045,"Ġschol":11046,"ì§ĢìĹĲìĦľ":11047,"ĠìķĦìĿ´ëĶĶìĸ´":11048,"ĠìĺĪìłķìŀħëĭĪëĭ¤":11049,"Ġë¶ģíķľìĿĺ":11050,"Ġprinted":11051,"Ġexistence":11052,"Ġpension":11053,"Ġthor":11054,"chi":11055,"ĠíķĺìĺĢ":11056,"Ġë¶ĦìŁģ":11057,"Ġcalling":11058,"Ġinstitutional":11059,"ì£¼ìĭľë©´":11060,"ĠëĳĺëŁ¬ìĭ¸":11061,"ìĬ¤ëŁ½ê²Į":11062,"aign":11063,"Ġhearing":11064,"Ġarts":11065,"Ġìĭ±":11066,"Ġê°ĢìĨį":11067,"Ġê·¸ê°Ģ":11068,"ë¶ĦìŀĲ":11069,"Ġintensity":11070,"ëħĦìĿĺ":11071,"ìĺģìĹŃ":11072,"Ġë¹Ħìļ©ìĿ´":11073,"Ġsustain":11074,"Ġì£¼ì°¨":11075,"ê¹Įì§ĢëĬĶ":11076,"ĠìĻ¸ìĹĲ":11077,"ĠìĤ°ìĨĮ":11078,"Ġmajority":11079,"Ġê°Ŀì²´":11080,"Re":11081,"ĠìĹ°ê°Ħ":11082,"Ġê°Ĳìĭľ":11083,"ĠìĻ¸ìĹĲëıĦ":11084,"Ġì¢ĭëĭ¤":11085,"ĠìĦłíĥĿìłģìľ¼ë¡ľ":11086,"Ġfrequently":11087,"ëĭī":11088,"Ġenable":11089,"íİĺìĿ¸":11090,"íĺĳëł¥":11091,"Ġdiscrim":11092,"Ġminute":11093,"Ġìĭ¶ìĸ´":11094,"Ġê¸īê²©":11095,"Ġwarrant":11096,"Ġacceler":11097,"Ġmilk":11098,"ĠìĥģëĮĢë¡ľ":11099,"Ġíķĺëĭ¤":11100,"ëĭ¹íķľ":11101,"Ġinsulation":11102,"lar":11103,"ê³µìĹ°":11104,"Ġë°ľë³ĳ":11105,"Ġíķľíİ¸":11106,"ĠFood":11107,"ìĿĮìĿ´":11108,"Ġdoctor":11109,"Ġmodified":11110,"Ġë¶ĦìĦĿíķĺìĺĢëĭ¤":11111,"Ġwavelength":11112,"Ġì¡°ìĦ±ë¬¼ìĿĢ":11113,"112":11114,"iter":11115,"Ġweap":11116,"ĠFTA":11117,"íŀĺ":11118,"ìłĢíĿ¬ê°Ģ":11119,"Ġcompetit":11120,"ĠíĤ¤ìĽĮ":11121,"Ġìŀłê¸Ī":11122,"Ġcommunicate":11123,"ë®¬":11124,"Ġbreat":11125,"Ġconvers":11126,"ĠìĿ¼ëĭ¨":11127,"Ġê°ľìĿ¸ìĿĺ":11128,"Ġpromoted":11129,"ĠìķĶíĺ¸íĻĶ":11130,"Ġchicken":11131,"Ġeast":11132,"ìľ¼ë¯Ģë¡ľ":11133,"Ġspl":11134,"ensitive":11135,"íģ¬ë¦´":11136,"ĠíĮĲìłķìĿĦ":11137,"Ġwants":11138,"Ġleaders":11139,"Ġsentence":11140,"Ġinfectious":11141,"Ġrestrictions":11142,"Ġinteraction":11143,"ĠìĭĿëĭ¹":11144,"Ġchecked":11145,"Ġconnector":11146,"Ġexpectations":11147,"Ġofficer":11148,"ĠBritish":11149,"Ġtheater":11150,"Ġgest":11151,"Ġsurpris":11152,"Ġê²ĥìĿ´ë©°":11153,"Ġì°¨ëŁīìĿĺ":11154,"Ġexecutive":11155,"EG":11156,"íķĺìĿ´":11157,"ĠKyung":11158,"ĠLand":11159,"ĠìļĶë¦¬":11160,"ĠOh":11161,"Ġdescrib":11162,"Ġì·¨ìĹħ":11163,"ĠSecret":11164,"ĠPeninsula":11165,"Not":11166,"Ġbacter":11167,"Ġêµ¬ìĨį":11168,"ĠMe":11169,"íĴĢ":11170,"ìĭ¤ìĹĲìĦľ":11171,"Ġkil":11172,"Ġëĭ¹ìĹ°":11173,"Ġcapabilities":11174,"ĠìĹ°ê²°ëĲĺìĸ´":11175,"Ġì²ľìĹ°":11176,"Ġì¡°ê±´ìĿĦ":11177,"Ġgradu":11178,"Ġreliability":11179,"AI":11180,"ìĤ¬ìĿ´":11181,"ë¬¸ìĿĺ":11182,"Ġê³łëł¹":11183,"íķĻê³¼":11184,"Ġë©Ķì»¤ëĭĪì¦ĺ":11185,"Ġtesting":11186,"ĠìĪĺìĭłíķł":11187,"Ġawareness":11188,"ìļĶìĿ¼":11189,"ìĹĲê²ĮëĬĶ":11190,"Ġvalid":11191,"Ġcrimes":11192,"Ġextension":11193,"ĠêµĲìľ¡ê³¼ìłķ":11194,"Ġorganizational":11195,"iment":11196,"Ġproductivity":11197,"ĠYoon":11198,"Ġmonthly":11199,"Ġoxid":11200,"Ġremoval":11201,"cheong":11202,"Ġfal":11203,"Ġgovern":11204,"ĠLabor":11205,"Ġfinance":11206,"Ġconcer":11207,"Ġaffili":11208,"Ġpriority":11209,"ĠìĦ±ê³¼ë¥¼":11210,"Ġtitle":11211,"President":11212,"ìŀĲìĤ°":11213,"ê³ĦìĹĲ":11214,"Ġì¡°ê°ģ":11215,"Ġspray":11216,"ê´Ģê³Ħë¥¼":11217,"airperson":11218,"Ġì°¾ìĿĦ":11219,"Under":11220,"Ġìĩ¼íķĳ":11221,"Ġë°ĳ":11222,"Ġì§Ģíĸ¥":11223,"apers":11224,"ë¹ĦëĬĶ":11225,"ëħĦìĿĦ":11226,"ĠDise":11227,"ĠêµĲì°¨":11228,"Ġë©ĶíĥĢ":11229,"ĠíĥĢê²Ł":11230,"Ġruns":11231,"ëĳĶ":11232,"Ġdischarged":11233,"ĠGangwon":11234,"ĠìĬ¤íĶĦë§ģ":11235,"tical":11236,"ori":11237,"íĸīìĿĦ":11238,"ĠFrench":11239,"ĠHwang":11240,"Ġë©ĭ":11241,"ĠìłĲê²Ģ":11242,"ëª©ìĿĦ":11243,"Ġê¸°ì¤ĢìĿĦ":11244,"vious":11245,"Ġgain":11246,"Ġìľłë¡ľ":11247,"iberation":11248,"ê°ľìĿ¸":11249,"Ġreceiver":11250,"Ġíģ´ëĿ¼ìĿ´ìĸ¸":11251,"Ġjudge":11252,"Ġcritical":11253,"Ġwinning":11254,"Ġaqueous":11255,"ìĿ´ìłĦ":11256,"Ġwiring":11257,"Ġvice":11258,"ĠìĹ°ê¸°":11259,"conn":11260,"Ġíķ´ìĨĮ":11261,"ĠJust":11262,"ĠëĲĺìĹĪ":11263,"ĠCommun":11264,"Ġhimself":11265,"Ġë§Īì°¬ê°Ģì§Ģë¡ľ":11266,"ĠìĿ´ìĬĪ":11267,"ĠìĤ¬ëĿ¼":11268,"ĠCor":11269,"ëªħìĹĲ":11270,"Ġë§ĮìĦ±":11271,"Ġdrinking":11272,"Ġsituations":11273,"Ġë¨¹ëĬĶ":11274,"Ġegg":11275,"ĠíĨµìĿ¼":11276,"ĠëıĦë©´":11277,"ĠNon":11278,"Ġsensors":11279,"ky":11280,"ìľ¼ëĭĪ":11281,"ĠìĿ¸ìĥģ":11282,"ĠìĿ¸ìĪĺ":11283,"íĮ©":11284,"ĠìĦ¼ìĭ±":11285,"ê°ĻìĿ´":11286,"ê¹¨":11287,"Ġdifficulty":11288,"ëł¸ìĬµëĭĪëĭ¤":11289,"ĠKBO":11290,"Ġwest":11291,"Ġêµ¬ì²Ń":11292,"Ġfever":11293,"ëĦ¤ìĿ´íĬ¸":11294,"Ġmanufactured":11295,"íķĦìļĶ":11296,"ĠìķħíĻĶ":11297,"Ġassessment":11298,"55":11299,"ìĿ´ìĺ¨":11300,"ĠLaw":11301,"Ġretire":11302,"ĠíĬ¹ì§ķìĿĦ":11303,"Ġdamaged":11304,"mented":11305,"ĠíĨµíĻĶ":11306,"ĠìĦ¸ì²Ļ":11307,"ĠUK":11308,"Ġë¶Ģë¶Ħìłģìľ¼ë¡ľ":11309,"Ġexecuted":11310,"ĠìĤ´íİ´ë³´ë©´":11311,"Ġcriticism":11312,"Ġëĵľë¦¬ê²łìĬµëĭĪëĭ¤":11313,"Ġbow":11314,"íķ¨ìĿ´":11315,"Ġprelim":11316,"Ġíķ´ìĸĳ":11317,"Ġë¬´ìļ©":11318,"ë¯¼êµŃ":11319,"Ġì½ĶìĿ¼":11320,"Ġë³´ìĹ¬ì£¼ëĬĶ":11321,"Ġletter":11322,"Ġjoin":11323,"Ġvictims":11324,"Ġinher":11325,"ê¸ĪìĨį":11326,"Ġìĸĳíĺ¸":11327,"Ġìľµíķ©":11328,"Next":11329,"¼Ī":11330,"Ġcru":11331,"Ġfa":11332,"Ġìĭ¤ë¦°ëįĶ":11333,"104":11334,"Ġshell":11335,"Ġprinciples":11336,"rain":11337,"ìĹĲë§Į":11338,"ĠìŀĲì²´ê°Ģ":11339,"ëħĦìĿ´":11340,"Ġì¢ĭìĿĦ":11341,"Ġë°°ì¹ĺëĲĺëĬĶ":11342,"ĠíİĺìĿ´ìĬ¤":11343,"Ġliterature":11344,"Ġcavity":11345,"íķĺê²łëĭ¤":11346,"ë°¥":11347,"ĠGeum":11348,"íİĻ":11349,"Ġtools":11350,"Ġdelicious":11351,"gn":11352,"Ġdaughter":11353,"otte":11354,"ĠëĮĢíĸ¥":11355,"ëħĦìĹĲëĬĶ":11356,"ĠTechnology":11357,"ĠìŀĲê²©":11358,"Ġìĭ¤ë¬´":11359,"ë´Ħ":11360,"ĠìłĢìŀ¥íķł":11361,"Ġbelt":11362,"Ġcategory":11363,"ë®¤ëĭĪ":11364,"ĠìĿĺë¯¸ê°Ģ":11365,"Ġobtaining":11366,"ĠëĮĢíĳľìłģìĿ¸":11367,"ĠìĪĺëĭ¨ìĿĦ":11368,"Ġnationwide":11369,"íĬ¹ë³Ħìĭľ":11370,"ĠìķĦíĮĮíĬ¸":11371,"Ġchief":11372,"Ġë¬¸ìĦľ":11373,"Ġagents":11374,"ê²łì§Ģë§Į":11375,"Ġobjective":11376,"ĠëĤĺìĺ¤ëĬĶ":11377,"Ġsurvival":11378,"ìĸ´ëĬĶ":11379,"ìľĦíĹĺ":11380,"ignment":11381,"Ġestimate":11382,"íĮ¨ìĭľ":11383,"Ġaccuracy":11384,"Ġpictures":11385,"Ġvolunte":11386,"Every":11387,"Ġë½":11388,"Ġrenew":11389,"apter":11390,"íĸīìłķ":11391,"ĠìĽĥ":11392,"Ġë§¤ìĿ¼":11393,"Ġcouncil":11394,"Ġlitigation":11395,"Ġvulner":11396,"Did":11397,"making":11398,"ĠSafety":11399,"aints":11400,"Ġneck":11401,"Ġë¹Ħìĥģ":11402,"ëĲľëĭ¤ê³ł":11403,"Ġê°Ħì£¼":11404,"Ġgrounds":11405,"ì¤įëĭĪëĭ¤":11406,"39":11407,"bs":11408,"ëĿ¼ë¯¹":11409,"Ġëĵ±ìĹĲìĦľ":11410,"ĠëĲĺìĹĪìĬµëĭĪëĭ¤":11411,"Ġì¦ĿíıŃ":11412,"íı¬ëĦĮ":11413,"ĠëĤĺíĥĢëĤĺëĬĶ":11414,"ëģĶ":11415,"íķĺëł¤ë©´":11416,"ĠëĮĢíķ´ìĦľëıĦ":11417,"Ġdefinition":11418,"cking":11419,"jo":11420,"Ġfold":11421,"Ġelev":11422,"ì²¨":11423,"Ġdeem":11424,"Ġ47":11425,"Ġ800":11426,"Ġìĭľìŀ¥ìĹĲ":11427,"Ġutilizing":11428,"ĠìľłíĺķìĿĺ":11429,"Ġopportunities":11430,"Ġcompetitiveness":11431,"Ġê·¸ëıĻìķĪ":11432,"Ġsoil":11433,"íĹ¤":11434,"Ġíĳľë³¸":11435,"Ġbiggest":11436,"Ġë¹ĦìĬ·íķľ":11437,"Last":11438,"Ġê¸°ìŀĲ":11439,"Ġneut":11440,"ĠíķľêµŃìĹĲìĦľ":11441,"êµ°ìļĶ":11442,"neg":11443,"Ġleads":11444,"Ġë²ĶìľĦë¥¼":11445,"Ġunderstood":11446,"ìĿ´ê±°":11447,"Ġhom":11448,"ìĪĺìĭł":11449,"ë¬¼ê³¼":11450,"Ġenables":11451,"grad":11452,"Ġì´ĪìĿĮíĮĮ":11453,"iversary":11454,"ximately":11455,"Ġsubscrib":11456,"Ġgreenhouse":11457,"Ġexperiment":11458,"Ġë°´":11459,"ìĸ´ì§ĢëĬĶ":11460,"ëŀŃ":11461,"ëĮĢë¶Ģë¶Ħ":11462,"Ġê´ĢìłĪ":11463,"ìŀ¬íĮĲ":11464,"ìĭ¤ìĿ´":11465,"agnetic":11466,"ĠëĤ´ìļ©ìĿĢ":11467,"Ġcontracts":11468,"310":11469,"icular":11470,"Ġíı¬íĬ¸":11471,"Ġcoal":11472,"Ġë³Ģíĺ¸":11473,"ĠìĭľìĬ¤íħľìĿ´":11474,"Ġê·¼ì²ĺ":11475,"Ġwonder":11476,"Ġpasses":11477,"180":11478,"Ġë¹Ħì¤ĳìĿ´":11479,"ĠRepublic":11480,"Ġnozzle":11481,"ìŀĲë£Į":11482,"ellect":11483,"Ġ310":11484,"Ġê´Ģê°Ŀ":11485,"ĠìľłìłĦìŀĲ":11486,"ĠìĿĺìĽĲ":11487,"ëĤ´ìļ©":11488,"ĠëĦĲ":11489,"Ġinsul":11490,"Ġ2003":11491,"Ġìĭłíĺ¸ìĿĺ":11492,"iliar":11493,"Ġaccepted":11494,"Ġaccurately":11495,"ĠìĿ´ìĿµìĿĦ":11496,"iety":11497,"Ġì¶¤":11498,"Ġmoisture":11499,"Ġmeal":11500,"ĠFund":11501,"ĠìĹ°êµ¬ìĹĲ":11502,"Ġspecifically":11503,"Ġì¶ķìĨĮ":11504,"ĠìĿĳìļ©":11505,"Ġsteam":11506,"ëĪĪ":11507,"Ġadvertisement":11508,"Ġì¡°ìĤ¬ë¥¼":11509,"íĤ¤ëĬĶ":11510,"ë°Ķë¡ľ":11511,"ĠìĹ°ê²°ëĲł":11512,"ëĥī":11513,"Ġfigure":11514,"icit":11515,"Ġcontrast":11516,"ê·¸ê²ĥ":11517,"Ġëĭ¨ë©´":11518,"ĠëĤ¨ìŀĲ":11519,"ampions":11520,"Ġaccurate":11521,"Ġpsychological":11522,"Pe":11523,"Ġë¿Į":11524,"struct":11525,"Ġgives":11526,"ë°ĺê¸°":11527,"Ġ700":11528,"Ġê°ĸì¶ĺ":11529,"Ġë°ķë¬¼ê´Ģ":11530,"Ġspecialized":11531,"Ġappointed":11532,"Regarding":11533,"gence":11534,"ĠWestern":11535,"Ġë©´ìłģ":11536,"Ġíĳľë©´ìĿĦ":11537,"Ġpurposes":11538,"Ġframework":11539,"Ġconsecutive":11540,"Ġdin":11541,"Ġë°ĸìĹĲ":11542,"isted":11543,"Ġíķĺê²Į":11544,"ĠíĻĺìŀĲë¥¼":11545,"ĠìĥģíĥľìĹĲ":11546,"ĠíĻĺê²½ìĿĦ":11547,"Ġì£ĦìĨ¡":11548,"Ġwalking":11549,"ìķĦì§ģ":11550,"Ġincon":11551,"ĠìĹĨìĸ´ìļĶ":11552,"Ġìŀ¬íĻľ":11553,"ì¸µìĹĲ":11554,"230":11555,"Ġign":11556,"Ġcab":11557,"Ġwild":11558,"Ġmouth":11559,"oded":11560,"ĠìłĦíĽĦ":11561,"ĠíĻľìļ©íķľ":11562,"Ġìī½ì§Ģ":11563,"Ġregarded":11564,"Ġspirit":11565,"arian":11566,"ìłľëıĦ":11567,"ìłĦê¸°":11568,"elling":11569,"ĠíķĦìļĶíķ©ëĭĪëĭ¤":11570,"eech":11571,"íģĲ":11572,"ĠìŀĪìĹĪìĬµëĭĪëĭ¤":11573,"Ġë¶Ħìķ¼ìĹĲìĦľ":11574,"ìģľ":11575,"Ġcylindrical":11576,"Lo":11577,"ê°Ģìŀ¥":11578,"ĠìĪĺìĪĺ":11579,"ĠìľĪ":11580,"Ġìļ©ë§¤":11581,"Ġmagnet":11582,"visory":11583,"Ġsucceed":11584,"Ġjour":11585,"ë°ľìĦ±":11586,"Ġcolon":11587,"amb":11588,"ĠAR":11589,"Ġrating":11590,"ĠDNA":11591,"ĠìĿ´ìĥģìĿĦ":11592,"Ġcampaign":11593,"Ġstreet":11594,"ìłĲìĿĺ":11595,"Ġacknow":11596,"ĠJeoll":11597,"ëĮĢì¶ľ":11598,"ĠìĿĺëıĦ":11599,"Ġemissions":11600,"ĠìĨįëıĦë¥¼":11601,"ĠìķŀëĳĲê³ł":11602,"ĠíĮ¨íĦ´ìĿĦ":11603,"Ġê¹ĬìĿ´":11604,"Ġëķħ":11605,"agon":11606,"Ġìķ½ê°Ħ":11607,"Ġdirections":11608,"ĠìºĲë¦Ń":11609,"Ġokay":11610,"Ġrich":11611,"Ġë¨¹ê³ł":11612,"proof":11613,"600":11614,"ê¾¸":11615,"ĠCol":11616,"ĠSw":11617,"Ġëĭ¤ë¥´ê²Į":11618,"ĠëıĦë§¤":11619,"Ġoutdoor":11620,"ellow":11621,"Ġmoves":11622,"Ġsubsequ":11623,"Ġcharged":11624,"Ġëª»íĸĪëĭ¤":11625,"Ġmusical":11626,"Ġë©Ķìĭľì§Ģ":11627,"ìĿ´ê²ĥ":11628,"Ġisn":11629,"ĠKi":11630,"ì¡°ê±´":11631,"ĠëĤ´ëĨĵ":11632,"Ġì°¨ìĽĲìĹĲìĦľ":11633,"Ġpaying":11634,"aiwan":11635,"Ġthread":11636,"chron":11637,"Ġê°Ģì¹ĺê°Ģ":11638,"ê°ľê°Ģ":11639,"ĠìĦ¤ë¹Ħ":11640,"Ġ190":11641,"ĠVR":11642,"ĠìµľìĨĮíĻĶ":11643,"Ġìŀīíģ¬":11644,"uth":11645,"ĠëıĦëª¨":11646,"ìĪłìĿĦ":11647,"ê¶ĮìĹĲ":11648,"ucle":11649,"Ġtransmits":11650,"Ġceramic":11651,"ëŀĲëĭ¤":11652,"otic":11653,"Ġëĭ¤ìļ´":11654,"Ġintent":11655,"ëĨĢ":11656,"ëĬĲëĥĲ":11657,"Ġbarrier":11658,"Ġsettlement":11659,"Ġgolf":11660,"ĠëĮĢíļĮ":11661,"ĠìķĦë§Ī":11662,"íĺ¸ê°Ģ":11663,"Ġempir":11664,"ëĲľëĭ¤ëĬĶ":11665,"Ġliability":11666,"Ġrecover":11667,"Ġintervention":11668,"ëĬĶëį°ìļĶ":11669,"Ġaccounts":11670,"ĠëĤĺíĥĢëĤ´ê³ł":11671,"Ġaux":11672,"itivity":11673,"Ġwilling":11674,"ê´ĢìĹĲ":11675,"ìĥĿìĤ°":11676,"ìĭ¤íĹĺ":11677,"ĠíĮĮê´´":11678,"Ġindirect":11679,"Ġdecide":11680,"ê´ĳìĹŃ":11681,"Ġactivated":11682,"ĠíĮĲëĭ¨íķł":11683,"Ġconcerned":11684,"ê²¼ëĭ¤":11685,"Ġfundamental":11686,"jae":11687,"ĠApp":11688,"Ġven":11689,"lementary":11690,"Ġbright":11691,"Ġsecurities":11692,"ĠëłĪìĿ´ìĸ´":11693,"Ġcontacting":11694,"Ġë§Īëł¨ëĲľ":11695,"¼ìĨĲ":11696,"Ġìłķê¸°":11697,"Ġë³´ëĭĪ":11698,"ears":11699,"Ġì¸¡ìĿĢ":11700,"íĮĢìĿĢ":11701,"Ġborrow":11702,"ĠìłĪì°¨ë¥¼":11703,"organic":11704,"Ġprincipal":11705,"-(":11706,"LS":11707,"ìĿ´ëĵ¤ìĿĢ":11708,"ì§ĢëĬ¥":11709,"íĸ¥ìĿĦ":11710,"Ġfacts":11711,"Ġinjury":11712,"Ġsweet":11713,"Ġanx":11714,"Ġë¬´ê²Į":11715,"Ġsecuring":11716,"ĠAmerica":11717,"break":11718,"Ġê°Ģê²Į":11719,"Ġconsent":11720,"Ġì·¨ê¸ī":11721,"Ġvolunt":11722,"Ġintake":11723,"ĠìŀĦìĭľ":11724,"Ġë§ŀìķĦ":11725,"ĠíĨłì§Ģ":11726,"ĠíĨłëĮĢë¡ľ":11727,"Ġdiscussions":11728,"ĠìĹĦì²Ń":11729,"ë³ĢìĿ´":11730,"ĠìĽĲìĭ¬":11731,"Ġcommission":11732,"ì¢ħìĿĦ":11733,"ĠìĽ¹ìĤ¬ìĿ´íĬ¸":11734,"Ġtor":11735,"ĠëĮĢë¦¬":11736,"Ġfinished":11737,"Ġ2004":11738,"ĠìĤ¬ëŀĮìĿĦ":11739,"ostic":11740,"Ġê¶Įê³ł":11741,"Ġsupplying":11742,"ĠìĿ´ë¦ĦìĿĦ":11743,"Ġë°Ķê¾¸":11744,"med":11745,"ìĪĺìĨĮ":11746,"êµ¬ëĤĺ":11747,"Ġpregn":11748,"Ġrevision":11749,"Ġë²ĦìĬ¤":11750,"Ġexamined":11751,"Ġpurchased":11752,"Ġpurchasing":11753,"ĠëĳĺëłĪ":11754,"Ġë°ĶëĢĮ":11755,"ì¹¸":11756,"ìĤ¬ë¬´":11757,"Ġ1980":11758,"ĠìłĪë°ĺ":11759,"Ġê·ĢìĤ¬ìĿĺ":11760,"Ġìĭľìŀ¥ìĿĺ":11761,"Ġìłģê·¹ìłģìĿ¸":11762,"iscal":11763,"ë¶ĢìĤ°":11764,"ĠìķĦë²Ħ":11765,"ĠíĨµìĥģ":11766,"Ġë§Įíķľ":11767,"ĠíĺķìĦ±íķľëĭ¤":11768,"Ġíı´ë¦¬ë¨¸":11769,"Ġëª©íĳľë¡ľ":11770,"Ġcovering":11771,"Ġíĥĳìŀ¬":11772,"ìł¤":11773,"Ġstake":11774,"ĠìĹ°ë§Ī":11775,"ë¯¸ëħ¸":11776,"ë°ĺìĿĳ":11777,"ĠëĵľëĿ¼ë§Ī":11778,"Ġíĺ¸ìĿĺ":11779,"Ġkept":11780,"ĠHead":11781,"Ġê·ľëª¨ê°Ģ":11782,"ashion":11783,"Ġauxiliary":11784,"called":11785,"Ġë¶ĦìŀĲ":11786,"Ġaging":11787,"ĠêµĲë¥ĺ":11788,"Ġì¦ĿìĥģìĿ´":11789,"Ġ99":11790,"ĠProt":11791,"ê·ĢíķĺìĿĺ":11792,"Ġê°ĲìĹ¼ì¦Ŀ":11793,"Ġìĸ´ëł¤ìĽĢìĿĦ":11794,"ĠìĦ±ëĬ¥ìĿĦ":11795,"Ġcounseling":11796,"Pre":11797,"Î¼m":11798,"íŀĪëĬĶ":11799,"Ġdriven":11800,"ĠìłĲìłĲ":11801,"Ġtopic":11802,"Ġdynamic":11803,"Ġcancellation":11804,"Ġdeemed":11805,"TC":11806,"Ġnote":11807,"ĠDay":11808,"LED":11809,"Ġinvent":11810,"unk":11811,"Ġuncertain":11812,"ĠìĦłìĸ¸":11813,"Ġinstant":11814,"ĠìĿĺíķ´ìĦľ":11815,"Ġviewed":11816,"ìķŀìľ¼ë¡ľ":11817,"Ġconclusion":11818,"Ġmag":11819,"ìŀĶ":11820,"ilt":11821,"ëĤĻ":11822,"Ġmeters":11823,"Ġëħ¸ëł¥ìĿĦ":11824,"Ġë§ĽìŀĪ":11825,"Ġstopped":11826,"Gyeonggi":11827,"Ġwholesale":11828,"Ġthorough":11829,"Ġê´Ģíķ´":11830,"Ġshot":11831,"Ġì£¼ê±°":11832,"ĠìĤ¬ìļ©ëĲľëĭ¤":11833,"ëĤ´ê³ł":11834,"Ġê°ĲìķĪ":11835,"ĠEnvironment":11836,"Ġpreliminary":11837,"ë¦¬ìĺ¤":11838,"ë¶Ħê¸°":11839,"Ġremember":11840,"Ġê¸°ìĪłìĿ´":11841,"Ġintroducing":11842,"ĠìŀĲëıĻìľ¼ë¡ľ":11843,"íĨ¡":11844,"ìºĶ":11845,"Ġcontribute":11846,"Ġlicense":11847,"Ġê³łì²´":11848,"ĠíıīíĻĶ":11849,"Ġë¶ĦìĦĿíķľ":11850,"Ġpreferred":11851,"Ġpollution":11852,"Okay":11853,"dis":11854,"Ġbio":11855,"ìĨĮë¡ľ":11856,"Ġë°ľêµ´":11857,"íı´":11858,"Ġ56":11859,"ĠíļĮê³Ħ":11860,"Ġê³¼ëıĦ":11861,"ê°ĲìĹ¼":11862,"Ġdisplays":11863,"Ġì»´íı¬ëĦĮ":11864,"Ġconverted":11865,"Ġverification":11866,"Ġfalse":11867,"ìĿį":11868,"ìĿĦìĪĺë¡Ŀ":11869,"ĠìľĦê¸°":11870,"Ġê·¸ëŁ¼":11871,"ìĭłê°ĢìļĶ":11872,"ê´Ģê³¼":11873,"Ġperce":11874,"ĠëĨĴìķĺëĭ¤":11875,"ê°Ĳëıħ":11876,"ë¨¹":11877,"Ġrevolution":11878,"ĠìŀĪìĸ´ìĦľìĿĺ":11879,"Ġwarning":11880,"ë¦¬ë¸Į":11881,"Ġë³´ê¸°":11882,"Ġleaving":11883,"seok":11884,"Ġjur":11885,"2018":11886,"ĠíĶ¼íķ´ë¥¼":11887,"ĠGangnam":11888,"ellectual":11889,"orient":11890,"íĻĪ":11891,"Ġê¸°ë¶Ģ":11892,"ocated":11893,"ë£¬":11894,"ĠíķĺëĤĺìĹĲ":11895,"ĠìłĳìĪĺ":11896,"ĠíĮ¨ëĵľ":11897,"Ġìĭłíĺ¸ìĹĲ":11898,"ĠíĥĢê³ł":11899,"Ġanniversary":11900,"ĠíĮ½ì°½":11901,"osity":11902,"resent":11903,"ĠëıĦêµ¬":11904,"ìĺĢëįĺ":11905,"Ġdistin":11906,"ĠìĨįìĹĲ":11907,"Ġì¶ķêµ¬":11908,"Ġbrother":11909,"ĠëĬĺìĸ´ëĤĺ":11910,"ĠìĦ±ë¶ĦìĿĦ":11911,"ĠíĻķì§ĦìŀĲê°Ģ":11912,"ĠMayor":11913,"iors":11914,"Ġê²¸":11915,"Ġê°ĢëĵĿ":11916,"ĠëĤĺìķĦê°Ģ":11917,"Ġíķľë°ĺ":11918,"Ġíı¬íķ¨ëĲĺëĬĶ":11919,"Ġíıīíĸī":11920,"Ġì¶ľìĹ°":11921,"ĠëķĮë¬¸ìŀħëĭĪëĭ¤":11922,"ĠíĮĲëĭ¨ëĲľëĭ¤":11923,"Ġsensitive":11924,"ĠíĳľìĭľëĲĺëĬĶ":11925,"Ġinquir":11926,"IN":11927,"sol":11928,"ìĦľë¡ľ":11929,"íķ´ê°Ģ":11930,"ude":11931,"ĠBo":11932,"Ġìĭ¬ìĤ¬":11933,"Ġfingerprint":11934,"Ġbodies":11935,"irt":11936,"emor":11937,"Ġìłķì²´":11938,"Ġë°ľíļ¨":11939,"ê·¸ëıĻìķĪ":11940,"ĠìĿ¼ìĸ´ëĤĺ":11941,"Ġperp":11942,"Ġë¶ĪëŁ¬":11943,"íķŃìĿĦ":11944,"Ġminor":11945,"Ġdomain":11946,"Ġexamples":11947,"Ġê¹ĬìĿĢ":11948,"Ġconsistent":11949,"OC":11950,"asures":11951,"Ġëĵ±ê¸ī":11952,"ì§ĦìĿĢ":11953,"ë¯¸ëĶĶìĸ´":11954,"Ġë¬¸ìŀĲ":11955,"Ġentertainment":11956,"Ġintegration":11957,"Ġfalls":11958,"ada":11959,"ĠCD":11960,"ëį¤":11961,"ëıĻìĿĦ":11962,"íĺķìĿ´":11963,"Ġë¬¼ë¦¬ìłģ":11964,"Ġleadership":11965,"ĠìłķëıĦìĿĺ":11966,"Ġblocks":11967,"ivalent":11968,"ĠëĦĵìĿĢ":11969,"íĶĦë¥¼":11970,"íĶ¼ê³ł":11971,"Ġequity":11972,"ĠìĹĦë§Ī":11973,"Ġappreciate":11974,"Once":11975,"Ġlamp":11976,"Ġleaves":11977,"Ġ54":11978,"ĠìĦłì§Ħ":11979,"Ġì¢ģ":11980,"ĠíĺĦìĥģ":11981,"Ġdemocr":11982,"Ġstead":11983,"ĠëģĿëĤĺ":11984,"Ġabsence":11985,"Ġaims":11986,"54":11987,"Ref":11988,"ìĹ½":11989,"íĦ°ëĬĶ":11990,"Ġheter":11991,"Ġ104":11992,"Ġelectrom":11993,"Ġë¦¬ëįĶ":11994,"Ġìĥģíĥľê°Ģ":11995,"Ġconfirmation":11996,"Ġrising":11997,"Ġindicator":11998,"ìĭľì¼°ëĭ¤":11999,"99":12000,"uce":12001,"ê°Ģë¡ľ":12002,"ëĿ¼ìļ´":12003,"ìłľíķľ":12004,"Ġëĭ¤ê°Ģ":12005,"Ġë¶Ģíķĺ":12006,"Ġê²°ìłķìĿĦ":12007,"Ġë²łìĸ´ë§ģ":12008,"ĠìĹħë¬´ë¥¼":12009,"idden":12010,"occer":12011,"ĠíĽĦìĨį":12012,"Ġìĺ¨ìĭ¤":12013,"Ġrestric":12014,"lia":12015,"ì©":12016,"ĠìĥĿê¸´":12017,"Ġannouncement":12018,"Ġì£¼ìŀ¥íĸĪëĭ¤":12019,"Ġbinding":12020,"íĻĶëĬĶ":12021,"Ġíķĺë©´ìĦľ":12022,"ĠProm":12023,"Ġtele":12024,"Ġìĺ¤ëŀľ":12025,"ĠìĦ¸íĥģ":12026,"Ġsmoking":12027,"ì±ħìŀĦ":12028,"Ġëĭ¨ê³ĦìĹĲìĦľ":12029,"Ġoptions":12030,"ĠìĿ¼ë³¸ìĿĺ":12031,"Ġì§ĢìĨįìłģìĿ¸":12032,"Ġê°ĲëıħìĿ´":12033,"Ġë¬´ìĹĩìĿĦ":12034,"Ġë§µ":12035,"ĠSm":12036,"íĺķíĥľ":12037,"ards":12038,"ĠëĲĺëıĦë¡Ŀ":12039,"Ġë°ĶëŀĮì§ģíķĺê²ĮëĬĶ":12040,"ĠForeign":12041,"Ġstrict":12042,"ĠëĮĢë¡ľ":12043,"Ġcompression":12044,"Ġincorpor":12045,"ĠëĤĺíĥĢëĤ¬":12046,"Ġíļ¨ê³¼ìłģìĿ¸":12047,"Ġëħ¼ëŀĢìĿ´":12048,"Ġhowever":12049,"Ġfilms":12050,"Ġblockchain":12051,"Ġsuffering":12052,"MA":12053,"ĠìĹ°ê·¹":12054,"ĠPort":12055,"Ġpartial":12056,"Ġreply":12057,"ĠìĿ¸íĦ°ë·°":12058,"ĠëĪĪìĹĲ":12059,"Ġemerged":12060,"¥Ĳ":12061,"Ġë®":12062,"ĠëĮĢìĤ¬":12063,"Ġì±Ħìļ©":12064,"ĠìĿ´ë£¨ìĸ´ì§Ģê³ł":12065,"power":12066,"order":12067,"Ġnood":12068,"ĠìĿ´ê²©":12069,"Ġsegment":12070,"ights":12071,"ê°ľêµŃ":12072,"Ġìĺģìĸ´":12073,"ê²½ìĺģ":12074,"Ġcoated":12075,"Ġë°ĶëĶĶ":12076,"Ġê¹Į":12077,"Ġë¦¬ìĬ¤íĬ¸":12078,"Ġê³³ìĹĲ":12079,"Ġachievement":12080,"ĠìłĦë§ĿìĿ´ëĭ¤":12081,"Ġinconven":12082,"Go":12083,"ìĿ´ìļ©":12084,"ìĽ¨ìĿ´":12085,"Ġheated":12086,"ìľłë¥¼":12087,"íĮĲìĿĺ":12088,"ëłĪìĿ´ëĵľ":12089,"Ġdiet":12090,"Ġlearned":12091,"ĠìĪĺì¤ĢìĿ´":12092,"Ġroller":12093,"Ġì¤Ħìĸ´ëĵ¤":12094,"ĠìĤ¬ë²ķ":12095,"ìĻĢëĬĶ":12096,"Ġëª¨ìĥī":12097,"Ġê²°íķ©ëĲľ":12098,"Ġcorporations":12099,"Ġsometimes":12100,"Ġì¢Įìļ°":12101,"Cl":12102,"IV":12103,"ì§Ģë©°":12104,"Ġê³¤":12105,"ĠìłĦëĤł":12106,"ĠìľĦíĥģ":12107,"Ġê²½ê³ł":12108,"ì£¼ìħĶìĦľ":12109,"ì¡°ìłķ":12110,"Ġspeech":12111,"ĠëĤłì§ľ":12112,"Ġpercentage":12113,"ĠDisease":12114,"North":12115,"itect":12116,"ivate":12117,"ì°į":12118,"ìŀ¬ìĤ°":12119,"Ġpreset":12120,"Ġholiday":12121,"Ġë°ĽìķĦëĵ¤":12122,"ĺĳ":12123,"Ġê°±":12124,"ĠìłľìĿ¼":12125,"ĠìłĦëł¥ìĿĦ":12126,"ĠMarket":12127,"Ġëĭ¨ì§Ģ":12128,"ĠìĽĲíĻľ":12129,"ìĦ¤ìĿĦ":12130,"liance":12131,"Ġreporting":12132,"ê¸°ìĹħìĿĺ":12133,"Ġpackaging":12134,"ì¢ĭìĿĢ":12135,"Ġuniversities":12136,"oriented":12137,"bl":12138,"irable":12139,"ìĥģíĻ©":12140,"Ġëĭ¤ìĪĺ":12141,"ĠìĹ°ë°©":12142,"ìĿĮìĹĲëıĦ":12143,"Ġrecept":12144,"Ġcouple":12145,"Ġduties":12146,"Ye":12147,"ê·¸ìĿĺ":12148,"ands":12149,"ëłĪìĿ´íĦ°":12150,"Ġju":12151,"Ġinvestigate":12152,"Ġevaluate":12153,"Ġsynthes":12154,"íķĺìļ°":12155,"Ġstar":12156,"ĠPa":12157,"ĠëĤ´ì¸¡":12158,"Ġê³łìĨį":12159,"ĠëĶ°ë¡ľ":12160,"ĠìłĦìĨ¡íķł":12161,"Ġsuffered":12162,"Ġabnormal":12163,"ferential":12164,"SC":12165,"ato":12166,"ë©´ê³¼":12167,"ĠìĿ¼ìŀĲë¦¬":12168,"ìĭĿíĴĪ":12169,"íģ¬ë¦¬":12170,"Ġìµľìĭł":12171,"Ġconfidence":12172,"Ġoperates":12173,"Ġìļ´ìĺģíķĺëĬĶ":12174,"ĠíĶĦë¡ľìłĿíĬ¸":12175,"Ġturbine":12176,"Ġreorgan":12177,"terior":12178,"ĠìĿ¸ê°ĦìĿĺ":12179,"ĠìĦłë³Ħ":12180,"ĠìĦ¸ëĿ¼ë¯¹":12181,"ëłĪìĿ´íĬ¸":12182,"Ġ111":12183,"obile":12184,"ĠìĿ´ìķ¼ê¸°ë¥¼":12185,"ìĬ¤íĨ¤":12186,"ëĲĺê²Į":12187,"ê³µëıĻ":12188,"íħį":12189,"ëª¨ëį¸":12190,"ìĿ´ëĿ¼ë©´":12191,"ëĲĲëĭ¤ê³ł":12192,"Ġcompletion":12193,"Ġíĳľìĭľíķł":12194,"Ġë²Ħíį¼":12195,"Ġfiscal":12196,"utor":12197,"Ġcomparing":12198,"ì²´íĹĺ":12199,"ĠëĤ´ìŀ¥":12200,"ê´Ģëł¨":12201,"ĠíĺķìĦ±íķĺê³ł":12202,"Ġìķ½ë¬¼":12203,"Ġanyone":12204,"Ġì»¤ë®¤ëĭĪ":12205,"ĠìłķíĻķíķĺê²Į":12206,"Ġë¶Ģì¡±íķľ":12207,"Ġë²Ĺìĸ´ëĤĺ":12208,"Ġmerg":12209,"ëıĦìļ°":12210,"Ġshoot":12211,"ìĭ¤ìłľ":12212,"ìĩł":12213,"Ġìĭľìŀ¥ìĹĲìĦľ":12214,"ĠSuper":12215,"ĠìĿ¸ìłĳíķľ":12216,"Ġreplacement":12217,"negative":12218,"Ġinorganic":12219,"Ġster":12220,"Ġìłľìŀ¬":12221,"ìĨĮìĦ±":12222,"Ġplates":12223,"Ġë°°ì¹ĺëĲĺìĸ´":12224,"īìŀ¥":12225,"ĠMid":12226,"Ġperman":12227,"ĠíĺĦíĻ©":12228,"ĠìĸĳìŀĲ":12229,"Ġcalculate":12230,"Ġnaturally":12231,"ĠíĺĪìķ¡":12232,"Ġsuspended":12233,"Ġsummar":12234,"ĠPrevention":12235,"ê·¸ê°Ģ":12236,"ê²½ìĿ´":12237,"ĠEun":12238,"ĠìĥģíĻ©ìĿ´ëĭ¤":12239,"ë¹Ľ":12240,"ĠìłĦê¸°ìłģìľ¼ë¡ľ":12241,"Ġorigin":12242,"Ġcaptured":12243,"Ġsatisfied":12244,"ëĭĻ":12245,"illa":12246,"ĠìĿ¼ìĭľ":12247,"Ġclients":12248,"Ġprofile":12249,"Ġë°ľíĳľíķľ":12250,"esterday":12251,"erce":12252,"ìłĦìĹĲìĦľ":12253,"ìĤ°ë¬¼":12254,"Ġëĭ¨ëıħ":12255,"ĠëķĮë§Īëĭ¤":12256,"ĠEconomic":12257,"Ġformat":12258,"Ġ95":12259,"Ġspecies":12260,"Ġê³µê¸īíķĺëĬĶ":12261,"Ġideas":12262,"ëĲ¨ìĹĲ":12263,"Ġmuscle":12264,"Ġversion":12265,"ì¹ĺìĹĲ":12266,"ĠìĤ¬ìļ©íķĺê³ł":12267,"Ġoutbreak":12268,"Ġì¶ĶìĦ¸":12269,"Ġë¬´ìĬ¨":12270,"Ġbusy":12271,"ëĥĪ":12272,"ĠìĿ´ë£¨ìĸ´ìł¸":12273,"ĠëĨĵê³ł":12274,"ĠRoad":12275,"ĠëıĦë©´ìĿ´ëĭ¤":12276,"isters":12277,"Ġimag":12278,"ĠíĿī":12279,"ĠYear":12280,"Ġì¦Ŀê°ĢíķĺëĬĶ":12281,"raud":12282,"Ġentrust":12283,"Ġíģ´ëŀĺ":12284,"ĠìĹ°ìŀ¥ëĲĺëĬĶ":12285,"ĠìĿĳëĭµíķĺìĹ¬":12286,"Ġreactor":12287,"gang":12288,"íķ´ì§ĢëĬĶ":12289,"ëĤĺëĭ¤":12290,"Ġëĭ¨ìŀĲ":12291,"íĥĢë¯¼":12292,"Ġê·ľìłķìĿĦ":12293,"ì§ĳëĭĪëĭ¤":12294,"Ġconductor":12295,"Ġë¡ľëĵľ":12296,"Ġrelationships":12297,"ê²ĢìĤ¬":12298,"Ġê³µìĹ°ìĿĦ":12299,"Ġupdate":12300,"ĠìĦ¹ìħĺ":12301,"Ġyesterday":12302,"ë²ķìĿ¸":12303,"Ġpartner":12304,"ĠTaiwan":12305,"Ġclosing":12306,"oundation":12307,"Ġinstance":12308,"ë²Ķì£Ħ":12309,"Ġreflecting":12310,"Ġpolitics":12311,"Ġwatching":12312,"Ġê²½íĸ¥ìĿ´":12313,"Ġnorthern":12314,"People":12315,"ĠGr":12316,"Ġentity":12317,"Ġë¯¼ì¡±":12318,"Ġdecreases":12319,"Ġstrategies":12320,"gage":12321,"Ġprol":12322,"ĠíĮ©":12323,"Ġ85":12324,"itely":12325,"ĠìĹŃëŁī":12326,"Ġcomprise":12327,"Ġpressing":12328,"Ġrevital":12329,"Ġutilized":12330,"Ġbeauty":12331,"Ġmutual":12332,"Ġsoup":12333,")'":12334,"Ġvit":12335,"ĠSports":12336,"ĠIm":12337,"ìĦłê±°":12338,"Ġíķ´ìĥģ":12339,"ĠìĤ¬ìļ©íķĺê¸°":12340,"Ġclust":12341,"ë£¨ìħĺ":12342,"Ġinfring":12343,"ĠëĤ¨íİ¸":12344,"Ġinvestigated":12345,"ĠHyundai":12346,"Ġautonomy":12347,"carbon":12348,"ëļ":12349,"isure":12350,"ishes":12351,"Ġtown":12352,"ĠAP":12353,"Ġê·¸ê²ĥìĿĢ":12354,"ê»´":12355,"Ġì§ĳìĹĲ":12356,"Ġ2002":12357,"ĠìĨĲê°ĢëĿ½":12358,"Ġphotograp":12359,"Ġsilver":12360,"Ġcandidates":12361,"ĠëģĮìĸ´":12362,"Ġartists":12363,"Ġminister":12364,"Ġì¹ĺë£ĮìĹĲ":12365,"Ġstatistics":12366,"Te":12367,"ãĥ":12368,"Ġnine":12369,"oday":12370,"ĠìłĦë¶Ģ":12371,"ì²´ìľ¡":12372,"ryl":12373,"ë°ľìĿĦ":12374,"ĠìĪ«":12375,"ndrome":12376,"ìĿ´ì²ĺëŁ¼":12377,"ìĦ±ìľ¼ë¡ľ":12378,"Ġê°Ģë¥´":12379,"ĠSon":12380,"Ġì¡°ë¦¬":12381,"ĠHer":12382,"ĠíķĦìļĶíķł":12383,"Ġì´ĪìłĲìĿĦ":12384,"Ġì»¤íĶĮ":12385,"ĠìłľìĻ¸íķĺê³ł":12386,"Ġfifth":12387,"ëıĦì§Ģ":12388,"ìłĦëıĦ":12389,"ĠHCC":12390,"Ġì§Ħê³µ":12391,"ê±´ìĿ´":12392,"Ġworker":12393,"Ġ2001":12394,"Ġfrag":12395,"Ġinnovative":12396,"Ġtumor":12397,"Ġë©¤ë²Ħ":12398,"mark":12399,"ë¥ľ":12400,"Ġforced":12401,"urning":12402,"Ġindoor":12403,"Ġìļ´ë°ĺ":12404,"Ġë¬¸ìłľë¡ľ":12405,"Ġrisks":12406,"Ġapproved":12407,"Ġapproximately":12408,"ãĥ»":12409,"Ġduration":12410,"lets":12411,"Ġëª¨ìĹ¬":12412,"neum":12413,"ĠíĬ¸ëŁ¼íĶĦ":12414,"íĺ¹ìĭľ":12415,"ìĭľíĤ´ìľ¼ë¡ľìį¨":12416,"Ġtens":12417,"Ġtheore":12418,"Ġstick":12419,"Ġexists":12420,"ê¹Ŀ":12421,"Ġì§Ħë¡ľ":12422,"ĠëĤ©ë¶Ģ":12423,"AD":12424,"ĦëĬĶ":12425,"ì±ħìĿĦ":12426,"Ġê·¼ìłĳ":12427,"Ġrotary":12428,"Ġspeaker":12429,"Ġì§Ģê¸Īê¹Įì§Ģ":12430,"Ġë§¥ëĿ½":12431,"Ġfindings":12432,"ê·¸ëħĢëĬĶ":12433,"Ġspatial":12434,"gical":12435,"Ġmac":12436,"ĠìĿĦ":12437,"Ġlung":12438,"Ġìłķê·ľ":12439,"ì¶°":12440,"ĠìĨĮìĻ¸":12441,"ìĦłìĹĲ":12442,"ê°ľë¡ľ":12443,"ĠìĥĿëªħ":12444,"yeo":12445,"ĠíĮĲë¡Ģ":12446,"ĠSea":12447,"ĠìŀĦê¸Ī":12448,"ĠìĥĿê°ģìĿĦ":12449,"ĠìĪĺìĭłíķĺëĬĶ":12450,"ĠíĺĦìŀ¬ìĿĺ":12451,"Ġë¸ĮëłĪìĿ´":12452,"Ġvideos":12453,"Ġëı¼ìļĶ":12454,"ĠìĽĮíģ¬":12455,"Ġcriticized":12456,"Ġdrama":12457,"Ġfaith":12458,"170":12459,"ĠìĹ°ì£¼":12460,"ĠFoundation":12461,"Ġmatching":12462,"Ġarrived":12463,"Ġëıħë¦½ìłģìľ¼ë¡ľ":12464,"liament":12465,"CP":12466,"ì§Ģìĸ´":12467,"ĠLocal":12468,"ëĶĶìĬ¤":12469,"ë¡łìĿ´":12470,"Ġìłľì¡°ìĹħ":12471,"Ġë¶Ħìķ¼ìĹĲ":12472,")(":12473,"ĠìłĦë°©":12474,"Ġyoun":12475,"Ġwors":12476,"Ġìĸ´ë¨¸ëĭĪ":12477,"ĠíĻķìĿ¸íķ´":12478,"Ġchecking":12479,"raul":12480,"Ġfarming":12481,"men":12482,"uro":12483,"ëĴ":12484,"Ġstages":12485,"emia":12486,"ê³ĦëĬĶ":12487,"íĺ¸íħĶ":12488,"Ġmeth":12489,"ĠíĻĶìĨĮ":12490,"Ġrefuge":12491,"Ġworldwide":12492,"Ġë°Ķê¿":12493,"hn":12494,"oom":12495,"Ġêº¼":12496,"ëĵ¤ë¡ľë¶ĢíĦ°":12497,"Ġë³´ê°ķ":12498,"Ġì§ĳíķ©":12499,"ë¹Į":12500,"Ġë¹ĦêµĲíķĺìĹ¬":12501,"ometric":12502,"ĠAut":12503,"Ġì§ĢëĭĮ":12504,"ĠPal":12505,"ĠHot":12506,"Ġsave":12507,"Any":12508,"Ġì§ĢìĽĲíķĺëĬĶ":12509,"Ġì¸µìĿĦ":12510,"ĠìĤ¬ë¡Ģê°Ģ":12511,"going":12512,"Ġdielectric":12513,"ĠPromotion":12514,"CR":12515,"ĠìĿ´ë¥´":12516,"Ġê¸°íļĮê°Ģ":12517,"Ġêµ¬ë³Ħ":12518,"Ġdisabilities":12519,"ìłĲê³¼":12520,"Ġstudied":12521,"ĠWest":12522,"Ġflood":12523,"Ġgets":12524,"ĠëĶĶë°ĶìĿ´ìĬ¤ëĬĶ":12525,"pecific":12526,"ĠíĶĦë¡ľìĦ¸ìĭ±":12527,"Ġì§§ìĿĢ":12528,"95":12529,"MI":12530,"Ġrect":12531,"ĠìĿ´ëĤ´ìĹĲ":12532,"ĠSing":12533,"íķĻìĿĦ":12534,"Ġclamp":12535,"ressive":12536,"ì²ĺë¶Ħ":12537,"Ġëŀĺ":12538,"Ġdro":12539,"Ġìĥģì§ķ":12540,"ĠìĿ¸ê¸°":12541,"ë³¸ë¶Ģ":12542,"hode":12543,"Ġëĭ´ë³´":12544,"Ġrepresenting":12545,"Ġborn":12546,"Ġpermission":12547,"Ġinfections":12548,"Before":12549,"Ġretirement":12550,"Looking":12551,"Ġjuris":12552,"ê³µìłķ":12553,"ì¹´ëĵľ":12554,"Ġrealize":12555,"Ġtalking":12556,"Ġturning":12557,"Ġtun":12558,"Ġom":12559,"cell":12560,"ìľłìĿĺ":12561,"Ġbaseball":12562,"íĺĳìĿĺ":12563,"Ġstressed":12564,"Ġê²½ë¡ľë¥¼":12565,"Ġsouthern":12566,"Ġë¥¼":12567,"ìĿ´ê¸°ëıĦ":12568,"ìŀĺ":12569,"ìľ¼ë¡ľìĿĺ":12570,"Ġdisabled":12571,"ĠíķľêµŃìĹĲ":12572,"Ġê´Ģê³ĦìĹĲ":12573,"íıīê·ł":12574,"Ġcapacitor":12575,"top":12576,"Ġsoccer":12577,"ë¦¬íķĢ":12578,"ìĦ±ë¶Ħ":12579,"Ġëĭ«":12580,"íĬ¬":12581,"ë¹ĦìķĦ":12582,"ĠìĺĪìĭľ":12583,"Ġrelig":12584,"Ġì´ĪëĮĢ":12585,"Ġconcert":12586,"ĠíĻľìļ©íķĺìĹ¬":12587,"Ġspreading":12588,"íĢĢ":12589,"Ġì§Ģë¶Ħ":12590,"ëıĻìĿĺ":12591,"ĠìĽ¨":12592,"Ġê²½ìļ°ëıĦ":12593,"ë¯¼ìĿ´":12594,"ìķ½íĴĪ":12595,"Ġë°ľíĳľíĸĪëĭ¤":12596,"ĠSecretary":12597,"Ġdark":12598,"icity":12599,"asters":12600,"ê¸°ê³ł":12601,"Ġlith":12602,"ìŀĲìĽĲ":12603,"ìŀĲëĵ¤ìĹĲê²Į":12604,"chang":12605,"ĠIran":12606,"ìĭ¤ìĭľ":12607,"Ġmetall":12608,"ìķ¡ìĹĲ":12609,"ĠìĥĪë¡Ńê²Į":12610,"hyd":12611,"Ġëŀľ":12612,"Ġlegislative":12613,"ìĮ":12614,"ĠFinance":12615,"ĠíĻľìļ©íķł":12616,"Ġê·ľìłķìĹĲ":12617,"Ġpulse":12618,"05":12619,"Ġcogn":12620,"ĠëĮĢëŁī":12621,"Ġyarn":12622,"ëĮĢìĹĲìĦľ":12623,"Ġìŀ¥ìĭĿ":12624,"Ġë¶ĪíĻķìĭ¤":12625,"Ġíķ©ê¸Ī":12626,"Ġë¶Ģìŀ¬ë¥¼":12627,"ê°ĴìĿ´":12628,"iberal":12629,"Ġdoub":12630,"ĠRussian":12631,"Ġvaccine":12632,"Ġlecture":12633,"ŁìķĦ":12634,"Ġwet":12635,"ê¸°ìĹĲìĦľ":12636,"Ġ240":12637,"ĠIl":12638,"plant":12639,"Ġrefract":12640,"Ġì§Ģë°©ìŀĲì¹ĺ":12641,"VD":12642,"Ġsnow":12643,"ĠGDP":12644,"ĠNet":12645,"Ġíķ©ë¦¬":12646,"Ġexplanation":12647,"Ġ320":12648,"ìļ°ê³ł":12649,"Ġë¶Ģìŀĳìļ©":12650,"ì¡°ìłľ":12651,"íı¬ë¥´":12652,"ĠíĶ¼ë³µ":12653,"ĠOECD":12654,"ê²łìĬµëĭĪê¹Į":12655,"ê¸¸ìĿĦ":12656,"ìĥĪë¡ľìļ´":12657,"Ġì°¨ì§ĢíķĺëĬĶ":12658,"Ġcooperate":12659,"Ġinstructions":12660,"ĠTransport":12661,"oT":12662,"Ġped":12663,"orters":12664,"asp":12665,"Ġê°ĢìĦľ":12666,"ĠíķĺëįĶëĿ¼ëıĦ":12667,"ìĿ´ëĿ¼ëıĦ":12668,"ì¸µê³¼":12669,"ê»ĺìĦľ":12670,"ì¡ĮìĬµëĭĪëĭ¤":12671,"Ġindicators":12672,"ìĿ´ìĸ´ìĦľ":12673,"Ġutilization":12674,"ĠDecree":12675,"ë¥Ń":12676,"ĠìķĮì½Ķìĺ¬":12677,"ëĦ¤ìĬ¤ì½Ķ":12678,"ĠìĬ¤íĬ¸ëłĪ":12679,"ĠìĹ¼ì¦Ŀ":12680,"ĠìĹĦê²©":12681,"enge":12682,"arious":12683,"Ġrural":12684,"ìłĦê·¹":12685,"Ġunc":12686,"ĠêµĲìĪĺëĬĶ":12687,"Ġkeyword":12688,"Ġê°Ŀê´Ģ":12689,"Ġepid":12690,"ĠìĪĺë¥¼":12691,"Ġìĸ´ëĵľ":12692,"Ġrelief":12693,"ëĦ¤ìĭľìķĦ":12694,"Ġblocking":12695,"Ġë§Įëĵ¤ê³ł":12696,"Ġë´Ħ":12697,"ëĩĮ":12698,"Ġê´´":12699,"Ġstipulated":12700,"ĠìĥģìľĦ":12701,"ìĪĺëıĦ":12702,"riculture":12703,"ëįĶëĿ¼ê³ł":12704,"Ġmultip":12705,"ĠíĿ¡ìŀħ":12706,"ĠíĽĮ":12707,"rugg":12708,"Ġdrying":12709,"Ġrevenue":12710,",'":12711,"Ġìłķëł¬":12712,"ĠìķĮê²Į":12713,"ĠìĿĳê¸ī":12714,"Ġcompetitive":12715,"Ġì¡¸ìĹħ":12716,"ë¦¬íĭ°":12717,"ĠìĿ´ìĭĿ":12718,"advant":12719,"íĻĶë¡ľ":12720,"íķĻìĿĺ":12721,"ĠìĦ¤ë¬¸":12722,"Ġ72":12723,"ĠíĸīìľĦë¥¼":12724,"Ġìĭ¬ë¦¬":12725,"ì£¼ìĭľê¸°":12726,"Ġconsultation":12727,"Ġbaby":12728,"sp":12729,"ìĹĲìĿ´íĦ°":12730,"ëĮĢíķĻêµĲ":12731,"ĠëĶ±":12732,"Ġê°Ħíİ¸":12733,"Ġextends":12734,"Ġìĸ»ëĬĶ":12735,"pm":12736,"Ġìį¨":12737,"ê¸°ì§Ģ":12738,"ĠìĤ¬ê³¼":12739,"Ġshop":12740,"ĠëıĦìĦľ":12741,"Ġê·¼ë³¸":12742,"Ġë²Īíĺ¸":12743,"Ġì¶ķìłľ":12744,"Ġsignificance":12745,"Ġidentifying":12746,"ĠìľĦíĹĺìĿĦ":12747,"ìļ°ë¦¬ìĿĺ":12748,"Ġwafer":12749,"Ġíĸ¥ìĥģìĭľíĤ¬":12750,"Ġconstitutional":12751,"ìī½":12752,"ĠìĽ¨ìĿ´íį¼":12753,"raulic":12754,"LD":12755,"ĠëĮĢì²ĺ":12756,"Ġê°Ģë³Ģ":12757,"ĠìĭľìłĪ":12758,"Ġì²´ìľ¡":12759,"ĠìĹ°ê²°íķĺëĬĶ":12760,"Ġíľł":12761,"Ġê¸īì¦Ŀ":12762,"Ġê·¸ê²ĥìĿ´":12763,"Ġsecretary":12764,"Ġadopted":12765,"Ġconcentrated":12766,"Ġdispute":12767,"Ġíģ´ëĿ¼ìĿ´ìĸ¸íĬ¸":12768,"ĠìŁģ":12769,"ico":12770,"ilding":12771,"Ġcancel":12772,"Ġconsc":12773,"Ġì¦Ŀê¶Į":12774,"íİĺìĿ´ì§Ģ":12775,"Ġretail":12776,"íıīëĵ±":12777,"ĠíĿ¡ìĹ°":12778,"ĠThat":12779,"Ġadapted":12780,"Ġcooperative":12781,"ìŀĲëıĻì°¨":12782,"Ġpil":12783,"rote":12784,"ìĪĺìĦ±":12785,"ë¯¼ìĿĺ":12786,"111":12787,"Ġíķ´ê²°íķĺê¸°":12788,"Ġmanaging":12789,"Ġsynchron":12790,"Ġattachment":12791,"Ġnewspaper":12792,"hwa":12793,"Ġabol":12794,"ĠNations":12795,"Ġê°ķëĤ¨":12796,"Ġsigns":12797,"ocket":12798,"Ġê²Įìĭľ":12799,"Ġnetworks":12800,"Ġê¸°íĮĲìĿĺ":12801,"Ġforeigners":12802,"Ġbuying":12803,"ĠìĬ¤ìľĦì¹Ń":12804,"Ġcertificate":12805,"īìŀ¥íŀĪ":12806,"Ġê¸°ìģ":12807,"Ġrib":12808,"ĠêµŃë¬´":12809,"Ġrelax":12810,"ì²ľë§Į":12811,"Ġvolat":12812,"ĠëĶĶìĬ¤íģ¬":12813,"Ġtraveling":12814,"Ġlosses":12815,"hemical":12816,"ĠSecurities":12817,"riminal":12818,"ĠëĥĦ":12819,"Ġfederal":12820,"ster":12821,"ĠëĮĢì¡°":12822,"ĠCN":12823,"Ġrig":12824,"ì£¼ìĿ¼":12825,"Ġê³µë¬´ìĽĲ":12826,"Ġìĭ¤ì¦Ŀ":12827,"ĠíĻĺìŀĲìĹĲìĦľ":12828,"Ġstrategic":12829,"ĠIndustry":12830,"ĠìķĦë¦Ħëĭ¤ìļ´":12831,"Ġê¾¸ì¤ĢíŀĪ":12832,"ĠëĮĢë³Ģ":12833,"ìŀ¬ìĿ¸":12834,"Ġintends":12835,"ì§ĪëŁī":12836,"Ġ62":12837,"íĨµìĿĦ":12838,"Ġë§İìķĺëĭ¤":12839,"ĠíĺĪê´Ģ":12840,"Ġìķ¼ê¸°":12841,"ĠìłĦìķķìĿĦ":12842,"Ġassistance":12843,"Ġstipulates":12844,"ĠìĻĢìĿ´ìĸ´":12845,"Despite":12846,"eut":12847,"ê³łìĿĺ":12848,"ĠìĿ´ëĤ´":12849,"Ġuns":12850,"Ġretr":12851,"phones":12852,"ĠìĤ°ìĹħìĿĺ":12853,"Ġaxial":12854,"Ġestimation":12855,"ìĿ¸íĦ°ëĦ·":12856,"Ġconcerning":12857,"law":12858,"ĠìĥģìĹħ":12859,"Ġdisadvant":12860,"Ġëª¨ì§ĳ":12861,"ĠëĶ°ëľ»":12862,"ĠëıĻë£Į":12863,"Ġ61":12864,"Ġìļ°ìļ¸":12865,"ìĦĿìĿĦ":12866,"acket":12867,"ĠConf":12868,"Ġê³µìłķê³¼":12869,"Ġregulatory":12870,"Ġextraction":12871,"Ġwelding":12872,"ĠFederation":12873,"ĠConstitution":12874,"MD":12875,"Ġking":12876,"Ġtight":12877,"Ġmes":12878,"ëĿ¼ìĿ´íĬ¸":12879,"ĠìĥģìĹĲìĦľ":12880,"Ġë³´ìĿ´ì§Ģ":12881,"ë¯¸íķľ":12882,"Ġê³ĦìĹ´":12883,"Ġrepair":12884,"Ġì²ĺë¶Ħ":12885,"ĠìĭľìŀĳíĸĪëĭ¤":12886,"ĠBusiness":12887,"Ġirrad":12888,"Ġadults":12889,"43":12890,"chen":12891,"oir":12892,"Ġë°ľìĹ´":12893,"Ġacting":12894,"Ġlooked":12895,"Ġê³łëł¤íķł":12896,"Ġposted":12897,"ESCO":12898,"âĹĭâĹĭ":12899,"ë§Īì§Ģë§īìľ¼ë¡ľ":12900,"ste":12901,"ëĮĢíļĮ":12902,"ëıĻë¬¼":12903,"ĠìķĬê²Į":12904,"ĠYoo":12905,"Ġìĺ¨ëıĦë¥¼":12906,"Ġíĺ¼ìŀĲ":12907,"ĠíİĺìĿ´ì§Ģ":12908,"Ġcathode":12909,"ê¸°ê´ĢìĿĺ":12910,"Ġwalls":12911,"Ġsuperior":12912,"Ġdestro":12913,"comes":12914,"Ġlived":12915,"ìĭľì¦Į":12916,"ĠInt":12917,"íĮ¬":12918,"ĠêµĲìľ¡ìĿĺ":12919,"ĠìĹ¬íĸīìĿĦ":12920,"ìĤ¬ìļ©ìŀĲ":12921,"Ġë²¡íĦ°":12922,"lines":12923,"Ġpush":12924,"ilateral":12925,"ĠìĭľíĢĢ":12926,"ìĨĮìĻĢ":12927,"Ġunable":12928,"ĠìĤ¬ìļ©ëĲľ":12929,"Ġë§¤ì¹Ń":12930,"Ġê·¼ìľ¡":12931,"Ġlowest":12932,"Ġcorresponds":12933,"íĨ±":12934,"Ġaccumulated":12935,"Ġì¡°ê¸°":12936,"ìŀ¬ë£Į":12937,"ĠëıĦëįķ":12938,"ëģĹ":12939,"Ġì¡´ìŀ¬íķľëĭ¤":12940,"Ġìĵ¸":12941,"Ġdiscloses":12942,"Ġpresidential":12943,"ployed":12944,"ìĿ¼ë°ĺìłģìľ¼ë¡ľ":12945,"FR":12946,"Ġstrugg":12947,"Ġíķľê³Ħê°Ģ":12948,"Ġsurround":12949,"ĠëĨĴê³ł":12950,"Ġì¸¡ìĹĲ":12951,"Ġinteresting":12952,"Ġê³łê°ĿìĿ´":12953,"ĠëĪĦìłģ":12954,"ìľ¼ë¡ľìĦľìĿĺ":12955,"Ġclaimed":12956,"Ġê°ľëħĲìĿĦ":12957,"Ġëĸ¨ìĸ´ì§Ħ":12958,"ĠIndia":12959,"Ġìľłìļ©íķľ":12960,"Ġmathematics":12961,"ìĨĮê·¹":12962,"Ġnoted":12963,"Ġíı¬ê´Ħ":12964,"ĠìĬ¤íĭ°":12965,"ëł¨ìĿĺ":12966,"ĠíĹ¬":12967,"Ġìĭ¬ìĿĺ":12968,"Ġheads":12969,"Ġíİ¸ì§ĳ":12970,"ĠíĨłì¶ľ":12971,"ĠìĤ¬ìĭ¤ìĿ´":12972,"ĠìĤ¬ê±´ìĿĦ":12973,"Ġindicated":12974,"ë¦¬ì¦Ī":12975,"Ġdisplaying":12976,"Ġtemple":12977,"Ġìĭľìŀĳíķľ":12978,"ĠìºĲë¦¬ìĸ´":12979,"Ġëª©ìłģìĿĦ":12980,"Ġì§ĢìłķëĲľ":12981,"Ġsongs":12982,"Ġsac":12983,"Ġreduces":12984,"ĠìĿ¸íĶĦëĿ¼":12985,"ìľłìĤ°":12986,"Ġregression":12987,"Ġê±´ê°ĢìļĶ":12988,"ommun":12989,"êµ°ìĿ´":12990,"ìĽłëĭ¤":12991,"part":12992,"Ġì¿":12993,"Ġfraud":12994,"Ġhollow":12995,"Ġrecruit":12996,"íĻĺìŀĲ":12997,"Ġdecomp":12998,"Ġtypical":12999,"ĠìĦľë¹ĦìĬ¤ìĹĲ":13000,"Ġrotor":13001,"Ġë¶Ħìķ¼ìĿĺ":13002,"Ġëª©íĳľë¥¼":13003,"Ġsuspic":13004,"Ġticket":13005,"72":13006,"Ġë³´ìĿ¸":13007,"ìķĦìĽĥ":13008,"Ġê³µë¶Ģ":13009,"ĠìĸĳëıĦ":13010,"ĠìĺģìĹŃìĹĲìĦľ":13011,"ĠìĹ°ê²°ëĲľëĭ¤":13012,"ĠìļĶì²ŃìĿĦ":13013,"ilipp":13014,"Ġscientific":13015,"Furthermore":13016,"Ġplaintiff":13017,"Ġmetab":13018,"ĠëĬĶ":13019,"Ġê°ĴìĿ´":13020,"ĠCompany":13021,"Ġê·¸ëłĩì§Ģ":13022,"Today":13023,"Ġarom":13024,"ìĬ´":13025,"ĠìĪĺì¹ĺ":13026,"ìłķë§Ĳ":13027,"ìĭĿê³¼":13028,"íĺ¸ìĿĺ":13029,"ĠìķĪìĹĲìĦľ":13030,"Ġê³Ħì¸µ":13031,"Ġbranc":13032,"ëĵ±ë¡Ŀ":13033,"Ġsimpl":13034,"ĠìħĪ":13035,"Ġë³ĦëıĦë¡ľ":13036,"Ġdrawn":13037,"Ġìµľì´Īë¡ľ":13038,"Act":13039,"Ġê°Ĳì¶ķ":13040,"Ġrose":13041,"Ġì§ģíĽĦ":13042,"Ġë°°ì¹ĺëĲľëĭ¤":13043,"Ġì¤ĳìĭ¬ìĿĺ":13044,"Ġì§Ģì§ĢíķĺëĬĶ":13045,"ĠìķĪìłĦíķľ":13046,"ĠíĻįì½©":13047,"Ġìĥ¤íĶĦíĬ¸":13048,"íķĺìĹĲ":13049,"ëį±":13050,"ëĵľì»µ":13051,"Ġclar":13052,"ì§ĪìĿ´":13053,"oked":13054,"ìĭ¬ìĿ´":13055,"ĠInformation":13056,"íĸĪê¸°":13057,"Ġoffers":13058,"Ġinspect":13059,"Ġê°Ħìłĳ":13060,"Ġdefendant":13061,"Ġprojection":13062,"Ġfluor":13063,"Ġbonding":13064,"Ġrecommendation":13065,"ê³¼ê±°":13066,"Ġhaven":13067,"Ġì£¼ìłľë¡ľ":13068,"Ġê°ľìĦ¤":13069,"ĠInf":13070,"ĠìĬ¤íĬ¸ë¦½":13071,"Ġë°©ì§Ģíķł":13072,"Ġslee":13073,"iences":13074,"ils":13075,"Ġê²½ê³¼":13076,"endants":13077,"ĠìĤ¬ìļ©ìĿĦ":13078,"ĠìĤ°ìłķ":13079,"Ġë³µìĽĲ":13080,"Ġmyself":13081,"Ġextr":13082,"Ġëħ¼ëŀĢ":13083,"Ġë§Įëĵ¤ê¸°":13084,"Ġreviewed":13085,"ĠìĤ¶ìĿĦ":13086,"ìŀĲëĵ¤ìĿĦ":13087,"ìĬ¤íĭ°":13088,"ĠëĮĢìĹŃ":13089,"íĬľë¸Į":13090,"Ġë°ľíı¬":13091,"ĠPolice":13092,"Ġìŀħëł¥ìĿĦ":13093,"Ġë§¤ë§¤":13094,"ĠíĽĦë°ĺ":13095,"Ġhydraulic":13096,"Ġaimed":13097,"ruption":13098,"EM":13099,"Ġê¶¤":13100,"Ġë°¥":13101,"Ġê²¹":13102,"Ġlose":13103,"Ġë°°ê¸°":13104,"ê¶ĮìĿĢ":13105,"ì¹´ë¥´":13106,"Ġrotat":13107,"ĠHeung":13108,"ĠJustice":13109,"Si":13110,"Ġpist":13111,"ë¬¸ìĿĢ":13112,"ĠMal":13113,"Ġspaces":13114,"ìķĪìĿĢ":13115,"Ġíĸ¥íķ´":13116,"ĠìĥĿê°ģìĿ´":13117,"Ġairport":13118,"ĠëĬĲê»´":13119,"Ġfurnace":13120,"inity":13121,"ìŀĲë³¸":13122,"arden":13123,"ëĶĺ":13124,"undred":13125,"ì¦Īë§Ī":13126,"Ġlabel":13127,"Ġinstrument":13128,"Disclosed":13129,"bong":13130,"Ġpal":13131,"eline":13132,"ìłĦì§Ģ":13133,"Ġë¬¸ìĿĦ":13134,"ĠìĿ´ìĥģìĿ¸":13135,"Ġëĭ¨ê³ĦìĻĢ":13136,"Ġflowing":13137,"ì½¤":13138,"Ġmolten":13139,"Ġaccommodation":13140,"Ġexpenditure":13141,"Ġgesture":13142,"Ear":13143,"Figure":13144,"layer":13145,"ĠìĦ¸ê·¸":13146,"Ġì½ĶìĬ¤":13147,"Ġë°ķë§ī":13148,"mmet":13149,"Ġsubstances":13150,"Ġadvertising":13151,"jang":13152,"vol":13153,"ĠìłľìĬ¤":13154,"Ġì¤ĳìŀ¬":13155,"Ġì£¼ë§Ĳ":13156,"Ġë¶Ģì±Ħ":13157,"ĠìĨĮìħľ":13158,"ĠíĺķìĦ±íķł":13159,"Ġìľłì§ĢíķĺëĬĶ":13160,"ĠëĮĢìĿĳëĲĺëĬĶ":13161,"class":13162,"Ġabsorption":13163,"Ġdeaths":13164,"ĠìĪĺìļĶê°Ģ":13165,"ìĦ¬":13166,"ìĬ¤íĦ´":13167,"ĠëĤ¸":13168,"Ġasking":13169,"ĠCr":13170,"ìĿ¼ê³¼":13171,"Ġëĭ¤ëĭĪ":13172,"ì¤ĳíķľ":13173,"ì¢ħìĿ´":13174,"ĠìĹ°ê²°ëĲĺëĬĶ":13175,"Ġacquiring":13176,"Ġë¨¸ë¬¼":13177,"habilit":13178,"Im":13179,"Pa":13180,"Ġstret":13181,"Ġê°Ģìĭľ":13182,"Ġì£¼ìµľ":13183,"Ġunification":13184,"ĠìķĬê¸°":13185,"ìĦłìĪĺ":13186,"Ġê²ĥìľ¼ë¡ľìĦľ":13187,"ĠìłĲìľł":13188,"Ġìĭ¬ìŀ¥":13189,"ijing":13190,"71":13191,"Park":13192,"Ġfruit":13193,"íķ´ì§Ī":13194,"ìĽĲëıĦ":13195,"Ġê·¸ëĵ¤ìĿ´":13196,"Ġleisure":13197,"ëªħê³¼":13198,"ĠíĮ¨íĤ·":13199,"Ġê·łíĺķ":13200,"Ġemotions":13201,"ER":13202,"·Į":13203,"athered":13204,"ë¡ľìļ°":13205,"ë©´ìĹĲìĦľ":13206,"ĠìłĦìĿ´":13207,"ë£¸":13208,"ìĭłìĿ´":13209,"ìĦĿìĿ´":13210,"Ġìłķë³´ìĻĢ":13211,"Ġdesirable":13212,"ìłĪì°¨":13213,"Ġbridge":13214,"Ġìĸ´ëł¤ìĽĮ":13215,"ë©ĺíĬ¸":13216,"Ġë®¤":13217,"Ġtag":13218,"key":13219,"ĠDB":13220,"Ġë¶ĦìĤ¬":13221,"ĠVice":13222,"êµ°ìĿĢ":13223,"Ġê±·":13224,"Ġprotected":13225,"ĠíĻľëıĻìĹĲ":13226,"iating":13227,"onic":13228,"Ġpneum":13229,"íķĺê²łëĭ¤ëĬĶ":13230,"ìĿ¸ìľ¼ë¡ľ":13231,"Ġshut":13232,"Ġìĺ¤ëª©":13233,"Ġìłľê³µëĲ©ëĭĪëĭ¤":13234,"ìķĺê³ł":13235,"Ġê¹Ķ":13236,"ĠìĤ¬íķŃìĿ´":13237,"Ġpopularity":13238,"ķìĭľì½Ķ":13239,"Ġscholars":13240,"roid":13241,"osystem":13242,"ache":13243,"Ġê³µìĭľ":13244,"íķĺê¸°ë¥¼":13245,"Ġprison":13246,"ĠíĶĦë¡ľíĮĮ":13247,"Ġíĺĳìĥģ":13248,"Ġfreely":13249,"Ġsugar":13250,"íĢ´":13251,"Ġarchitect":13252,"oplastic":13253,"Ġêµ¬ë¦¬":13254,"ì¡°ê°Ģ":13255,"Ġimposed":13256,"ĠíļĮíĶ¼":13257,"weight":13258,"Ġdioxide":13259,"Ġeasier":13260,"ĠìĿ´ë£¨ìĸ´ì§Ī":13261,"ĠInvestment":13262,"dep":13263,"ĠìŀĬ":13264,"Ġë¶ķ":13265,"ë©´ìĿĢ":13266,"Ġíı¬ìĿ¸íĬ¸":13267,"Ġ64":13268,"Ġë²ĪìĹŃ":13269,"Ġrealized":13270,"Ġjudicial":13271,"Ġindicates":13272,"Ġerr":13273,"Ġdividing":13274,"Ġdiagnostic":13275,"what":13276,"coming":13277,"Ġíķ¸ëĵľ":13278,"ĠíĺľíĥĿìĿĦ":13279,"Ġpanc":13280,"Ġwound":13281,"Ġsyndrome":13282,"íĿĲ":13283,"Ġíģ¬ê¸°ë¥¼":13284,"ĠíĻķìĿ¸íķĺê³ł":13285,"Ġë¶Ģë¶ĦìĿĺ":13286,"Ġìłģìļ©íķł":13287,"Ġë°ľìłĦìĿĦ":13288,"Ġê³¨íĶĦ":13289,"ĠëĽ°ìĸ´ëĤľ":13290,"ĠChungcheong":13291,"Je":13292,"ìĬ¤ë§ĪíĬ¸":13293,"ĠìłķëıĦë¥¼":13294,"Ġintens":13295,"Ġê´ĳì£¼":13296,"Ġë°ĿíŀĪ":13297,"íķľêµŃìĿĺ":13298,"Ġëĥīìŀ¥":13299,"Ġìŀ¬ë£ĮìĿĺ":13300,"Ġfarmers":13301,"ĠíĻĢëįĶ":13302,"Ġconstructed":13303,"65":13304,"SP":13305,"Ġtu":13306,"eter":13307,"ë²ķê³¼":13308,"ìķĪìĿĺ":13309,"ĠTok":13310,"Ġactor":13311,"ìĺģìĹħ":13312,"Ġìŀħêµ¬":13313,"Ġë°ľìĥĿíķľëĭ¤":13314,"ĠìĥĿê°ģíķľëĭ¤":13315,"Ġì¶ķìłģ":13316,"oves":13317,"Ġì°¸ìĹ¬íķĺëĬĶ":13318,"ĠëģĿìĹĲ":13319,"Ġcapture":13320,"FT":13321,"right":13322,"ĠìĮĢ":13323,"ê²ģ":13324,"ilos":13325,"ìĿ¸ëĵ¤ìĿĺ":13326,"ĠAC":13327,"Ġalb":13328,"ëĮĢìĻĢ":13329,"Ġdish":13330,"Ġroof":13331,"Ġë§ĪìĿĮìĿĦ":13332,"Ġfinish":13333,"ĠìĻ¸ì£¼":13334,"ë¦ĦìĿ´":13335,"Ġì§ĦíĸīëĲľ":13336,"ëĭ¹ìĭłìĿĺ":13337,"ĠíļŁ":13338,"Ġìĺµìħĺ":13339,"Ġmg":13340,"acle":13341,"ì¡°ìĦł":13342,"ĠìķĬìķĦìļĶ":13343,"ĠíļĮìĤ¬ê°Ģ":13344,"Ġì¹´ìļ´":13345,"ĠìķĦìĿ´ì½ĺ":13346,"Ġindependence":13347,"Ġëŀ¨":13348,"Ġë³´ìľłíķĺê³ł":13349,"ĠPhilipp":13350,"ìĬ¤íĨłëŀĳ":13351,"Ġanxiety":13352,"Ġìłķíķľ":13353,"Ġìľłëªħíķľ":13354,"Ġ53":13355,"ĠHw":13356,"Ġpool":13357,"Ġwhenever":13358,"ĠíĺĦê¸Ī":13359,"Ġcorner":13360,"Ġengineering":13361,"Ġexactly":13362,"Ġclothing":13363,"Other":13364,"inating":13365,"ona":13366,"ëª¸":13367,"Ġmeant":13368,"Ġìĸ´ìļ¸":13369,"ìķĺëįĺ":13370,"Ġactivation":13371,"Ġì²łìłĢ":13372,"ìĤ¼ìĦ±":13373,"Ġcondens":13374,"Ġconversation":13375,"Ġmand":13376,"ë¡±":13377,"ìĥģê³µ":13378,"Ġìĸĩ":13379,"Ġê³łê¸ī":13380,"Ġ49":13381,"ĠëłĪìĬ¤íĨłëŀĳ":13382,"Ġhandling":13383,"Ġíļ¨ìľ¨ìłģìĿ¸":13384,"Ġhappen":13385,"Ġìĵ°ëłĪ":13386,"Ġchalleng":13387,"Ġfashion":13388,"ëĵ¬":13389,"íķ´ìĻ¸":13390,"Ġnav":13391,"uty":13392,"ìķĦìĦľ":13393,"Ġchlor":13394,"angible":13395,"Ġê³łìĺ¨":13396,"ìĹĪëĬĶëį°":13397,"Ġê°ķëıĦ":13398,"Ġ1970":13399,"Ġêµ¬ìĦ±ìĿĦ":13400,"Ġìļ©íķ´":13401,"Ġíģ¬ë¡ľ":13402,"Ġguess":13403,"Ġfaces":13404,"Ġencry":13405,"íĶĦë¡ľê·¸ëŀ¨":13406,"cript":13407,"ĠìĬ¤íĶ¼ì»¤":13408,"ê³½":13409,"ë¶Ģë¡ľ":13410,"Ġoral":13411,"ëĭ¨ê³¼":13412,"ĠíļĮìĿĺë¥¼":13413,"Ġìłľê³µëĲł":13414,"ê±´ìĿĺ":13415,"ĠìĤ¬íļĮìĿĺ":13416,"ĠëıħíĬ¹":13417,"ĠíĨłë¡ł":13418,"Ġë³Ħë¡ľ":13419,"Ġtradition":13420,"Ġaffects":13421,"ĠParis":13422,"mail":13423,"Ġfost":13424,"ê¸°ë³¸":13425,"Ġê¸°ê°ģ":13426,"Ġë³´ìĿ¼":13427,"Ġë¶Ģíķ©":13428,"Ġë°ľìĸ¸":13429,"Ġë°ľíľĺ":13430,"ffect":13431,"Ġworried":13432,"ĠìĤ¬ëŀĮëĵ¤ìĿĺ":13433,"ĠìĥĿê°ģíķ´":13434,"Ġì£¼ë¬¸ìĿĦ":13435,"Ġhappened":13436,"Ġresidential":13437,"EAN":13438,"ius":13439,"inyl":13440,"Ġcaf":13441,"ĠìŀĪê¸°ë¥¼":13442,"Ġì¤ĳì²©":13443,"Ġë§¤íĬ¸ë¦Ń":13444,"ì²Ńêµ¬":13445,"Ġviewing":13446,"Ġengaged":13447,"Ġë¹łìł¸":13448,"ĠíĴĪëª©":13449,"Ġrolling":13450,"ĠëĦ£ìĸ´":13451,"Ġtherapeut":13452,"Ġoptionally":13453,"Ġmolecular":13454,"hwan":13455,"ĠëĤŃ":13456,"Ġdeleg":13457,"Ġleague":13458,"ĠìĹ¬ë¶ĢìĹĲ":13459,"ĠíĺķìĥģìĿĦ":13460,"Ġdirected":13461,"Ġì¹´íħĮ":13462,"Ġìķķë°ķ":13463,"Ġdismissed":13464,"Article":13465,"62":13466,"íĪ":13467,"ê°Ģê³ł":13468,"ĠAccording":13469,"ĠìłķëıĦê°Ģ":13470,"apes":13471,"Ġlease":13472,"ĠìĨĮíĻĶ":13473,"106":13474,"ìĿĮìķħ":13475,"Ġë°°ì¹ĺëĲĺê³ł":13476,"Ġmolded":13477,"Ġfavorite":13478,"ales":13479,"ĠëĮĢìłĦ":13480,"ĠìĥģìĨį":13481,"íĺĳíļĮ":13482,"Ġfulf":13483,"piratory":13484,"Ġtemporarily":13485,"ĠìľĦìĥģ":13486,"ĠíĮĮíĭ°":13487,"ĠëªħìĦ¸ìĦľ":13488,"Ġê³łê°Ŀëĭĺ":13489,"ì°¸ìĹ¬":13490,"ê·¸ëłĩëĭ¤ë©´":13491,"Ġcanceled":13492,"ĠìĿ´íĥĪë¦¬ìķĦ":13493,"Ġgathered":13494,"Ġê¸°ìĺ¨":13495,"êµ¬ìĹŃ":13496,"Ġshift":13497,"Ġintellectual":13498,"Ġabuse":13499,"ë°©ìĿĺ":13500,"ĠìĹ¬ê¸°ìĹĲ":13501,"ì¤ĳëŁī":13502,"Ġserving":13503,"Ġìĸĳê·¹":13504,"Ġsolutions":13505,"Ġgluc":13506,"Ġcalls":13507,"ĠëĮĢíĨµëł¹ìĿĺ":13508,"Ġjurisd":13509,"Met":13510,"Ġmill":13511,"ë¶ķ":13512,"Ġreceip":13513,"income":13514,"Ġreplaced":13515,"Ġamendment":13516,"gart":13517,"Ġtooth":13518,"Ġì§Ĳ":13519,"ëŀĦ":13520,"ĠCu":13521,"ê°ģíĺķ":13522,"Ġmail":13523,"ĠíĺķìĦ±ëĲĺê³ł":13524,"ĠìłĪê°Ĳ":13525,"ĠìĪĺíĸīíķľëĭ¤":13526,"ĠìķŀìĹĲ":13527,"Ġnearly":13528,"OR":13529,"erring":13530,"ìŀĲìĹ°":13531,"amily":13532,"Ġì§ĢëĭĪ":13533,"Ġì£¼ìĤ¬":13534,"Ġvalu":13535,"ĠYeon":13536,"Ġlid":13537,"state":13538,"ëıĦìĹĲìĦľ":13539,"ĠìĺĽ":13540,"Ġcompare":13541,"ĠìŀĲë¦¬ë¥¼":13542,"ibly":13543,"ĠíļĮê·Ģ":13544,"íĸĪìľ¼ëĤĺ":13545,"ĠëĨĴìĿ´ëĬĶ":13546,"Ġì¢ĭì§Ģ":13547,"Ġgran":13548,"Ġcontacts":13549,"ĠíĻĺìŀĲìĹĲê²Į":13550,"ĠìĹĲëĦĪì§Ģë¥¼":13551,"Ġë¶ĢìłķìłģìĿ¸":13552,"ĠìĪĻë°ķ":13553,"Ġë°ĽìķĺìĬµëĭĪëĭ¤":13554,"Ġtendency":13555,"Ġvoting":13556,"Ġdiplomatic":13557,"habilitation":13558,"lete":13559,"Ġreb":13560,"Ġê°ĢìĬ¤ë¥¼":13561,"ĠCCT":13562,"ëĵľìĻĢ":13563,"Ġtracking":13564,"ì£¼ê³ł":13565,"Ġmeals":13566,"Ġprize":13567,"ê²°íķ©":13568,"Ġcollective":13569,"Ġreflection":13570,"Ġshareholder":13571,"Ġìĥģíĺ¸ìŀĳìļ©":13572,"ĠìłĦëŀµìĿĦ":13573,"Ġextremely":13574,"Ġranking":13575,"eding":13576,"ĠìĿ´ëĵ¤ìĿ´":13577,"ayment":13578,"olt":13579,"Ġheater":13580,"Ġhepat":13581,"ìľłê°Ģ":13582,"ĠìĻ¼":13583,"Ġë°°ëĭ¬":13584,"ĠìĬ¤ìºĶ":13585,"ĠLife":13586,"ifications":13587,"ìĭ¬íŀĪ":13588,"ĠíĪ¬íĳľ":13589,"ĠíĨµìĭłìĿĦ":13590,"hai":13591,"alkyl":13592,"ĠëıĦìłĦìĦ±":13593,"Ġexecutives":13594,"ĠAfrica":13595,"ìĹĲëĦĪì§Ģ":13596,"His":13597,"Ġmig":13598,"Ġë§¨":13599,"Ġê³µìĨĮ":13600,"Ġdishes":13601,"Ġì²´ìłľ":13602,"Ġexcluding":13603,"Ġboundary":13604,"Ġinsertion":13605,"Ġê°Ķ":13606,"Ġê´ĢìĹ¬":13607,"Ġì£¼ì§Ģ":13608,"ë¬´ìĹŃ":13609,"ĠìĦ±ìŀ¥ìĿĦ":13610,"Ġgrown":13611,"Ġë¬¼ìĸ´":13612,"Ġíģ¬ê¸°ê°Ģ":13613,"Ġdepression":13614,"Ġviews":13615,"Ġê°Ģê²©ìĿĦ":13616,"Ġfilling":13617,"Ġdangerous":13618,"53":13619,"DL":13620,"Ġnames":13621,"ĠCR":13622,"Ġpartition":13623,"ëĭ¹ìĿĺ":13624,"ecess":13625,"Ġinterval":13626,"Ġstarts":13627,"Ġíģ´ëĿ¼ìļ°ëĵľ":13628,"Ġê³¼ìłķìĹĲ":13629,"Ġê±´ê°ķíķľ":13630,"ĠíļįëĵĿíķł":13631,"Ġseats":13632,"ĠìĿ´ë©ĶìĿ¼ìĿĦ":13633,"Ġìī¬ìļ´":13634,"ĠëĤĺíĥĢëĤľëĭ¤":13635,"ĠHeritage":13636,"Ġpill":13637,"ê´ĢìĹĲìĦľ":13638,"ëħĦëıĦ":13639,"ĠíķĺëĤĺê°Ģ":13640,"ĠíĻķìĿ¸íķĺìĺĢëĭ¤":13641,"ĠíĥĦíĻĶ":13642,"scrip":13643,"Ġstrongly":13644,"Ġecosystem":13645,"Hi":13646,"ëķ":13647,"ĠìłĦê³µ":13648,"Ġê°ľíİ¸":13649,"Ġsoy":13650,"ëŀĢëĭ¤":13651,"Ġexchanges":13652,"Ġorientation":13653,"Ġelectromagnetic":13654,"ìĪĺíķľ":13655,"ĠìĦłíĺķ":13656,"Ġrough":13657,"Ġë°ĺíĻĺ":13658,"Ġì¦Ŀì°©":13659,"Ġë°Ľìľ¼":13660,"Ġboost":13661,"Ġë¸ĶëŀĻ":13662,"Ġê¸°ì´Īë¡ľ":13663,"Ġobservation":13664,"WHO":13665,"Ġstem":13666,"Ġë³´ìĿ´":13667,"Ġê´Ģë¦¬ë¥¼":13668,"Ġplug":13669,"ìŀħëĭĪê¹Į":13670,"Ġkilled":13671,"Ġcommit":13672,"ĠìĿ´ìľłê°Ģ":13673,"Ġmarg":13674,"Ġmarriage":13675,"ĠíĻķì§ĦìŀĲ":13676,"Ġêµ¬íĺĦëĲł":13677,"ëĶĶìĬ¤íĶĮëłĪìĿ´":13678,"Ġcognitive":13679,"equ":13680,"ìłĦê±°":13681,"ìŀ¬ëĬĶ":13682,"Ġëĭ¨ì¶ķ":13683,"ĠìĦłê³ł":13684,"Ġsauce":13685,"Ġì²´íģ¬":13686,"ëĦĪë¬´":13687,"ĠStadium":13688,"íģ°":13689,"Ġë°©íĸ¥ìĿĺ":13690,"ĠìĪľì°¨":13691,"ĠíĹĪê°Ģ":13692,"Ġputting":13693,"ê³³ìĹĲ":13694,"Ġurgent":13695,"Such":13696,"Ġast":13697,"Ġë¶ĢìĿ¸":13698,"Ġìŀ¥ìłĲìĿ´":13699,"Ġspend":13700,"ĠUI":13701,"ĠíĺĦìĥģìĿ´":13702,"Ġsliding":13703,"Ġìĸ»ìĿĢ":13704,"Ġsectors":13705,"ortunately":13706,"ĠëĸłëĤĺ":13707,"Ġactuator":13708,"Int":13709,"ë¡¬":13710,"ĠìĿ´ìĤ°íĻĶ":13711,"ĠCriminal":13712,"ëĮĢì±ħ":13713,"Ġshr":13714,"ê³µìĤ¬":13715,"ptic":13716,"ëª¨ëĵĪ":13717,"ê²¬ìĿĦ":13718,"ĠìĬ¬ëŁ¬":13719,"ĠDefense":13720,"affirm":13721,"Ġcontribution":13722,"Ġtextbooks":13723,"Ġweapons":13724,"Ġdinner":13725,"ĠHeadquarters":13726,"iance":13727,"âĸ":13728,"Ġfro":13729,"ĠìłĦëıĻ":13730,"Ġìĭľë®¬":13731,"ìŀ¬ë¡ľ":13732,"Ġëĭ¨ê¸°":13733,"ìĹĪì§Ģë§Į":13734,"ĠíĺĦíĸī":13735,"Ġì§ĢìĹŃìĿĦ":13736,"ĠëĤ´ìļ©ìĿĺ":13737,"Ġìľłì§Ģíķł":13738,"Ġíĺķíĥľë¥¼":13739,"Ġmachines":13740,"Ġsections":13741,"ĠíĿ¬ìĥĿ":13742,"Ġborder":13743,"Ġvegetables":13744,"ĠBuddh":13745,"Ġempirical":13746,"ìĸ´ìł¸":13747,"ì¹ĺê²Į":13748,"ĠFair":13749,"outheast":13750,"ë°©ìĿ´":13751,"íĮĲë§¤":13752,"Ġ121":13753,"Ġselectively":13754,"Ġê¸°ìĪłìĿĺ":13755,"Ġmarine":13756,"ĠìĤ´íİ´ë³¸":13757,"Stud":13758,"ĠEnforcement":13759,"ser":13760,"Ġble":13761,"ê°Ķ":13762,"ĠCheon":13763,"ìĪĺìĿµ":13764,"ìłĦëŀµ":13765,"lection":13766,"Ġ58":13767,"Ġapplies":13768,"Ġìĭ¤ìłķ":13769,"ĠëıĦìĸ´":13770,"ìŀĦê¸Ī":13771,"ĠBBBìĿĺ":13772,"Ġprevented":13773,"Ġutilize":13774,"Ġtalent":13775,"Ġoptimal":13776,"ĠíĿĺëŁ¬":13777,"ĠCCTV":13778,"ST":13779,"Ġhomes":13780,"ĠìĤ¬ë£Į":13781,"Ġtruth":13782,"ê³µê¸ī":13783,"Ġë°©ìłĦ":13784,"ê¸Īë¦¬":13785,"ĠíĽĦìĿĺ":13786,"Ġoutputs":13787,"Ġì§ģìłĳìłģìĿ¸":13788,"ìĦ¼ìĦľ":13789,"ĠìķĪìłĦíķĺê²Į":13790,"Ġì´īêµ¬":13791,"Ġdedicated":13792,"47":13793,"gl":13794,"Ġë»":13795,"ê¸°ë¡Ŀ":13796,"ìŀ¥ëĭĺ":13797,"ì§ĦíĿ¥":13798,"ĠëĤĺìĤ¬":13799,"ìľĦì¹ĺ":13800,"Ġë§Īì£¼":13801,"Ġactors":13802,"ĠOne":13803,"Ġinval":13804,"Ġìļ´íĸī":13805,"Ġimplementing":13806,"ê´Ģê³Ħê°Ģ":13807,"indergart":13808,"Ġexperimental":13809,"uous":13810,"Ġmission":13811,"icide":13812,"ëĿ¼ë©°":13813,"ë²¼":13814,"ìłĦìŁģ":13815,"ĠíıīìĥĿ":13816,"Ġlawm":13817,"Ġëĭ´ë°°":13818,"ĠProvincial":13819,"ìľĦìĽĲíļĮëĬĶ":13820,"ĠìµľìĨĮíķľ":13821,"Ġëħ¹ìĥī":13822,"GB":13823,"Ġêµīìŀ¥íŀĪ":13824,"Ġyellow":13825,"Ġatoms":13826,"ìłĦìķķ":13827,"ĠFigure":13828,"Ġenforcement":13829,"Ġ66":13830,"Ġê´ĳë²ĶìľĦ":13831,"ĠíĸīëıĻìĿĦ":13832,"ohn":13833,"eup":13834,"ìĿ´ìĿĺ":13835,"íĬ¸ëĿ¼":13836,"ĠìĿ¼ê´Ģ":13837,"ì§ĦìĿĺ":13838,"Ġê³Ħì¢Į":13839,"ì²ŃìĿĢ":13840,"aved":13841,"ëĵ±ê¸ī":13842,"ĠíĦ°ë¹Ī":13843,"Ġsuperv":13844,"Ġë¥ĺ":13845,"ampionship":13846,"Ġproxim":13847,"Ġstanding":13848,"êµŃìĿ¸":13849,"Ġspaced":13850,"ĠìłĢìŀĳ":13851,"ĠSeok":13852,"Ġ122":13853,"Ġë¨¹ìĸ´":13854,"Ġê³³ìĿ´":13855,"ĠíĸĪìĸ´ìļĶ":13856,"Ġfluct":13857,"íĮĢìĿ´":13858,"Ġtrials":13859,"ĠIndones":13860,"ĠMiddle":13861,"ìĿ´ìĥģ":13862,"Ġmasks":13863,"ilic":13864,"under":13865,"ìłķëĲľ":13866,"ĠëĮĢìķĪ":13867,"Ġìĥģìŀ¥":13868,"Ġëĭ¤ê³µ":13869,"ĠëĤĺìĻĶ":13870,"ĠDM":13871,"ĠìĤ¬ìļ©ìŀĲëĬĶ":13872,"ĠTi":13873,"Ġtherein":13874,"ĠAAAê°Ģ":13875,"íħĮìĿ´ëĦĪ":13876,"Ġforecast":13877,"Ġê±°ëŀĺë¥¼":13878,"Ġpartnership":13879,"Ġearnest":13880,"Ġhundred":13881,"ĠìĪĺìĨ¡":13882,"íĦ°ê°Ģ":13883,"Ġê·¸ëĵ¤ìĿĢ":13884,"ĠëķĮìĹĲ":13885,"Ġë§Ĳíķ´":13886,"ĠìĹ¬ëŁ¬ë¶Ħ":13887,"ĠëĽ°ìĸ´":13888,"Like":13889,"Ġcup":13890,"Ġê°ĢìĪĺ":13891,"ĠCount":13892,"ĠìŀħëĭĪëĭ¤":13893,"Ġì¶ľìłĦ":13894,"Ġphilos":13895,"Ġpersonality":13896,"ĠíĬ¹ìłķíķľ":13897,"ĠíĶĦë¦¬ë¯¸":13898,"Ġsharp":13899,"ĠAustralia":13900,"sung":13901,"icy":13902,"ashing":13903,"ê°ĢìĨĮìĦ±":13904,"ë¦¬ëĵľ":13905,"ĠAc":13906,"Ġreson":13907,"ĠMa":13908,"ĠìĬ¤íĥ":13909,"ĠíĬ¹ìĦ±ìĿ´":13910,"Ġaged":13911,"ìĭ¬ìĿĺ":13912,"Ġacute":13913,"Ġë°ľìĥĿíķĺì§Ģ":13914,"ĠìĪĺíĸīëĲł":13915,"Hey":13916,"Ġì¶Ķê°ĢìłģìĿ¸":13917,"Ġìĵ´":13918,
[...]
